#version: 0.2
à ¤
à ¥
Ġ à¤
à¤ ¾
à¥ į
à¤ °
à¤ ¨
à¤ ķ
à¤ ¿
à¥ ĩ
à¥ ĭ
à¤ ²
à¤ ®
à¤ ¤
à¤ ¯
à¥ ģ
à¥ Ģ
à¤ ¸
Ġà¤ ¸
Ġà¤ ª
à¤ ¹
à¤ ª
à¤ ¦
à¤ µ
Ġ à¥
Ġà¤ ķ
à¤ Ĺ
Ġà¤ Ĺ
Ġà¤ °
à¤ Ł
à¥ Ī
Ġà¤ ¨
à¤ ı
Ġà¤ ¬
Ġà¥ ¤
Ġà¤ ®
Ġà¤ Ń
à¤ ľ
Ġà¤ ħ
Ġà¤ ¹
Ġà¤Ĺ à¤°
à¤ ¬
Ġà¤ µ
à¤ ·
à¤ §
Ġà¤ Ľ
Ġà¤ ¤
Ġà¤ ¦
à¤ ¶
à¤ ¥
à¤ı à¤ķ
à¤ ģ
à¤ Ĥ
Ġà¤ Ĩ
à¤ ļ
Ġà¤ ľ
à¤ ¡
à¤ Ī
Ġà¤ ²
à¤ £
à¤ Ľ
à¥ Ĥ
à¤ Ń
à¤ ĸ
à¤ ī
â Ģ
Ġà¤ ī
à¤¹ à¤°
Ġà¤ ¯
Ġà¤¸ à¤®
à¥ ¤
à¤° à¤ķ
à¤ ĩ
à¤° à¤®
Ġà¤ ļ
Ġà¤Ń à¤¨
à¤ «
à¥ Į
Ġà¤ ¶
à¤¯ à¤ķ
Ġà¤ ĸ
Ġà¤ ¥
Ġà¤ ı
à¤ī à¤¨
à¤¾ à¤ģ
à¤ ł
Ġà¤ª à¤¨
à¤¨ à¤ķ
Ġà¤Ń à¤ıà¤ķ
Ġà¤ħ à¤¨
Ġà¤ª à¤°
à¤° à¤¤
à¥ ĥ
à¥ ¦
à¤ Ļ
à¤° à¤£
Ġà¤ «
à¤¸ à¤ķ
à¤ľ à¤¨
Ġà¤Ľ à¤¨
à¤ ¢
Ġà¥ ¨
à¤¸ à¤®
Ġà¥ §
à¤ª à¤°
à¤ ĺ
à¤¨ à¤®
Ġà¤° à¤¹
. .
à¤µ à¤¸
Ġà¤® à¤¹
Ġà¤ı à¤ķ
à¤² à¤ķ
Ġ âĢ
Ġà¤ ĺ
Ġà¤¬ à¤¨
Ġà¤ §
à¤¨ à¤²
Ġà¤ľ à¤¨
à¤¯ à¤®
à¤Ĺ à¤°
à¤ ŀ
Ġà¤¯ à¤¸
à¤ª à¤¨
Ġà¤ Ł
Ġà¤¸ à¤ķ
Ġà¤¤ à¤¥
à¤° à¤¹
Ġà¤Ĩ à¤«
à¤¯ à¤¸
à¤¤ à¤°
Ġà¤ħ à¤§
âĢ ¯
à¤° à¤²
Ġà¤¸ à¤¹
Ġà¤µ à¤°
Ġà¤ ¡
âĢ Ļ
à¤² à¤®
Ġà¥§ à¥
à¤ Ŀ
à¤ ħ
à¥Į à¤Ĥ
à¤° à¤¸
à¤ª à¤Ľ
à¤¯ à¤¤
Ġà¤ī à¤ª
Ġà¤¤ à¤°
ĠâĢ ĺ
Ġà¤® à¤¨
à¤¾ ,
à¤ı à¤°
Ġà¤¬ à¤¢
à¤ª à¤¤
à¤° à¤¦
Ġà¤ħ à¤°
à¤Ľ à¤¨
Ġà¤ķ à¤®
à¥¦ à¥
Ġà¤¬ à¤¤
à¤ĩ à¤¨
à¤ķ à¤²
à¤ª à¤®
Ġà¤¸ à¤°à¤ķ
Ġà¤ķ à¤°
âĢ ĵ
à¤ł à¤®
Ġà¤ ł
Ġà¤² à¤Ĺ
à¤ķ à¤®
à¤® à¤ķ
à¤° à¤¹à¤°
Ġà¤ ĩ
à¥ģ à¤ģ
à¤¤ à¤ķ
à¤ļ à¤¨
à¤¬ à¤¨
à¤Ł à¤ķ
Ġà¤¸ à¤¬
Ġà¤ª à¤¹
Ġà¤Ĩ à¤¯
.. .
Ġ (
à¤µ à¤°
à¤µ à¤ķ
à¥ «
à¤¯ à¤¨
Ġà¤ħ à¤¸
à¤¯ à¤µà¤¸
à¤Ĺ à¤¤
à¤µ à¤¨
Ġà¤ī à¤¨
Ġà¤Ń à¤ı
Ġà¤ī à¤¤
à¤ Ĩ
à¤² à¤²
Ġà¤¬ à¤¸
à¥ ¨
à¤¾ à¤Ĥ
à¥ §
à¤² à¤¯
à¤· à¤£
Ġà¥¨ à¥¦à¥
à¤¸ à¤²
Ġà¤ī à¤¨à¤²
à¤² à¤¨
Ġà¤Ĺ à¤¤
à¥Ģ ,
Ġà¥ ©
à¤² à¤¬
à¤° à¤µ
à¤¸ à¤¨
à¤° à¤¬
à¥ĩ ,
à¤Ł à¤¨
Ġà¤¨ à¤Ĺà¤°
à¤¶ à¤ķ
à¥į à¥¤
Ġà¤ħ à¤µà¤¸
Ġà¤Ĩ à¤ıà¤ķ
à¤ķ à¤ķ
Ġà¤ħ à¤Ń
à¥ĭ à¥¤
à¤Ł à¤°
Ġà¤¬ à¤ľ
à¤¤ à¤®
Ġà¤ Ŀ
à¥ĭ ,
Ġà¤Ĩ à¤°
à¥ ª
Ġà¥ «
à¥Ī à¤Ĥ
Ġà¤¹ à¤ľ
à¤¤ à¤¨
à¤° à¤§
à¤® à¤¨
à¤® à¤¤
à¤Ń à¤¨
Ġà¤ī à¤¦
à¤ķ à¤°
à¤· à¤ķ
à¥ ©
Ġà¤¸ à¤°
Ġà¤ħ à¤¹
à¥Į à¤ģ
à¤° à¤¯
à¤¯ à¤²
à¥ Ń
à¤¡ à¤ķ
à¤ª à¤ķ
Ġà¤¸ à¤¨
Ġà¤Ĩ à¤µ
Ġà¤¸ à¤ŀ
à¤¨ à¤¨
à¤ľ à¤ķ
Ġà¥ ª
à¤ī à¤Ł
à¤¦ à¤¨
Ġà¤ļ à¤²
à¤¶ à¤¨
Ġà¤ª à¤¤
à¤Ĺ à¤²
Ġà¤¨ à¤¯
Ġà¤ ĵ
à¤¬ à¤°
à¤Ń à¤ıà¤ķ
Ġà¤¸ à¤¦
à¤Ń à¤¯
à¥ ¬
à¤® à¤²
à¤°à¤® à¤®
Ġà¤Ĩ à¤§
Ġà¤ª à¤ķ
à¤µ à¤²
Ġà¤ľ à¤¸
à¤° à¤¶
à¤Ĺ à¤ķ
Ġà¤¬ à¤°
à¤¨ à¤¸
à¥ ®
à¤¿ à¤Ĥ
Ġà¤¹ à¤°
à¤ĩ à¤ıà¤ķ
à¤« à¤²
Ġà¥ ¬
à¤¨à¤® à¤¨
Ġà¤ķ à¤¸
à¤¯ à¤°
à¤§ à¤¨
Ġà¤ı à¤īà¤Ł
à¤ĸ à¤°
Ġà¤ª à¤Ľ
à¤¤ à¤²
à¥ ¯
à¤ĩ à¤°à¤¹
Ġà¤ ¢
Ġà¤¸ à¤¯
Ġ |
Ġà¤¯ à¤¹
Ġà¤ħ à¤®
à¤ ĥ
Ġà¤ī à¤¨à¤ķ
à¤® à¤®
Ġà¤¸à¤® à¤¯
Ġà¤Ń à¤¯
à¤¿ à¤ģ
Ġà¤ħ à¤Ĺ
à¤ķ à¤°à¤£
Ġ ?
Ġà¤¦ à¤°
à¤ ĵ
à¥į ,
Ġà¤¤ à¤ª
Ġà¤Ĩ à¤ľ
à¤¯ à¤¹
Ġà¤ª à¤¦
Ġà¤¤ à¤¯
Ġà¤ķ à¤²
à¤µ à¤®
à¤° à¤Ń
Ġà¤ĸ à¤°
à¤Ł à¤®
à¤ħ à¤¨
Ġà¤ Ķ
Ġà¤¨à¤Ĺà¤° à¤ª
Ġà¥ Ń
Ġà¤¸à¤¹ à¤¯
Ġà¤® à¤§
à¤¹ à¤ķ
à¤Ĺ à¤®
à¤ľ à¤¸
Ġà¤ī à¤¹
Ġà¤¸à¤® à¤¸
à¤² à¤Ĺ
Ġà¤ĺ à¤°
à¤ķ à¤¤
Ġà¤ħ à¤¬
Ġà¤ķ à¤¤
à¤¸ à¤¦
à¤¦ à¤°
Ġà¥¨à¥¦à¥ Ń
à¤¾ à¥ĩ
Ġà¤ľà¤¨ à¤¤
à¤· à¤®
Ġà¤ĩ à¤¨
Ġà¤¸à¤¦ à¤¸
Ġà¤Ĩ à¤īà¤¨
Ġà¤ħ à¤µ
à¤¶ à¤®
Ġà¤® à¤²
Ġà¤ī à¤ķ
Ġà¤ħ à¤ĺ
âĢ Ŀ
Ġà¥ ®
Ġà¤ª à¤¢
à¤Ł à¤²
à¤µ à¤ľà¤¨
à¤ı à¤¨
Ġà¤Ĩà¤µ à¤¶
à¤¹ à¤¨
à¤¾ .
à¤¿ ,
à¤µ à¤¤
à¤£ à¤ķ
Ġà¤¬ à¤¹
Ġà¤¯ à¤¸à¤ķ
Ġà¤¬ à¤²
Ġà¤Ĩ à¤Ĺ
Ġà¥§ à¥¦
Ġà¤¸ à¤Ń
Ġà¥ ¯
à¤Ń à¤°
Ġà¤Ĩ à¤®
Ġà¤ī à¤®
Ġà¤ħ à¤¤
à¤¦ à¤ķ
Ġà¤¶ à¤°
Ġà¤ħ à¤ª
Ġà¤Ĩ à¤ĩ
Ġà¤Ĺ à¤ıà¤ķ
Ġà¤ļ à¤°
à¤ľ à¤®
à¤¯ à¤µ
Ġà¤¨ à¤®
ĠâĢ ľ
à¤ĩ à¤²
à¥į âĢ
Ġà¤« à¤°
à¤ķ à¤ª
Ġà¤ı à¤®
Ġà¤¨ à¤¸à¤ķ
à¤ķ à¤¨
Ġà¤Ĩ à¤¨
Ġà¤¥ à¤ª
Ġà¤ķ à¤¹
à¤¶ à¤¤
Ġà¤ī à¤²
à¤ı à¤ªà¤Ľ
à¤ħ à¤ĺ
à¤Ļ à¤ķ
Ġà¤ī à¤ļ
à¤¥ à¤®
Ġà¤Ń à¤°
Ġà¤² à¤ķ
Ġà¤® à¤¤
à¤° à¤ļ
à¤ļ à¤ķ
à¥įâĢ į
Ġà¤Ĩ à¤¦
Ġà¤¦ à¤²
Ġà¤ª à¤Łà¤ķ
à¤¬ à¤²
à¤® à¤ļ
âĢ ¦
Ġà¤¨ à¤¹
à¤² à¤¯à¤ķ
à¤µ à¤°à¤£
Ġà¤¸ à¤¤
Ġà¤®à¤¹ à¤¤
à¤£ à¤¯
à¤ĵ à¤µ
Ġà¤¸ à¤Ļ
à¤¦ à¤Ľ
Ġà¤°à¤¹ à¤¨
Ġà¥¨ à¥¦
à¤° à¤¨
à¤¨ à¤µ
Ġ ,
à¤¤ à¤°à¤£
Ġà¤µ à¤Ł
à¤¡ à¤²
à¤¬ à¤¹
Ġà¤¸à¤¹ à¤Ń
Ġà¤§ à¤°
Ġà¤¯à¤¸ à¤²
à¤ª à¤²
à¤¯ à¤¸à¤ķ
à¤° à¤ª
à¤¤ à¤µ
Ġà¤¸ à¤«à¤²
Ġà¤¨ à¤¦
Ġà¤¹ à¤¤
Ġà¤¸ à¤ļ
Ġà¤ĺ à¤Łà¤¨
Ġà¤µ à¤¡
à¤« à¤¤
à¤ł à¤¨
Ġà¤¤ à¤¤
Ġ Ġ
Ġà¤ Ĳ
Ġà¤ħ à¤²
à¤¡ à¤®
Ġà¤Ń à¤ĩà¤°à¤¹
à¤· à¤¤
à¤°à¤® à¤£
à¤ľ à¤Ĺ
à¤µ à¤ª
Ġà¤ľ à¤®
à¤¸ à¤¹
à¥ģ ,
à¤¸ à¤°
à¤ĩ à¤¸à¤ķ
à¤ľ à¤²
Ġà¤ª à¤¶
Ġà¤¸ à¤¡à¤ķ
à¤¤ à¤ª
Ġà¥§à¥ «
Ġà¤¸à¤® à¤¯à¤®
à¤µ à¤¯
Ġ :
à¤· à¤¯à¤®
Ġà¤¸ à¤µ
Ġà¤Ĩ à¤¶
à¤² à¤¤
Ġà¤ħ à¤Ŀ
Ġà¤ĵ à¤²
Ġà¤Ń à¤ıà¤°
à¤¯à¤¤ à¤ķ
à¤° à¤ªà¤¤
Ġà¤ī à¤ł
à¤¸ à¤Ń
Ġà¤¤ à¤¹
Ġà¤ı à¤¸
Ġà¥§à¥ ¯
Ġà¤° à¤ķà¤®
à¤¾ âĢĵ
Ġ ...
Ġà¥§à¥ §
Ġ '
à¤ł à¤ķ
à¤¦ à¤²
Ġà¥§à¥ ¨
à¤¨ à¤¬
Ġà¤ħ à¤¦
Ġà¤Ĩ à¤ī
Ġà¤¯ à¤¤
à¤§ à¤ķ
à¤²à¤¯ à¤²
Ġà¥¤ âĢĻ
à¤¤ à¤¬
Ġ !
Ġà¤¶ à¤ķ
à¤Ī à¤²
Ġà¤īà¤ª à¤ļ
Ġà¤¨ à¤Ń
Ġà¤Ĩ à¤ķ
à¤· à¤¦
Ġà¤§ à¤¨
à¤§ à¤®
à¤· à¤¯
âĢ ĺ
à¤¨ à¤Ĺà¤°
Ġà¤® à¤°
Ġà¤īà¤ª à¤²à¤¬
à¤ı à¤¸
Ġà¤ļà¤² à¤ļ
Ġà¤Ĩ à¤¤
Ġà¤Ľ à¤²
à¤® à¤§
à¤¨ à¤°
à¤¦ à¤µ
à¤¯ à¤ª
Ġà¥¨à¥¦à¥ §
à¤ĩ à¤¦
Ġà¤ħ à¤«
Ġ -
Ġà¤ľ à¤°
à¤° à¤ľ
à¤ĩ à¤Ł
à¤ĺ à¤ķ
à¤¹ à¤²
Ġà¤¨ à¤Ńà¤ıà¤ķ
Ġà¤ª à¤ł
Ġà¤¨ à¤ľ
à¤® à¤¦
à¤² à¤¸
à¤® à¤¹
à¤ª à¤¯
à¤ı à¤®
à¥Ī à¤ģ
Ġà¤¦ à¤¶
ĠâĢ ĵ
à¤¨ à¤¤
à¤Ī à¤ķ
à¥ĩ à¥¤
Ġà¤¬ à¤ļ
Ġà¤ľ à¤Ĺ
à¤°à¤¦ à¤°
Ġà¤Ńà¤ı à¤ªà¤Ľ
à¤ĩ à¤ķ
à¤¸ à¤¬
Ġà¤¨ à¤ª
à¤¨ à¤ª
à¤ļ à¤®
à¤¥ à¤²
à¤² à¤¨à¤®
à¤¯ à¤¸à¤®
Ġà¤ı à¤µ
Ġà¤Ĺ à¤£
à¤® à¤¬
à¤¿ .
à¥¦à¥ Ń
à¤² à¤¯à¤®
Ġà¤¸à¤¹ à¤®à¤¤
à¥Įà¤Ĥ ,
à¤² à¤µ
Ġà¤¹ à¤¸
à¤¦ à¤®
Ġà¥¨ à¥«
à¤ļ à¤²
Ġà¤ķà¤¸ à¤°
Ġà¤ı à¤¨
à¤Ń à¤µ
Ġà¥« à¥¦
Ġà¤ Ī
à¤ī à¤¦
Ġà¤¨ à¤°
à¤¯ à¤¯à¤¨
Ġà¤ĺ à¤Ł
à¥ģ à¤Ĥ
Ġà¤¦ à¤ķ
à¤°à¤¤ à¤ķ
Ġà¤¸ à¤ľ
à¤¯ à¤¹à¤°
Ġà¤ķ à¤ª
à¤ª à¤¦
à¤® à¤¸
à¤°à¤£ à¤®
à¤ĺ à¤Łà¤¨
à¤¯ à¤Łà¤ķ
Ġà¤ħ à¤ªà¤°
à¤°à¤® à¤ķ
à¤Ĺ à¤¦
à¤¯à¤¸ à¤²
à¤ª à¤Łà¤ķ
à¤Ļ à¤²
Ġà¤¸à¤¹ à¤ķ
à¤® à¤°
à¤Ĥ .
à¤§ à¤¤
à¤¬ à¤¸
Ġà¤Ń à¤µ
à¤ľ à¤¯
à¤¶ à¤²
Ġ| |
Ġà¤Ń à¤ĩà¤¸à¤ķ
à¤ľ à¤§
Ġà¤ĺ à¤°à¤®
Ġà¤ķ à¤µ
Ġà¤Ń à¤Ł
à¤¬ à¤¦
Ġà¤Ľà¤² à¤«à¤²
à¤ľ à¤¦
Ġà¤ľ à¤¤
Ġà¥¨à¥¦à¥Ń à¥«
Ġà¥§à¥ ©
à¤° à¤·
à¤Ń à¤ķ
à¤ķ à¤¸
Ġà¥© à¥¦
r e
Ġà¤¸à¤¹ à¤ľ
à¤ľ à¤¨à¤ķ
Ġà¥§à¥ ª
à¤¸ à¤¹à¤°
Ġà¤ıà¤ķ à¤¤
Ġà¤Ń à¤Ī
à¤¨ à¤¹à¤°
à¤¨ à¤¸à¤ķ
Ġà¤® à¤¸
à¤¯ à¤¦
à¤ĸ à¤ķ
Ġ Ċ
Ġà¤ħà¤µ à¤§
à¤§ à¤°
Ġà¤ķ à¤¥
à¤ĩ à¤°
Ġà¥§à¥ ¬
Ġà¤¹ à¤Ł
Ġà¤ª à¤°à¤®
à¤¯ à¤£
à¤² à¤°
à¤ľ à¤°
Ġà¤° à¤ķ
à¤µ à¤¦
Â ¥
Ġà¥§à¥ ®
Ġà¤¸ à¤²
Ġà¤ľ à¤¸à¤²
âĢ ľ
Ġà¤° à¤®
Ġà¤Ń à¤£
Ġà¤īà¤ª à¤¯
à¤¸ à¤¸
Ġà¤¯ à¤¦
à¤ķ à¤Ł
Ġà¤ ĭ
à¤µ à¤µ
à¤· à¤®à¤¤
à¤Ī à¤¨
à¤¯à¤¸ à¤ªà¤Ľ
Ġà¤īà¤ª à¤¸
o n
à¤ĩ à¤¤
à¤ĺ à¤°
à¤° à¤ļà¤¨
à¤Ĩ à¤°
à¤¤ à¤¤
Ġà¤ľ à¤¹
à¤² à¤¨à¤ķ
à¤ķ à¤¹à¤°
à¤¤ à¤¹à¤°
à¤· à¤²
à¤¾ )
à¤§ à¤¬
e r
à¤· à¤§
i n
à¤¨ à¤¯
Ġà¤Ĺ à¤łà¤¨
Ġà¤µ à¤¨
Ġà¤Ń à¤¦
Ġà¤« à¤°à¤ķ
à¤¨à¤Ĺà¤° à¤ª
Ġà¤ī à¤¡
Ġà¤¶ à¤¬
Ġà¤ĸ à¤¡
Ġà¤¨ à¤ķ
Ġà¥§à¥ Ń
Ġà¤ī à¤¸à¤²
âĢ Ĭ
à¤¹ à¤®
à¤Ļ à¤®
à¤°à¤£ à¤²
à¤µ à¤¤à¤¨
Ġà¥ ¦
Ġà¤¯à¤¸ à¤°
à¤ª à¤£
à¤ļ à¤°
Ġà¤¤ à¤¹à¤ķ
Ġà¤Ŀ à¤¨
à¤°à¤ļ à¤£
ĉ Ċ
Ġà¤ļ à¤¨
à¤® à¤Ĺ
Ġà¤Ĩ à¤ª
Ġà¤¤ à¤¸
à¤¯ à¤¬
à¥Ī ,
Ġà¤¶ à¤¨
à¤¹ à¤¤
à¥¤ âĢĻ
à¤ħ à¤°
Ġ "
à¤¯ à¤Łà¤¨
Ġà¤µ à¤¸
à¤¯à¤ķ à¤¤
a l
à¤°à¤£ à¤ķ
Ġà¤Ĩ à¤Ī
à¤Ĺ à¤²à¤¬
à¤¯à¤ķ à¤°
Ġà¤ĩ à¤¤
à¤¯à¤® à¤¨
Ġà¤¤ à¤²
Ġà¤®à¤¤ à¤¦
à¤ĸ à¤²
Ġà¤¸ à¤¡
Ġà¤¹ à¤²
à¤¸ à¤ļ
à¤¯à¤µ à¤¹
à¤µ à¤¯à¤¨
Ġà¥¨ à¥§
à¤ĩ à¤®
à¤¾ âĢĻ
Ġà¤ Ĭ
Ġà¤ķà¤® à¤ľ
à¤ķà¤² à¤¨
à¥ĩ à¤Ĥ
Ġà¥¨ à¥Ń
Ġà¥¨à¥¦à¥Ń à¥ª
Ġà¤Ĺ à¤ł
à¤¸ à¤µ
a r
à¥ĩ à¤ģ
Ġà¤¯ à¤¸à¤®
a n
à¤¨ à¤¦
à¤§ à¤¨à¤ķ
à¥¦ à¥¦
Ġà¤Ĺ à¤®
Ġà¤ħà¤µà¤¸ à¤°à¤®
à¤Ĩ à¤«
Ġà¤ĸ à¤¨
à¤¸ à¤°à¤ķ
Ġà¤Ĩ à¤²
Ġà¤Ń à¤ķ
Ġà¤ķ à¤ķ
à¤ª à¤·
Ġ [
Ġ 2
à¤ī à¤ķ
Ġà¤ķ à¤¨
Ġà¥¤ âĢĿ
à¤¥ à¤ķ
Ġà¤Ĩ à¤ľà¤ķ
a t
à¤ľ à¤µ
à¥Ģ )
o m
à¤Ĺ à¤¢
Ġà¤Ķ à¤·à¤§
à¤£ à¤®
Ġà¤¸à¤® à¤°
Ġà¤Ĳ à¤¨
à¤īà¤¨ à¤ķ
Ġà¤ħà¤¨ à¤²
à¤° à¤ĸ
Ġà¤ħ à¤ķ
Ġà¤¦ à¤²à¤ķ
à¤¬ à¤°à¤ķ
Ġà¤ī à¤ľ
Ġà¥¨ à¥ª
à¤¡ à¤°
à¤Ĺ à¤łà¤¨
à¥Įà¤ģ ,
à¤Ĺ à¤¨
Ġà¤Ĩ à¤ļ
Ġà¤ľ à¤¬
à¤ķà¤°à¤£ à¤ķ
Ġà¥¨ à¥¨
à¤ł à¤ķà¤²
à¤ħ à¤§
Ġà¤ħà¤µà¤¸ à¤°
à¤¾ ...
à¤° à¤°
à¤® à¤ª
Ġà¤« à¤²
Ġà¤Ń à¤¤
Ġà¤ľ à¤µ
à¥Ģ âĢĻ
Ġà¤² à¤¡
à¤Ł à¤¬
à¤ĸ à¤®
à¤ĩ à¤¨à¤²
Ġà¤īà¤ª à¤Ń
à¤ł à¤²
Ġà¥¨ à¥®
Ġà¤¸à¤® à¤¨
Ġà¤Ĩà¤ĩ à¤¤à¤¬
Ġà¥¨ à¥¯
à¤ĩ à¤¸
à¤°à¤¹ à¤¨
à¤ĸ à¤¨
Ġà¥¨à¥¦à¥ ¬
Ġà¤ľà¤¨ à¤¸
à¤ī à¤µ
Ġà¤ķ à¤Ł
Ġà¤Ĺ à¤¨
Ġà¤ī à¤¸à¤ķ
à¤¸ à¤ª
à¤ Ķ
à¤£ à¤¸
à¤¤ à¤°à¤ķ
Ġà¤¬ à¤®
Ġà¤® à¤¦
, âĢĻ
Ġà¤¤ à¤¨
Ġà¤ĺ à¤£
Ġà¤Ĩ à¤ķà¤°
Ġà¤¸ à¤§
à¤Ĺ à¤®à¤¨
à¤īà¤¨ à¤²
à¤ķ à¤µ
Ġà¤ĩ à¤²
Ġà¤ĸ à¤¬à¤°
Ġà¤¯à¤¸ à¤ħà¤ĺ
Ġà¤ª à¤¸
Ġà¤¤à¤¹ à¤®
à¤¯ à¤¯
Ġà¥¨ à¥©
à¤ļ à¤¨à¤®
à¤Ń à¤®
Ġà¤¬ à¤Ĺ
à¤Ĺ à¤¬
à¤Ĺ à¤ł
à¤ı à¤²
à¤¶ à¤¸
Ġà¤¸ à¤ªà¤¨
à¤µ à¤Ł
à¤ª à¤ļ
Ġà¤Ĩ à¤ł
à¤¨ à¤¸à¤®
Ġà¤ļ à¤¢
à¤£ à¤¨
à¤ł à¤ķà¤®
à¤ľ à¤ª
Ġà¥ª à¥¦
à¤° à¤¥à¤®
Ġà¤¶ à¤¹à¤°
Ġà¤¨ à¤¤
à¤µ à¤§
Ġà¤Ń à¤µà¤¨
Ġà¤Ńà¤ı à¤¨
à¥Ģ âĢĵ
Ġà¤¨ à¤µ
Ġà¤ªà¤¦ à¤®
à¤µ à¤¨à¤ķ
Ġà¥¨ à¥¬
à¤Łà¤° à¤¨
a d
à¤² à¤¸à¤®
à¤ĩ à¤¡
à¤° à¤Ĺà¤¤
à¤ĩ à¤ľ
Ġà¤¸ à¤ª
Ġà¤ĭ à¤£
à¤« à¤¬
Ġà¤Ĺ à¤²
Ġà¤¦à¤² à¤¹à¤°
à¤° à¤µà¤ķ
à¤°à¤¬ à¤¹
Ġà¤ľ à¤²
à¤Ł à¤¬à¤²
Ġà¤¸ à¤«
Ã ·
Ġà¤ħ à¤¡
Ġà¤¸ à¤¹à¤°
Ġà¤Ĺ à¤ıà¤°
à¤¬ à¤®
Ġà¤ĸ à¤¸
Ġ 1
Ġà¤Ĩà¤« à¤¨
Ġà¤ħ à¤ĸ
Ġà¤ĩ à¤®
Ġà¤ª à¤²
à¤¾ à¥¤
Ġà¤ļ à¤°à¤£à¤®
e n
à¤µ à¤¶
Ġà¤Ń à¤Ĺ
ĠĠ ĠĊ
à¤° à¤¸à¤®
à¤¡ à¤¨
à¤ª à¤¹
à¤Ĺ à¤¤à¤ķ
Ġ[ âĢ¦
Ġà¤¨ à¤²
Ġà¤¯à¤¸ à¤¬
à¤ķ à¤¬
à¤Ĩ à¤Ī
Ġ[âĢ¦ ]
Ġà¤ª à¤ŀ
à¤ķ à¤¤à¤¨
0 1
Ġà¤° à¤¸
à¤ļ à¤¯
Ġà¤īà¤ª à¤¤
Ġà¤ı à¤ľ
Ġà¤¸à¤«à¤² à¤¤
à¤® à¤£
à¤¦ à¤Ľà¤¨
à¤ħ à¤¹
Ġà¤ķ à¤ł
à¤· à¤°
Ġà¤ķ à¤¡
à¥ĭ ...
à¤Ŀ à¤¨
Ġà¤¦ à¤¸
à¤Ł à¤¹à¤°
s t
à¤¸ à¤¨à¤²
à¤ħ à¤¸
à¤¸ à¤¨à¤ķ
à¥ģ à¤ĥ
à¤°à¤® à¤£à¤ķ
à¤ª à¤¸
Ġ /
à¤¶ à¤¬
ĠĠ Ċ
à¤Ĺ à¤°à¤®
Ġà¤ĸ à¤Ł
à¤¤ à¤°à¤®
Ġà¤¨ à¤¬
à¥Įà¤Ĥ à¥¤
à¤Ĺ à¤°à¤ķ
à¤¨à¤¸ à¤Ń
à¤Ī à¤®
à¤·à¤£ à¤ķ
à¤ķà¤® à¤²
à¤°à¤¤ à¤²
o r
à¤ī à¤®
Ġà¤ľ à¤¸à¤ķ
Ġà¥¬ à¥¦
à¤¬ à¤ķ
à¤Ł à¤µ
Ġà¤Ĩà¤ĩ à¤ª
à¤¾ -
à¤ļ à¤¨à¤ķ
Ġà¤Ĺ à¤²à¤¤
à¤¹à¤° à¤£
à¤¯ à¤°à¤¤
Ġà¤ı à¤²
Ġà¤¦ à¤¶à¤ķ
Ġà¤Ĺà¤ł à¤¬à¤¨
à¤Ĩ à¤ľ
) ,
Ġà¤ı à¤ª
à¤ĩ à¤¯
Ġà¤ħà¤¸ à¤°
à¤¯à¤¸ à¤¬
à¤¥ à¤¨
Ġà¤¸ à¤¸
à¤Ĺà¤¤ à¤®
à¤¬ à¤ľ
à¤° à¤Ĺ
Ġà¤® à¤ŀ
Ġà¤ľà¤¨ à¤ľ
Ġà¤¯ à¤¥
c om
Ġà¤¡ à¤Ł
Ġà¤Ĩ à¤ı
Ġà¤ľ à¤²à¤µ
à¤¡ à¤¬
à¤µ à¤Ń
à¥ģ Â¥
à¤¥ à¤µ
Ġ m
à¤§ à¤µ
à¥Ĥ ,
à¤ī à¤¸
à¤° à¤¥
à¤¦ à¤¶
à¤Ł à¤ª
Ġà¤ī à¤°
Ġà¤¦ à¤¬
Ġ S
Ġà¤ľ à¤¨à¤ķ
à¤² à¤ª
Ġà¤Ĳ à¤¤
à¤ī à¤¤
à¤ĺ à¤²
Ġà¤ªà¤¦ à¤ķ
i t
Ġà¤¹ à¤ª
à¤¤ à¤µà¤¨
Ġà¤° à¤¨
à¤Ł à¤°à¤®
à¤Ł à¤°à¤ķ
Ġà¤ĸ à¤£
Ġà¤¸à¤¦ à¤°à¤®
Ġ N
Ġà¤² à¤®
âĢĻ ,
à¤ Ĭ
à¥¨ à¥¦à¥Ń
Ġ l
à¤ı à¤¨à¤¨
à¤¥ à¤°
à¤¶ à¤¸à¤Ń
à¤ľ à¤¤
Ġà¤Ŀ à¤£
à¤° à¤ŀ
Ġ2 01
à¤¹ à¤¦
à¤ļà¤¨ à¤ª
Ġà¤¡ à¤²à¤°
à¥¨ à¥¦à¥
Ġà¤¹ à¤Ļà¤ķ
Ġà¤Ńà¤ı à¤ªà¤¨
i c
Ġà¤¸à¤¡ à¤ķà¤®
ĠâĢ Ķ
à¤¥ à¤²à¤®
à¤¶ à¤¨à¤ķ
à¤¨ à¤Ńà¤¨
Ġ )
à¤¶ à¤¨à¤®
à¤¸ à¤¤
Ġà¤ĸ à¤¤
Ġà¥© à¥«
à¤¶ à¤¹à¤°
à¤ľ à¤¬
à¤°à¤¤ à¤®
Ġà¥© à¥§
Ġà¤¹ à¤ķ
à¤µ à¤¨à¤®
à¤« à¤ķ
Ġà¤¤ à¤°à¤ķ
à¤² à¤¦
Ġà¤ħ à¤µà¤°
à¤Ĺ à¤¹à¤°
Ġ t
Ġ A
à¤¦ à¤¨à¤®
à¤ī à¤ª
Ġà¥¨à¥¦à¥Ń à¥©
Ġà¥¨à¥¦à¥ «
Ġà¤¸ à¤°à¤¸
Ġà¤¨ à¤ªà¤°
à¤ħ à¤®
Ġà¤¬ à¤¡
Ġà¤ĩ à¤ļ
à¤Ń à¤Ĺ
Ġà¤Ĩ à¤ıà¤°
Ġà¤® à¤Ĺà¤°
Ġà¤ī à¤ªà¤°
Ġà¤ľ à¤¡
Ġà¤ľ à¤¸à¤®
Ġà¤Ĩ à¤¹
Ġà¤¨à¤Ń à¤Ī
Ġà¤¨à¤Ń à¤ı
à¥Ń à¥«
Ġ Â
Ġà¤® à¤¨à¤®
à¥ģ à¥ģ
à¤°à¤® à¤²
o re
Ġà¤ī à¤¸
Ġà¤¢ à¤ķ
Ġà¤ī à¤Ń
à¤¶ à¤¨à¤²
à¤° à¤«
Ġà¤ı à¤µà¤®
Ġà¤¸ à¤¶à¤¸
Ġà¤®à¤¹ à¤¸
Ġà¤ħ à¤·
Ġà¤® à¤Ļ
à¤¦ à¤¤
à¤² à¤¹à¤°
h a
Ġà¤ļ à¤ķ
Ġà¤ĺ à¤¨
Ġà¤ľà¤¨ à¤ª
à¤² à¤¤à¤²
à¤µ à¤¹à¤°
Ġ Ð
Ġà¤Ĺà¤£ à¤¤à¤¨
à¤Łà¤¨ à¤Ĺà¤°
Ġà¤ħ à¤¶
à¤¤ à¤¸
Ġà¥¨à¥¦ à¥¦à¥
à¥Ĥ à¤ģ
Ġà¤ħ à¤¥à¤µ
à¤· à¤ħà¤ĺ
à¥Ģ à¤ģ
Ġà¤Ĭ à¤°
Ġà¤² à¤²
à¤¹ à¤¸
à¤® à¤¹à¤°
Ġà¤ªà¤¹ à¤²
Ġà¤ĸ à¤¤à¤°
à¥ĭ à¥ĩ
e s
Ġà¤¶ à¤¤
Ġà¤ħ à¤ªà¤¨
Ġà¤¨ à¤Ĺà¤¦
à¤°à¤®à¤£ à¤®
à¤· à¤¹à¤°
e p
à¤Ł à¤¸
à¤®à¤² à¤µ
Ġà¤¸à¤® à¤Ĺ
à¤ĩ à¤ķà¤²
à¤¹ à¤®à¤¨
Ġà¤¦à¤¶ à¤®à¤²à¤µ
Ġ D
à¤§ à¤²
à¤ª à¤¶
à¤¶ à¤µ
à¥ģ à¥¤
Ġà¤Ĺ à¤¹
à¤² à¤Ń
Ġà¤® à¤£
Ġà¤ķ à¤ŀ
Ġà¤Ķ à¤ªà¤ļ
à¤Ī à¤ıà¤ķ
à¤« à¤°
à¥ĩ ...
à¤Ĺ à¤ľ
Ġà¤Ĺ à¤ı
Ġà¤ļ à¤²à¤¨
à¤¡ à¤¸
à¤¯ à¤Ł
Ġà¤ļ à¤°à¤£à¤ķ
à¥ĩ .
Ġà¤§ à¤®
Ġà¤Ĩ à¤¸
Ġà¤® à¤¹à¤°
à¤Ń à¤²
Ġà¤ľà¤¨à¤ķ à¤ª
i l
Ġà¤¤ à¤®
Ġà¤ıà¤ķ à¤²
Ġ P
Ġà¤µ à¤ķ
à¤¥ à¤¤à¤¨
o u
Ġ p
Ġ T
Ġà¤ĺ à¤°à¤ķ
Ġ C
Ġà¤ħ à¤Ļ
à¤² à¤¤à¤®
Ġà¤° à¤µ
à¤ª à¤¨à¤ķ
à¤² à¤ªà¤¤
Ġà¤Ĺ à¤¯
R e
Ġà¥¨à¥¦à¥Ń à¥¨
à¤£ à¤¤
Ġà¤ı à¤¶
Ġà¤Ńà¤Ĺ à¤µ
à¥§ à¥¯
à¤ĸ à¤¦
à¤Ł à¤°à¤¸
Ġà¤ıà¤ķ à¤ľà¤¨
à¤ªà¤¦ à¤£
Ġà¤® à¤ľà¤¦
à¥ĩ âĢĵ
Ġà¤ķà¤® à¤²
Ġà¤ľ à¤¨à¤®
Ġà¤Ĩ à¤ĩà¤°à¤¹
Ġà¥ª à¥«
à¤°à¤ķ à¤°
à¤£ à¤²
à¤Ĩ à¤®
à¤µà¤ķ à¤ª
à¥ģ .
à¤¤ à¤°à¤¤
à¥ĭ âĢĵ
h e
à¤¯à¤¸ à¤°
à¤ĩ à¤ª
à¤¿ à¤ĥ
- -
à¤· à¤¸à¤®
Ġà¥© à¥¨
Ġà¤¦ à¤®
à¤ª à¤ķà¤®à¤²
Ġà¤¬ à¤¦à¤²
Ġà¥® à¥¦
Ġà¤īà¤ª à¤®à¤¹
à¤ĩà¤¨à¤² à¤®
Ġ M
à¤¤ à¤¹
à¤¯à¤® à¤¬
à¤· à¤ķà¤ķ
Ġà¥Ń à¥¦
à¤ī à¤°
i on
à¤® à¤¬à¤¹
à¤¯à¤¤ à¤²
à¤ŀ à¤ª
Ð ¾
à¤· à¤¯à¤²
à¤ī à¤²
Ġà¤° à¤ļà¤¨
à¤¦ à¤µà¤²
à¥Ģ ...
Ġà¤Ńà¤ı à¤®
à¥ĭ âĢĻ
Ġà¤ī à¤ªà¤¨
Ġà¤ħà¤¸ à¤¨
ĠÂ »
Ġà¤Ŀ à¤°
w w
à¥Ģ .
à¤ı à¤«
Ġà¤¤ à¤²à¤¬
Ġà¤° à¤£à¤¨
Ġà¤« à¤¸
Ġà¤Ľ à¤°
à¤£ à¤ªà¤¤
à¥ĩ )
Ġà¤¨ à¤Ĩ
à¤¬ à¤°à¤®
âĢ Ķ
à¤Ĺ à¤¸
Ġà¤ħà¤¸ à¤«à¤²
à¥§ à¥¦
à¤ª à¤Ł
à¤µ à¤°à¤®
à¤µ à¤°à¤ķ
Ġà¤¶ à¤µ
à¤¨à¤¸ à¤°
Ġà¤¹ à¤µ
Ġà¤ħ à¤ļ
Ġà¥¨à¥¦à¥ ª
Ġà¤Ń à¤°à¤¤
Ġà¤¨à¤Ń à¤ıà¤°
à¤°à¤® à¤¹à¤°
à¤ķà¤°à¤£ à¤²
à¤¨ à¤¤à¤®
à¤° à¤¬à¤¨
à¤¯ à¤°à¤ķ
à¤ħ à¤¬
à¤Ŀ à¤¦
Ġ s
à¤ģ ,
Ġà¤Ĺ à¤ľ
Ġà¤¡ à¤°
à¤¦ à¤¨à¤ķ
Ġà¤ľà¤¸ à¤°
à¤¸ à¤Ļ
Ġà¤īà¤ª à¤ª
Ġà¤Ĩ à¤ıà¤ªà¤Ľ
Ġà¥Ń à¥«
Ġ .
Ġà¤ļ à¤¯à¤¨
Ġà¥¨à¥¦à¥§ à¥®
Ġm ore
Ġà¤¦ à¤°à¤¬
Ġà¥© à¥©
Ġà¤ħ à¤ŀ
à¤· à¤¯à¤ķ
à¤Ĩ à¤¯
Ġ a
Ġà¥§à¥¯ à¥¯
à¤µ à¤¹
Ġà¥¨à¥¦à¥ ¨
à¤² à¤ĸ
à¤ľà¤¨ à¤®
Ġà¤ª à¤¸à¤²
à¤°à¤µ à¤¦
à¤µ à¤¡
à¤¤ à¤¨à¤ķ
l e
Ġà¤¸à¤®à¤¯ à¤¦
à¤® à¤°à¤£
à¤Ĺ à¤¶
à¤Ł à¤µà¤²
Ġà¤ħ à¤²à¤Ĺ
Ġà¤¸à¤® à¤¯à¤ķ
Ġ201 8
à¤ª à¤¬
à¤§ à¤¨à¤®
à¤Ĺ à¤£
i s
Ġà¤¨ à¤°à¤¹
Ġà¤ľà¤¨ à¤¶à¤ķ
à¤²à¤¯ à¤¹à¤°
à¤ī à¤¹
à¤² à¤¤à¤ķ
Ġà¤Ĩ à¤¨à¤¨
à¤°à¤¹ à¤£
Re ad
à¥Ń à¥ª
à¤ı à¤ľ
à¤® à¤µ
à¤µ à¤°à¤²
à¤® à¤¯
à¤Ń à¤¦
à¥¨ à¥¦
à¥§ à¥«
Ġà¤ĩ à¤¸
à¥Į ,
à¤Ĺ à¤ķà¤°
Ġà¤ł à¤Ĺ
à¤· à¤¬
à¤·à¤£ à¤²
à¤²à¤¯ à¤¬
Ġà¤ħ à¤Ł
à¤® à¤¶
Ġà¤° à¤¤
à¤ħ à¤²
Ġà¤ł à¤¹à¤°
à¤Ĩà¤° à¤ıà¤¨
à¤® à¤ľ
Ġà¤Ń à¤²
.. ..
Ġà¤Ľ à¤ł
à¤·à¤£ à¤®
à¤§ à¤¨à¤²
ep al
à¤¤à¤°à¤£ à¤ķ
Ġà¤Ľà¤² à¤«
à¤ħ à¤ª
Ġà¤¸à¤¡ à¤ķà¤ķ
à¤¸ à¤¨à¤®
à¤¨ à¤ļ
Ð µ
à¤¡ à¤«
Ġà¤ªà¤° à¤°
Ð °
à¥© à¥¦
e w
à¤¦ à¤Ĺ
à¤ī à¤£
Ġà¤ķà¤ª à¤¡
à¤· à¤ªà¤Ľ
Ġà¤ķ à¤¸à¤²
Ġà¤¨ à¤¸
Ġà¤ħà¤¸ à¤¹
Ġà¥¯ à¥¦
Ġà¤¦ à¤²à¤²
à¤·à¤ķ à¤¹à¤°
Ġà¤¬à¤¹ à¤¸
à¤µ à¤ļ
Ġà¤ı à¤«
à¥§ à¥¨
à¤°à¤¤ à¤¬
à¤°à¤® à¤¶
à¤· à¤Ń
à¤µà¤¯ à¤¨à¤®
Ġà¤ķ à¤¬
in g
à¤®à¤ķ à¤¤
à¤· à¤ķà¤²
Ġà¤Ĩ à¤¦à¤°
à¤ĺ à¤°à¤®
à¤¥ à¤²à¤ķ
à¤µ à¤¯à¤®
à¤µ à¤¸à¤ķ
à¤² à¤¨à¤²
Ġà¤¸à¤°à¤¸ à¤«
à¤° à¤Ļ
à¤°à¤ª à¤¶
Ġà¤ı à¤£
Ġà¤¬ à¤ķ
Ġ I
à¤ī à¤¡
Ġà¥« à¥«
à¤¦ à¤¯
à¤£ à¤ª
à¤¯ à¤§
Ġ f
à¤¨ à¤¥
à¤ķ à¤¦
à¤¥ à¤®à¤¨
Ġà¤¨ à¤µà¤²
Ġà¤² à¤ĺ
à¤²à¤ķ à¤²
Ġà¤ľ à¤Ł
ĠâĢ ¦
à¤¿ à¥į
Ġà¤¸ à¤Ł
Ġ B
à¤µ à¤ľ
Ġà¤¨ à¤ĸ
à¤¯à¤¸ à¤ħà¤ĺ
0 7
à¤°à¤ķ à¤Ł
Ġà¤Ī à¤¨
à¤¶ à¤¤à¤²
Ġà¤ıà¤ķ à¤¦à¤®
Ġà¤Ĩ à¤Ĺà¤²
à¤Ł à¤°à¤²
à¤ĩ à¤Ń
u r
Ġà¤¸ à¤ĺ
à¤Ł à¤ĺ
à¥ĩ âĢĻ
Ġ d
Ġà¤µ à¤¹
en t
à¤· à¤ľ
à¥§ à¥§
à¤ľà¤¨ à¤²
à¤¿ ...
ĉ ĠĊ
Ġà¤ª à¤Ł
à¤ķ à¤¹
Ġà¤¢ à¤²
Ġ c
âĢ Į
Ð ¸
Ġà¤° à¤Ļ
Ġà¤ħ à¤¸à¤®
à¤¦à¤¨ à¤¶
Ġà¤ł à¤ķ
Ġà¤²à¤Ĺ à¤Ńà¤Ĺ
à¤¯à¤¤ à¤®
a c
e d
à¤ĩ à¤¬
Ġà¤Ķ à¤¦
Ġ F
Ġà¤īà¤ª à¤ķà¤°à¤£
Ġà¤ļ à¤®
à¤¯à¤® à¤ķ
à¤ĸ à¤£
à¤ıà¤¸ à¤ª
âĢĿ ,
à¤ĸ à¤¤
à¤ª à¤¥
à¤¸à¤¦ à¤®
à¥§ à¥®
à¤Ī à¤Ł
Ġà¤Ĩ à¤ĸ
à¤ł à¤ķà¤ķ
à¤¯ à¤°à¤²
à¤ī à¤Ľ
Ġà¤ĺ à¤°à¤¬
à¥Įà¤ģ à¥¤
à¤µà¤¯ à¤¨à¤ķ
à¤¤ à¤µà¤®
à¤¨ à¤Ń
à¤Ĺ à¤¡
à¤°à¤¶ à¤¸
Ġà¤Ĩ à¤ªà¤¤
à¤µ à¤¬
r o
Ġà¤ħ à¤µà¤²
à¤Ĩ à¤¨
à¤¸à¤¦ à¤¹à¤°
à¤ļ à¤¸
à¤¯ à¤¶
Ġà¤° à¤Ĺà¤¤
à¥Ģ à¤Ĥ
Ġà¤ĩ à¤ķ
à¤¯à¤® à¤²
Ġà¤¯à¤¸ à¤ª
à¤Ĺà¤ł à¤¨à¤ķ
à¥¦à¥Ń à¥ª
Ġà¤ħà¤¬ à¤ķ
Ġà¤¨ à¤·
à¤¶ à¤Ńà¤°
à¤Ī à¤¸
Ġà¤ı à¤¡
Ġà¤¸ à¤Ĺà¤°à¤®
à¤Ł à¤²à¤²
à¤Ī à¤¦
Ġà¤¨ à¤ļ
à¤¾ à¥Ī
Ġà¤¦ à¤«
à¤Ī à¤µà¤Ł
à¥¦à¥ ¬
à¤¸à¤¦ à¤ķ
à¤¶ à¤Ń
Ġà¤® à¤ķ
Ġà¥© à¥¬
Ñ Ĥ
Ġà¤¸à¤® à¤Ŀà¤¦
Ġà¤§à¤¨ à¤Ĺà¤¢
à¤µà¤ķ à¤°
à¥ĭ, âĢĻ
à¤¾ âĢ¦
à¤ľà¤ķ à¤¤
à¥Ģ -
Ġà¤ħ à¤ľ
à¤Ń à¤µà¤¤
à¤¯ à¤ľ
à¤¬ à¤¤
à¤¤ à¤¦
Ġà¤¤à¤¹ à¤²
à¤¦ à¤¹à¤°
Ġà¤¡ à¤²
à¤ŀ à¤µ
à¤¯ à¤¬à¤¸
Ġà¤¬à¤ļ à¤¤
à¤ħ à¤Ń
e l
Ġà¤¸ à¤°à¤²
Ġà¤ĵ à¤Ń
à¤¨ à¤¹
à¤ģ à¥ģ
Ġà¤ĵ à¤°
Ġà¥¨à¥¦à¥ ©
Ġ on
Ġà¥¨à¥¦à¥§ à¥Ń
à¤ĩà¤¨ à¤¨
à¤¤à¤° à¤²
à¤ĸ à¤¹à¤°
ĠâĢ Ļ
ew s
à¤Ł à¤²à¤®
à¤ľ à¤¹à¤°
à¤Ī à¤¹à¤°
à¤Ĩ à¤µ
Ġà¤Ńà¤°à¤¤ à¤ª
a s
Ġà¥¬ à¥«
à¤Ł à¤«
à¤ŀ à¤¹à¤°
à¤ļ à¤¬
Ġà¤ıà¤¨ à¤Ĩà¤°à¤ıà¤¨
à¤ģ à¥¤
Ġà¤īà¤ª à¤¹
à¥į ...
à¤° à¤ªà¤Ľ
à¤¤ à¤¡
Ġà¤ĩ à¤°
à¤²à¤¬ à¤²
Ð ½
a m
à¤¾ à¤¾
Ġà¤¤ à¤¬
à¤ĺ à¤¨
Ġà¤¥ à¤°
à¤¹ à¤¬
Ġà¤ĩ à¤ľ
à¤¤ à¤ľ
Ġà¤ķ à¤¦à¤®
Ġ R
à¤®à¤¹ à¤¤
_ _
Ġà¤ľ à¤¬à¤°
o o
Ġà¤²à¤Ĺ à¤¤
à¤¶ à¤°
Ġà¥© à¥ª
Ġà¤¯à¤¸ à¤ªà¤Łà¤ķ
à¤° à¤µà¤°
Ġà¥ª à¥¨
à¥Ĥ .
Ġà¤Ń à¤ĩ
Ġà¥§à¥¦ à¥¦
à¤ķà¤°à¤£ à¤®
à¤µ à¤¸à¤®
Ġà¤Ĺ à¤ĩà¤°à¤¹
à¤¤à¤® à¤²
e t
Ġà¤¨à¤µà¤² à¤ªà¤°
à¥§ à¥ª
à¤¯à¤ķ à¤ķ
à¤® à¤ļà¤¨
à¤£ à¤°
Ġà¤® à¤¦à¤¨
Ġà¥ª à¥ª
à¤²à¤ķ à¤ķ
à¥ĭ )
Ġà¤¨ à¤¬à¤¨
Ġà¤ħà¤¸ à¤²
Ġà¤ļ à¤°à¤£
à¤¾ âĢľ
à¤¤à¤µ à¤¨à¤ķ
Ġà¤¨ à¤¨
Ġà¤® à¤ķà¤µ
Ġà¤¸à¤®à¤¯ à¤¸à¤®
à¤¨ à¤ľ
à¤¨à¤µ à¤ħà¤§
à¤ĩ à¤¨à¤®
à¥ĭ âĢ¦
à¤°à¤¸ à¤¹
à¤ª à¤¨à¤®
à¤¸ à¤Ĺà¤°
à¥ģ :
à¤° à¤¯à¤¤
à¥Ń à¥©
Ġà¤µ à¤²
Ġà¤ī à¤ĸ
à¤¯à¤® à¤®
à¤« à¤®
Ġà¥ª à¥®
Ġà¤ķ à¤ļ
Ġà¤ª à¤ļ
Ġ n
à¥ĭ à¤Ĥ
Ġà¤¸ à¤¶à¤ķ
à¤Ĺ à¤£à¤¨
Ġà¤Ĩ à¤¬à¤¦
Ġà¤Ł à¤¨
o t
à¤¹à¤¦ à¤°à¤¬
Ġà¤¬ à¤Ł
à¤°à¤ļ à¤²à¤¨
Ġà¤® à¤ļ
i d
e m
à¤ĵ à¤¸
Ġà¤§ à¤¨à¤ķ
Ġà¥¨à¥¦à¥§ à¥¬
Ġà¤ ĥ
à¤¤à¤ķ à¤ķ
a g
Ñ ģ
à¤ı à¤īà¤Ł
à¤¡ à¤ªà¤°
Ġà¥© à¥Ń
Ġà¤¹à¤Ļà¤ķ à¤Ļ
à¤Ĺ à¤Ł
à¤¥ à¤Ĺ
Ñ Ģ
Ġà¤ħ à¤ļà¤®
à¤Ĺ à¤²à¤®
u n
Ġà¤¹ à¤¨
Ġà¤Ī à¤¶
à¥Ń à¥¬
Ġ b
Ġà¥© à¥®
à¤¸ à¤µà¤ķ
an d
0 0
Ġà¤ ·
à¤Ī à¤ķà¤²
ï ¿
à¤¦ à¤¬
Ġà¤¹ à¤ķà¤®
Ġà¤«à¤² à¤«
at ion
ï¿ ½
Ġà¤ı à¤Ł
à¤¯ à¤°à¤®
Ġà¤¹ à¤¦
à¤ĺ à¤¸
à¤Ī à¤¤
à¥¨ à¥«
Ġà¤¬ à¤¯
Ġ o
à¤¯à¤¯ à¤¨à¤ķ
à¤¯à¤Łà¤ķ à¤ķ
Ġà¤Ł à¤°
à¤¤à¤° à¤¦
Ġà¤² à¤¨
à¤ľ à¤¶
at e
Ġà¤Ĩ à¤¸à¤ª
à¤¨à¤µ à¤Ł
à¥Ģ à¥¤
Ġà¤¹ à¤®
Ġà¥« à¥§
à¤¯ à¤¥
à¤¿ âĢĵ
à¥ĥ à¤Ĥ
à¤¡ à¤²à¤ķ
à¥¦à¥ §
Ġ w
Ġà¤ľà¤¨ à¤¯
à¤· à¤ķà¤®
Ġà¤¦ à¤°à¤²
à¤¦ à¤°à¤²
Ġà¤ľ à¤¯à¤¨
Ð¾ Ð
à¤¨ à¤ªà¤Ľ
Ġà¤® à¤ľ
à¤¯à¤¸ à¤Ń
Ġà¤¶ à¤°à¤£
à¤Ļ à¤¬
à¥§ à¥©
à¤ª à¤ª
à¤¸à¤ķ à¤¹à¤°
à¤® à¤ªà¤¨
à¥Įà¤ģ âĢĵ
Ġ E
à¤° à¤ľà¤¨
Ġà¤ıà¤ķ à¤¦
Ġà¤ľà¤¨ à¤µ
à¤¤ à¤¸à¤®
Ġ1 1
à¥ĩ -
Ġà¤ª à¤µ
a il
à¥¦à¥ «
Ġà¤¤à¤¨ à¤¹
Ġà¤ħà¤« à¤Ĺ
à¤µ à¤Ńà¤°
à¤Ĩ à¤ĩ
à¤Ĺ à¤®à¤²
à¤¯à¤¨ à¤¸
à¤° à¤Ńà¤¨
Ġà¤ı à¤¯à¤°
Ġà¤Ĺ à¤¹à¤¨
à¥ĩ à¥į
Ġà¤Ń à¤°à¤®
à¤ľ à¤°à¤ķ
Ġà¤ıà¤ķ à¤®
à¤¸à¤® à¤ķ
Ġà¥§à¥¯ à¥®
Ġà¥¨à¥¦à¥¨ à¥¦
à¤¯ à¤¨à¤ķ
à¤ª à¤¹à¤°
Ġà¤¸à¤® à¤ķ
à¤¸ à¤°à¤®
07 4
o v
Ġà¤Ľ à¤ķ
Ġà¤Ńà¤ı à¤¸
à¤ķ à¤¨à¤ķ
Ġà¤Ŀ à¤²
Ġ in
Ġà¤°à¤¹ à¤¸
Ġà¤ĵ à¤Ŀ
à¤¶ à¤ķà¤²
q u
Ġà¤¬ à¤§
à¤£ à¤µ
ww w
à¤ķ à¤¥
à¤¦ à¤¸
Ġà¤® à¤¨à¤ķ
à¤¦ à¤¥
Ġà¤ª à¤£
à¤ī à¤ľ
à¤°à¤® à¤¨
Ġà¤° à¤¨à¤ķ
Ġ G
à¤ĩ à¤¨à¤ķ
à¤ĩ à¤Łà¤®
à¥ģ âĢĻ
Ġà¤Ĺ à¤Ī
Ġà¤ħà¤¨ à¤¶à¤¨
Ġà¤Ĩ à¤Ń
Ġà¤° à¤¹à¤°
Ġà¤ıà¤ķ à¤ªà¤Łà¤ķ
Ġ O
Ġà¤§ à¤ķ
7 5
à¤ĩ à¤«
Ġà¥© à¥¯
à¤¯ à¤ľà¤¨
à¤°à¤¤ à¤¸
Ġà¤Ń à¤ĩà¤¨
Ġà¤¡à¤Ł à¤ķà¤®
à¤¸à¤¦ à¤²
Ġà¤Ĺ à¤ľà¤²
c t
à¥¨à¥¦à¥Ń à¥«
Ġà¤° à¤ľ
Ġà¤Ĩà¤ĩ à¤¸à¤ķ
Ġà¤ĭ à¤·
Ġ L
Ġà¤¹ à¤¡
à¤Ł à¤µà¤°
Ġà¥« à¥¬
Ġà¤¨ à¤Ĺà¤°à¤ķ
à¥į âĢĵ
Ġà¤Ľ à¤µ
Ġà¤ķ à¤°à¤ķ
Ġà¤ĸ à¤²
Ġ? âĢĻ
à¤ķ à¤¤à¤®
à¥Įà¤Ĥ âĢĵ
Ġà¤ħà¤µ à¤¶
à¤ı à¤ļ
Ġà¤¤ à¤¸à¤°
Ġà¥« à¥¨
! !
Ġà¤ķà¤® à¤°
Ġà¤ħ à¤µà¤ķ
Ġà¤®à¤¨ à¤¸
à¤Ļ à¤Ĺ
à¤²à¤Ĺ à¤ŀ
t er
.. ...
à¤Ł à¤²à¤ķ
Ġà¤Ĺ à¤ıà¤ªà¤Ľ
Ġà¤¨ à¤Ĺ
à¤µ à¤ķà¤²
Ġà¤¶ à¤¹
Ġà¥ª à¥©
à¤® à¤¸à¤®
à¤°à¤§ à¤¨
Ġà¥« à¥ª
à¤¥ à¤ª
Ġ re
Ġà¤ħà¤° à¤¬
à¤¿ à¥¤
à¤ł à¤Ń
ã ģ
à¤¾ à¥Īà¤Ĥ
Ġà¤¥ à¤²
à¤¾ /
à¥ĭ -
à¤¸ à¤«
Ġà¤ĵ à¤¸
à¤ľà¤¨ à¤¤
à¤· à¤¸
à¥¨à¥¦à¥ §
à¥§ à¥¬
à¥« à¥¦
à¤¾ :
à¤¬ à¤Ī
à¤¤ à¤ļ
Ġà¤¬ à¤Ļ
Ġà¤¸à¤¹ à¤¸à¤ļ
à¤¡ à¤µ
à¤Łà¤¬ à¤²à¤ķ
à¤¦ à¤¨à¤²
Ġà¤¬ à¤²à¤®
à¤¡ à¤¯à¤¨
à¤²à¤¬ à¤¹
à¤Ĺ à¤®à¤ķ
à¤¡ à¤¹à¤°
à¤ı à¤ªà¤¨
à¤ľ à¤ķà¤²
à¤¾) ,
à¤°à¤Ń à¤°
Ġà¤ĺ à¤¡
Ġ H
b s
Ġà¤µ à¤¤
Ġà¥« à¥®
Ġà¤ĵ à¤Ł
Ġà¤µ à¤ľ
à¤ķ à¤¡
Ġà¤®à¤¨ à¤ªà¤°
à¥¦à¥ ¨
à¤µ à¤¨à¤²
à¥ĭ ?
à¤¨ à¤Ńà¤°
à¤£ à¤¬à¤¹
Ġà¤ĩ à¤ľà¤°
Ġà¤ķ à¤«
Ġà¤Ĩà¤ª à¤¸
Ġà¥ª à¥¯
ĠâĢ Ŀ
à¤¸à¤ķ à¤²
à¤ļ à¤¨à¤²
c h
Ġà¥® à¥«
Ġà¥¨à¥¦à¥Ń à¥§
à¤ļà¤¯ à¤ªà¤¤
Ġ K
Ġà¤ı à¤ļ
à¤ķ à¤Łà¤ķ
à¤ĸ à¤¬
Ġà¥¨à¥¦à¥§ à¥ª
Ġà¤ª à¤¬
Ġà¤Ľà¤²à¤« à¤²à¤®
Ġà¥¨à¥¦à¥§ à¥«
à¤Ĩ à¤ıà¤ķ
Ġà¤ļ à¤°à¤®
à¤ ¼
Ġà¤¸ à¤°à¤¹
Ġà¤ĩ à¤Ł
Ġà¤¦ à¤£
à¤°à¤¹ à¤µ
à¤° à¤Ĩà¤µ
à¤· à¤¦à¤ķ
à¤¶ à¤¦
à¤¶ à¤ª
Ġà¤¨ à¤µà¤¨
à¤Ĩ à¤¤
Ġà¤ĩ à¤ľà¤²
Ġà¥¦ à¥¬
Ġà¤ľ à¤Ĺà¤¤
Ġà¥ª à¥Ń
à¤² à¤µà¤¸
à¤°à¤¸ à¤°
à¤ı à¤Ł
Ġà¤ı à¤°
à¤°à¤¸ à¤°à¤ķ
Ġà¤Ĩ à¤°à¤ķ
à¤²à¤ķ à¤¹à¤°
à¥Ĥ âĢĵ
Ġà¤ħà¤² à¤ªà¤¤
à¤ĩ à¤°à¤²
Ġà¥ª à¥§
à¤¹à¤° à¤£à¤ķ
Ġà¥« à¥©
Ġà¥ª à¥¬
Ġà¤¦à¤° à¤¬à¤¨
à¤¨ à¤¡
à¤Ł à¤¸à¤®
Ġà¤ľà¤® à¤°
à¤²à¤¬ à¤ķ
Ġà¤Ĺà¤£ à¤¨
à¤£à¤¯ à¤¹à¤°
Ġà¤µ à¤¸à¤¨
Ġà¤ķ à¤°à¤£
à¤µ à¤²à¤®
Ġ h
à¤°à¤ļ à¤²
Ġà¤Ĩ à¤®à¤¨
à¤ľ à¤¤à¤¨
à¤µà¤¨ à¤¸
Ġà¤Ńà¤° à¤ªà¤°
à¤¦ à¤Ń
à¤¶à¤ķ à¤ķ
à¤ĩà¤°à¤¹ à¤¨
a y
Ġà¤ħ à¤¯
Ġ &
à¤ħ à¤Ĺ
Ġà¥¬ à¥©
Ġo f
à¤¡ à¤ª
Ġt he
Ġà¤ıà¤¸ à¤ª
Ġà¤ľ à¤¥
à¥¦à¥ ª
à¥ģ à¥į
à¤ĺ à¤®
ĠâĢ ¢
à¤® à¤Ĺà¤°
Ġà¤¸ à¤¤à¤°
à¥§ à¥Ń
à¤¯à¤Ł à¤ķà¤²
Ġà¤ĵà¤Ń à¤°à¤®
à¥¨ à¥¬
o l
à¤Ļ à¤¸
à¤¿ âĢĻ
à¤ª à¤¸à¤®
à¤µà¤°à¤£ à¤®
Ġà¤¦ à¤¹
à¥¦à¥ ©
à¤Ķ à¤·à¤§
Ġà¤ħ à¤Ľ
à¤¾ '
Ġà¤¸à¤¬ à¤Ńà¤¨
à¤µà¤ķ à¤ªà¤®
Ġà¤¸à¤¹ à¤¨
à¥¦à¥ ®
à¤µ à¤£
Ġà¤¹ à¤²à¤®
Ġà¤īà¤¦ à¤¯à¤ª
à¤¹ à¤£
Ġà¤¬ à¤¦
à¥¨ à¥®
Ġà¥¬ à¥ª
Ġà¤µ à¤¢
Ġà¤Ĩ à¤īà¤Ł
Ġà¤¶ à¤²
à¤¨ à¤ħà¤¨
a k
à¤¯à¤ķ à¤®
Ġà¤° à¤¦
Ġà¤ĩ à¤Łà¤¹à¤°
à¤ı à¤²à¤¸
Ġà¤Ńà¤Ī à¤°à¤¹
à¤ĵ à¤²
n d
à¤µà¤¸ à¤¨
Ġà¤īà¤ª à¤ķ
à¤¨à¤ķ à¤°
à¤Ī à¤ľ
à¤° à¤Ĺà¤¨
à¥¤ âĢĿ
à¥į, âĢĻ
Ġà¤Ĩ à¤¬
Ġà¤ł à¤®
Ġà¤Ĺ à¤¦
à¤¦ à¤£
à¤¹ à¤ķà¤²
à¥¨ à¥¯
, âĢĿ
r i
à¤£ à¤¬
à¤¤ à¤ķà¤²
Ġà¤ĵ à¤²à¤®
à¤² à¤Ļ
Ġà¤Ń à¤¬
à¥ģ âĢĵ
Ġà¤¹à¤Ļà¤ķ à¤Ļà¤®
à¤¹ à¤µ
à¤· à¤Ĺà¤°
Ġà¥¨à¥¦à¥Ń à¥¦
Ġà¤ľ à¤Ļ
Ġ 3
Ġà¤ı à¤¨à¤¸
Ġà¤ĵ à¤®
à¤·à¤¯ à¤¹à¤°
à¤°à¤Ĺ à¤ŀ
Ġà¤¦ à¤µ
à¥¨ à¥Ń
à¤¯à¤¤ à¤¯
Ġà¤ĩ à¤£
Ġà¤ķ à¤¦
à¤¾ à¤ĥ
à¤Ĺ à¤²à¤ķ
Ġà¤ĩ à¤ŀ
Ġà¤ıà¤® à¤¬
Ġà¤ħà¤ª à¤¹à¤°à¤£
à¤¯ à¤²à¤ķ
Ġà¥¤ ...
Ġà¤¸ à¤Ĺ
à¤² à¤ļ
à¥Ī ...
m ent
à¤µà¤ķ à¤ªà¤ķ
Ġà¤²à¤® à¤ľ
à¥įâĢ Į
Ġà¤Ĺ à¤«
i r
Ġà¤ľà¤¨ à¤ļ
à¥¦à¥¦ à¥¦
à¤¤à¤° à¤Ĺà¤¤
à¤¯à¤ķ à¤²
Ġà¤¨ à¤µà¤°
à¤¯à¤® à¤¹à¤°
Ġà¤¡ à¤°à¤²
u s
Ġà¤¦ à¤®à¤ķ
à¥¦à¥Ń à¥«
Ġà¤Ĳ à¤¨à¤ķ
Ġà¥Ń à¥¨
à¤°à¤£ à¤¸à¤Ń
à¤¶ à¤¤à¤ķ
à¤¦ à¤¶à¤¨
à¤¥ à¤¸
Ġà¥« à¥Ń
à¤Ĩ à¤īà¤Ł
Ġà¤ı à¤¯à¤°à¤²
ha b
à¤¶à¤ķ à¤¹à¤°
à¤² à¤¬à¤¨
à¤ĸà¤² à¤¢
Ġà¤Ĩà¤µ à¤¦
Ġà¥¨à¥¦ à¥¦
Ġà¤®à¤¤ à¤Ĺà¤£à¤¨
à¤µ à¤¤à¤ķ
à¤° à¤Ļà¤ķ
à¤® à¤¤à¤ķ
à¤ķ à¤¶
Ġà¤ĸ à¤¬
Ġà¤¶à¤¹à¤° à¤®
à¤¯ à¤Ń
Ġà¤¨ à¤Ľ
à¤¨ à¤Ĺà¤°à¤ķ
à¤¨ à¤ħà¤ĺ
à¤¹à¤ķ à¤¹à¤°
Ġà¤Ĩ à¤°à¤®
à¤Ĺ à¤µ
à¥¨ à¥¨
à¥ĩà¤ģ ,
m ail
à¥Į à¥¤
à¤Ĺà¤® à¤¨à¤ķ
Ġà¥¯ à¥«
1 0
Ġà¤ªà¤¹ à¤²à¤®
l o
à¤ī à¤Ľà¤¨
Ġà¤ļ à¤Ł
Ġà¤Ĩà¤ľ à¤¦
à¤Łà¤° à¤«
à¤ľ à¤°à¤²
Ġà¥¨à¥¦à¥§ à¥©
Ġà¥¯ à¥®
Ġà¥« à¥¯
à¤ı à¤Ľ
Ġà¤¡ à¤ķ
à¤¸à¤ķ à¤ķ
hab ar
Ġà¥¦ à¥Ń
Ġà¤² à¤¤
à¤¸ à¤µà¤®
Ġà¤¨à¤Ń à¤ıà¤ªà¤Ľ
à¥¨ à¥§
à¤· à¤¯à¤µà¤¸
Ġà¥«à¥¦ à¥¦
à¤ª à¤ªà¤Ľ
Ġà¤¥ à¤ķ
à¤µà¤¨ à¤¶
Ġà¤ľà¤¨ à¤µà¤°
Ġà¥Ń à¥ª
e b
à¤²à¤Ĺ à¤¨
Ġà¤ıà¤ķ à¤¸
Ġà¤ħà¤µ à¤²à¤®
à¤īà¤¨ à¤®
Ġà¤ª à¤ª
à¤¤à¤° à¤µ
à¤·à¤¯ à¤Ĺà¤¤
Ġà¤Ŀ à¤Ĺà¤¡
à¤§ à¤¸
à¤°à¤® à¤¬
à¤ĺ à¤Ł
Ġ11 5
Ġà¤ĺ à¤²
Ġà¤¢ à¤Ļ
Ġà¤Ĩà¤Ī à¤ª
Ġà¤ĺà¤° à¤ªà¤°
Ġà¤¦ à¤¶à¤®
Ġà¤ħà¤¬ à¤¸
Ġà¤ľà¤¨ à¤Ĩà¤¨
à¤Ń à¤°à¤¤
Ġ" "
Ġ W
à¤Ł à¤°à¤¹à¤°
Ġà¤ħ à¤ªà¤®
à¤¤ à¤¨à¤²
qu o
Ġà¤ħà¤® à¤°
Ġà¤ıà¤¸ à¤ıà¤²à¤¸
Ġà¤ķ à¤²à¤®
Ġà¤Ķ à¤ļ
Ġà¤¹ à¤ķà¤ª
Ġà¥¤ à¥¤
Ġà¥¬ à¥¨
Ġà¤ķ à¤·
Ġà¤Ĩà¤ĩ à¤¸
Ġà¤ħ à¤£
à¤¨à¤¸ à¤¹
Ġà¤¨ à¤Ńà¤¨
à¤Ĩ à¤Ĺ
Ġà¤Ńà¤Ĺ à¤µà¤¤
Ġà¤® à¤¨à¤²
à¤ª à¤¯à¤²
à¤¿ :
à¤®à¤¦ à¤¤
à¥¨à¥¦à¥Ń à¥ª
à¤§ à¤ª
Ġà¤Ńà¤µ à¤¨à¤®
à¤¨ à¤Ĺ
à¤Ĺà¤ł à¤¨à¤²
à¥į âĢĻ
Ġà¥Ń à¥Ń
ĠD ate
Ġà¤ľà¤¨ à¤¸à¤®
à¤ĵ à¤¬
s quo
Ð »
à¤ı à¤¸à¤¨
Ġà¤ĸ à¤ªà¤¤
à¥¨ à¥©
b er
ĠN epal
à¤ª à¤°à¤ķ
Ġà¤ľ à¤¯
à¤°à¤¨ à¤Ĺà¤°
à¥ģ -
à¤¦ à¤ª
à¤ı à¤Ī
Ġà¥Ń à¥©
Ġ ]
Ġà¤Ī à¤®
n bs
à¤¦ à¤¦
à¤ľ à¤¹
à¤¨ à¤ľà¤¨
à¥Įà¤Ĥ, âĢĻ
à¤¯à¤¯à¤¨ à¤°à¤¤
Ġà¤Ķ à¤¸à¤¤
à¤ī à¤ļ
à¤² à¤¹
Ġà¤Ńà¤µ à¤¨à¤ķ
à¥ĩ ?
à¤ļ à¤²à¤ķ
à¤°à¤¸ à¤Ļ
à¤Ĩ à¤ľà¤ķ
u l
à¤ī à¤¥
à¤¬ à¤ľà¤¨
Ġà¤®à¤¹ à¤¶
Ġà¤¯ à¤ľ
à¤² à¤Ł
Ġà¤ħ à¤¸à¤ķ
à¥¦à¥ ¯
Ġà¥¬ à¥¬
Ġà¤ª à¤łà¤¨
à¤¸ à¤Ł
à¤ī à¤¤à¤²
à¤¹à¤² à¤ª
à¤« à¤°à¤ķ
à¤ĩ à¤¹à¤°
à¤ľà¤¨à¤ķ à¤ª
à¤Ł à¤°à¤¬
Ġ J
Ġà¤Ĺ à¤ļ
à¤¸ à¤¤à¤®
Ġ www
à¤¿ )
Ġà¤ħà¤¨ à¤®
Ġà¥¬ à¥®
à¤Ī à¤°à¤¹
nbs p
à¤¯à¤Łà¤ķ à¤¹à¤°
Ġà¤¡ à¤¡
Ġà¥Ń à¥¬
Ġ and
à¤¯à¤¸ à¤¹
à¥Ĥ -
Ġà¤¬à¤¸ à¤¨
à¤¯à¤¨ à¤ľà¤°
Ġà¥¨à¥¦à¥¬ à¥ª
à¤² à¤Ĺà¤¤
à¤ªà¤° à¤¬
à¤¨ à¤¬à¤¹
à¤Ĩ à¤§
Ġà¤ıà¤ķ à¤ħà¤°
Ġà¤Ĩà¤ķ à¤¸
Ġà¤¯ à¤®
re s
Ġà¤®à¤Ĺà¤° à¤²
à¤ľ à¤¯à¤ķ
à¤ı à¤£
âĢ į
à¤¤à¤° à¤°
à¤° à¤¸à¤ķ
à¤Ī à¤ª
Ġà¤Ĩà¤¯ à¤²
Ġà¤¦ à¤¯
Ġt o
à¤µà¤ķ à¤ķ
à¤ļ à¤¤
à¤¾à¤ģ à¥Ī
à¤¡ à¤¤
à¤¹ à¤ľ
Ġà¤¸ à¤²à¤®
Ġà¤īà¤ª à¤¸à¤®
Ġà¤¹à¤¦ à¤¸à¤®
Ġà¤Ĺ à¤¡à¤¬
Ġà¤¸à¤¡à¤ķ à¤ĸà¤£
à ¸
Ġà¤¡à¤² à¤°à¤ķ
Ġà¤² à¤£
Ġà¤īà¤ª à¤¸à¤Ń
à¤ľ à¤Ń
à¤¤à¤ķ à¤¹à¤°
Ġà¥¯ à¥¯
à¤łà¤ķ à¤¹à¤°
à¤¤ à¤Ĺà¤¤
Ġà¤ĸ à¤Ĺ
à¤ķ à¤ŀ
Ġà¤¸à¤¹à¤° à¤®
à¤ª à¤ķà¤²
à¤¾à¤ģ ,
à¤Ĺà¤² à¤µ
Ġà¤ªà¤Łà¤ķ à¤ªà¤Łà¤ķ
à¤¶à¤Ń à¤°à¤ķ
à¤¯à¤¯ à¤¨à¤²
à¤ľ à¤ķà¤ķ
à¤£ à¤¯à¤²
Ġà¤® à¤ľà¤¬
Ġà¤īà¤ª à¤µ
à¤¦ à¤µà¤ķ
à¤ĩ à¤µ
Ġà¤« à¤¡
à¤¨ à¤Ľ
à¤Łà¤ª à¤Ł
Ġà¤¶ à¤Ļ
Ġà¤ªà¤¸ à¤²à¤®
i g
à¥Ģ '
Ġà¤Ĩà¤ľ à¤¸à¤®
à¤¤ à¤ķà¤®
à¥į à¤¾
à¥ĩ, âĢĺ
Ġà¤ļà¤² à¤ĸ
Ġà¤¹ à¤®à¤²
o w
Ġà¥¨à¥¦à¥§ à¥§
Ġà¥® à¥ª
à¤Ī à¤¬
à¤ķ à¤°à¤²
à¤¹ à¤ª
Ġà¥¬ à¥Ń
Ġà¤Ĩà¤ª à¤¸à¤®
à¤°à¤µ à¤Ł
Ġà¥® à¥®
à¤£ à¤¹à¤°
in e
à¤Ł à¤¤
à¤° à¤«à¤²
à¤Ĩ à¤¬
à¤¸ à¤ŀ
o st
à¤ľà¤Ĺ à¤¢
Ġà¤ªà¤Łà¤ķ à¤ķ
à¤Ł à¤¨à¤ķ
à¤ĩà¤Ł à¤¹à¤°
Ġà¤² à¤¹à¤°
à¤ķà¤® à¤ķ
à¤ĩ à¤²à¤®
v e
Ġà¤Ńà¤ı à¤¤
Ġà¤ļ à¤ª
à¤°à¤¹ à¤ķ
à¤ĸ à¤¸à¤®
Ġà¤ª à¤®
Ġà¤Ľ à¤¤
à¤¦ à¤°à¤¤
i m
Ġà¥Ń à¥®
à¤² à¤§
à¤Ŀ à¤®
à¤ıà¤¨ à¤ı
Ġà¤ĺ à¤°à¤¦
à¥¨ à¥ª
à¤°à¤ķ à¤²
à¤Ĺ à¤ª
à¥¦à¥Ń à¥©
Ġà¤°à¤ķà¤® à¤ķ
Ġà¤¤ à¤°à¤²
à¤ĩ à¤ı
Ġà¥¨à¥¦à¥§ à¥¨
à¤ĩ à¤¬à¤°
à¤Ł à¤¯
Ġà¥¬ à¥§
t h
à¤¿ -
Ġà¤ı à¤Ńà¤°
Ġà¤īà¤ª à¤¶
à¤£ à¤¯à¤ķ
à¤² à¤¯à¤¨
à¤¾ âĢĿ
à¤¨ à¤¶
Ġà¤ľ à¤²à¤¸
à¤ľ à¤¦à¤°
à¤¸ à¤¸à¤®
Ġà¤ĵ à¤ĸà¤²à¤¢
à¤°à¤®à¤£ à¤²
Ġà¤Ĩà¤Ĺ à¤®à¤¨
Ġà¤¨à¤Ĩ à¤ıà¤ķ
à¤Ĺ à¤¬à¤¹
Ġà¤ĩ à¤Ń
Ġà¥® à¥©
Ġà¤² à¤¸
à¤ª à¤¡
à¤¡ à¤¦
à¤¯à¤£ à¤Ĺà¤¢
Ġ U
Ġà¥¨à¥¦ à¥¦à¥Ń
Ġà¥§à¥¯ à¥¬
à¤¨ à¤¯à¤¨
à¤ı à¤¸à¤®
Ġà¥¤ '
à¤¤à¤° à¤¬
à¤¬ à¤¢
à¥¦à¥Ń à¥¬
Ġ V
à¥į )
à¤¤ à¤ľà¤¨
Ġà¤ľà¤¬ à¤ķ
Ġà¤¦à¤¶à¤ķ à¤¦
Ġà¤ĩ à¤¶
à¤¯à¤Ł à¤¨à¤ķ
à¤ļà¤² à¤ļ
Ġà¤īà¤ª à¤®
à¤² à¤¡
à¤¥ à¤¤
Ġà¥¨à¥¦à¥¬ à¥®
à¥¨à¥¦à¥ ¬
Ġà¥Ń à¥§
à¤¥à¤² à¤Ĺà¤¤
Ġà¥¬ à¥¯
à¤¤ à¤¹à¤¤
g mail
à¤°à¤£ à¤¹à¤°
à¤Ľ à¤¦
Ġà¤¸à¤¬ à¤²
à¤ķ à¤Łà¤®
à¤ı à¤ª
Ġà¤« à¤¨
Ġà¤ħà¤Ĺ à¤¸
à¤Ī à¤ľà¤¨
Ġà¤ĸ à¤ª
Ġà¤ł à¤ª
Ġà¤ķ à¤¯
t t
à¤· à¤Ńà¤¨
Ġà¤Ĳ à¤¨à¤®
à¤ª à¤µ
er s
Â «
Ġà¤Ĩà¤ī à¤¦
Ġà¤ī à¤¬
Ġà¤ľà¤¨à¤¸ à¤Ļ
Ġà¤¨ à¤¹à¤°
Ġà¤² à¤ľ
à¤¤à¤ķ à¤°
i st
à¤ª à¤¨à¤²
Ġà¤Ĩà¤ľ à¤Ń
à¤ĺ à¤°à¤ķ
à¤°à¤¤ à¤°
Å Ĵ
Ġà¥¨à¥¦à¥¬ à¥¯
__ __
à¤¾ (
à¤« à¤¦
à¤Ĺ à¤ıà¤ķ
à¤² à¤¶
Ġà¤īà¤ª à¤¦
à¤¦à¤° à¤Ĺ
à¤¶à¤¤ à¤Ńà¤¨
Ġà¤ĵ à¤Ĺà¤Ł
? âĢĻ
à¤Ī à¤¡
à¥Ģ /
Ġà¤Ĩ à¤µà¤ķ
Ġà¤ĺ à¤°à¤¹à¤°
à¤ķ à¤¸à¤®
Ġà¤¹à¤Ļà¤ķ à¤Ļà¤ķ
à¤¯ à¤Ļ
Ġà¤Ĩà¤ĩ à¤¤à¤µ
Ġà¤ķ à¤£
à¤ĵ à¤ķ
i a
p p
à¤Łà¤¬ à¤²à¤®
à¥į à¥į
à¤°à¤¸ à¤ŀ
Ġà¥¨à¥¦à¥¦à¥ ®
à¤² à¤ħà¤§
à¤¶ à¤¯
Ġà¤ı à¤¯à¤°à¤ķ
à¤ĸ à¤¨à¤¨
Ġ e
Ġà¤Ĩ à¤Ĩà¤«
à¤¹à¤¨ à¤¤
Ġà¤· à¤¡
à¤ķ à¤Ń
à¤² à¤ľ
Ġà¤ħà¤µ à¤¤à¤°à¤£
à¤ķ à¤¬à¤¹
à¤Ĥ à¤ģ
Ġà¥¨à¥¦à¥§ à¥¦
à¤¸ à¤¡à¤ķ
à¤Ń à¤¤
à¤¡ à¤Ńà¤¨
ĠI n
à¤°à¤² à¤Ĺ
à¤¥ à¤²à¤¬
Ġà¤ľà¤¨à¤® à¤¤
Ġà¤¬à¤¸ à¤ª
à¤¡ à¤²à¤®
Ġà¤Ľà¤²à¤« à¤²à¤ķ
oo k
à¤¡ à¤¨à¤ķ
à¤¶ à¤¤à¤®
à¤¶ à¤Ńà¤ķ
à¤²à¤® à¤²
Ġà¤¨à¤Ńà¤ı à¤¸à¤®
Ġà¤¤ à¤Ł
Ġà¤ħ à¤ł
à¤ª à¤ķà¤°
h er
Ġà¤¬ à¤ŀ
Ġà¥® à¥Ń
Ġà¤Ĺ à¤Ńà¤°
u m
à¤°à¤ķ à¤°à¤£à¤®
Ġà¤Ĩà¤Ī à¤¤à¤¬
ĠN ews
à¤¿ à¤¾
Ġà¤ªà¤¦ à¤¯
à¤ª à¤ŀ
Ġà¤¶à¤¹à¤° à¤ķ
Ġà¤¨ à¤¬à¤¸
Ġà¤Ī à¤²
à¤¯ à¤£à¤ķ
à¤Ļ à¤¦
à¤¾ ?
Ġà¥® à¥¬
Ġà¤µ à¤¨à¤¸
à¤¯ à¤¨à¤²
Ġà¤Ķ à¤²
Ġre ad
à¤Ĺ à¤²à¤²
à¥¤ ...
à¤¹ à¤¹à¤°
à¤§ à¤¹à¤°
à¤¯à¤ķ à¤µ
Ġà¤ħà¤ĸ à¤£
à¤« à¤¸
à¤Ĥ ,
Ġà¤Ĩà¤ĩ à¤«
à¤Ń à¤ıà¤¨
Ġà¥¦ à¥Ńà¥ª
à¤¤ à¤®à¤ķ
à¥į -
Ġà¤¨à¤ľ à¤°
Ġà¤¬ à¤Ŀ
Ġà¤īà¤ª à¤²à¤ķ
Ñ ĥ
Ġà¤ķ à¤¸à¤ķ
Ġà¤¤à¤¹ à¤¬
à¤Ĩà¤Ī à¤ľ
Ġà¤ħà¤« à¤°
à¤¡ à¤¨à¤®
à¤¡ à¤²à¤²
à¤ħ à¤ķ
Ġà¤° à¤¨à¤®
Ġà¤¶ à¤®
Ð º
u t
à¥ª à¥«
à¤Ī à¤°
à¤¶à¤¤ à¤¸à¤®
Ġà¤ĺ à¤°à¤§
à¤¦à¤¨ à¤¹à¤°
-- --
à¤°à¤£ à¤¬
à¤¤ à¤¯
à¤£ à¤¯à¤®
Ġà¤ħà¤¸à¤¹ à¤®à¤¤
Ġà¤¨à¤Ĩ à¤īà¤¨
Ġà¤® à¤®
/ /
Ġà¤ĵ à¤Ńà¤°
Ġà¤ĸà¤¤à¤° à¤¨
Ġà¤¯ à¤ķ
Ġà¤² à¤¯
Ġà¤Ĩà¤Ī à¤¸
ou t
à¤· à¤°à¤¤
Ġà¥® à¥¨
à¤°à¤®à¤£ à¤¬
Ġà¤² à¤¹
Ġà¥§à¥¯à¥¯ à¥¦
à¤Ĺ à¤¸à¤®
à¤§à¤¨ à¤Ĺà¤¢
à¤Ĺ à¤ħà¤¨
à¥ģ )
Ġà¥¨à¥¦à¥ª à¥¬
à¤· à¤¯à¤¤
Ġà¥¨à¥¦à¥¬ à¥©
Ġà¤ıà¤¸ à¤ıà¤¸à¤ª
Ġà¤¶ à¤°à¤¦
à¤ Ĳ
à¤ĩ à¤ļ
à¤Ŀ à¤ķ
à¤® à¤ĺ
Ġà¤° à¤¬
à¤®à¤ľ à¤¯à¤¨
Ġf or
Ġà¤ĺ à¤°à¤Ń
à¤¸ à¤¯
à¥ĭ .
tt p
Ġà¤ī à¤§
à¤Łà¤¨ à¤Ĺà¤°à¤®
à¥ª à¥¦
à¤ĸ à¤Ńà¤¨
Ġà¥§à¥§ à¥©
Ġà¤®à¤¤ à¤ªà¤¤
Ġà¤¸à¤¹à¤ľ à¤¤
: //
Ġà¤ªà¤° à¤¦
à¤°à¤¹ à¤®
à¤¶à¤¨ à¤¬
o p
Ġà¥¯ à¥Ń
à¤· à¤ª
Ġà¤¶ à¤¶
à¤¯ à¤¬à¤¹
à¥į à¥ģ
Ġà¤°à¤¹ à¤¦
Ġà¤® à¤Ŀ
Ġà¤¸à¤¹à¤° à¤ķ
Ġà¤¸à¤¯ à¤Ńà¤¨
Ġà¤® à¤¡
Ġà¤¸à¤® à¤¯à¤¸
ment s
r a
à¤¬ à¤²à¤ķ
Ġà¤ħà¤¸à¤¹ à¤ľ
Ġà¤¡ à¤®
à¥ĩ âĢ¦
à¤°à¤¬ à¤°
à¤ļ à¤¥
à¤ķ à¤°à¤ķ
à¤¹ à¤ķà¤ķ
Ġà¥¨à¥¦à¥© à¥¦
à¤µà¤°à¤£ à¤ķ
Ġà¤¸à¤®à¤¯ à¤ªà¤Ľ
à¤¨ à¤µà¤²
à¤¯à¤¦ à¤²à¤²
à¤²à¤² à¤Ĺ
Ġà¤ľà¤¬à¤° à¤ľà¤¸
à¤¤à¤¹ à¤Ł
Ġà¥Ń à¥¯
Ġà¤µ à¤ŀ
à¤Ń à¤ªà¤¤
em ber
Ġà¤ķ à¤¦à¤°
Ġà¤Ńà¤ĩà¤°à¤¹ à¤¨
á ĥ
à¤² à¤¯à¤¸
Ġà¤Ł à¤ķ
Ġà¤ī à¤Ĺ
Ġà¥¯ à¥©
Ġà¤ıà¤ķ à¤Ľ
Ġà¤¥ à¤¨
à¥Įà¤Ĥ -
Ġà¤¸ à¤ĸ
Ġ! !
à¤¦ à¤²à¤ķ
Ġà¥¨à¥¦à¥¬ à¥«
Â ¸
à¥Ģ) ,
Ġà¤° à¤ľà¤¤
o s
Ġ Read
Ġà¤° à¤ļ
à¥ĩà¤Ĥ ,
Ġà¤¸à¤® à¤¯à¤²
à¤¸à¤® à¤®
à¤ħ à¤¤
Ġà¤¦à¤° à¤ĸ
Ġà¤¶ à¤ªà¤¥
à¤ħ à¤«
à¤Ĺ à¤®à¤¤
à¤ľ à¤Ļ
à¤Ĺà¤łà¤¨ à¤¹à¤°
à¤Ĺ à¤°à¤£
à¤¸ à¤ħà¤¨
Ġà¤īà¤ª à¤²à¤µ
Ġà¤Ĩ à¤Ļ
Ġà¥¯ à¥¬
à¥¤ '
Ġà¤¬ à¤ĸà¤¤
Ġ v
Ġà¤¨ à¤²à¤Ĺ
à¤¤à¤¹ à¤¤à¤ķ
à¥ĭà¥¤ âĢĻ
Ġà¤¦à¤¶ à¤ķà¤®
Ġ 5
Ġà¤Ĳ à¤¨à¤²
à¤°à¤® à¤¸
o c
w it
à¤ī à¤¬
Ġ g
Ġà¤ªà¤¦ à¤¬
à¤¯ à¤¦à¤²
à¤Ń à¤¸
à¤¥ à¤¹à¤°
Ġà¤®à¤¹ ÅĴ
Ġà¤® à¤Ĺ
Ġà¤ĩ à¤Ļ
Ġà¤ħà¤Ĺ à¤·
Ġ201 7
à¤Ł à¤¦
Ġà¥® à¥§
à¥ĭ '
à¤ª à¤°à¤®
Ġ115 1
à¤ĩ à¤²à¤ķ
Ġà¥¯ à¥ª
Ġà¤Ĺ à¤¢
à¤¥ à¤¶
Ġà¤ľà¤¸à¤® à¤§
à¤ª à¤¸à¤ķ
Ġà¤ķà¤® à¤ķ
à¤Ļ à¤Ł
à¥ĩà¤ģ à¥¤
à¤ª à¤¢
à¤µ à¤Ĺ
à¤ıà¤® à¤Ī
Ġà¤ªà¤łà¤¨ à¤ª
Ġà¤ª à¤ĸ
à¤ĸ à¤ķà¤²
Ġà¤Ĩà¤µ à¤®
à¤ħ à¤¸à¤ķ
o k
Ġà¤ħà¤µà¤¸ à¤°à¤ķ
Ġà¤§ à¤°à¤¹à¤°
Ġà¤ıà¤ķ à¤ķ
à¤ªà¤¨ à¤ªà¤¤
Ġà¤ħà¤¨ à¤¸à¤¨
Ġà¤° à¤ĺ
Ġà¤ª à¤¡
à¥¨à¥¦à¥Ń à¥©
Ġà¤Ľ à¤Łà¤ªà¤Ł
à¤¶ à¤®à¤¨
Ġà¤ķà¤® à¤¨
Ġà¤Ĺ à¤Ĺà¤¨
Ġ 4
Ġà¤Ĩ à¤¸à¤¨
à¥Ģ âĢĿ
à¤ĩ à¤ľà¤°
i k
Ġà¤Ł à¤ª
Ġà¤¤à¤ª à¤¸
à¤ķ à¤ħà¤ª
à¤ª à¤ĸ
à¤ĸ à¤¸
Ġà¤¯ à¤¨
Ġà¥¯ à¥§
Ġà¤Ĺà¤ľ à¤²à¤ķ
Ġà¤° à¤ŀ
à¤ķ à¤Ńà¤°
Ġà¤¬ à¤¦à¤¨
à¤¯à¤¸à¤® à¤§
Ġà¤¨ à¤Ł
à¤Łà¤ķ à¤ķ
Ġà¥® à¥¯
Ġà¤ħà¤ª à¤¡
Ġà¤² à¤ĸ
Ġà¤« à¤ķ
wit ter
Ġà¤īà¤ªà¤¸ à¤ļ
à¤ķ à¤ħà¤¨
Ġ? âĢĿ
à¥ģà¤ģ ,
à¤¾à¤Ĥ à¥Ī
Ġà¤Ĩ à¤ªà¤°
Ġà¤ĵ à¤ª
Ġà¤¨ à¤ļà¤²
Ġà¤µà¤° à¤ªà¤°
Ġà¤ħà¤¨ à¤¨
m à¤¨
Ġà¤ļ à¤¤
à¤¯à¤¸ à¤¤
Ġà¤Ńà¤Ī à¤¸à¤ķ
à¤§à¤¨ à¤¬
Ġà¤¨à¤¬ à¤¢
à¤ı à¤¡
à¤²à¤¨ à¤¬
à¤Ļ à¤¹à¤°
à¤¨ à¤°à¤®
Ġà¥¦ à¥«
Ġà¥§à¥¯ à¥«
Ġà¥¯ à¥¨
ĠC om
à¤¯à¤¯ à¤¨à¤®
ot her
à¤ķ à¤ľ
Ġh ttp
ar t
l ine
à¥ĭ âĢĿ
Ġà¤¸à¤ª à¤¥
om e
à¤¡ à¤ªà¤®
Ġà¥§à¥¯ à¥Ń
à¤µà¤ķ à¤¹à¤°
à¤ŀ à¤ķ
Ġà¤¤à¤¹ à¤¸à¤®
à¤ķ à¤¤à¤°
à¤Ľ à¤¡
i p
à¤¯ à¤ªà¤¤
à¤¯à¤® à¤¯
N epal
à¤²à¤¤ à¤¬
à¤ħ à¤ªà¤°
à¤Ŀ à¤Ł
à¤¨à¤² à¤®
à¤Ĩ à¤¶
à¤¤à¤µ à¤¨à¤®
Ġ y
à¤¬ à¤¹à¤°
Ġà¤ķ à¤²à¤ķ
à¤§ à¤°à¤²
à¤ĩ à¤¹
à¤ī à¤¡à¤®
à¤ķà¤² à¤¨à¤ķ
à¤Ĩ à¤¦
Ñ ı
Ġà¤ľà¤¨ à¤°à¤²
à¤ĩ à¤ıà¤¨
à¤ļ à¤¥à¤°
ou r
à¤¤à¤°à¤£ à¤®
Ġà¤Ĩà¤Ĺ à¤ľà¤¨
Ġà¤ħ à¤¥
Ġà¤¦ à¤¨
it y
à¤¤ à¤¬à¤¹
Ġà¥¨à¥¦à¥§ à¥¯
eb ook
n epal
à¤ľ à¤¸à¤®
Ġà¤ĭ à¤¤
à¤²à¤ķ à¤£
à¤Ĩ à¤ł
Ġà¤® à¤¤à¤²
Ġà¤ĸ à¤®
Ġà¤ĵ à¤¬
Ġà¤® à¤¸à¤²
> >
à¤ı à¤¤
Ġà¤Ĺà¤ł à¤¨à¤ķ
. ),
Ġà¤Ńà¤ı à¤Ľ
Ġt h
à¤¤à¤° à¤ª
Ġà¤ĸ à¤¬à¤°à¤ķ
à¤¨à¤² à¤Ĺ
à¤¤ à¤Ńà¤°
à¤°à¤ľà¤¨ à¤¨
Ġà¤¸à¤¯ à¤ªà¤¤
Ġà¤µ à¤¨à¤ķ
Ġà¤Ńà¤ĩ à¤¹
à¤² à¤Ĺà¤°
à¤ħ à¤·
à¤Ńà¤² à¤ªà¤®
Ġà¥©à¥¦ à¥¦
Ġà¤Ĩà¤µ à¤¤à¤ľ
Ġà¤ħà¤ª à¤²
Ġà¤¸à¤¹ à¤ķà¤°
Ġà¤¦ à¤®à¤¨
à¤ıà¤¨ à¤Ĩà¤°à¤ıà¤¨
Ġà¤Ĳ à¤¶
à¤Ī à¤Ń
à¤°à¤« à¤²à¤®
Ġà¤ľà¤¸ à¤¬
à¥Ī à¥¤
Ġà¤¤à¤°à¤² à¤¤
à¥ĩà¤Ĥ à¥¤
à¤¬ à¤¡
à¤ī à¤¡à¤ķ
Ġà¥¨à¥¦à¥¬ à¥¨
Ġà¤ĵ à¤ªà¤¨
Ġà¤¬à¤² à¤°
ac ebook
à¤¶ à¤¶
à¤°à¤¸ à¤¨
à¤² à¤¸à¤¹
à¤° à¤µà¤¨
à¤łà¤ķ à¤¬
à¤® à¤°à¤¤
à¤¾ à¥į
Ġà¥¨à¥¦à¥« à¥ª
Ġ 6
Ġà¤¬ à¤¸à¤®
à¤²à¤¬ à¤®
or t
ã Ĥ
à¤¨ à¤ªà¤°
Ġà¤¸ à¤¦à¤¨
à¤®à¤ķ à¤µ
Ġà¤ª à¤¥
Ġà¤Ĩ à¤ıà¤¨
Ġà¤ĺà¤° à¤ľà¤Ĺ
1 1
Ġà¤¦ à¤°à¤®
Ġà¤ıà¤ķ à¤ľ
Ġà¤¤à¤¹ à¤¹à¤°
Ġà¤¨ à¤¶
à¤ļ à¤²à¤®
, ,
Ġà¥¨à¥¦à¥¦à¥ ¯
Ġ 0
à¤ĩà¤¨ à¤¬
à¤¯à¤ª à¤¹
Ġà¤ĺà¤° à¤ĺà¤°à¤®
Ġà¤Ĩà¤¤ à¤Ļ
à¤¤ à¤Ń
à¤¥ à¤¯
Ġà¤¨ à¤°à¤®
à¤Łà¤ķ à¤°
à¤Łà¤µ à¤²à¤®
Ġà¤® à¤Ĺà¤°à¤ķ
Ġà¤ī à¤Ľ
à¤ĩ à¤°à¤¸
Ġà¤¡ à¤¢
à¤µà¤° à¤¬
an g
Ġà¤¬ à¤¸à¤ķ
à¤¯à¤ķ à¤¹à¤°
Ġà¥¦ à¥Ńà¥©
Ġà¤µà¤° à¤ªà¤°à¤ķ
Ġà¤īà¤¦ à¤¯
' ,
Ø §
à¤Ĩà¤ĩ à¤¤à¤¬
Ġà¤ıà¤¨à¤Ĩà¤°à¤ıà¤¨ à¤ı
Ġà¤ı à¤ªà¤ķ
à¤Ľ à¤ķ
âĢ¦ âĢ¦
à¤ħ à¤¦
Ð° Ð
c e
à¤° à¤ħà¤¨
à¤¥ à¤¬
à¤® à¤Ń
t e
Ñ ĭ
à¤Ĺ à¤ļ
à¤¯ à¤¨à¤®
à¤ģ à¤Ĥ
Ġà¤¸à¤®à¤¯ à¤ħà¤ĺ
à¤¹ à¤Ł
à¥¬ à¥©
Ġà¥§à¥« à¥¦
à¥ģ ...
à¥¬ à¥¦
à¤Ł à¤¨à¤®
à¤¬ à¤°à¤£
a b
ou s
Ġà¤¸à¤¤ à¤¹
Ġà¤Ĩà¤ī à¤²
à¤°à¤ª à¤¸
à¤¯ à¤°à¤§à¤¨
à¤Ĺ à¤¨à¤®
Ġà¤®à¤¹ à¤¤à¤²
Ġà¤¬ à¤¦à¤°
Ġà¤°à¤® à¤£
à¤Ī à¤¯
à¤ªà¤¤ à¤ķ
Ġà¤ıà¤¯à¤° à¤ª
à¤Łà¤µ à¤²à¤ķ
ak habar
à¤¨ à¤ĸ
Ġà¤¸à¤Ł à¤¹
à¥Ģ âĢ¦
à¤ĩà¤ķ à¤²à¤®
Ġà¥¨à¥¦à¥ª à¥¯
âĢ ¢
u b
Ġà¤¦à¤¶à¤® à¤²à¤¬
ĠN ov
Ġà¤° à¤¶
à¥Ģ à¥ĩ
à¤ĸ à¤¬à¤°
à¤µà¤¸ à¤°
Ġà¤®à¤¨ à¤Ĺ
à¤¸ à¤¡
à¤§ à¤µà¤ķ
à¤¯à¤¸ à¤¨
à¤µ à¤²à¤²
Ġà¤Ń à¤¡
à¤¯ à¤°à¤¬
à¤ı à¤Īà¤ķ
Ġà¤ıà¤ķ à¤ªà¤Ľ
Ġà¤Ĩ à¤¡à¤®
à¥Ī à¥Ī
à¤¾ à¥Īà¤ģ
à¤ ĭ
à¤¸à¤® à¤¨
Ġà¥¤ "
à¤ĸ à¤¨à¤ķ
Ġà¤Ĩà¤ľ à¤¬
Ġà¤µ à¤ļà¤¨
à¤ľ à¤ªà¤¤
à¤²à¤® à¤ľ
à¤° à¤ľà¤¸
Ġà¤ĩà¤¨ à¤°
à¤¾ "
Ġà¤®à¤¤ à¤²à¤¬
à¤ľà¤Ń à¤£
Ġà¤² à¤Ń
l squo
à¤Ĥ à¥Ī
f f
Ġà¤Ŀ à¤°à¤¨
à¤® à¤ĸ
Ġà¤®à¤¤ à¤Ń
à¤Ĺà¤® à¤¨à¤®
ã Ģ
Ġà¤Ł à¤¸
à¤· à¤Ńà¤°
Ġà¤ĵ à¤¢
ĠT he
à¤Ĺ à¤Ń
à¤Łà¤¨ à¤Ĺà¤°à¤ķ
à¤ĩà¤² à¤Ł
à¤® à¤²à¤ķ
à¤ļ à¤µ
à¤Ń à¤Ł
à¤¡ à¤²à¤Ĺ
à¤¯à¤¤ à¤¨
à¤ıà¤® à¤ıà¤¸
à¤ª à¤²à¤ķ
Ġà¤ħà¤ª à¤µ
Ġà¤ħà¤¸à¤«à¤² à¤¤
) :
Ġà¤¦ à¤¤
à¤ķ à¤°à¤®
à¤¡ à¤Ń
à¤¤à¤¹ à¤Łà¤ķ
a p
Ġà¤¬ à¤¬
à¤ŀ à¤¤
Ġà¤¡ à¤¬
Ġà¤® à¤ĸ
à¥į à¥ĩ
à¥Ģ (
à¤°à¤® à¤§
à¤· à¤§à¤°
" "
à¤Ĺ à¤¬à¤¨
à¤ļ à¤ª
Ġà¤Ł à¤¹à¤°
à¥ģ âĢľ
à¤Łà¤° à¤ª
à¤Ĩ à¤ĩà¤ľ
Ġà¤Ĺà¤¡à¤¬ à¤¢
Ġà¥ Ĳ
Ġà¤¨à¤® à¤¸
à¥¨à¥¦à¥Ń à¥¨
à¤°à¤ķ à¤°à¤£
à¤ĸ à¤ķà¤ķ
ĠA nd
es s
Ġà¤ĵ à¤¹
à¥¨à¥¦à¥ «
à¤ıà¤« à¤¸
à¥ĭ âĢĻ,
Ġà¤¦à¤° à¤Ń
Ġà¤Ń à¤ľà¤¨
à¤Ĩà¤Ī à¤¸
à¤®à¤¤ à¤²
Ġà¤² à¤°
Ġà¥¦ à¥ª
à¤ķ à¤Ĺ
Ġà¤ªà¤° à¤¨
à¤Ń à¤ķà¤°
à¤¥ à¤¨à¤®
Ġà¤ıà¤ķ à¤ªà¤²
à¤² à¤ªà¤Ľ
à¤¤à¤µ à¤Ł
à¥¨à¥¦à¥ ¨
à¤ĩ à¤Ļ
à¤¸ à¤²à¤®
Ġà¤Ľ à¤ª
Ġà¥¨à¥¦à¥¦à¥ ¬
Ġà¤Ĩ à¤ĩà¤ıà¤ķ
à¤¨à¤Ĺà¤° à¤²
Ġ Re
à¥ĩ /
à¤ĸ à¤°à¤®
à¥© à¥§
à¤Ī à¤ĵ
à¤ī à¤ł
à¤Ľ à¤°
Ġà¤Ĺ à¤¥
Ġà¤ľà¤¨ à¤¹
à¤°à¤ķ à¤®
à¤· à¤¤à¤°
à¤ľà¤¨ à¤¬
à¤¸ à¤Ĺ
à¤ļà¤¥ à¤°à¤ķ
à¤Ń à¤ļ
à¤Ńà¤ªà¤¤ à¤¨
à¤ªà¤° à¤µ
Ġ1 2
Ġà¤Ĺ à¤ĩà¤¸à¤ķ
à¤° à¤ĺ
à¤µ à¤¤à¤®
Ġà¤¤ à¤²à¤ķ
l y
Ðµ Ð
à¥ĩ à¤¾
à¤® à¤«
Ġà¤¨ à¤°à¤¹à¤¨
Ġà¤Ŀ à¤²à¤¨
à¤§à¤¨ à¤¹à¤°
ct ion
Ġà¤ľà¤¨ à¤¨
à¤ķà¤°à¤£ à¤¬
Ġà¤« à¤²à¤¸
à¤® à¤¥
à¥¨à¥¦à¥§ à¥®
Ġà¥¨à¥¦à¥« à¥©
Ġà¤Ĩ à¤ĩà¤¨
ĠF acebook
à¤¿ âĢ¦
à¤µ à¤²à¤ķ
à¤ħ à¤µ
Ġà¤®à¤¨ à¤¨
2 01
Ġà¤Ńà¤ı à¤¨à¤¨
à¤ı à¤ľà¤¸
à¤¤ à¤¨à¤®
à¤¯à¤® à¤¶
à¤ī à¤ªà¤¤
ur y
Ġà¤Ŀ à¤Ł
Ġ k
Ġà¤ª à¤¹à¤°
à¤¡ à¤¸à¤®
à¤ľà¤¨ à¤¶
Ġà¤¸à¤¡ à¤ķà¤²
en d
à¤ı à¤¸à¤ķ
Ġà¥¦à¥Ń à¥¨
à¥© à¥«
à¤ı à¤¶
à¤°à¤¬ à¤¦
Ġà¤¨à¤Ĺà¤° à¤¸à¤Ń
à¤ķ à¤°à¤¹à¤°
à¤ĸ à¤¨à¤®
à¤¤à¤µ à¤¨à¤²
à¤Ł à¤ķà¤®
à¤°à¤® à¤ľ
à¥Ĥ âĢĻ
à¥Ī âĢĵ
à¤ī à¤ªà¤°
à¤ĩ à¤Łà¤ķ
e c
à¤ļ à¤¹à¤°
u g
à¤Ńà¤µ à¤¬
à¤¯ à¤²à¤¯
à¤¤ à¤¥
on t
Ġà¤ī à¤·
Ġà¤ı à¤¬
ĠÐ ¿
v i
Ġà¤® à¤Ł
Ġà¤Ĩà¤Ī à¤°à¤¹
à¤¡ à¤¡
à¥ ī
Ġà¤¸ à¤°à¤¦
an t
Ġà¤ľà¤¨ à¤Ĺà¤£à¤¨
à¤ķ à¤°à¤¬
Ġà¤ľ à¤ª
Ġà¤° à¤¨à¤°
à¤¨ à¤µà¤¤
Ġà¤ıà¤ķ à¤°
Ġà¤Ńà¤° à¤ª
à¤ı à¤¤à¤ķ
Ġà¤Ĩ à¤£à¤µ
Ã ¬
à¤·à¤£ à¤¹à¤°
à¤² à¤Ĺà¤ķ
à¤Ĺ à¤¦à¤°
Ġà¤¨à¤Ń à¤ĩ
Ġà¤¦ à¤²à¤¬
Ġà¤§ à¤®à¤²
à¤²à¤ĸ à¤£
Ġà¤° à¤£à¤µ
à¤¤ à¤°à¤¹
Ġà¤¹ à¤ķà¤ķ
à¤¸à¤® à¤¯
à¤²à¤Ĺ à¤¢
Ġà¤Ĩà¤ĩ à¤²
à¤¯ à¤ļ
à¤² à¤ľà¤¸
Ġà¤ª à¤µà¤¨
Ġà¤Ĺ à¤Ļ
Ġ ..
ĠM ore
à¤¥à¤² à¤¹à¤°
Ġà¤Ŀ à¤®
Ġà¤ıà¤¨ à¤Ĩà¤°
Ġà¤Ľ à¤łà¤ķ
Ġà¤Ĩ à¤µà¤¸
Ġà¤° à¤Ĺà¤¤à¤ķ
Ġà¤Ĺ à¤¸
Ġà¤Ĩà¤ĩ à¤ªà¤°
Ġà¤ıà¤ª à¤¬
Ġà¤¸à¤¦ à¤¨à¤®
à¤® à¤Ļ
à¤¯à¤¸ à¤¤à¤°
ro id
Ġà¤ĩ à¤ª
à¤ľà¤¨ à¤Ńà¤¨
Ġ! !!
Ġà¤ı à¤ĺ
à¤¹ à¤¯
Ñģ ÑĤ
Ġ Â¥
Ġà¤Ĩ à¤²à¤®
à¤°à¤ķ à¤ķ
a st
Ġà¤® à¤®à¤¤
Ġà¤° à¤¨à¤²
ar m
à¤ıà¤® à¤¬
à¥ĩ à¥ĩ
à¤¯ à¤¡
à¤Łà¤° à¤Ł
à¤ıà¤« à¤ª
ĠAnd roid
i v
à¤¯à¤ª à¤¶
à¤¸à¤¨ à¤¬
à¤¶à¤® à¤¶
à¤Ł à¤¨à¤²
Ġà¤ĵ à¤Ľ
à¤¤ à¤ľà¤¸
à¤°à¤® à¤ħà¤¨
Ġà¤ħà¤ĸ à¤¬
à¤ļ à¤µà¤Ł
âĢ ĭ
à¤Ł à¤ļ
à¤ģ âĢĵ
Ġà¤ľà¤Ĺ à¤¦
Ġà¤ļ à¤¹
Ñ Į
à¥į :
Ġà¥§à¥¯ à¥ª
Ġà¤¸ à¤ľà¤Ĺ
ury akhabar
à¤² à¤µà¤ķ
Ġà¤¸à¤® à¤¤
Â »
Ġà¤ªà¤¦ à¤¹à¤°
à¤ī à¤¸à¤²
à¤Ń à¤¬
à¤¯à¤¸ à¤ļ
Ġà¤Ŀ à¤¡à¤ª
Ġà¤ĩ à¤®à¤°
à¤ļ à¤Ĺ
à¤Ĺà¤¬ à¤ľ
Ġà¤Ķ à¤ľ
ation al
à¤¹à¤° à¤²
Ġà¤® à¤¤à¤ķ
Ġà¤ı à¤Ń
n p
à¤² à¤«
à¤Ļ à¤µ
ï¿½ ...
à¤µ à¤®à¤¨
à¤µà¤°à¤£ à¤²
à¤Ń à¤°à¤ķ
Ġ #
à¤ĩ à¤Łà¤²
à¤¹à¤° à¤ķ
Ġà¤¸ à¤¯à¤ķ
Ġ st
à¤Ĥ à¤Ĥ
Ġà¤¡ à¤¬à¤²
à¤ķ à¤¸à¤¹
à¤Ī à¤¸à¤ķ
Ġ1 0
1 2
Ġà¤¦ à¤°à¤ķ
à¤°à¤µ à¤¹à¤¨
à¤¡à¤ķ à¤ª
à¤¯à¤¸ à¤ª
à¤¯ à¤²à¤®
Ġà¤ļ à¤®à¤¤
Ġà¤¯à¤¸ à¤µà¤°
Ġà¤¦à¤¶à¤ķ à¤Ńà¤¨
à¤Ń à¤µà¤²
Ġà¤¦à¤° à¤°
à¤ħ à¤Ŀ
à¤¨ à¤Ł
à¤¸à¤¦ à¤¬
ĠT witter
Ġà¤Ĩà¤ļ à¤°à¤£
à¤² à¤°à¤ķ
à¥¨à¥¦à¥ ª
a re
à¤Ļ à¤ľ
Ġà¤Ī à¤¤
à¤² à¤£
à¥Ģ :
à¤¸ à¤°à¤²
Ġà¤®à¤¹ à¤¨
Ġà¥§à¥¬ à¥«
à¤ī à¤¸à¤ķ
à¤¹ à¤Ļà¤ķ
à¤ıà¤² à¤Ĺà¤¤
à¤Ĺ à¤«
à¤¨à¤¨ à¤Ĺà¤°
à¤° à¤Ĩà¤®
Ġà¤ħ à¤²à¤®à¤²
or d
ã ĥ
à¤ľ à¤¸à¤²
ĠNov ember
à¤µà¤¸ à¤¹
à¤¨ à¤¤à¤°
it e
Ġ1 9
à¥© à¥©
ĠâĢĺ âĢĺ
à¤¦ à¤ķà¤¤
à¥ĩ '
b out
Ġ 9
à¤¸à¤® à¤¸
Ġà¤ĭ à¤£à¤ķ
on g
à¤°à¤¸ à¤²
Ġà¤Ĺà¤¤ à¤µà¤°
ĠS t
à¤¤à¤° à¤¸à¤®
Ġc h
Ġà¤¸à¤® à¤ķà¤ķ
à¥įà¥¤ âĢĻ
ĠT V
à¤ĵ à¤®
Ġà¤ħ à¤¢
Ġà¤Ī à¤¸
à¤ļà¤¨ à¤ªà¤Ľ
à¤ĩ à¤Ĺ
à¤µ à¤²à¤¨
à¤· à¤¦à¤²
à¤ł à¤¸
Ġà¥¦ à¥Ńà¥«
Ġà¥ª à¥¦à¥¦
3 0
r squo
Ġà¤ħ à¤ľà¤¯
Ġà¤µ à¤¨à¤®
à¤¯ à¤Ńà¤¨
Ġà¤¯à¤¸ à¤ªà¤Ľ
à¥Īà¤Ĥ ,
S uryakhabar
à¤®à¤ķ à¤°
Ġd e
à¤¸ à¤¹à¤ķ
Ġà¥¨à¥¦à¥« à¥®
H ome
à¤Ĩ à¤ĩà¤¸
Ġà¤ĺà¤¨ à¤¶
à¤² à¤µà¤²
à¤Ĩ à¤ķ
à¤Łà¤° à¤¸à¤®
Ġà¤¤à¤° à¤Ļ
à¤ļà¤¨ à¤¬
Ġà¤ķ à¤°à¤¦
Ġà¤Ń à¤ĩà¤¦
Ġà¥¨à¥¦à¥¬ à¥Ń
à¤Ĭ à¤¨
à¥© à¥¨
at ha
à¤° à¤ĸà¤°
Ġà¤¤ à¤µà¤°à¤²
Ġà¤¸à¤¡à¤ķ à¤¬
à¤ģ à¥Ī
Ġà¤ķà¤¹ à¤²
Ġà¤ħà¤µ à¤¤
à¤ĩ à¤ªà¤²
à¤¸ à¤«à¤°
à¤ı à¤Īà¤®
à¥Ń à¥¨
à¤¡ à¤¹
Ġà¤¨à¤ľ à¤°à¤®
as h
Ġà¤² à¤ļ
) à¥¤
à¤¸ à¤ľ
à¤ī à¤¸à¤®
à¥ĩ Â«
Ġà¤¶ à¤®à¤¶
f o
ow n
à¥© à¥ª
2 0
à¥į ?
à¤¯ à¤²à¤²
à¤Ńà¤° à¤ª
h t
à¤ª à¤²à¤²
à¥§à¥¯ à¥§à¥®
i f
Ġà¤īà¤ª à¤§
à¤ªà¤° à¤Ń
à¥« à¥§
Ġà¤īà¤ªà¤ķà¤°à¤£ à¤¹à¤°
Ġà¤ħ à¤¶à¤ķ
à¤ħ à¤Ļ
Ġà¤īà¤ª à¤²
Ġà¤¯ à¤®à¤ª
à¤¤à¤¹ à¤¤à¤®
Ġà¤ľ à¤Ĺà¤¤à¤®
à¥§à¥¯ à¥§à¥«
à¤µ à¤°à¤¸
à¤ĩ à¤ıà¤ªà¤Ľ
à¤¦ à¤¹
à¤¡ à¤°à¤ķ
Ġà¥¨à¥¦à¥¬ à¥¬
ag e
à¤¯à¤¸ à¤µ
à¤« à¤¨
Ġà¤ħ à¤®à¤²
à¤¯à¤¦ à¤²à¤ķ
Ġà¤ĸà¤¬ à¤°à¤²
c o
Ġà¤¹à¤ķ à¤¹
à¤·à¤£ à¤¬
Ġà¤¥à¤ª à¤²
Ġ- -
à¤ĩ à¤Ńà¤°
à¤ĩà¤¨ à¤°
à¤¬ à¤Īà¤®
à¤· à¤ľà¤¨à¤ķ
Ġhttp s
à¥Įà¤Ĥ âĢĻ
à¤¯à¤¸ à¤¯à¤¤
Ġ"" ""
à¤¯à¤¨ à¤¹à¤°
à¤²à¤¨ à¤°à¤¤
à¤¨ à¤µà¤ķ
à¤¸ à¤µà¤°
g le
à¤¨ à¤Ĺà¤°à¤®
Ġà¤ķ à¤ªà¤ķ
à¤¯ à¤°à¤¹à¤°
à¥ĭ à¤ģ
à¤ķ à¤Łà¤²
Ġà¤īà¤ª à¤ľ
à¤µ à¤ĺ
Ġà¤¯ à¤¶
Ġà¤ķ à¤Ńà¤°
à¤ķà¤ª à¤¡
à¤ľà¤ķ à¤¹à¤°
Ġp ro
Ġà¤°à¤ķà¤® à¤²
lo ad
à¤¨ à¤ľà¤¸
Ġà¤Ĩà¤µ à¤§
à¤ļ à¤¦
à¤ł à¤¤
Ġà¤ıà¤¸ à¤ıà¤®à¤ıà¤¸
à¤¬ à¤¬
à¥į .
Ġà¤ĸ à¤¡à¤ķ
à¤¨à¤¬ à¤®
à¤°à¤¬ à¤²
Ġà¤Ĩà¤ĩ à¤¡à¤²
à¤ıà¤¸ à¤¬
à¤¦à¤¯ à¤ĺ
Ġà¤ĸ à¤ľ
Ð ²
à¤¦ à¤¦à¤°
m à¤²
à¤¥ à¤ķà¤¤
Ġà¥§à¥¯à¥® à¥¯
n ews
Ġà¤¸à¤¹ à¤ª
à¤ªà¤° à¤¸
oo gle
à¤ħ à¤ĸ
Ġà¤ľà¤¬ à¤¸à¤®
res s
à¤ļ à¤°à¤²
à¤¨ à¤¢
Ġà¤¯à¤¸ à¤¸
Ġà¤ħà¤ª à¤¹à¤°à¤£à¤ķ
Ġà¥¨à¥¦à¥« à¥¦
Ġà¤¬ à¤¹à¤¨
à¤¬ à¤²à¤®
Ġà¤Ĩà¤ĩ à¤ľ
u p
à¤® à¤¨à¤ķ
Ġà¤Ĩ à¤¬à¤¸
à¤Ĺà¤ł à¤¨à¤®
1 9
à¤ı à¤¨à¤ķ
Ġà¥¨à¥¦à¥¦à¥ ª
i e
à¤¯à¤¤ à¤¬
à¤Łà¤² à¤¹à¤°
Ġà¤īà¤ªà¤¦ à¤«
à¤¦à¤ķ à¤¹à¤°
a j
Ġà¤®à¤¹ Ã¬
à¤¨ à¤§
à¥® à¥®
Ġà¤Ĩà¤Ĺ à¤¨
à¤ķà¤® à¤ľ
à¤¦ à¤¶à¤®
à¤®à¤ķ à¤¥
Ġà¤¯à¤®à¤ª à¤ŀ
Ġà¤Ĺ à¤¡
à¤®à¤¸ à¤¤
à¤µà¤¨ à¤¯
Ġà¤īà¤¦ à¤ĺ
Ġà¤¨à¤µ à¤ľ
Ġà¥¨à¥¦à¥ª à¥®
e x
Ġà¤ħà¤¹ à¤®
à¤¬ à¤°à¤²
Ġà¤¬ à¤ļà¤¨
à¤ķ à¤²à¤ķ
à¤¦ à¤ķà¤²
à¤² à¤¤à¤°
à¤Ī à¤«
Ġà¤« à¤£
Ġà¤Ł à¤®
Ġà¤ĵ à¤¡
à¤¹à¤²à¤ª à¤¹à¤²
à¤ľ à¤ķà¤®
à¤ļ à¤°à¤£
Ġà¤Ĩà¤ĩ à¤¡
? ?
à¤µ à¤¯à¤ķ
à¤Ł à¤ªà¤Ľ
Ġà¤ıà¤« à¤ı
à¤¹ à¤¤à¤ķ
à¤Ń à¤µà¤ķ
à¤¦ à¤ķà¤ķ
Ġà¤ıà¤¸ à¤Ī
à¤ł à¤¹à¤°
Ġà¤§à¤¨ à¤°
Ġà¤ļ à¤¹à¤²à¤ªà¤¹à¤²
Ġà¤¬ à¤ĸ
Ġà¤¯ à¤®à¤°
Ġà¤¬ à¤²à¤ķ
à¤§ à¤°à¤ķ
i es
à¤ķ à¤¨à¤®
Ġà¤¤ à¤¦à¤°
à¤µ à¤°à¤¹à¤°
à¤µà¤¸ à¤¬
, '
Ġà¤Ĩà¤ī à¤Ľ
à¤ı à¤²à¤ķ
à¤µà¤Ń à¤°à¤ķ
Ġà¤ľ à¤²à¤®
o d
à¤¨à¤µà¤² à¤ªà¤°
Ġà¤Ĳ à¤°
à¤ŀ à¤²
à¤¯à¤£ à¤¹
à¤°à¤¹ à¤²
à¤°à¤¸ à¤¸
â Ĩ
à¤ľà¤¨ à¤¸
Ġà¤° à¤¥
Ġà¤¬ à¤¹à¤°
à¤Ń à¤µà¤¨
à¤°à¤¤ à¤µ
ĠCom ments
Ġà¤Ĩà¤ĩ à¤ıà¤®à¤Ī
al l
Ġà¤¡ à¤¨
Ġà¤¹à¤Ļà¤ķ à¤Ļà¤²
Ġà¥§à¥¯ à¥«à¥¦
à¤ķà¤® à¤°
à¤Ĩ à¤¦à¤°
Ġà¤¨à¤µà¤² à¤ª
u d
à¤¥ à¤²à¤²
à¤Ī à¤¸à¤®
Ġà¤² à¤¬
an s
à¤ª à¤¸à¤²
ha m
à¤µ à¤ħà¤§
à¤¯ à¤ľà¤¸
à¤¸ à¤¸à¤¹
a h
à¤¯ à¤Ĺ
à¥Ģ à¤ĥ
à¤Ī à¤ĺ
u e
à¤¤ à¤ªà¤¤
Ġà¥§à¥¯à¥¯ à¥®
à¤®à¤Ĺà¤° à¤²
Ġ is
à¤¢ à¤¤
à¤ı à¤¬
Ġà¤¦ à¤°à¤µ
Ġà¤² à¤ĸà¤¨
r ic
à¤¸ à¤¶à¤¸
Ġà¤¦à¤¶ à¤°à¤¥
à¤ħ à¤¨à¤²
Ġà¥§à¥Ń à¥©
à¤ľà¤® à¤£
d u
Ġà¤ĩ à¤·
à¥ģ, âĢĻ
Ġà¥¨à¥¦ à¥¦à¥¦
à¤®à¤¶ à¤°à¤£
p an
à¤µ à¤¤à¤²
ĠA n
à¤°à¤ļ à¤¢
à¤ī à¤ĸ
à¤Ľ à¤µ
Ġà¤¤à¤Ł à¤¬à¤¨
à¤¤à¤¨ à¤ªà¤Ľ
à¥Įà¤Ĥ :
à¤°à¤µ à¤²
Ġà¤°à¤ķà¤® à¤®
.... ....
âĢį .
Ġà¤Ĩà¤® à¤ľà¤¨à¤¤
Ġà¤¨ à¤īà¤ł
r t
à¤® à¤ŀ
à¥Ī âĢĻ
à¥Ĥ )
Ġà¤®à¤¨ à¤¹à¤°
ag arm
à¤µà¤¨ à¤Ńà¤°
Ġà¤¸à¤® à¤²
à¤ĩ à¤ķà¤°
à¤² à¤Ńà¤°
Ġà¤¨à¤Ĺà¤° à¤µ
agarm atha
à¤ľ à¤¸à¤ķ
à¤¬ à¤§
à¤¸ à¤°à¤¸
Ġà¤ĺ à¤°à¤²
Ġà¤Ĺà¤¡à¤¬ à¤¡
à¤¯à¤£ à¤ª
ĠC h
Ġà¤· à¤¡à¤¯à¤¨
Ġà¤¸à¤¡à¤ķ à¤¹à¤°
Ġà¤¨ à¤ĩ
Ġà¤¬ à¤²à¤²
à¤Ĺà¤° à¤²
ar d
à¤¯ à¤µà¤°
Ġà¤ĸà¤¬ à¤°à¤¦
Ġà¤ªà¤ķ à¤¡
Ġà¤ł à¤Ł
O R
à¤ª à¤Łà¤ª
Ġà¤Ń à¤¯à¤ķ
à¤ĸ à¤¡
Ġà¤ªà¤¦ à¤ª
Ġà¤¸ à¤¶
Ġà¤Ĩà¤¯ à¤Ĩà¤°
à¤¬ à¤ļ
âĢĮ à¤Ĥ
à¤ª à¤ķà¤ķ
Ġà¤¶à¤¹à¤° à¤¹à¤°
à¥§à¥¯ à¥¯
à¤Ĩà¤Ī à¤ª
à¤¦ à¤®à¤ķ
Ñ ĩ
own load
Ðµ Ð½
Ġà¤Ĩ à¤ıà¤®
Ġ +
Ġà¤ıà¤ķ à¤¤à¤°
à¤¯à¤¸ à¤Ńà¤¨
à¤ĩà¤ķ à¤²à¤ķ
à ¦
Ġà¤¦ à¤²à¤®
Ġà¤ļ à¤®à¤ķ
à¤ľà¤¦ à¤°à¤®
Ġà¤Ī à¤ļ
à¤° à¤ħ
à¤¤à¤¨ à¤ª
à¤Ī à¤ļ
ha s
Ġà¥¨à¥¦à¥« à¥¨
Ġà¤ħà¤µà¤¸ à¤°à¤¹à¤°
Ġà¤® à¤²à¤ķ
Ġà¤ī à¤¨à¤®
Ġà¤¹à¤¡ à¤¤
Ã ©
Ġ Ñģ
à¤· à¤µ
à¤¤ à¤Ĺ
à¤²à¤¬ à¤°
Ġà¤ķà¤¸ à¤°à¤¤
à ¨
à¤¦ à¤²à¤²
Ġà¤ı à¤ħ
Ġà¤¶ à¤¤à¤ª
à¤¹ à¤ľà¤¨à¤ķ
Ġà¥¨à¥¦à¥¦à¥ «
Ġà¤Ĩà¤ĩà¤°à¤¹ à¤¨
Ġà¤ħ à¤¬à¤°
à¥Įà¤Ĥ à¥¤âĢĻ
à¤Ł à¤Ń
à¤ĺ à¤£
Ġà¤¤ à¤²à¤®
Ġà¥¨à¥« à¥¦
à¤¥ à¤ķà¤¹à¤°
Ġà¤¸à¤¤ à¤¹à¤®
Ġà¤® à¤²à¤®
à¥Ń à¥¦
à¤¹ à¤¨à¤ķ
ic e
à¤¦ à¤¬à¤¹
Ġà¤¸à¤¦ à¤°
à¤°à¤ļ à¤²à¤¨à¤®
à¤ħ à¤²à¤Ĺ
ĠO n
à¤¨ à¤ªà¤¤
à¤ķ à¤«
à¤²à¤¨ à¤ªà¤Ľ
à¥© à¥¬
4 8
à¤¦ à¤ĺ
à¤Ĩ à¤ĩà¤ª
Ġà¤¬à¤¹ à¤¸à¤ķ
à¤ıà¤¨à¤Ĩà¤°à¤ıà¤¨ à¤ı
Ġ *
Ġà¤¸ à¤°à¤¦à¤°
Ġà¤ħà¤µ à¤Ĺà¤¤
à¤¨ à¤¯à¤®
à¤¯ à¤ħà¤¨
à¤²à¤¬ à¤¸
Ġp ost
à¤¡ à¤°à¤²
à¤ªà¤° à¤²
Ġà¤Ĩà¤¬ à¤¶
à¥į à¤¾à¤¾
Ġa pp
Ġà¤¯à¤¸à¤ªà¤Łà¤ķ à¤ķ
à¤¾à¤ģ âĢĵ
à¤ĵ à¤Ł
Ġà¤ıà¤¨ à¤ľ
à¤£à¤¯ à¤¬
Ġà¤¨à¤ª à¤¢
Ġà¤Ŀ à¤¸
à¥ĭ âĢĿ,
Ð¾Ð ²
Ġà¥¦ à¥§
Ġà¤Ńà¤ı à¤¦
à¤°à¤ª à¤¥
Ġ1 8
à¤ı à¤Ľà¤¨
Ġà¤Ńà¤ı à¤ľà¤¸
à¤Ĺà¤® à¤¨à¤²
Ġà¤Ĩà¤® à¤°à¤£
Ġà¤ī à¤«
Ġà¤« à¤¤
Ġà¤¬à¤¢ à¤¨
à¤Ĩ à¤²
Ġà¥§à¥§ à¥¦
Ġà¤ļà¤²à¤¨ à¤ļà¤²
Ġà¤Ĩà¤ĩ à¤Ł
Ġà¤ıà¤« à¤ıà¤®
Ġà¤° à¤Ĺà¤¤à¤®
à¤Ĺ à¤ªà¤¤
ĠÐ ²
Ġà¤ľ à¤ĺà¤¨
Ġà¤¨ à¤«
à¤Ŀ à¤£
à¤Ĩ à¤ĩà¤Ń
à¥« à¥«
Ġà¤°à¤ķà¤® à¤¬
Ġ ad
à¤ļ à¤ĸ
à¤°à¤® à¤¦
à¤¡ à¤°à¤®
Ġà¤ł à¤¡
Ġà¤®à¤¦ à¤¤
à¤Ńà¤°à¤¤ à¤ª
Ġ Y
à¥® à¥¦
à¤¤à¤ľà¤¨ à¤¹à¤°
Ġà¤ľ à¤¯à¤ª
à¤¨ à¤µà¤°
Ġà¤ı à¤Ĺ
à¤ı à¤ħà¤¨
Ð ¼
à¤¿ ?
Ġn ews
à¤° à¤¡
à¤Ĺ à¤ľà¤®
à¤Ĺ à¤¯
à¤Ĺà¤ľ à¤ªà¤¤
ac k
à¤ł à¤¶
Ġ2 4
à¥ģ à¤¾
à¤Ī à¤¨à¤²
Ġà¤ľ à¤Ĺà¤®
à¤¸ à¤¸à¤ķ
à¤µ à¤ªà¤Ľ
à¤¶ à¤ļà¤¨
à¤ľà¤¸ à¤°
Ġà¤¯à¤¸ à¤¤à¤°
à¤ª m
à¤ľ à¤¬à¤¹
à¤īà¤ª à¤ª
Nepal M
Ġà¤¤ à¤²à¤µ
e st
Ġà¤¨ à¤°à¤¸
l ic
à¥Ń à¥¯
Ġà¤Ĩà¤Ī à¤ľ
Ġà¤¨à¤ķ à¤Ĩà¤īà¤Ł
Ġà¤Ĺà¤° à¤ķ
à¤¸à¤® à¤¯à¤®
à¤¶ à¤ķà¤®
à¤ļ à¤²à¤¨
Ġà¤®à¤¹ÅĴ à¤µà¤ª
à¤°à¤¤ à¤¤
Ġà¤Ī à¤ľ
NepalM other
Ġà¤¦à¤¶à¤ķ à¤ķ
Ġà¤¸à¤¹ à¤ļ
Ġà¤ĸ à¤ļ
à¤Ī à¤Łà¤®
Ġà¤µ à¤¯à¤¸
à¤µà¤¨ à¤¬
Ġ 7
à¤Ĺà¤® à¤ŀ
Ġà¤¬à¤¹ à¤¸à¤®
0 8
Ġà¤¹ à¤µà¤²
____ ____
à¥Ń à¥§
à¤ķà¤Ł à¤¤
à¤· à¤¨
Ġà¤¸ à¤¨à¤®
Ġà¤Ĩà¤ı à¤ªà¤¨
à¤ªà¤° à¤°
Ġà¤ªà¤¸à¤² à¤¹à¤°
Ġà¤ľà¤¸ à¤ħà¤¨
à¤Ł à¤®à¤ķ
à¤¤à¤° à¤¸
Ġà¤ª à¤¤à¤¨
à¤¹ à¤²à¤®
Ġà¤¨ à¤Ĺà¤°à¤®
Ġà¤¸à¤¤ à¤¹à¤¬
à¤¡ à¤¯
à¤®à¤ķ à¤°à¤£
Ġà¥¨à¥¦à¥ª à¥Ń
à¤ı à¤¨à¤¸
Ġà¤§à¤¨ à¤¬à¤¹
à¤¾âĢĻ ,
Ġ Ø
à¤¯ à¤ªà¤°
à¥ĭ, âĢĿ
u st
Ġà¤ħà¤¨ à¤Ĺ
Ġà¤¤ à¤¦
A R
à¤Ī à¤ªà¤Łà¤ķ
Ġà¤ ¿
à¤ķ à¤£
ter n
à¤Ī à¤¶
à¤ļ à¤¶
Ġà¤« à¤Ł
à¤ıà¤¸ à¤¨à¤ķ
Ġà¤ı à¤ļà¤ķ
Ġà¤Ł à¤²
ĠÂ «
y a
il l
à¥ĭ !
à¤°à¤¸ à¤°à¤¤
Ñ ħ
Ġà¤ĵ à¤®à¤ª
à¤¨ à¤°à¤²
à¤ıà¤® à¤ı
Ġà¤¹ à¤ļ
à¤ıà¤® à¤¸
à¤ķ à¤²à¤®
à¤¨ à¤ľà¤¨à¤ķ
Ġà¤Ĳ à¤ķ
Ġà¤¸à¤¦ à¤Ń
à¤Ĩà¤Ī à¤¬
Ġà¤ı à¤ıà¤«à¤¸
Ġà¤¬à¤¢ à¤¦
ï ¼
à¤² à¤Ńà¤¨
à¤¤à¤° à¤Ļ
Ġà¤ħà¤¬ à¤¸à¤°à¤®
à¤¸à¤¹ à¤Ń
à¤· à¤¯à¤°
à¤® à¤¥à¤²
Ġà¤¨à¤Ĩ à¤ī
ĠO ff
Ġà¤ħ à¤²à¤®
à¥į à¥Ģ
Ġà¤ħ à¤ķà¤²
à¤ ½
à¤§ à¤¯
à¤¥ à¤Ĺà¤¨
à¤¡ à¤ķà¤²
Ġà¤¹ à¤¨à¤¨
à¤ľà¤Ĺ à¤ŀ
Ġà¤ļ à¤£
Ġà¤¦à¤® à¤ķà¤²
i z
à¤²à¤¬ à¤ļ
Ġà¤¥ à¤®
à¤¯ à¤ľà¤¨à¤ķ
Ġà¤ıà¤ļ à¤Ĩà¤ĩà¤Ń
à¥ĭ Â¥
à¤ļ à¤¤à¤®
Ġà¤ıà¤ķ à¤ļ
à¤¸à¤¹ à¤¯
n t
à¥¯ à¥®
à¥ĩ, âĢĻ
à¤Ŀ à¤¬
à¤ħ à¤µà¤¸
à¤¨à¤® à¤§
Ġà¤īà¤ª à¤ķà¤°à¤£à¤ķ
Ġ2 0
à¤Ĺà¤²à¤® à¤¯
à¤²à¤ķ à¤®
Ġin fo
à¤ıà¤ķ à¤¤
Ġà¤¸à¤® à¤µ
a in
à¤ļ à¤ķà¤ķ
Ġà¤®à¤¹ à¤²
Ġà¤° à¤£
Ġà¤§ à¤¨à¤®
Ġà¤Ķ à¤§
à¤¬ à¤¤à¤ķ
it h
à¤® à¤Ŀ
à¤Ĺ à¤ŀ
Ġà¤¬à¤¸ à¤²
Ġà¤Ĺà¤£ à¤¤
Ġà¤ķà¤ł à¤ĺà¤°
à¤¤à¤¨ à¤Ĺà¤°
à¤¿ /
Ġà¤ı à¤¬à¤®
à¤ļ à¤°à¤ķ
à¤¡ à¤ħà¤¨
à¤²à¤¯ à¤ħà¤¨
Ġà¥¤ )
Ġà¤ªà¤¹ à¤²à¤ķ
Ġà¥¨à¥¦à¥« à¥¯
Ġà¤¸à¤ķ à¤¸
à¤µà¤ª à¤¶
à¤ķ à¤ľà¤¸
Ġà¤Ľ à¤¦
à¤µà¤¸ à¤¤
à¤Ł à¤¸à¤²
à¥į à¥Ĥ
Ġà¤ªà¤Łà¤ķ à¤¸à¤®
à¤¸ à¤µà¤²
à¤¦ à¤°à¤®
0 9
Ġà¤ı à¤¨à¤ª
Ġà¤Ĩà¤ľ à¤ķà¤²
Ġà¤®à¤ĸ à¤®à¤²
à¤ıà¤¸ à¤ľ
Ġà¤ªà¤°à¤® à¤ª
à¤Ĺ à¤¹à¤¨
Ġ j
Ġà¤Ĩà¤¯ à¤°à¤²
à¥¨à¥¦à¥¨ à¥§
à¤łà¤® à¤£
à¤Ĺà¤¤ à¤²
à¤¸ à¤¸à¤²
201 8
à¤Ľ à¤¤
à¤ĩà¤¨ à¤²à¤ķ
à¤°à¤µ à¤ļà¤¨
à¤µ à¤¦à¤²
Ġ! âĢĻ
à¤°à¤ª à¤Ł
ä ¸
r y
à¤¡ à¤ľ
Ġà¤¤à¤¬ à¤¸à¤®
à¤¹ à¤£à¤ķ
à¤µ à¤°à¤¤
à¤ľ à¤¯à¤¨
Ġà¤²à¤Ĺ à¤¨à¤¶
Ġà¤«à¤² à¤¦
Ġà¥¨à¥¦à¥¬ à¥¦
à¤¦ à¤°à¤¬
Ġà¤Ĺ à¤ĩà¤¨
à¤¶ à¤²à¤¤
Ġ com
ĠOn line
Ġà¥¨à¥¦à¥« à¥¬
.... ..
à¤¦ à¤°à¤ķ
à¤¶ à¤°à¤£
Ġà¤¹ à¤Ĺ
Ġà¤¦à¤² à¤¸
ĠÐ ¸
1 7
à¤¬ à¤¨à¤®
à¤¨ à¤µà¤®
à¤ļà¤ķ à¤¹à¤°
ir st
à¤° à¤Ł
à¤¸ à¤°à¤¬
ĠS ep
Ġà¤¡à¤² à¤°à¤®
à¥ģ âĢĿ
Ġà¤ħà¤° à¤¨
Ġ! âĢĿ
1 8
Ġà¤¨à¤Ńà¤ı à¤ªà¤¨
à¤¯à¤ľ à¤Ĺà¤¤
à¤ĸà¤ķ à¤¹à¤°
Ġà¤ķà¤° à¤¬
Ġà¥¬ à¥¦à¥¦
à¤¨ à¤«
Ġà¤° à¤«
à¤°à¤¬ à¤¦à¤²
à¤² à¤ĺ
à¤¯ à¤¤à¤°
Ġà¤Ī à¤ķ
Ġà¥¨à¥¦à¥¦à¥ ©
à¤¤ à¤²à¤®
Ġà¤ı à¤Łà¤²
à¤ħ à¤¶
Ġà¤ĵ à¤ĩà¤°
ic le
Ġà¥¨à¥¦à¥¦à¥ ¨
à¥ĭ |
Ġà¤Ĩ à¤·
as s
ĠG oogle
i al
à¤Ĺ à¤¨à¤ķ
à¤§ à¤°à¤£
Ġà¤Ľ à¤¡
Ġà¤° à¤ľà¤¨
Ġà¤ıà¤¸à¤Ī à¤Ī
Ġà¤ķà¤¥ à¤¨
Ġà¤ªà¤¦ à¤¸
Ġà¤Ĺà¤ľ à¤²à¤®
Ġà¤² à¤ł
Ġà¤¦à¤¶à¤ķ à¤ħà¤ĺ
Ġà¤¨à¤Ń à¤ıà¤®
or m
à¤ıà¤ļ à¤¡
à¥į âĢĿ
à¥ĭ âĢĶ
à¤ī à¤¹à¤°
à¥¤ à¥¤
Ġà¤¸à¤¹ à¤¸
à¤Ĺ à¤µà¤¤
à¥ĩâĢĵ âĢĺ
Ġà¤ª à¤Ļ
à¤°à¤¸ à¤ĺ
Ġà¤ľà¤® à¤ĺà¤Ł
Ġà¤Ĩà¤ī à¤ľ
à¤īà¤¨ à¤¦
à¤Ĩ à¤°à¤ķ
Ġà¤®à¤¤ à¤ª
à¤¾à¥ĩ à¥¤
Ġà¤Ľ à¤Ł
à¤Ń à¤ı
à¥ĭ à¤ĥ
Ġà¤ħà¤ª à¤¹à¤°
à¤¸ à¤¶
à¤Ĺ à¤¤à¤°
à¤¾ à¤¿
à¤¸ à¤ªà¤Ľ
Ġa bout
à¤² à¤ħà¤¨
à¥© à¥®
à¤§à¤¨ à¤Ĺà¤°
à¤ķà¤Ł à¤¤à¤®
à¥ĩ âĢĿ
à¤Ł à¤¬à¤¨
Ġ >>
Ġ 8
Ġà¥¤ âĢ¦
à¤¸à¤¦ à¤¸
à¤Ł à¤¡
à¤ľ à¤¡
à¤ī à¤ªà¤¯
Ġà¤ħà¤¸à¤¹ à¤¯
Ġà¤¸à¤ĺ à¤¨
Ġà¤ĺ à¤°à¤§à¤¨
* *
Ġà¤ķà¤² à¤°
à¥« à¥¬
à¤²à¤¯ à¤¦
Ġà¤² à¤µ
Ġà¤¸à¤ķ à¤°
à¥Ī )
Ġà¤Ĩà¤¶ à¤Ļ
à¤® à¤¦à¤¨
à¤¤ à¤ľà¤¨à¤ķ
Ġà¤ļ à¤ķà¤²
r om
à¥ĭ .....
Ġà¤ķ à¤°à¤®
à¤¯à¤¸ à¤¸
à¤¶à¤¨ à¤ªà¤Ľ
Ġà¥¨à¥¦à¥¬ à¥§
Ġà¤¬à¤ľ à¤Ĺ
1 4
à¤·à¤¦ à¤®
à¤ıà¤¨ à¤ľ
à¤¨ à¤°à¤ķ
à¤§ à¤¶
Ġà¤ķà¤® à¤¸
Ġà¥¤ ,
à¤ĩ à¤¡à¤ķ
à¤Ĺà¤² à¤¸
ĠÐ ½
ĠNepal i
à¤£ à¤Ĺ
Ġà¤¯ à¤°
à¥© à¥¯
un d
à¤¾ Ã·
E R
à¤¾ !
à¤µ à¤¦à¤¨
Ġà¤Ĩ à¤®à¤®
à¤ł à¤Ĺ
ĠD ownload
à¥Ī -
i ve
à¤¯à¤µ à¤¶
Ð ´
à¥¤ "
Ġà¤¸à¤®à¤¯ à¤ħà¤¨
à¤Ĩà¤Ī à¤ıà¤ļ
Ġà¥§ à¥¦à¥§
Ġà¤Ĩ à¤¯à¤ķ
Ġà¤ľ à¤«à¤¤
à¤¸ à¤°à¤¹
id e
à¤°à¤µ à¤£
h ar
Ġà¤¹ à¤Ļ
à¤¥ à¤ķà¤°
à¤Ļ à¤²à¤Ĺ
à¤ī à¤¤à¤ķ
à¤Ĺà¤¤ à¤¦
à¤¯à¤¤ à¤ª
à¤īà¤¦ à¤¯à¤ª
à¤² à¤°à¤®
à¤¤à¤¨ à¤¹à¤°
à¤®à¤Ĺ à¤ł
Ġà¤Ńà¤ı à¤²à¤Ĺà¤¤
à¤Ńà¤µ à¤¹à¤°
Ġà¤ªà¤° à¤¸
à¤ĵ à¤°
Ġà¤ķà¤²à¤ķ à¤¤
à¤¯à¤¤ à¤¸
-- -
un g
p r
à¤¬ à¤Ńà¤¨
à¥Ĥ à¥¤
à¤²à¤¨ à¤ª
er ic
Ġà¤® à¤¦à¤°
Ġà¤¦ à¤¯à¤¨
à¤¯à¤® à¤¨à¤ķ
à¤ªà¤ķ à¤¹à¤°
Ġà¤¨ à¤Ļ
Ġà¤Ĺà¤° à¤Ĺà¤¹à¤¨
Ġà¤° à¤Ļà¤ķ
à¤ı à¤Łà¤°
à¤®à¤¸à¤® à¤°
à¤ľ à¤°à¤®
à¤Ń à¤ħà¤Ļ
Ġà¤ĸ à¤¶
à¤¤ à¤¤à¤°
Ġà¤ķ à¤Ļ
Ġà¤¬ à¤®à¤ķ
à¤¨à¤ķ à¤²
à¤®à¤¤ à¤¦
Ġà¤¸à¤®à¤¯ à¤Ń
à¤°à¤£ à¤µ
à¤ļ à¤ľà¤¨
Ġà¤¡ à¤¸
Ġà¤Ĩà¤ªà¤¤ à¤ķ
e ar
Ġà¤ĺà¤Ł à¤¸
Ġà¤ħà¤¸à¤® à¤Ŀà¤¦
Ġà¤Ĺà¤Ī à¤°à¤¹
à¥¨à¥¦à¥§ à¥Ń
à¤¡ à¤§
Ġà¤ Ļ
à¤ī à¤Ĺ
à¤¾à¤ģ ...
Ġà¤ª à¤Łà¤¨
Ġà¥¤ [
à¥¬ à¥§
he t
à¤¨à¤² à¤²
Ġà¤Ĩà¤¶ à¤¯
Ġ1 5
Ġf irst
à¥ ľ
Ġa s
i b
à¥Ģ "
à¤Ń à¤°à¤®
ĠP l
à¤ŀ à¤°
Ġà¤® à¤¨à¤®à¤¨
4 6
Ġà¤ħ à¤ķà¤¸
à¥ģà¤ģ à¥¤
Ġà¤¸ à¤¯à¤®
à¤¬ à¤Ĺà¤°
ĠN E
à¤ĩ à¤¸à¤®
à¤ĺ à¤¬
Ġà¤Ńà¤µà¤¨ à¤¹à¤°
à¤ĩ à¤ľà¤ķ
à¤¹ à¤¸à¤®
Ġà¥¨à¥¦à¥« à¥§
à¤ļ à¤¯à¤ķ
ĠÐ ¾
à¤ł à¤ª
à¤Ŀ à¤²
Ġà¤¨à¤¹ à¤Ł
à¤ıà¤¸ à¤ıà¤®
Ġà¤µà¤° à¤¦
à¤£ à¤ªà¤¨
à¥Ī ;
Ġà¤¨ à¤¸à¤°
8 1
à¤ľà¤¨ à¤ª
Ġ art
à¤Ł à¤¸à¤¹
à¤¤ à¤ļà¤°
à¤¯à¤¤ à¤¥
à¤² à¤°à¤²
Ġà¥¤ &
Ġà¤ª à¤Ĺ
à¥¬ à¥¯
| |
Ġ>> >
à¤¤ à¤¶
à¤ħ à¤Ľ
Ġà¤¡à¤Łà¤ķà¤® à¤®
à¤¹à¤¦ à¤°à¤µ
à¤¨ à¤¯à¤¤
Ġà¥¤ âĢĺ
à¤²à¤¨ à¤¸
à¥ĩ âĢĮ
Ġà¤ĸ à¤µà¤°
à¤°à¤¤ à¤¤à¤°
Â ·
à¤¤à¤® à¤§
à¤łà¤ķ à¤ªà¤Ľ
Ġà¤ª à¤¥à¤°
à¤· à¤¦à¤°
à¤¨ à¤¯à¤ķ
Ġà¤¡ à¤£
0 5
Ġà¤ªà¤° à¤¶
Ġà¤ĺ à¤ļ
Ġà¤ħà¤ª à¤Ń
o g
à¤¯à¤® à¤¸
or g
Ġ .....
à¤Ĩ à¤¸
à¥¬ à¥®
f t
Ġà¤² à¤¥
Ġà¤ħà¤ªà¤¨ à¤¤
à¤¯ à¤¡à¤Ńà¤¨
Ġà¤ľ à¤¯à¤°
u re
Ġà¤µ à¤¯
à¤¯à¤¸ à¤ħà¤¨
à¤Ļ à¤¯
Ġà¤¨à¤ª à¤ł
Ġà¤ķ à¤ªà¤®
à¤ī à¤¡à¤°
à¤Ĺà¤« à¤Ĺ
à¤§ à¤¨à¤¸
d c
à¤Ļ à¤¸à¤®
à¥Įà¤Ĥ âĢĶ
Ġà¤Ŀ à¤²à¤ķ
Ġà¤ĵ à¤ł
Ġy ou
Ġà¤¨ à¤°à¤¬à¤¹
à¤Ĺ à¤¸à¤¹
à¤ĩ à¤ĵ
Ġà¤ļ à¤¸
Ġà¤Ĳà¤¨ à¤ħà¤¨
Ġb e
g ov
à¤¦ à¤²à¤¯
à¤Ńà¤° à¤Ļ
al u
à¤ĩà¤² à¤¹à¤°
à¥¯ à¥¦
à¤¾ ..
: :
à¤¨ à¤²à¤ķ
à¤µà¤° à¤ª
à¤¿ '
à¤Ł à¤¹
à¤¤à¤¨ à¤¶
Ġà¤ĭ à¤£à¤®
à¤ı à¤«à¤ķ
à¤Ĩ à¤ĩà¤¬
D F
Ġà¤ħà¤¦ à¤Ń
à¥¬ à¥Ń
are d
à¤Ļ à¤ª
à¤Ĩ à¤ªà¤¸à¤®
i re
~ ~
Ġà¤¹ à¤ł
à¤²à¤ķ à¤¬
à¥ĭà¥¤ âĢĿ
Ġà¤Ń à¤ŀ
Ġà¤Ľà¤²à¤«à¤² à¤ªà¤Ľ
à¤¸ à¤ĸ
à¤ķ à¤Ľ
à¤ĸ à¤§à¤°
Ġà¤¬ à¤Ĺà¤°
à¤Ĩ à¤µà¤¶
Ġà¤Ŀ à¤ķ
à¤ķà¤² à¤¨à¤®
Ġà¤¤ à¤ķ
à¤°à¤ķ à¤°à¤£à¤ķ
à¥¬ à¥«
à¤§ à¤ªà¤Ľ
Ġà¤® à¤ł
Ġ1 6
à¤® à¤¤à¤°
à¤¦ à¤¯à¤ķ
à¥Ī à¥į
Ġà¤®à¤¦ à¤¨à¤ķ
Ġà¥§ à¥¦à¥®
Ġ Ù
Û Į
Ġà¤¨ à¤«à¤°
à¥« à¥©
Ġà¤ıà¤ķ à¤¥à¤°
ð Ł
Ġà¤¨ à¤µà¤¦
à¤¸à¤² à¤Ĺ
Ġà¤ıà¤¨ à¤Ł
à¤® à¤µà¤°à¤£
à¤ī à¤ªà¤ļ
Ġà¤ľà¤Ĺ à¤¤à¤ķ
à¤¿. ),
à¤ĩà¤ķà¤² à¤²
à¤Ĥ à¥¤
Ġà¤ħà¤µà¤¸ à¤°à¤²
à¥įâĢ Ķ
à¤¨à¤® à¤¸
à¤¸à¤¨ à¤¸
à¤ĩ à¤ıà¤®
Ġà¤Ŀ à¤¡à¤ªà¤®
Ġà¤ıà¤ķà¤¸ à¤¯
à¥Ń à¥Ń
Ġà¥¨à¥ª à¥¦
à¥į à¤ģ
à¤° à¤Ļà¤®
à¤Ń à¤¨à¤®
Ġapp e
à¤¤ à¤ĸ
à¤ª à¤£à¤ķ
à¤Ĺà¤£ à¤¤à¤¨
Ġà¤¨à¤Ĺ à¤ıà¤ķ
à¥įâĢĮ à¥¤
Ġà¤¹à¤ķ à¤¸à¤®
à¤¦ à¤¸à¤®
Ġà¤Ĩà¤® à¤¸à¤ŀ
Ġà¤µ à¤¨à¤¬
à¤īà¤¨ à¤¸à¤ķ
à¤Ĺ à¤¹
à¤Ĺ à¤Łà¤¨
âĢ¢ âĢ¢
Ġappe ared
à¤¤ à¤¸à¤¹
Ġà¤« à¤Ľ
à¤®à¤Ĺà¤ł à¤¬à¤¨
Ġà¤ħà¤¨ à¤Ń
Ġà¥¦ à¥¯
à¤Ī à¤¨à¤²à¤®
à¤īà¤ª à¤Ń
à¤®à¤¨ à¤Ĺà¤°
Ġà¤¸à¤¨ à¤°
Ø ±
à¤°à¤¹ à¤¦
à¤¯à¤² à¤Ĺ
Ġà¤² à¤¯à¤®
Ġà¤ı à¤¡à¤®
Ġà¤®à¤¹ à¤Ļ
à¤Ł à¤«à¤°
à¤ī à¤ªà¤®
ĠS agarmatha
à¤ľ à¤¯à¤ª
Ġà¤ħà¤µ à¤¹
à¤¬ à¤ĸ
à¤² à¤Ĺà¤®
Ġ3 0
Ġà¤¸à¤® à¤¥à¤°
à¤® à¤ħà¤¨
à¤° à¤¶à¤¨
à¤ķà¤² à¤Ĺ
à¤ħ à¤¬à¤ķ
Ð° Ð½
v er
à¤Ł à¤²à¤Ĺ
Ġà¤ĵ à¤ĸ
Ġà¤ļà¤°à¤£ à¤¬
à¤ľ à¤¤à¤²
Ġà¤ľ à¤µà¤°
à¥ª à¥¬
à¥¦à¥Ń à¥¨
Ġà¤Ĩà¤ĩ à¤¸à¤²
âĨ Ĵ
Ġà¥¨à¥¦à¥¦à¥ §
Ġà¥¨à¥¦à¥¨ à¥¨
à¤ķà¤¡ à¤Ń
Ġà¤ħà¤° à¤¬à¤ķ
à¤ķà¤® à¤§
à¤¸à¤¦ à¤°à¤®
à¤¯ à¤Ĺà¤¤
à¤¸ à¤§
ĠR ok
Ġà¤ĺ à¤Łà¤ķ
à¤¤à¤® à¤¬
à¤¦ à¤²à¤®
Ġà¤ľà¤² à¤ľà¤²
à¤²à¤ķ à¤°
Ġ1 4
à¤¤à¤¨ à¤¹
Ġà¤ªà¤¸ à¤²à¤ķ
à¤Ł à¤ķà¤²
Ġà¤¬ à¤¦à¤®
à¤Ī à¤µ
à¤Ł à¤Ńà¤¨
à¤°à¤¨ à¤Ĺà¤°à¤®
Ġ =
à¤ĩ à¤ķà¤¨
à¤ĺ à¤ļ
ig ht
i an
à¤Ł à¤Ł
à¤°à¤¶ à¤®à¤¶
à¤¡ à¤°à¤¸
Ġà¤Ĩà¤¦ à¤°à¤£
à¤ĸ à¤ª
à¤¶à¤¨ à¤¹à¤°
à¥¯ à¥¯
à¤² à¤Ŀ
es in
à¤¯à¤¸ à¤¦
am p
à¤Ł à¤®à¤®
à¤¯à¤£ à¤²
on e
à¤µ à¤Łà¤ķ
Ġà¤¨ à¤ķà¤°
Ġà¤¹ à¤¬
Ġà¤®à¤¤ à¤ªà¤°
à¤ıà¤¸ à¤¸
het ri
à¤ļ à¤¸à¤®
à¤£ à¤¸à¤®
à¥ª à¥§
à¤Ĺ à¤ľà¤ķ
Ġà¤ħà¤¨ à¤ª
2 1
Ġà¤µ à¤·
Ġà¤Ĩ à¤¯à¤¸
res ham
Ø§ Ù
!! !
Ġà¤ķà¤¦ à¤®à¤²
l alu
à¥Įà¤ģ -
Ġà¤ĵ à¤ķ
Ġà¥® à¥¦à¥¦
à¤µà¤ª à¤Ł
r ad
à¤¶ à¤¸à¤®
Y esin
Ġà¤§ à¤¸
à¥« à¥®
Ġch hetri
ĠRok a
Ġà¤ĩ à¤¬
à¤ľ à¤¯à¤²
à¤ģ âĢĻ
à¤īà¤¨ à¤¸à¤®
Ġà¤µ à¤®
à¤¶ à¤¬à¤¹
à¤¯à¤ª à¤¦
l d
Ġà¤Ń à¤ĩà¤°
Ġà¤¦ à¤ĸ
Ë Ĩ
à¥į âĢĻ,
à¥ĭ :
eric a
à¤° à¤°à¤¤
à¤° à¤¨à¤®
Ġà¤ĸ à¤¬à¤°à¤®
à¤ı à¤ıà¤«à¤ª
à¤¾à¤Ĥ à¤ģ
ĠP ost
à¤ĩ à¤¡à¤®
à¤²à¤¯ à¤¸à¤®
Ġà¤« à¤°à¤µ
à¤µà¤¸ à¤Ń
Ðµ ÑĤ
à¤Ļ à¤Łà¤¨
à¤Ĩà¤Ī à¤Ń
à¤ĭ à¤·
l l
Ġà¤Ĩ à¤ķà¤²à¤¨
à¤® à¤µà¤°
Ġà¤¸à¤¯ à¤¦
Ġà¤ħà¤¨ à¤°
Ġà¤ı à¤¤
à¤ī à¤Ń
Ġà¤Ńà¤¯ à¤µ
Ġà¤®à¤¹ÅĴ à¤µ
Ġ2 00
Ġà¤¬à¤² à¤¤
à¤® à¤°à¤ķ
Ġà¤ħà¤²à¤® à¤²à¤®
à¤ľà¤² à¤µ
Ġ ï¿½
à¤· à¤¸à¤¹
Ġà¤µ à¤§
à¥¬ à¥¬
Ġà¤ħ à¤µà¤®
A N
à¤µà¤¸ à¤²
Ġà¤ĵ à¤ĸà¤°
Ġ11 48
ast er
à¥Ĥ à¥Ĥ
à¤¶ à¤ªà¤Ľ
Ġà¤¨à¤Ĺà¤° à¤¬
: -
Ġà¤ķ à¤¶
à¤¡à¤ķ à¤ªà¤ķ
Ġà¥¨à¥¦à¥« à¥«
e e
à¤² à¤¢
Ġà¤ľ à¤²à¤¯
ĠĠ ĠĠ
ar y
à¤£ à¤¤à¤°
Ġà¤Ŀ à¤¡
à¤¨ à¤¤à¤²
à¤¬ à¤¨à¤ķ
Ġà¤ķà¤® à¤®
Ġà¤® à¤¯
Ġà¤«à¤°à¤ķ à¤«à¤°à¤ķ
Ġà¤¨ à¤¥
c k
Ġà¤ĸ à¤µ
à¥ĭ âĢĮ
à¤ļ à¤²à¤²
à¤ł à¤¬
à¤Ĩ à¤ī
ar pan
Ġà¥§ à¥¦à¥«
Ðµ ÑĢ
Ġà¤ıà¤¨à¤Ĩà¤° à¤ıà¤¨à¤ķ
à¥ĭ /
à¤¶ à¤ľ
a z
Ġà¤Ĩà¤ľ à¤Ńà¤¨
Ġà¤ļ à¤Ļ
à¥ª à¥®
Ġ or
is h
à¤¿ à¥ĩ
Ġà¤µ à¤ľà¤¨
à¤Ĺà¤¬ à¤£
à¤µ à¤¶à¤ķ
à¤¬ à¤Īà¤ķ
à¤«à¤¸ à¤²à¤®
à¥ģ à¥¤âĢĻ
à¤Ł à¤ħà¤¨
à¤¯à¤£ à¤Ĺ
Ð ¿
Ġ @
à¤¸ à¤¤à¤ķ
à¤¯ à¤¬à¤¦
à¤ı à¤Ŀ
nd ash
Ġà¤ıà¤¨ à¤ıà¤®à¤¬
Ġ à¥ģ
ĠN ational
à¤īà¤ª à¤¡
à¥ĢâĢĻ ,
à¤£ à¤¦
Ġw ith
y s
Ġà¤Ĩ à¤ıà¤¸
Ġà¤¸à¤¨ à¤¸à¤¨
ĠP DF
Ġà¥§à¥¯à¥¯ à¥Ń
Ġà¤¦à¤¶à¤ķ à¤¸à¤®
à¤ł à¤°
à¤¯à¤¸ à¤ªà¤Łà¤ķ
Ġà¤ħà¤¬ à¤¦
à¥© à¥Ń
p l
Ġà¤ļ à¤¯à¤¨à¤ķ
Ġà¤ľà¤¨ à¤ħà¤§
Ġà¤ħà¤ªà¤¹à¤° à¤£à¤®
in d
a w
à¤ķ à¤Ńà¤¨
à¤§ à¤ľà¤¨
à¥ģ âĢ¦
à¤® à¤¦à¤°
à¤¦à¤¨ à¤ħà¤¨
Ġà¤µ à¤¨à¤²
à¤Ĩ à¤ĸ
à¤µà¤°à¤£ à¤¹à¤°
à¤¹à¤Ļà¤ķ à¤Ļ
à¤¨ à¤ļà¤°
à¤® à¤¨à¤²
à¤¯ à¤ĺ
à¤¸ à¤Ĺà¤°à¤®
Ġà¤ľ à¤ķ
à¤Ĺà¤® à¤¸
1 6
à¥Ī à¤ĥ
à¤°à¤ľ à¤¹
I N
Ġà¥Ń à¥¦à¥¦
I T
Ġà¤ķ à¤¸à¤®
à¤¯à¤ķ à¤°à¤£
à¥ª à¥¨
Ġà¤Ĺà¤ł à¤µà¤¨
N ov
à¤µ à¤¤à¤°
à¤ıà¤« à¤ı
à¤²à¤¬ à¤ľ
Ġà¥§à¥§à¥© à¥¯
ĠP ro
Ġà¤ĵà¤Ń à¤°à¤ķ
Ġà¤®à¤¹Ã¬ à¤µà¤ª
ï ģ
à¤ĸ à¤²à¤¨
Ġà¤¤à¤¹ à¤¸
ĠÐ º
Ġà¤ħà¤¨à¤¶à¤¨ à¤°à¤¤
à¤ĩ à¤Ĺà¤°
Ġ Ã
à¤¡ à¤Ĺ
Ġà¤ıà¤® à¤ı
à¤·à¤£ à¤¸à¤®
à¤ĩ à¤¬à¤²
à¥ģ '
Ġà¥§à¥¨ à¥¦
ĠÐ ´
ĠD is
e bs
Ġà¤ª à¤°à¤ķ
Ġà¤ ¾
Ġà¤§ à¤ª
à¤® à¤ªà¤¤
à¤« à¤Ł
Ġà¤Ľà¤ł à¤ªà¤°
Ġ r
à¤¬ à¤ĸà¤¤
Ġà¤¦ à¤Ļ
i o
à¤¯à¤Ł à¤¨à¤®
à¤Ĩ à¤°à¤¸
à¤ħà¤« à¤Ĺ
Ġà¥§à¥¦ à¥¦à¥¦
à¤° à¤Ĺà¤¢
s s
à¤ı à¤ĩà¤ķ
Ġà¤Ł à¤¯
à¤°à¤ľ à¤¹à¤°
à¤¸à¤¹ à¤®à¤¤
à¤Ĩ à¤ª
Ġà¤ĵ à¤¶
Ġà¤ħà¤ª à¤¹
à¤¾ Â¥
Ġà¤¨ à¤®à¤¨
Ġà¤ĩ à¤«
Ġà¤ħà¤¸ à¤ľ
a ve
Ġà¤Ĩ à¤¡
à¤®à¤Ĺ à¤°à¤ķ
Ġn ar
ËĨ à¤¨
e re
à¤¤ à¤ªà¤Ľ
Ġà¤Ĩ à¤°à¤¤
à¤Ĺ à¤£à¤®
Ġà¤ĸ à¤°à¤²
à¤ĵ à¤ĸà¤²à¤¢
à¤· à¤¶
ur b
à¤ĩ à¤ıà¤²
0 4
Ġà¤Ŀ à¤²à¤ķà¤¹à¤°
à¤°à¤¤à¤ķ à¤¥
2 4
à¥į !
Ð¾ ÑĢ
Ġà¤Ľ à¤¨à¤ķ
at h
Ġà¤Ĩ à¤ĺ
à¤²à¤¨ à¤¹à¤°
à¤®à¤¨ à¤¸
à¤§à¤¨ à¤µ
Ġà¤Ĩà¤Ī à¤¤à¤µ
Ġà¤ı à¤¯à¤°à¤¬
Ġà¤°à¤¹ à¤ķ
à¤¯à¤² à¤¯à¤®
Ġà¤¸à¤® à¤·
à¤®à¤¤ à¤¸à¤®
Ġà¤¸ à¤µà¤²
à¤¶ à¤Ļ
A L
à¤Ī à¤Ĺ
à¤ª à¤¯à¤ķ
Ġà¤ªà¤Łà¤ķ à¤¥
a v
à¤¨ à¤Ńà¤ıà¤ķ
à¤¹ à¤¡
à¤¬ à¤®à¤ķ
à¤£à¤¯ à¤ħà¤¨
à¥ī à¤Ĥ
id arpan
Ġnar idarpan
à¤ħ à¤Ł
? )
à ¹
Ġ he
à¥ĩ âĢĶ
à¤£ à¤ļà¤¨
Ġà¤¨à¤Ĺà¤° à¤²
Ġà¤ıà¤« à¤ª
el l
à¤Ĺ à¤®à¤®
à¤¤à¤°à¤¤ à¤°
Ġà¤¤ à¤Łà¤¸
à¤°à¤¬ à¤ķ
à¤° à¤Ľ
à¥į à¤Ĥ
à¤ľà¤¨ à¤¯
Ġà¤ı à¤¯
à¤« à¤ª
à¥ª à¥ª
à¤¸ à¤¢
à¤¸à¤® à¤Ĺ
à¤Łà¤¨ à¤°
à¤¶ à¤ħà¤¨
Ġà¤² à¤®à¤¹
Ġà¤ĸ à¤ķ
Ġà¤ĺ à¤®à¤£
à¤¤à¤¨ à¤¸
à¥® à¥©
à¤²à¤Ĺ à¤¬
Ġà¤ħà¤µà¤¸ à¤°à¤µ
Ġà¤ıà¤ļ à¤Ĩà¤Īà¤Ń
à¤§à¤¨ à¤ªà¤Ľ
à¤¹ à¤ªà¤Ľ
à¤¤à¤° à¤¨
Ġà¤¸à¤¦ à¤¨à¤ķ
ĠM ar
à¤¸ à¤Ĺà¤¢
Ġà¤ħà¤¸à¤® à¤°
Ġà¤Ĺ à¤Ľ
à¤·à¤¦ à¤¬
Ġ201 6
à¤Ľ à¤²
à¤ħ à¤¡
Ġl e
Ġ an
à¤¤ à¤Ĺà¤°
à¤¥ à¤ķà¤²
à¤Ĺ à¤§à¤¨
Ġà¤ıà¤ķ à¤Ĩà¤ªà¤¸à¤®
à¤ķ à¤ļ
Ġà¤Ĺ à¤²à¤ķ
Ġà¤ı à¤¥
à¥¨à¥¦à¥ ©
ĠâĢ ł
à¤¸ à¤°à¤¤
Ġà¤Ĩà¤µ à¤°à¤£à¤®
à¤£à¤¤ à¤¯
Ġà¤¬ à¤¬à¤Ī
Ġà¤® à¤·
à¤¾. ),
Ġà¤² à¤Ł
à¤·à¤£ à¤µ
à¤¦ à¤ķà¤°
à¤¢ à¤ķ
à¤¯à¤Ł à¤¨à¤²
à¤ı à¤Łà¤°à¤®
à¤¥ à¤¨à¤ķ
à¤Ń à¤ŀ
ĠS h
à¤² à¤ł
à¤ı à¤¨à¤²
à¤ı à¤Īà¤²
à¤¦ à¤°à¤¹à¤°
à¤¼ à¤¾
à¤§ à¤¸à¤®
Ġà¤¯à¤¸ à¤¸à¤®
Ġà¥§à¥¬ à¥¯
ag s
à¤ľ à¤«
à¥ª à¥Ń
à¤£ à¤§
, ...
ĠA ug
à¤Ļ à¤¤à¤°
à¤Ĩà¤° à¤Ĩà¤Ī
à¤¹à¤°à¤£ à¤¹à¤°
à¤ĩ à¤£
à¤°à¤« à¤²à¤ķ
rt icle
y m
à¤Ľ à¤¸
à¤¸ à¤ªà¤¨
à¤¸ à¤ľà¤¸
Ġà¤ļ à¤¡
à¥Įà¤ģ âĢĻ
k habar
Ġà¤ıà¤¨ à¤Ĩà¤Īà¤¸
il e
à¤°à¤® à¤ª
Ġà¤Ĳ à¤²
à¤Ĭ à¤°
Ġà¤ľ à¤²à¤¬
à¤ı à¤¶à¤¨
à¤«à¤¸ à¤²à¤ķ
Ġà¤ıà¤ķ à¤¨
Ġà¤°à¤¹à¤° à¤²
Ġà¤ĩ à¤Łà¤²
à¥ĭà¥¤ '
à¤¸ à¤Ńà¤¨
à¤Ń à¤ıà¤Ľ
à¤¨à¤² à¤¹à¤°
Ġà¤ķà¤® à¤²à¤ª
Ġà¥§à¥¨ à¥®
Ġà¤Ī à¤¯
Ġà¤ķà¤¦ à¤®à¤ķ
in k
ac t
Ġ $
à¥į, '
à¤ľà¤Ĺ à¤¨
à¤Ńà¤Ĺ à¤µ
ĠV i
á ŀ
à¤ķ à¤¸à¤Ń
à¤ĺ à¤°à¤¬
à¤ıà¤¸ à¤ı
ĠK habar
à¤Łà¤° à¤Ńà¤¨
Ġà¥¨à¥¦à¥« à¥Ń
Ð° ÑĤ
a i
Ġà¤µ à¤¹à¤¨
à¤§ à¤µà¤ª
Ġà¤ħà¤¬ à¤§
à¥įâĢ ¦
à¤£à¤¯ à¤ª
Ġad d
0 6
à¤Ł à¤®à¤²
à¤¨à¤¬ à¤¤
Ġà¤Ī à¤ª
à¤ļ à¤¯à¤ķà¤°
à¤Ļ à¤ļ
à¤¸ à¤°à¤£
" ,
Ġ: -
à¤® à¤Ł
à¤°à¤ķ à¤µ
Ġà¤¶ à¤¸à¤ķ
Ġà¥§à¥¬ à¥¦
Ð ±
à¤¬ à¤®à¤®
à¥ª à¥©
Ġà¤Ń à¤Ļ
à¤§ à¤ķà¤°
à¤°à¤Ń à¤ķ
à¤ĺ à¤¦
à¤²à¤® à¤£
Ġà¥§à¥© à¥¨
f orm
à¤ĩà¤¨ à¤¸
à¤· à¤§à¤ķ
en g
à¤ı à¤ĩ
Ġà¤ªà¤¦ à¤Ń
Ġb y
Ġà¤Ĩ ËĨà¤¨
à¤ªà¤¨ à¤¬
en s
Ġà¤Ľà¤²à¤« à¤²à¤²
à¤ľà¤® à¤°
à¤®à¤£ à¤²
à¤¶à¤¨ à¤¸à¤®
à¥į à¤¿
à¤¯à¤µ à¤§
Ġà¤¸à¤¹à¤¨ à¤¶
à¤Ĩà¤« à¤¨
à¤ķà¤°à¤£ à¤¸
Ġà¥§à¥ª à¥¦
Ġà¥¤ -
Ġà¤¨à¤Ĩ à¤ıà¤ªà¤Ľ
1 5
p e
à¤¾ âĢĶ
à¤°à¤¦ à¤¤
à¤Łà¤¨à¤Ĺà¤° à¤²
m other
ab le
à¥į à¤ĥ
Ġà¤ķ à¤¨à¤ķ
Ġà¤° à¤¡
à¤¬ à¤°à¤¬
Ġà¤¨ à¤Ŀ
Ġà¤¨ à¤°à¤¹à¤°
à¤µà¤¨ à¤¦
à¤¸à¤® à¤µ
à¥ª à¥¯
à¥į, âĢĿ
ĠS am
Ġà¤ı à¤Ĩà¤Īà¤ľ
Ġà¤ĩ à¤¥
Ġà¤ķà¤Ł à¤¹à¤°
à¤² à¤°à¤¹
ont in
Ġà¤Ĺ à¤ıà¤®
à¥įà¥¤ âĢĿ
b r
à¤°à¤®à¤£ à¤ªà¤Ľ
or k
is k
A T
ebs ite
07 5
Ð¾Ð ¼
à¤Ĺà¤² à¤Ĺ
à¤ĩ à¤²à¤¬
à¤¾à¤ģ )
Ġà¤ľà¤¨ à¤§à¤¨à¤ķ
Ġà¤ĭà¤£ à¤ªà¤¤
Ġa re
Ġà¤¬ à¤«
à¤ľà¤¤ à¤ªà¤¤
à¤° à¤¡à¤ķ
à¤£à¤ķ à¤¦à¤ķ
âĢ¦ .
à¤ĩ à¤Łà¤°
à¤²à¤® à¤¨
Ġà¤Ńà¤ı à¤¸à¤®
Ġ al
Ġw h
à¤ª à¤¬à¤¹
à¤Ī à¤¬à¤°
Ġà¤ľà¤¨ à¤ĺ
nepal mother
à¤ĸ à¤ļ
2 8
Ñ İ
à¤ħ à¤ļ
Ġà¤ħà¤° à¤¬à¤®
Ð½ Ñĭ
à¤¾ à¥ĩ,
à¤ı à¤²à¤²
à¤Ī à¤¨à¤®
Ġà¥¦à¥Ń à¥¦
Ġà¤ĩ à¤¯
Ġà¤ħà¤¸ à¤°à¤²
Ġà¤¸à¤° à¤¸à¤®
Ġà¤Ĩà¤ĩ à¤ıà¤®
Ġà¤ªà¤¹à¤²à¤ķ à¤¦à¤®
à¤¸ à¤ªà¤°
à¤°à¤£ à¤®à¤§
Ġp ric
Ð¾Ð »
Ġà¤¨ à¤¯à¤¨
Ġà¤¯à¤¸à¤® à¤§
Ġà¤ľà¤² à¤ª
o b
Ġ i
à¥ ħ
Ġà¤Ńà¤ı à¤ħà¤¨
ĠIn tern
Ġà¤ħ à¤¥à¤ķ
Ġà¤ªà¤Ł à¤ķà¤®
à¤¬ à¤¦à¤¨
Ġà¤ı à¤²à¤°
Ġà¥§ à¥¦à¥ª
à¤ķà¤° à¤¶
à¤ķ à¤ł
à¤Ŀ à¤Ĺà¤¡
à¥¬ à¥¨
Ġth is
ĠÐ¿ ÑĢ
Ġà¤¨ à¤µà¤¯
à¤ļ à¤µà¤°
Ġà¤¦à¤® à¤ķà¤®
Ġà¤ľà¤¨ à¤Ĺ
Ġà¥§à¥¯à¥¯ à¥¬
el ist
Ġà¤¦ à¤¸à¤®
à¥į, âĢĺ
à¤ļà¤¨ à¤¸à¤®
à¤¯ à¤¶à¤ķ
à¤Ł à¤ªà¤Łà¤ķ
Ġà¤¦ à¤Ĺ
à¤¤ à¤Ĺà¤¤à¤ķ
Ġà¤Ĩà¤° à¤ľ
à¤ķà¤° à¤ª
à¥ĭ "
Ġà¤¸à¤¤ à¤¹à¤¦
Ġà¥§à¥¨ à¥«
Ġ âĨĴ
Ġà¤¤ à¤µà¤°à¤¬
à¤ļ à¤ķà¤¨
à¤¾à¤ģ à¤Ĥ
Ġà¤īà¤ª à¤Ĺ
p d
à¤ı à¤Ń
Ġà¤Ķ à¤¸à¤¤à¤®
Ġà¤¦à¤¶à¤ķ à¤ªà¤Ľ
Ð¾Ð ´
à¤ı à¤²à¤®
à¤¸à¤¨ à¤°
à¤¬à¤° à¤¸à¤®
à¤¿à¤Ĥ à¤ģ
Ġf rom
Ġà¥§à¥¯à¥® à¥¦
r u
Ġà¤Ĩà¤µ à¤¤
Ġc on
à¤ı à¤«à¤²
à¤īà¤¨ à¤¬
à¥¬ à¥ª
à¤īà¤ªà¤® à¤¹
à¤¹ à¤²à¤¤
ar i
à¤Ń à¤²à¤ķ
à¤Ĩ à¤īà¤¨
à¤ıà¤¸ à¤¨à¤²
Ġà¥§à¥¯à¥¯ à¥¯
à¤ī à¤¦à¤²
Ġà¥§à¥¯à¥¯ à¥ª
00 0
? âĢĿ
Ġà¤¨ à¤¸à¤®
à¤¶ à¤¹
à¤¯à¤® à¤£
Ġà¤ħà¤¸ à¤¤
à¤ģ ,âĢĻ
à¤Ļ à¤¹
à¤¯à¤® à¤µ
Ġà¤Ĩà¤Ī à¤Ł
Ġà¤¯à¤¸ à¤Ńà¤¨
à¤°à¤¹ à¤£à¤ķ
à¤Ī à¤°à¤¹à¤¨
re vi
ï¼ Į
Ġà¤¹ à¤ķà¤²
Ġà¤ĭ à¤ļ
à¥ĭ ..
à¤¤ à¤Ńà¤¨
Ġà¤Ĩ à¤¯à¤ķà¤°
Ġà¤ľà¤Ĺ à¤¨
à¤¸ à¤¤à¤°
Ñ Ĩ
ĠO ct
à¤¬ à¤ªà¤¤
à¤¯à¤Ł à¤¨à¤®à¤¨
à¥į âĢĿ,
à¥Ī /
à¤ľà¤¨ à¤ľ
Ġ1 3
à¤¤à¤µà¤¨ à¤¬
à¤Ļ à¤ĸ
à¤ľà¤¨ à¤¹à¤°
Ġà¤Ĩà¤ĩ à¤°
Ġà¤µ à¤Ĺ
Ġà¤ĺ à¤°à¤µ
du ction
Ġà¤® à¤łà¤®
Ġà¤Ľ à¤¥à¤°
à¤® à¤Ńà¤¨
Ġà¤ĺ à¤®
Ġà¤Ĩà¤ł à¤µà¤Ł
Ġà¤¸à¤¹à¤° à¤¹à¤°
à¤¢ à¤²
Ġà¤Ĩ à¤¯à¤®
Ġpric elist
à¤§ à¤ķà¤ķ
c c
Ġà¥§ à¥¦à¥©
Ġà¤§ à¤µà¤²
Ð ³
Ġà¤ħà¤° à¤µ
Ġà¤¬ à¤Łà¤¨
à¤ľ à¤¬à¤ķ
à¥ĩ "
à¥« à¥Ń
à¤·à¤ķ à¤¬
à¤ĵ à¤ª
Ġ' '
à¥Įà¤ģ, âĢĻ
à¤ī à¤ªà¤¨
Ġà¤ĩ à¤¡
à¤¯à¤² à¤¯à¤ķ
Ġà¤ħà¤¬ à¤¸à¤°
Ġà¤Ń à¤Łà¤®
à¥ĭ, ...
Ġà¤ĺà¤° à¤ª
Ġà¤Ĩà¤ĩ à¤¡à¤²à¤ķ
revi ous
N o
à¤Ĺ à¤¨à¤²
à¤¦à¤¨ à¤ª
Ð ¹
Ġ1 7
Ġà¤¶ à¤¯
à¥Įà¤Ĥ âĢĻ,
à¥§ à¥¦à¥®
à¤ķ à¤§
Ġà¤ī à¤ĺ
à¤ĺ à¤¬à¤¹
Ġà¥¦à¥Ń à¥§
ex t
2 9
Ġà¤Ĩ à¤Ĭ
à¤²à¤¬ à¤¹à¤°
Ġà¤ħà¤Ń à¤¦
à¤ªà¤² à¤Ł
Ġà¤ī à¤¸à¤®
à¤°à¤µ à¤¤
à¤Ł à¤²à¤¬
à¤¬ à¤¸à¤®
Ġà¥¤âĢĻ âĢĻ
à¤Ļ à¤°
an k
Ġà¤ķà¤® à¤¸à¤²
ac h
à¥į |
Ġà¤§ à¤¡
ort al
Ġ at
à¤½ à¤½
à¤¾ ]
à¤ıà¤ķ à¤ľà¤¨
à¤¹à¤° à¤®
à¤¨à¤¸ à¤¹à¤¨
el i
Ñģ Ðº
ontin ue
Ġ Q
à¤¶ à¤¯à¤¯
à¤Ŀ à¤¸à¤®
à¤ľà¤² à¤¸
Ġà¤¸à¤® à¤Ŀ
à¤¦à¤¨ à¤¬
à¤īà¤ª à¤Ĺ
Ġà¤ħà¤ĸ à¤¡
à¤¤à¤² à¤Ĺ
à¤µà¤¦ à¤¹
à¥¦à¥¬ à¥©
Ġà¤µ à¤¹à¤¸
à¤ĩ à¤®à¤°
at or
à¤®à¤² à¤Ł
à¤Łà¤¨à¤Ĺà¤° à¤¬
à¤¡ à¤¨à¤¸
à¥¨à¥¦à¥Ń à¥§
à¥į '
Ġà¤ħà¤¨ à¤µà¤°à¤¤
à¥ĩ !
à¤· à¤°à¤®
à¤ıà¤¸ à¤Ł
Ġà¤ªà¤¸à¤² à¤¬
Ġ un
ac e
Ġà¤Ĩà¤Ĺà¤®à¤¨ à¤¸
à¤°à¤ķ à¤¹à¤°
à¤®à¤ļ à¤²
ĠR isk
Ġà¤Ĺà¤£ à¤ªà¤¤
à¤ĩ à¤«à¤²
Ġà¤¨à¤Ĺà¤¦ à¤¸à¤¹
à¤°à¤µ à¤¹
Ġà¤ľà¤¯à¤¨ à¤Ĺà¤°
ĠDis aster
---- ----
à¤¤ à¤«
Ġà¥¦ à¥¨
Ġà¤ıà¤¡ à¤Ń
Ġà¤ľà¤¨ à¤¶
an c
à¤ķ à¤ķà¤²
à¤ĩ à¤µà¤Ł
Ġ( ?)
Ġà¤¡à¤Łà¤ķà¤® à¤ķ
à¤µ à¤ħà¤¨
à¤Ĺ à¤Ļ
Ġà¤² à¤ª
Ġà¤¸à¤°à¤¹ à¤ķ
à¤² à¤µà¤¨
Ġà¤®à¤² à¤ľà¤²
Ġà¤Ľà¤° à¤Ľ
ĠE mail
à¤ķ à¤¸à¤°
à¤Ĩà¤° à¤ıà¤²
Ġà¥§à¥¯à¥¯ à¥«
Ð» Ð¸
n e
à¥Ī âĢ¦
Ġà¤® à¤ľà¤ª
à¤° à¤ªà¤°
à¤ı à¤®à¤ķ
Ġth at
Ġà¥¦à¥ª à¥¬
Ġà¤ı à¤ħà¤°
à¤Ĩ à¤Īà¤ķ
Ġà¤ħà¤¹ à¤®à¤¦
Ġà¤Ĩà¤ĩ à¤°à¤¨
1 3
à¤Ļ à¤¤
Ġà¤ıà¤ķ à¤®à¤¤
. )
à¤ķ à¤¸à¤²
à¤¦ à¤¯à¤®
ĠRe duction
Ġà¤¬ à¤²à¤¬à¤¹
Ġà¥§à¥¯à¥¯ à¥©
Ġ ....
Ġà¤² à¤Ļ
Ġà¤ľà¤² à¤¶
à¤® à¤ªà¤Ľ
ĠT r
Ġà¤ľà¤¨à¤ĺ à¤¨à¤¤
à¤® à¤¨à¤®
à¤ĸ à¤Ĺ
Ġà¤ªà¤¢ à¤¨
Ġ it
à¤ĸ à¤ľ
Ġs end
ok ar
à¤Ł à¤ħà¤ª
à¤ģ '
à¤Ĩ à¤°à¤ª
à¥« à¥ª
à¤® à¤°à¤®
à¤® à¤¤à¤®
Ġà¤¯ à¤®à¤¨
à¤¡à¤² à¤¹à¤°
à¤ĺ à¤¨à¤ķ
Ġà¤°à¤¹ à¤¨à¤¸à¤¹à¤¨
à¤¶à¤¤ à¤¬
U S
à¤² à¤¥
Ġà¤ħ à¤Łà¤²
à¤ª à¤ľ
Ġà¤¶ à¤¸à¤¸
Ġà¤ĸ à¤¹à¤°
Ġà¥§à¥¯à¥Ń à¥¦
Ġread ing
Ġà¤¹ à¤¯
à¤ľà¤¨ à¤²à¤Ĺ
Ġà¤¸à¤¹à¤ľ à¤°
T ags
à¤® à¤²à¤²
à¤·à¤£ à¤ªà¤Ľ
Ġadd ress
ul t
ĠU S
à¤§ à¤ĸ
O N
Ġà¤ħà¤µ à¤ľ
Ġà¤ķ à¤Ľ
à¤¼ à¥į
à¤Ł à¤ľà¤°à¤²
Ġà¤¹ à¤²à¤ķ
à¤¡ à¤ªà¤¤
Ġà¤¨à¤Ĺà¤° à¤ªà¤°
Ġà¤ĵ à¤¨à¤¸à¤°
à¤¿ âĢĿ
à¤°à¤Ń à¤°à¤ķ
à¤® à¤Ľ
à¤Ī à¤ªà¤ķ
Ġà¤ĩ à¤Ļà¤²
Ġà¤Ľà¤²à¤« à¤²à¤¬
Ġà¥¦à¥¬ à¥¨
Ġà¤« à¤Ĺà¤¤
ĠE x
à¤°à¤ļ à¤¨à¤ķ
Ġà¤ıà¤² à¤ª
Ġà¤µ à¤ļ
à¤Łà¤® à¤§
Ġà¥¨à¥¨ à¥¦
Ġà¤¦à¤¸à¤® à¤²à¤µ
vi ews
... ]
à¤¸ à¤ĺ
à¤ªà¤° à¤¹
à¤Ĺà¤¤ à¤µà¤°
à¤ıà¤¸ à¤ıà¤²
à¥Īà¤ģ ,
à¤¨à¤¯ à¤¨à¤®
à¤ķ à¤¨à¤²
à¥¤ âĢĵ
Ġà¤ķà¤² à¤¶
Ġà¤Ĩà¤® à¤¸à¤Ń
Ġà¤¨à¤Ĩ à¤ı
Ġà¤ĵà¤ªà¤¨ à¤°
à¤¨à¤² à¤¬
Ġà¤Ľ à¤¬
à¤¦à¤¨ à¤¸
à¤° à¤Ĺà¤°
à¤¤ à¤²à¤ķ
Ġà¤¨ à¤µà¤®
Ġà¤ħà¤¨ à¤¶à¤¨à¤®
Ġà¤Ķ à¤·à¤¤
Ġà¤ı à¤ªà¤®
ip ur
p t
à¤¯à¤® à¤§
on ym
à¤ĩà¤¨ à¤¹à¤°
à¤¤à¤¨ à¤¬
à¤ĩ à¤ľà¤¨
à¤ĸ à¤°à¤ķ
Ġà¤² à¤«
à¤ĩ à¤¡à¤²
on d
ĠÐ ¼
Ð¸ ÑĤ
à¤ķ à¤ķà¤®
Ġà¤ĩ à¤¯à¤°
à¤¯à¤¯à¤¨ à¤¬
à¤« à¤ķà¤¨
à¤ı à¤¸à¤²
à¤ĩ à¤²à¤²
à¤« à¤µ
à¤ħ à¤ľ
à¤¤ à¤ľà¤¨à¤²
Ġà¤Ĩà¤¯ à¤¤à¤°
Ġe x
Ġà¥§à¥® à¥¦
Ġà¥§à¥¯à¥¬ à¥¬
onym ous
à¥Ģ Ã·
Ġà¤ķ à¤°à¤²
à¤ľ à¤ªà¤°
à¤ıà¤¨ à¤¡
ĠPl an
Ġ2 5
Ġà¤° à¤£à¤¬
à¤® à¤¬à¤²
à¤¨à¤ª à¤Łà¤ķ
à¤¸à¤¨ à¤µ
Ġ X
Ġà¤Ī à¤Ł
Ġà¤ıà¤ħ à¤°à¤ª
à¤°à¤£ à¤¯
Ġà¤¬à¤Ĺ à¤°à¤®
ub e
à¥ĩ :
à¤Łà¤¬à¤² à¤°
Ġà¤¬ à¤®à¤²
Ġà¤¸à¤¬ à¤¸
c on
v el
Ġà¤ªà¤° à¤µ
à¤ĩà¤¨à¤² à¤¸à¤®
Ġà¤ĺà¤° à¤¸à¤®
Ġà¤ļ à¤Łà¤ķ
er t
ct ed
à¤ķà¤Ń à¤°à¤ķ
à¤Ł à¤¸à¤ķ
Ġà¤¨ à¤ľà¤¨
à¤¾à¤ģ à¤ģ
à¥« à¥¦à¥¦
o ft
à¤¸à¤® à¤²
Ġà¥§ à¥¦à¥¯
ĠP ol
t ember
Ð¾Ð ³
à¤¯ à¤¯à¤ķ
à¤²à¤¬ à¤¬
Ġ ÑĤ
à¤²à¤¨ à¤¸à¤®
Ġà¤Ĩà¤ĩ à¤®
Ġà¤¹à¤² à¤¹à¤°
Ġà¤¯à¤¸ à¤ªà¤²
à¤ĩ à¤Ľ
à¤¯à¤® à¤¦
à¤¯ à¤·
A rticle
à¥ģ âĢĮ
Ġà¤¡à¤Ł à¤ķà¤®à¤²
Ġà¤Ĩà¤ł à¤¬
à¤°à¤¨ à¤Ĺà¤°à¤ķ
Ġà¤° à¤£à¤¬à¤¹
Ġà¤Ĩ à¤°à¤¸
Ġà¥§ à¥¦à¥¨
2 5
à ´
à¤Ł à¤°à¤¦
à¤Ń à¤£
Ġà¤ıà¤¸ à¤ıà¤¸à¤¬
Ġà¤® à¤ľà¤¸
Ġà¤¤ à¤®à¤²
o h
Ġa g
ĠAn onymous
à¤¤ à¤¸à¤°
E E
Ġ up
Ġ ðŁ
à¤¡ à¤¨à¤²
Ġà¤ıà¤ķ à¤ıà¤ķ
âĢĻ âĢĻ
Ġà¤Ĩà¤Ī à¤ıà¤®à¤Ī
ĠP urb
Ġà¤¦à¤®à¤ķ à¤ķ
ia f
Ġà¤° à¤ľà¤¸
Ġà¤¸à¤® à¤¶
ic al
Ġà¤¹à¤ķ à¤¦
ĠPurb eli
à¤¨à¤µ à¤ľ
Ġà¥¯à¥® à¥«à¥§
Ġà¤®à¤łà¤® à¤¨
à¥ģ /
à¤¶à¤Ń à¤°à¤¬
à¤¨à¤µ à¤¶
com ments
Ġà¥¨à¥¦à¥© à¥«
à¤· à¤¯à¤¸
Ø§ Ø
Ð ·
à¤·à¤¯ à¤¬
Ġà¥¨à¥¦à¥¨ à¥®
Ġà¥¨à¥¦à¥© à¥¬
à¤§ à¤¶à¤¤à¤ķ
à¤°à¤® à¤°
à¤¸à¤® à¤°
Ġà¤ħà¤² à¤µ
à¤ļ à¤°à¤®
Ġà¤ĸ à¤Ĺà¤°
à¤µ à¤¯à¤²
em ail
à¤Ĳ à¤¤
à¤Ī à¤Ńà¤¨
à¤¯à¤® à¤¤
Ġà¤¦à¤® à¤¨à¤ķ
Ġà¤ħà¤¨ à¤§
æ ľ
à¤° à¤ªà¤¨
à¤łà¤ķ à¤¸à¤®à¤ķ
Ġà¥¤à¥¤ à¥¤
à¥Įà¤Ĥ ...
à¥® à¥«
à¤¯à¤¯ à¤¤à¤°
Ġà¤ıà¤« à¤¥
à¤¶à¤¶ à¤°à¤£
Ġà¤Ķ à¤°
Ġà¥¯ à¥¦à¥¦
Ġà¤Ĺ à¤®à¤²
à¥¤ [
à¤°à¤£ à¤¤à¤¯
à¤ª à¤°à¤¤
à¤®à¤² à¤Ĺ
ĠâĢĵ âĢĺ
Ġà¤®à¤Ļ à¤ª
Ġà¤¥ à¤°à¤ķ
Ġà¤ķà¤® à¤²à¤°
Ġà¤Ĩà¤ĩ à¤¹
à¤Ń à¤²à¤®
à¤ŀ à¤®
Ġà¤¹à¤² à¤ļà¤²
Ġà¤ķà¤¦à¤® à¤¹à¤°
Ġà¤ľà¤µà¤° à¤ľà¤¸
s h
à¤¨ à¤µà¤¨
Ġà¤Ń à¤·
à¤ªà¤ķ à¤¤
Ġà¤¸à¤¹à¤ľ à¤ķà¤°
Ġy our
m à¤¯
Ġà¤ĸà¤¬ à¤°à¤¹à¤°
à¥į &
à¤¬ à¤Ĺ
à¤ĩ à¤¤à¤®
à¤¯à¤£ à¤®
Ġà¤Ńà¤ı à¤¯à¤¤
Ġ? ,
à¤¡ à¤°à¤¹à¤°
Ġà¤ħà¤® à¤°à¤¸
à¤¯ à¤°à¤¸
à¤¹ à¤Ĺà¤¤
Ġà¤¨ à¤Ĺà¤¨
Ġà¤ħ à¤ªà¤¤
Ġà¤¸ à¤·
Ġà¤ħ à¤¦à¤ķ
à¥« à¥¯
à¤µà¤¤ à¤¯
Ġà¥§à¥¯à¥¬ à¥¦
à¤§à¤¨ à¤ª
Ġ[ ...]
P revious
à¥§ à¥¦à¥¦
Ġà¥¨à¥¦à¥© à¥ª
à¤¬ à¤Ŀ
à¤°à¤® à¤¸à¤®
u al
à¤ı à¤Ĺ
Ġà¤« à¤¹à¤°
Ġs p
à¤Ĳ à¤¨
N E
lo g
à¥® à¥¯
à¤µà¤°à¤£ à¤ħà¤¨
, âĢ¦
Ġ ÑĢ
Ġ qu
à¤¹ à¤®à¤¦
à¤¦ à¤¨à¤¨
Ġà¤ľà¤¨ à¤¸à¤¹à¤Ń
à¥į ;
à¤ı à¤ļà¤ķ
Ġà¤® à¤ª
Ġà¤Ĺà¤ł à¤¨à¤®
Ñ į
ar okar
Ð½ Ð¾
Ġà¤Ĭ à¤¸
à¤§ à¤Ń
Ġà¤°à¤¹ à¤¯
Ġà¤Ńà¤ĩà¤¨ à¤¸à¤ķ
à¤¨ à¤ĩ
à¥ĩ à¤ĥ
Ġà¤¬à¤¹ à¤¸à¤²
Ġà¥§à¥¯à¥® à¥¬
à¤ī à¤ľà¤°
Ġà¤Ł à¤¡
à¤µà¤® à¤¹
Ġà¤Ĩà¤īà¤¨ à¤¸à¤ķ
à¤¨ à¤ªà¤¨
Ġà¤Ĺ à¤ıà¤¨
Ġà¤® à¤¥
Ġà¤® à¤°à¤£
à¤· à¤ħà¤Ĺ
à¤ĺ à¤¹à¤°
à¤ıà¤¨ à¤ª
al k
Ġà¤Ĺà¤¹ à¤¤à¤°
à¤Ń à¤ıà¤ªà¤Ľ
Ġà¤ı à¤¥à¤²
à¤ıà¤ķ à¤²
à¤Ń à¤¹à¤°
à¥« à¥§à¥¯à¥¯
has arokar
à¥Ńà¥¯ à¥§à¥ª
Ġà¥¯à¥®à¥«à¥§ à¥¦à¥§
Ã ¡
Ġà¤Ľ à¤¤à¤®
à¤Łà¤¨ à¤¸
Ġà¥§à¥¯à¥¯ à¥§
à¤µà¤¨ à¤ª
à¥«à¥§à¥¯à¥¯ à¥§à¥¦à¥®
Ġà¥¯à¥®à¥«à¥§à¥¦à¥§ à¥Ńà¥¯à¥§à¥ª
; &
Ġà¤¬à¤¹ à¤®
à¤® à¤¸à¤¹
Ġà¤ħ à¤ķà¤°
Ġart hasarokar
Ġarthasarokar news
' s
Ġà¤ħ à¤ļà¤²
Ġà¤¤à¤¹ à¤®à¤§
à¤¸à¤¡ à¤ķà¤ķ
à¤¯à¤¸à¤² à¤Ĺà¤¤
am erica
à¤£ à¤ªà¤Ľ
à¤ł à¤¨à¤®
Ġà¤ľà¤® à¤ĺ
er v
Ðµ Ð»
n a
à¤¦ à¤¤à¤²
Ġà¤Ĺ à¤§
à¤°à¤ķ à¤°à¤£à¤²
Ġà¤®à¤¹ à¤®
Ġà¤®à¤¹ à¤²à¤ķ
iaf america
à¥Ģ ?
Ġà¤ľà¤Ĺ à¤¦à¤®
Ù Ī
Ġà¤ī à¤¥à¤²
à¤¹à¤¨ à¤¬à¤¹
ĠSep tember
à¤¯ à¤ªà¤Ľ
Ġp l
à¤°à¤¦ à¤²
à¤¿ "
à¤£ à¤¸à¤Ń
à¤¤à¤° à¤Ĺà¤¤à¤ķ
Ġ en
à¥Ī à¤¾
D P
à¥Įà¤ģ âĢĿ,
Ġà¤¤à¤¹ à¤¸à¤¨
à¤· à¤°à¤ķ
à¤µ à¤µà¤°
Ġà¤ıà¤ķ à¤ª
à¤£ à¤¯à¤¸
à¤¿ âĢľ
Ġà¤¸à¤ķ à¤Ńà¤°
Ġà¤¤à¤¹ à¤¦
à¤Ĺ à¤ľà¤¸
à¤ĩ à¤¡à¤°
à¤¯à¤¯à¤¨ à¤ħà¤¨
Ġà¥¨à¥¦à¥ª à¥«
ĠU n
à¤¸à¤¡ à¤ķà¤®
Ġà¤Ī à¤°
Ġà¤ıà¤ļ à¤¡
Ġà¤¨à¤Ł à¤Ĩà¤īà¤Ł
Ġà¤ıà¤® à¤¸
Ġà¥¦ à¥©
âĢĮ à¤Ĥ.
Ġà¤® à¤¶
Ġà¤¸à¤®à¤¯ à¤Ńà¤¨
Ġà¥¦à¥¬ à¥«
Ġ %
à¤¿ !
Ġà¤Ł à¤ķà¤°
Ġà¤¶ à¤¤à¤ķ
Ġà¤¨ à¤µà¤ª
Ġà¤ī à¤µ
Ġà¤ľà¤¨ à¤ħà¤ª
à¤ĩà¤¨ à¤ĸà¤¬
Ġà¤ķ à¤ľ
à¤¿à¤ģ à¤Ĥ
à¤ķ à¤¦à¤°
à¤µà¤ķ à¤¤
Ġà¤° à¤¤à¤¨
à¥¨ à¥¦à¥¦
à¤Ķà¤·à¤§ à¤¸à¤¹
Ġà¤¤à¤¹à¤¸à¤¨ à¤¹à¤¸
ä º
Ġà¥¤ .
à¤ģ -
à¤µ à¤ªà¤ķ
à¤Łà¤² à¤°
. ,
à¥Į à¤¾
à¤¦à¤² à¤¹à¤°
à¤¹ à¤ķà¤®
Ġà¤¤ à¤¦à¤¨
Ġà¤¤à¤° à¤ªà¤¨
Ġà¤Ĺà¤ľ à¤¬à¤ķ
à¤ĩà¤Ń à¤°à¤²
Ġà¤¨à¤¹à¤° à¤®
Ġ ha
à¤§ à¤ķà¤²
Ġà¤Ĺ à¤«à¤ķ
à¤ĩ à¤®à¤¨
à¤Ĩ à¤¹
pd f
à¤Ī à¤®à¤¤
à¤ķà¤Ł à¤¹à¤°à¤²
n g
Ġà¤ħ à¤®à¤¨
Ġà¤Ĩ à¤Ĺà¤®
Ġà¤¶ à¤°à¤£à¤®
à¥¨à¥¦à¥Ń à¥¦
à¤ķà¤¨à¤ķ à¤°
à¤°à¤¦ à¤®
à¤¾à¥Īà¤Ĥ ,
à¤¤ à¤ħà¤¨
Ġà¤¸à¤®à¤¯ à¤¯à¤¤
Ġà¤Ĩà¤ı à¤¨à¤¨
Ġà¤¸à¤¹ à¤ħà¤§
à¤Īà¤ľ à¤¹
pr il
Ñ Ī
Ġà¤¯ à¤ļ
Ġà¤§ à¤¨à¤²
à¤¤à¤° à¤Ĩà¤§
an ce
Ġà¥§à¥¯à¥¯ à¥¨
à¥į ..
à¤¯ à¤Łà¤°
à¤¡ à¤¨à¤¬
à¤¸à¤ķ à¤¸
Ġà¤¬à¤¸ à¤¹à¤°
re e
à¤°à¤¸à¤® à¤ķ
à¥Įà¤Ĥ à¤ĥ
à¤Ĺà¤¤ à¤¤à¤°
oo d
Ġ ;
à¤² à¤ļà¤¨
à¥§ à¥Ńà¥©
Ġà¤ľà¤Ĺ à¤ľ
à¥ĥ .
à¤ĩà¤° à¤¸à¤ķ
ate g
Ġà¤¶ à¤µà¤²
à¥Į âĢĻ
ãĢ Ģ
Ġà¤¤ à¤Ļ
à¤Ī à¤µà¤°
à¤Ī à¤ķà¤¨
Ġà¥§à¥© à¥¦
Ġà¤µà¤¨ à¤Ń
at ed
ĠSam ac
à¤° à¤Ļà¤²
Ġn epal
à¤¶ à¤µà¤°
à¤Ĩ à¤ĩà¤¡
Ġpro te
à¤Ŀ à¤ªà¤ĸ
à¤£ à¤¸à¤¹
à¤¨ à¤Ľà¤¨
à¤§ à¤Ńà¤¤
à¤Ľ à¤²à¤«
à¥¯ à¥«
Ġà¤ķà¤Ł à¤µ
à¤¯à¤ķ à¤¬
à¤²à¤¯ à¤Ń
à¥Ń à¥®
Ġà¤ħà¤µ à¤¤à¤°à¤£à¤ķ
Ġà¤Ĺà¤ľà¤² à¤¹à¤°
I V
Ġà¤°à¤¹ à¤²
Ġà¤Ĩà¤ĩ à¤Łà¤®
à¤ķ à¤Ļ
à¤ĺ à¤¡
à¥« à¥¨
à¤°à¤ļ à¤¨à¤²
Ġà¤ľà¤¨ à¤ªà¤ķ
à¤¯à¤® à¤ħà¤¨
à¤Ł à¤Ĩà¤īà¤Ł
Ġà¤µ à¤¨à¤µ
à¤¾ à¥Ģ
à¤Ń à¤°à¤£
à¤®à¤¤ à¤¬
à¤« à¤¹à¤°
à¤µà¤¯ à¤¨à¤²
à¤Łà¤¬ à¤ľ
Ġà¤ĵà¤Ń à¤°à¤¸
à¤® à¤®à¤¨
Ġà¤¯à¤¸ à¤µ
ĠF or
à¤ķ à¤ħ
à¤Ń à¤§
à¤«à¤² à¤¤
m in
s e
Ġà¤¯à¤¸ à¤ħà¤¨
Ġà¤° à¤¨à¤µ
Ġà¤ľà¤Ĺà¤¤ à¤²
à¤¶à¤¨ à¤ħà¤¨
à¤ķà¤Ł à¤¬
ar k
ĠÂ ©
Ġà¤° à¤Ł
à¤ķà¤² à¤²
Ġà¤Ń à¤ĩà¤¯
à¤ĩ à¤µà¤°
ĠJ ul
Ġà¤¤ à¤¡
âĢ¦âĢ¦ âĢ¦âĢ¦
à¤Ĺ à¤Ĺ
à¤ļ à¤ķà¤®
Ġà¤ĵ à¤ľ
ha k
Ġà¤° à¤ĸ
Ġà¤ıà¤² à¤ľ
Ġà¤¨à¤ľà¤° à¤ħà¤¨
à¤¯ à¤ªà¤ķ
à¤¯ à¤¶à¤¨
Ġà¥Ńà¥« à¥¦
à¤Ł à¤Ńà¤Ł
Ġà¤® à¤Ľ
à¤ľ à¤¬à¤°
à¤²à¤® à¤§
Ġà¤§à¤° à¤ªà¤ķ
à¤£ à¤ªà¤ķ
Ġà¤Ł à¤Ł
à¤ĩ à¤¬à¤¹
Ġ? ?
Ġà¥§à¥§ à¥§
à¤Ķ à¤·à¤§à¤ķ
Ġà¤« à¤·
à¤§à¤ķ à¤¹à¤°
à¥ģ âĢĻ,
à¤ļ à¤¡
Ġà¥¨à¥¦à¥¨ à¥§
] [
Ġà¤ıà¤¯ à¤°à¤µ
I S
Ġà¤µ à¤·à¤°
à¤¶ à¤¸à¤¹
âĢĵ âĢĺ
Ġà¤ĩ à¤¦
Ġà¤ıà¤® à¤¡
Ġp ic
Ġà¥¨à¥¦à¥¨ à¥«
Ġà¤°à¤¹ à¤®
Ġ? "
à¤ªà¤¦ à¤¸
Ġà¤¦ à¤¸à¤ķ
Ġà¤ħà¤² à¤Ĩà¤īà¤Ł
Ġà¤ıà¤« à¤¸
Ġà¤Ĩà¤² à¤Ł
à¥¨à¥¦à¥ª à¥¬
F A
Ð° ÑĢ
r am
Ġà¤Ĩ à¤łà¤®
Ġà¤¤à¤²à¤¬ à¤®
Ġà¤¸à¤¹ à¤µ
à¤ľà¤¦ à¤°à¤¬
Ġà¤Ĩà¤¹ à¤µ
à¥įâĢĵ âĢĺ
Ġà¤¬ à¤¬à¤°à¤®
à¤¯à¤°à¤¬ à¤ľ
/ -
Ġ à¥ĩ
à¥ģ ?
à¤ĵ à¤¯
Ġà¤Ĩà¤ĩ à¤ķ
Ġà¤§à¤¨ à¤§
à¤Ĩà¤Ī à¤¡
g e
Ġà¤ĸ à¤²à¤²
à¤¬ à¤°à¤¦
à¤£ à¤µà¤¤
Ġà¤Ńà¤Ī à¤¨
à¥ĩ (
à¥ĭ ;
à¥ĩ ),
à¤ķ à¤·
à¤°à¤£ à¤¸à¤®
Ð¾ Ð½
Ġà¤Ķ à¤°à¤¹
Ġà¤²à¤ļ à¤ķà¤¤
à¤ıà¤¨ à¤ıà¤¸
ãĢ ģ
à¤¶ à¤µà¤ķ
à¤®à¤ķ à¤¹
à¤Ĩ à¤Īà¤²
or y
Ð¸ Ñı
m s
Ġà¤ļ à¤ŀ
à¤ķà¤°à¤£ à¤¸à¤®
Ġà¤¨ à¤ĺà¤Ł
Ġà¥¨à¥¦à¥ª à¥¦
à¤Ĩà¤Īà¤ıà¤ļ à¤ıà¤²
à¤Ĩà¤Īà¤ıà¤ļ à¤Ĩà¤°à¤ıà¤²
T he
à¤¦ à¤µà¤¸
Ġà¤ĸ à¤°à¤¬
Ġà¤¸à¤¹ à¤®à¤¹
Ġà¤Ķ à¤ªà¤¨
Ġà¥¨à¥« à¥¬
N A
Ġà¤Ĺ à¤ĩ
à¤ªà¤¤ à¤®
Ġ us
ãģ ®
Ġprote cted
e et
Ġà¥©à¥« à¥¦
à¤¹ à¤²à¤ķ
à¤¬à¤Ī à¤¬
à¤Ĩ à¤ļ
à¤¤à¤® à¤¨
Ã ¤
à¤ª à¤¦à¤®
m un
à¤ ±
à¤Ŀ à¤ľà¤¸
à¤¯à¤¯à¤¨ à¤ªà¤Ľ
à¤¡ à¤·
à¤Ł à¤Ĺ
à¤¬ à¤Ł
Ġà¤¥ à¤ªà¤ķ
z w
Ġà¥¦ à¥®
ĠA pp
Ġà¤ķà¤¬ à¤¡
Ġà¤®à¤¨ à¤Ń
Ġà¤«à¤°à¤ķ à¤ªà¤¨
Ġà¥¨à¥¦à¥© à¥©
à¥ģ à¥ĥ
à¤Ĩ à¤Ĺà¤²
Ġs u
Ġd is
ig n
Ġà¤¨ à¤ªà¤¤
ĠD ec
à¤¨à¤¯ à¤¨à¤ķ
ĠA d
ç ļ
Ġ201 5
) .
Ġà¤ĩ à¤Ĺ
Ġà¤¶ à¤µà¤ķ
p le
t witter
à¤ĵ à¤ıà¤¸
à¤¤à¤¸ à¤ŀ
à¤° à¤¨à¤²
O S
Â ´
à¤¸à¤¨ à¤¹à¤°
ĠA rt
Ġà¥¤ (
Ġà¥¨à¥¦à¥Ń à¥¬
à¥ĩà¤ģ, ...
à¤° à¤ľà¤¨à¤²
Ġà¥§à¥§ à¥ª
à¤Ĺà¤ļ à¤²à¤¨
à¥į ]
à¤¤à¤® à¤¸
Ġ2 9
à¤¶à¤¨ à¤¸
Ġà¤¸à¤¦ à¤¨à¤²
I n
a u
à¤° à¤¨à¤ķ
Ġà¤īà¤ª à¤¬
à¥ĭ, '
Ġà¤¦à¤¶ à¤Ĺà¤ľ
à¤® à¤¯à¤ķ
Ġà¤ĵ à¤łà¤®
à¤·à¤¯ à¤¬à¤¸
à¤ļ à¤ªà¤¦à¤¸
à¤Łà¤¬ à¤²à¤²
à¤ı à¤Ńà¤°
à¤¬ à¤¤à¤®
Ġà¤¸à¤® à¤ª
à¤°à¤ª à¤ŀ
Ġà¤ £
Ġà¤¦ à¤®à¤¦
à¤° m
à¤¡ à¤®à¤ķ
Ġà¤ľà¤¨à¤® à¤¤à¤ķ
Ġà¤°à¤¨à¤° à¤ħà¤ª
à¥Ī à¥ĩ
Ġà¤¥ à¤µ
à¤°à¤¸ à¤¬
Ġà¤¦ à¤²à¤¬à¤¹
à¤ī à¤¦à¤Ľ
Ġà¤®à¤¹ à¤²à¤®
Ġà¤¸à¤¬ à¤ķ
à¤¯à¤¸ à¤¸à¤®
Ġà¤¦à¤² à¤Ń
Ġà¤ľà¤¨ à¤¸à¤Ń
Ġà¤Ł à¤¨à¤ķ
Ġà¤Ĩà¤µ à¤°à¤£
s p
Ġà¤Ńà¤ı à¤ªà¤¶
à¤ĵ à¤¤
Ġà¤°à¤Ĺà¤¤ à¤²
à¤° à¤°à¤¹
à¤ĩ à¤ªà¤Ľ
à¤¤à¤°à¤£ à¤²
Ġà¤ħà¤®à¤° à¤Ĺà¤¢
Ġà¤ľà¤¨ à¤¸à¤°
à¥® à¥§
2 2
à¤¶ à¤ľà¤ķ
C C
à¤¾ .....
à¤¬ à¤¸à¤¨
âĢĿ âĢĵ
Ġ â
à¤ĸ à¤Ń
Ġà¤ĸ à¤²à¤¬à¤²
Ġà¤¬à¤² à¤¦
à¤ł à¤¦
à¤ļà¤¨ à¤ľ
Ġà¤Ĩà¤Ī à¤¸à¤ķ
çļ Ħ
m a
à¤¤ à¤²à¤¨
à¤µ à¤¬à¤¹
à¤Ĩ à¤ĩà¤Ł
Ġ: :
Ġ Ã·
à¤¶ à¤¯à¤®
Ð¾ ÑĤ
Å ĵ
à¤¨ à¤µà¤¸
à¤ļ à¤°à¤¹à¤°
à¥Įà¤Ĥ à¤ģ
Ġà¤ľà¤²à¤® à¤Ĺ
m e
à¤° à¤ľà¤ķ
à¥Į âĢĵ
Ġà¤° à¤¯
à¤¨ à¤Ĺà¤¢
à¤Ĺ à¤Ńà¤¨
à¤ıà¤ķ à¤¦
Ġà¤¨à¤¹à¤° à¤ķ
Ù Ĩ
Ġà¤² à¤ŀ
E S
h an
à¤²à¤ķ à¤¤
Ġà¤Ń à¤Ĺà¤¤
Ġà¤Ľ à¤¹à¤°
à¤°à¤® à¤®à¤¨
Ġà¤ıà¤¸ à¤ĩ
à¤Łà¤µ à¤²à¤¬
à¤« à¤²à¤ķ
Ġà¥§ à¥¦à¥¬
Ġà¤ħà¤¬ à¤²à¤®
à¤¯à¤µ à¤¦
à¥¦à¥Ń à¥§
Ġà¤²à¤« à¤¡
Ġà¤¦à¤² à¤Ĺà¤¤
3 1
à¤¤à¤² à¤¹à¤°
Ġà¤ķà¤² à¤Ļ
Ġà¤¤à¤° à¤ĸà¤°à¤®
Ġà¥§à¥§ à¥«
à¤¯à¤® à¤µà¤°
à¤µà¤ķ à¤¸
Ġ z
Ġà¤ļ à¤Łà¤ªà¤Ł
Ġ <
à¤§ à¤ļ
à¤¥ à¤°à¤ķ
Ġà¤« à¤ľ
Ġà¤ıà¤ķ à¤Ńà¤¨
à¤Łà¤¨à¤Ĺà¤° à¤¸
ĠPol ic
e ch
à¤¨ à¤°à¤¸
à¥¯ à¥¨
Ġà¤¸à¤°à¤¸ à¤²
ro s
Ġà¤¹ à¤²à¤¬
Ġà¤Ĩ à¤¶à¤®
à¥Ĥ à¤Ĥ
à¤°à¤¹ à¤¤
Ġà¥§à¥¬à¥« à¥©à¥¦
à¤Ń à¤µà¤®
à¤¤à¤¹ à¤Łà¤®
à¤¨ à¤¯à¤²
Ġà¤¨à¤® à¤°
Ġà¤¶à¤¹à¤° à¤²
r ou
à¤¸ à¤ļà¤¨
à¤ĩ à¤ķà¤®
Ġà¤ħà¤¨ à¤¶à¤¨à¤ķ
Ġà¥§à¥§à¥© à¥®
à¤Ĺ à¤¸à¤¬
n c
à¤¦ à¤¯à¤²
Ġà¤Ĩ à¤ĵà¤¸
à¤ĩ à¤°à¤¨
à¤°à¤¹ à¤¬
Ġà¤Ī à¤Ń
\ '
à¤¤à¤¬ à¤®
Ġà¤ıà¤«à¤ı à¤®à¤®
à¤ģ à¥ĩ
Ġà¤Ĩà¤ĩ à¤ıà¤¸
à¤§ à¤ªà¤¤
Ġà¤§ à¤ľ
Ġà¤ĵ à¤¤
al o
à¤¹ à¤ļ
à¤ļ à¤ķà¤²
Ġà¤¶ à¤¸
Ġà¥§à¥¯ à¥Ńà¥«
Ġà¤ľà¤¨à¤ķ à¤²
Ġà¤ıà¤¨à¤Ĩà¤°à¤ıà¤¨ à¤ıà¤ķ
c al
à¤ĩ à¤ľà¤®
Ġà¤¬à¤¸ à¤¬
i el
Ġà¤ľ à¤¯à¤ķ
à¤¨à¤¸ à¤ªà¤Ł
Ġà¤ħà¤ķ à¤¬à¤°
Åĵ à¤¯
Ġ im
à¤¾ âĢĺ
Ġ? '
à¤¯à¤¯à¤¨ à¤¹à¤°
Ġà¤Ĺ à¤ľà¤®
Ġà¤« à¤²à¤ķ
ãĢ Ĥ
Ġà¤§à¤¨ à¤ľà¤¨à¤ķ
à¤· à¤°à¤²
à¤ļà¤¨ à¤°
à¤¸à¤¨ à¤²à¤ķ
ĠD e
à¤¾ Â¸
Ġà¤Ĩ à¤Ł
à¤·à¤£ à¤¸
Ġà¤ħà¤µà¤¸ à¤°à¤¬
à¤Ĺà¤łà¤¨ à¤Ń
m ore
à¤ª à¤Ĺ
à¤Ĺ à¤°à¤£à¤ķ
Ġà¤ªà¤° à¤ª
à¤ľà¤¨ à¤®à¤¤
à¥įà¥¤ '
à¤¤à¤¨à¤Ĺà¤° à¤ª
e ct
à¤¿ à¥ĭ
à¤ª à¤ļà¤¨
Ġà¤ıà¤ķ à¤ªà¤ķ
à¤ķ à¤°à¤¦
ha re
à¤ĩà¤² à¤Łà¤²
Ġà¤Ĩà¤ķ à¤·
Ġà¤¹ à¤¸à¤¨
Ġà¤¸à¤® à¤¬à¤¨
Ġà¤¨à¤ľ à¤°à¤²
Ġà¤ıà¤¨ à¤Ĩà¤ĩà¤¸
Ġà¤¸ à¤ªà¤°
à¤ľ à¤ľ
Ġà¤īà¤® à¤Ļ
ĠJ an
Ġà¤īà¤¥à¤² à¤ª
à¤¹ à¤¸à¤ļ
Ġà¤ĸ à¤²à¤¨
à¤¦ à¤¤à¤°
à¤¯à¤¨ à¤°à¤¤
Ġà¥¨à¥¦à¥ ®
à¤ªm à¤¤
Ġ ~~
Ġà¤¸à¤¹à¤° à¤²
à¤ľà¤Ĺà¤¢ à¤®
à¥¨à¥¦à¥¬ à¥®
à¤ı à¤µ
à¤¡ à¤¸à¤¹
Ġà¤®à¤¨ à¤¬à¤¹
Ġ2 3
c ri
Ġà¤ıà¤¸ à¤Īà¤ĵ
à¤¨à¤Ĺà¤° à¤¬
à¤ķà¤Ł à¤¸
Ġà¤ı à¤Ĩà¤ĩà¤ľ
à¤ħ à¤¸à¤²
Ġà¤Ĩà¤Ī à¤¡
ĠÐ ±
à¤µ à¤¥
Ġà¤ı à¤ıà¤«à¤ª
à¤¸à¤ķ à¤°
à¤ħ à¤µà¤§
à¤µà¤° à¤°
à¤¸à¤² à¤Ł
Ġà¤Ĺ à¤£à¤ķ
Ġà¤¨ à¤°à¤ķ
Ġà¤Ľ à¤µà¤Ł
j ya
Ġà¤§ à¤°à¤¤
à¤¶à¤¨ à¤°
in t
ou nt
u k
à¤¯ à¤Ĺà¤°
à¤¸ à¤¸à¤¹à¤°
Ġà¤ľ à¤¯à¤µ
à¤°à¤¤ à¤¬à¤¨
à¤µà¤¨ à¤°à¤ķ
Ġà¤ħà¤² à¤°
à¤Ĩà¤° à¤ıà¤¸
à¤¹ à¤¨à¤²
Ġà¤ıà¤® à¤ª
Ġ Z
à¤°à¤£ à¤¸
8 8
Ġà¤« à¤²à¤¤
à¤ľà¤¨ à¤µ
7 4
Ġà¤Ĺ à¤Ĺà¤¨à¤ķ
Ġà¤ĸà¤° à¤¨
à¤¸ à¤¨à¤®à¤¨
à¤¡à¤¯ à¤¨à¤®à¤¨
e k
à¥ĩ âĢĻ,
à¤ª à¤§
Ġà¤¤ à¤Ĺ
à¤ªà¤¨ à¤¹à¤°
ĠC o
à¤¯ à¤ŀ
à¤ī à¤ľà¤¨
Ġà¤ı à¤Ļ
à¥ĥ à¥ĥ
à¤Ļ à¤¸à¤¹
Ġà¤Ł à¤ļ
IV E
Ø ¯
Ġà¤¸ à¤Łà¤°
ĠY ou
à¤¸à¤¨à¤² à¤²
Ġà¤Ĩà¤īà¤Ł à¤²
im e
Ġà¤Ł à¤Ļ
Ġà¤ĵ à¤¹à¤¦
à¤Ĳ à¤¶
à¥ Ĭ
Ġà¤Ĩ à¤¥
à¤ľà¤¨ à¤¸à¤¹
âĢĻ -
Ġà¤²à¤Ĺ à¤¨à¤ĸ
Ð° Ð»
à¤Ļ à¤ķà¤¨
à¤Ĺà¤® à¤§
Ġà¥¦à¥¬ à¥¯
ĠTV S
à¤¬ à¤ª
à¤ľà¤¸ à¤¹
à¤¦à¤ķ à¤ª
à¤¿. ,
at i
Ġà¤Ńà¤µ à¤¨à¤²
à¤ĩà¤¡ à¤¬à¤¡
à¤ķ à¤Łà¤¨
à¤¦ à¤ªà¤Ľ
à¤µ à¤Łà¤²
Ġà¤¬ à¤°à¤¦
à¤Łà¤µ à¤²à¤²
ĠT h
Ġon line
Ġà¥¦à¥¬ à¥©
jya alo
à¥Ī .
Ġà¤ľà¤¨ à¤Ń
à¤ĺ à¤°à¤²
Ġ2 075
Ġl a
es e
Ġà¤ıà¤ķà¤Ľ à¤¤
à¤Ī à¤®à¤§
Ġà¤®à¤¹ à¤¤à¤ķ
Ġà¥§à¥® à¥¯
à¤Ĩà¤° à¤Ł
al ity
it ion
ĠL e
0 2
A M
Ġà¤¹ à¤°à¤£
à¤¡ à¤°à¤ª
à¤ļà¤² à¤°
Ġà¤¦à¤¶à¤ķ à¤¯à¤¤
Ġs h
à¤Ĺ à¤ľà¤²
à¤ī à¤ªà¤ķ
à¥¤ -
à¤Ļ à¤«
at us
Ġà¥¨à¥¦à¥© à¥¨
Ġà¤®à¤¤à¤² à¤µ
à¥ģ "
à¤· à¤Ĺ
ĠM ay
à¤® à¤ľà¤¸
Ġà¤ĵ à¤®à¤¨
Ġà¥¦à¥¬ à¥ª
Ġà¤ıà¤«à¤ı à¤®à¤ķ
à¤ª à¤ħà¤¨
Ġà¤µ à¤¶
ĠTVS agarmatha
à¤Ľ à¤¯
in ess
Ġà¥¨à¥¦à¥ª à¥¨
Ġà¤ª à¤°à¤ķà¤®
Ġà¤Ĩà¤Ī à¤«
ĠA s
5 3
à¤ªà¤¨ à¤¸à¤®
à¤°à¤¹ à¤¹à¤°
à¤ĩà¤¨ à¤Ń
à¤¸ à¤¬à¤°
à¤£ à¤¯à¤µ
à¤ķà¤² à¤¬
à¤ĵ à¤Ńà¤°
= =
Ġà¤¤ à¤µ
Ġà¤ªà¤¦ à¤ķà¤ķ
Ġà¥Ńà¥« à¥©
à¤¼ à¥Ģ
ri g
Ġà¤® à¤¬
à¤Ĺà¤° à¤ª
à¤¸à¤¨ à¤¸à¤®
Ġ... |
ĠS ave
ĠC ontinue
Ġà¤ľà¤¯ à¤¬à¤¹
ha ar
à¤¸ à¤²à¤²
Ġà¤ıà¤ķ à¤µà¤°
à¤°à¤µ à¤¶
Ġà¤¸à¤¹à¤° à¤¬à¤ľ
ĠU jyaalo
ĠSamac haar
0 3
Ġà¤ħà¤¸ à¤°à¤ķ
y st
Ã ¼
à¤¥ à¤¸à¤®
Ġà¤®à¤¨ à¤Ńà¤°
it t
à¥ĩ Ã·
à¤¬ à¤¸à¤ķ
âĢ¦ )
à¤ķ à¤¸à¤ķ
à¤² à¤¯à¤¤
à¤² à¤ļà¤ķ
à¤¶à¤¨ à¤¶
Ġà¤Ĩà¤ı à¤Ľ
à¥¨à¥¦à¥¬ à¥¨
Ġà¤¸ à¤Ī
Ġà¤ļ à¤¶
Ġà¤Ī à¤·
Ġà¤Ĩà¤Ī à¤¡à¤²
an n
à¥ĭ (
Ġà¤Ĩ à¤²à¤¸
à¤ł à¤¯
Ġ- --
ĠR o
Ġà¤¨ à¤ħ
à¤¡ à¤ªà¤ķ
Ġà¤Ĩà¤Ī à¤ıà¤¸
ar g
à¤Ĺà¤¤ à¤°à¤¤
on s
Ð¾Ð ¹
Ġà¤Ĳ à¤¸
à¤¥à¤² à¤¸à¤®
à¤Ł à¤ľà¤¸
à¥® à¥ª
à¤Łà¤Ĩà¤īà¤Ł à¤®
à¤¿ à¥Ģ
à¤ľ à¤°à¤Ń
Ġà¤ĺ à¤¸
à¤¤à¤° à¤ªà¤¶
Ġà¥§à¥¯à¥® à¥ª
à¤ķ à¤¯
à¤ķ à¤¢
Ġà¤Ĩà¤ī à¤Ľà¤¨
à¤ªà¤¸ à¤Ļ
Ġà¤¤à¤²à¤¬ à¤Ńà¤¤
ĠF OR
à¤Ł à¤¤à¤¨
Ġà¤¹ à¤°à¤ķ
à¤µà¤¨ à¤°
à¤°à¤ĸ à¤ª
Ġà¥©à¥© à¥¦
2 3
h i
à¤¬ à¤²à¤²
à¤Ļ à¤Ĺà¤¤
Ġà¤Ĩà¤ĩ à¤¦
Ġ! "
ic k
is s
à¤¡ à¤¬à¤²
à¤ľà¤¦ à¤°à¤ķ
Ġà¤¨à¤ĸ à¤¸
I A
Ġà¤¯ à¤®à¤¦
à¥® à¥¬
à¤ĵ à¤¨
Ġà¤¯à¤¸ à¤Ń
Ġà¤Ĺà¤¢ à¤µ
à¤¨à¤¸à¤ªà¤Ł à¤²à¤®
à¤ķ à¤ĺ
à¤ľ à¤²à¤Ĺ
à¤µ à¤£à¤ķ
à¤¯à¤¦ à¤²à¤®
à¥Ģ Â¸
à¤µ à¤°à¤¹
à¤µ à¤µà¤¤
à¥Ī !
Ġà¤Ńà¤¨ à¤¸
à¤·à¤£ à¤¯
Ġà¤ĵ à¤¤à¤ª
à¤ķ à¤·à¤ķ
à¤¯ à¤µà¤¤
à¤¶ à¤¯à¤ķ
Ġà¤ļ à¤¤à¤°
à¤Ĺà¤¤ à¤¯
Ġà¤¯ à¤®à¤²
à¤ľà¤¨ à¤µà¤°
Ġà¤Ĺà¤ı à¤ªà¤¨
Ġà¤ħà¤¨à¤¸à¤¨ à¤°à¤¤
U R
à¤¶à¤® à¤§
à¤ĩ à¤Ńà¤¨
à¥¦à¥Ń à¥¯
Ġà¤ļ à¤¹à¤²
à¤¡à¤² à¤¸
Ġà¤ĺà¤Ł à¤¬à¤¢
à¤£ à¤¨à¤Ĺà¤°
Ġà¤¬à¤¨ à¤¸
Ġà¤®à¤¹Ã¬ à¤µ
à¤ľà¤¨ à¤°
à¤ķà¤°à¤£ à¤ªà¤Ľ
Ġà¥ªà¥« à¥¦
dc nepal
à¤¦ à¤®à¤¨
Ġà¥«à¥« à¥¦
Ġ à¨
à¤¬à¤¦ à¤¬
Ġà¥¨à¥¦à¥© à¥¯
à¤® à¤¸à¤¨
à¥ĩ âĢį.
Ġà¤Ń à¤°à¤ķ
op le
à¤¸ à¤°à¤¹à¤°
Ġà¤® à¤ķà¤°
à¥ĩ- âĢĺ
à¤¤à¤° à¤ľ
Ã Ń
Ġ ent
à¤¾ âĢį.
à¤° à¤²à¤ķ
ic h
Ä ±
Ġà¤¬ à¤¥
à¤Ī à¤²à¤Ĺ
Ġà¤² à¤Ńà¤¸
âĢĺ âĢĺ
Ġà¤ħà¤« à¤µ
à¥ Ŀ
Ġà¤Ńà¤° à¤ĸà¤°
ant ipur
Ġà¤¦ à¤¬à¤¦à¤¬
à¤ĸ à¤µ
ĠA m
Ġà¤ıà¤¨à¤Ĩà¤° à¤ıà¤¨à¤²
i en
à¤¦ à¤¬à¤²
Ġà¤Ń à¤ľ
à¤ľà¤¨ à¤¸à¤®
Ġà¤¤à¤²à¤¬ à¤ķ
oo l
us iness
zw j
T W
à¤¹ à¤¹
Ġà¤¶à¤¹à¤° à¤¬
Ġà¥¦à¥¬ à¥®
à¤° à¤µà¤¸
à¤® à¤®à¤¤
Ġà¤¸ à¤¶à¤°
à¤ª à¤Łà¤¨
Ġà¤¸à¤¹ à¤ħà¤¸
Ġà¤ħà¤¸ à¤°à¤¬
Ġà¥§à¥« à¥¦à¥¦
Ġà¤¦ à¤§
à¤Ĺà¤® à¤ª
à¤µ à¤ķà¤®
à¤ĩ à¤Łà¤¨
à¤ł à¤¨à¤ķ
à¤Łà¤¨ à¤¹
ÐµÐ ¼
ĠIntern ational
Ñ ī
Ġà¤Ĩ à¤Ĺà¤®à¤¨à¤²
à¤« à¤°à¤²
à¤ħ à¤µà¤°
à¤¨à¤¨ à¤°à¤¸
à¤ĩà¤ľ à¤¹
w ord
à¤¤à¤° à¤ĺ
à¤¯ à¤ļà¤ķ
à¤¯ à¤²à¤¯à¤²
Ġà¤ľà¤¨à¤® à¤¤à¤¸
à¤ı à¤¦
Ġ ~
Ġ ........
à¥Ģ .....
à¤µ à¤ļà¤¨
à¤ĸ à¤¸à¤¹
Ġà¤Ńà¤¯ à¤°à¤¹
à¤ķà¤Ł à¤¹à¤°
Ġà¤ļà¤°à¤£ à¤¬à¤¦
à¤¡ à¤¶
à¥Įà¤Ĥ, âĢĿ
Ġà¤Ĩà¤ł à¤°
Ð½ Ð¸
I D
à¤ı à¤Łà¤¹à¤°
à¥Īà¤Ĥ à¤ģ
à¤® à¤Ńà¤ķ
à¤Ķ à¤¦
Ġ115 20
Ġ1151 8
Ġ1151 9
à¤¤ à¤¥à¤²
Ġà¤ħ à¤ľà¤®
à¤¥ à¤¹
Ġà¤Ńà¤ı à¤¬
à¤²à¤µ à¤¦
OR K
Ġà¤ª à¤¥à¤®
à¤¾) Â¸
Ġà¤ĵà¤Ń à¤°à¤¹
à¥Ī âĢĮ
à¤µà¤¸ à¤ļ
Ġ2 1
lic k
à¤¡ à¤ļ
Ġà¥§à¥© à¥¦à¥Ńà¥¯
at a
ĠF eb
Ġ115 21
ug u
à¤Ī à¤Łà¤¹à¤°
à¤ĵ à¤Ī
Ġ1151 7
Ġà¤ª à¤Ĺà¤°
Ġà¤¡ à¤Ĺ
à¤°à¤®à¤£ à¤¹à¤°
Ġà¤ĭ à¤Ĺ
à¤µà¤¯à¤¨ à¤¸
T C
à¤® à¤°à¤£à¤®
à¤· à¤°à¤¹à¤°
à¤ħ à¤¯
à¥¨à¥¦à¥¬ à¥©
à¤µ à¤Ī
Ġà¤ªà¤¦ à¤ļ
3 9
à¤¦à¤°à¤¬ à¤ľ
à¤ı à¤Ńà¤¨
à¤ªà¤¨ à¤¸
Ġà¤²à¤Ĺ à¤¨
à¤ªà¤Łà¤ķ à¤ķ
Ġà¤ıà¤¯à¤°à¤¬ à¤¸
Ġà¤¤à¤° à¤¬
ĠS p
oc k
à¤¹ à¤ħà¤¨
Ġà¤« à¤Ĺ
à¤°à¤¬ à¤ľ
à¤·à¤ķ à¤¤
Ġà¥§à¥¯à¥® à¥«
à¥¨à¥¦à¥§ à¥¬
ans ar
à¤ĸ à¤¨à¤²
Ġà¤ħà¤ª à¤¦à¤¸
à¤®à¤Ĺ à¤¢
ÐµÐ ´
à¤Ī à¤¨à¤ķ
à¤¯à¤¨ à¤¬
à¤Ł à¤°à¤µ
Ġà¤¤ à¤¡à¤ķ
ep cal
Ġà¤¹à¤¡ à¤ª
Â º
à¤¿ à¥ģ
à¤Ī à¤¹
à¥Įà¤ģ à¥¤âĢĻ
Ġ2 8
Ġà¤§à¤°à¤ªà¤ķ à¤¡
Ġà¤¨ à¤ł
Ġà¤¬ à¤¹à¤ķ
à¤§ à¤¦
à¤¯à¤£ à¤ĺ
ĠNE TW
ĠNETW ORK
à¤Ł à¤¤à¤°
Ġà¤µ à¤ļà¤¤
à¤¥ à¤ķà¤ķ
à¤¥ à¤¸à¤ļ
Ġà¤Ĩ à¤ªà¤¨
Ġà¤ķà¤² à¤¹
Ġ2 7
Ġà¤¨à¤¯à¤¨ à¤°
iel d
Ø ª
Ù ħ
à¤¤à¤° à¤Ĺ
à¤¡à¤° à¤Ĺ
à¤ĩ à¤ªà¤°
à¤ļà¤¨ à¤¹à¤°
à¤Ńà¤¨ à¤°
in a
à¤²à¤ļ à¤²à¤¨
e le
à¤ĩ à¤ªà¤ķ
à¤ħ à¤°à¤ķ
à¤ħà¤µà¤¸ à¤°à¤®
à §
Ġà¥§à¥¨ à¥¦à¥¦
Ġà¤Ī à¤Łà¤¹à¤°
Ġ2 2
Ġc ont
à¤¾à¥Ī âĢĮ
à¤¬ à¤°à¤¬à¤¹
ĠâĢ ĭ
Ġà¤ªà¤¦ à¤²
is m
Ġ1151 6
b o
Ġ à¥į
à¤¯ à¤ĸ
à¤°à¤¦ à¤¶
Ġà¤Ĩà¤¶ à¤¯à¤ķ
Ġà¤¨à¤µ à¤Ĺà¤ł
à¥¨à¥¦à¥Ń à¥¬
à¤¨ à¤¨à¤²
à¤ķ à¤·à¤£
à¤ł à¤¸à¤®
à¤ļà¤¨ à¤¸
à¤ĩà¤Ł à¤¬
Ġà¥¨à¥¦à¥ª à¥©
Ġà¤ľ à¤²à¤ķ
at ing
it ies
à¤¹à¤Ļà¤ķ à¤Ļà¤®
à¤¤ à¤²à¤¬
à¤ªà¤® à¤¤à¤®
E C
à¤ı à¤®à¤²
à¤ģ à¤ģ
lo w
P AL
à¤® à¤ľà¤¦
à¤¤à¤¨ à¤µ
re st
er y
ed ia
h one
à¤ķ à¤¤à¤²
Ġà¤¯ à¤²
Ġà¤¸à¤¯ à¤¸à¤®
Ġà¤ıà¤¸ à¤¡
Ġ1 00
at ch
alk ot
% )
à¤¬ à¤¶
Ġ2 6
Ġà¤®à¤Ĺà¤° à¤¹à¤°
C L
à¤ı à¤¯à¤°
à¤§ à¤ĺ
Ġà¤ļà¤² à¤¨à¤²
Ġà¤®à¤¨ à¤¤
ha p
à¤¡ à¤²à¤¬
Ġà¤¨à¤Ĺà¤° à¤Ń
Ġà¤§à¤¨ à¤ª
Ġà¥§à¥© à¥§
Ġ201 4
as e
2 6
à¤Ł à¤Ĺà¤¤
à¤ļ à¤Ńà¤¨
à¤Ĩà¤Ī à¤Ł
Ġp ass
Ø§Ù Ħ
u ck
Ġà¤ĺ à¤°à¤¤
Ġà¤Ī à¤£
Ġà¤Ĭ à¤¨
ĠG alkot
Ġà¤Ĩ à¤Īà¤ķ
à¤ħ à¤°à¤¬
Ġà¤ĵ à¤ĸà¤¤
Ġà¤Ĩ à¤¯à¤¤
à¤°à¤® à¤Ń
ĠâĢ Į
Ġà¤Ł à¤£
à¤¨ à¤¸à¤²
Ġà¤Ĺà¤° à¤¯
à¤¡ à¤ªà¤Ľ
Ġà¤¹à¤ķ à¤ħà¤§
ĠI nd
à¤¬ à¤Ļ
à¤°à¤ª à¤¥à¤®
ol og
5 8
à¤µ à¤ıà¤®
à¤µ à¤ħà¤°
à¤¾, âĢĻ
à¤ľà¤Ĺ à¤¦
Ġà¤ªà¤¸ à¤²à¤²
à¤· à¤¤à¤µ
à¤ŀ à¤¸
Ġà¤¤à¤¹ à¤Ĺà¤¤
at t
Ġà¤ħà¤¸à¤¹ à¤ľà¤¤
Ġà¤ļà¤°à¤£ à¤ħà¤¨
à¤Łà¤¨ à¤¬
à¤°à¤ĸ à¤¨
Ġm in
ĠJ un
à¤ĵ à¤²à¤®
Ġ3 1
à¤² à¤ªà¤ķ
à¤Ī à¤Łà¤²
à¥® à¥Ń
ĠM in
Ð°Ð ¼
R A
c l
Ã ¶
Ú ©
Ġà¤° à¤¥à¤¯
Ġà¤¬ à¤¨à¤ķ
Ġà¤ħà¤¨ à¤¸à¤¨à¤®
à¤µà¤°à¤£ à¤®à¤¨
Ġà¤¨à¤Ĩ à¤ĵà¤¸
à¥¨à¥¦à¥¬ à¥ª
ĠVi ew
2 7
à¥Ģ. ,
à¤Īà¤¸ à¤¯
à¤Ľà¤²à¤« à¤²à¤®
Ġà¤Ľ à¤¹
à¤Ī à¤°à¤²
à¤¸à¤¨ à¤ª
à¤·à¤® à¤£
à¤¯à¤¯ à¤Ń
ĠSt r
à¤¨ à¤ĺ
à¤ĸ à¤°à¤²
âĢĻ âĢĵ
Ġà¤ķà¤® à¤¬
à¤¬à¤¹ à¤¸
) )
Ġ Ñĥ
à¤Ĩà¤Ī à¤ıà¤¸
Ġà¤ħà¤Ļ à¤Ĺ
Ġà¥§à¥¯à¥Ń à¥¯
Ġà¥§à¥¯à¥ª à¥Ń
à¤µà¤¯à¤® à¤¸
ĠI D
ir l
Ù Ħ
à¤¶à¤ķ à¤¸
à¤Ĩà¤Ī à¤ı
à¤Ĩà¤ľ à¤Ń
es h
Ġà¤¸à¤°à¤² à¤¤
à¥Ģ ..
re d
à¤° à¤ıà¤ķ
à¤Ĺ à¤ıà¤°
Ġà¥§à¥§ à¥Ń
à¤Ļ à¤ĸà¤²
Ġà¤ħà¤²à¤Ĺ à¤ħà¤²à¤Ĺ
Ġha ve
Ġà¤ķà¤° à¤µ
T M
à¤¾ &
Ġà¤Ł à¤ªà¤°
à¤µà¤° à¤¸à¤®
ord in
à¤¨ à¤¬à¤°
Ġà¤¶ à¤ª
à¤ĺ à¤·
Ġà¥§à¥© à¥ª
à¤Ĺà¤łà¤¨ à¤¬
à¥ ŀ
Ġà¤¸à¤¹ à¤¦
Ġà¤¡ à¤®à¤°
Ġà¤ķà¤° à¤¨
à¤Łà¤ķ à¤¹à¤°
à¤ıà¤¸ à¤ıà¤¸à¤¬
ist s
? '
à¤¹ à¤²à¤Ĺ
à¤µ à¤ľà¤¸
Ġà¤®à¤² à¤ĸ
Ð°Ð ·
à¤¯à¤¸ à¤¨à¤ķ
à¤¯à¤¸à¤¬ à¤ĸà¤¤
à¤¤ à¤£
Ġà¥ Ĥ
Ġà¥¨à¥¬ à¥¦
ĠM ic
ers on
à¤¬ à¤¦à¤²
Ġà¤ł à¤£
à¥¯ à¥ª
ĠS EE
à¤ª à¤¸à¤¬
à¤ĩ à¤ķà¤ķ
er n
Ġd o
Ġà¤¨à¤Ĺ à¤Ī
Ġà¤ķ à¤ķà¤¨
Ġà¤¤ à¤Łà¤®
à¤ĸ à¤Ĺà¤ŀ
à¤ĩ à¤¤à¤²
Ġà¤ĩ à¤µ
à¥® à¥¨
ic ip
Ġà¥§à¥¯à¥¬ à¥¨
Ġà¤ı à¤²à¤¬
à¤Ĩ à¤°à¤²
à¤ĸ à¤¬à¤¹
à¥¤ .
Ġà¤Ŀ à¤®à¤ķ
à¤ıà¤¨ à¤ıà¤¨
Ġà¥¨à¥¦à¥ª à¥§
Ġn ot
Ð° Ðº
Ġà¥§à¥¯à¥® à¥¨
à¤¬à¤ĸ à¤¤à¤®
à¤² à¤¸à¤²
à¤ª à¤¸à¤¹
Ġà¤Ĩ à¤²à¤®à¤²
Ġà¤ĵ à¤®à¤ķ
Ġs e
à¤ª à¤¦à¤ķ
Ġà¤ªà¤° à¤ľ
Ġà¤¡ à¤Ļ
ov e
à¥ģ à¥Įà¤ģ
à¥¯ à¥§
oc u
Ġà¤¨ à¤°à¤¦
à¤ĸ à¤ªà¤¢
à¤ĩà¤¨ à¤ĸà¤¬à¤°
à¤¸à¤¦ à¤µ
Ġà¤¸à¤² à¤¹
ĠN A
d ay
à¥Įà¤Ĥ à¤Ĥ
Ġà¤ħà¤« à¤¨
Ġà¤ħà¤« à¤¸
à¤¾ à¥ģ
âĢ ķ
Ġà¤¡ à¤ķà¤°
Ġc l
à¥į à¥ĭ
à¤® à¤¹à¤²
à¤Ĺà¤² à¤¤
à¤¸à¤® à¤¯à¤ķ
Ġà¤ħà¤Ń à¤¯
à¤¯à¤² à¤¸
Ġà¤µà¤¨ à¤ľ
Ġà¤ĸà¤¬à¤° à¤ªà¤¤
à¤¹ à¤µà¤°à¤®
Ġà¤Ń à¤®
ar th
à¤ĸà¤® à¤¯
Ġà¤ħ à¤¨à¤ķ
à¤° à¤ªà¤²
à¤£ à¤ľ
Ġà¤¬à¤² à¤ª
à¤¯à¤£ à¤¸
Ġ201 3
à¥¦à¥¬ à¥¨
à¤¯à¤¨ à¤¶
Ð¸ Ðµ
Ù ĩ
Ġà¤ª à¤²à¤²
Ġà¤° à¤¬à¤°
à¤Ĩà¤ľ à¤ķà¤²
à¤¸ à¤²à¤ķ
à¤ļ à¤²à¤¬
Ġà¤ľ à¤®à¤²
Ġà¤¶ à¤µà¤¯
Ġà¤ĵ à¤ķà¤²
Ġà¥§à¥§ à¥¨
ĠD ur
à¥¨à¥¦ à¥¦à¥Ń
out ube
Ġà¥§à¥¯à¥« à¥®
à¤¯à¤¸ à¤ŀ
à¥Įà¤Ĥ âĢĿ
à¤®à¤¨ à¤°
à¥¯ à¥¬
Ġà¤ıà¤¨ à¤ıà¤¸
à¤¥à¤ª à¤°à¤ķ
à¤Īà¤ĵ à¤Ł
à¤® à¤¡
Ġà¤ķà¤® à¤²à¤ķ
à¤¹à¤¨ à¤¤à¤ķ
à¤ĩà¤ķ à¤¬
ar a
am e
à¤¤ à¤Ľ
... âĢĻ
I C
Â ©
à¤Ī à¤µà¤¸
Ġà¤¦à¤¶à¤°à¤¥ à¤ļà¤¨
Ñ Ħ
ä »
à¤Ļ à¤Ń
à¤ħ à¤Ĺà¤¸
à¤¶à¤¨à¤² à¤²
ros oft
h ttp
Ġà¤µ à¤«
Ġà¤ı à¤ªà¤²
ĠA ction
ĠÐ ·
ĠB l
Ġà¤īà¤ªà¤ķà¤°à¤£ à¤®
à¥Ģ âĢĶ
à¤ļ à¤¤à¤°
à¤Ń à¤Ī
à¤¤à¤° à¤µà¤¸
à¤ķà¤® à¤¨
à¤µà¤¨ à¤ļà¤°
à¤¯à¤° à¤¡
il d
ï¿½ "
å ħ
Ġ áĥ
à¤® à¤ķà¤²
à¤Ĺ à¤µà¤£
à¤ıà¤® à¤Ł
Ġà¤ľà¤¨à¤® à¤ŀ
à¤¦ à¤ľ
à¤· à¤ĺ
à¤· à¤ªà¤¹
Ġà¥§à¥§ à¥¦à¥¨
à¤ıà¤¸ à¤ıà¤²à¤¸
ion s
.... ...
Ġà¤Ĩà¤¯ à¤µ
à¤¸à¤¨ à¤¦
Ġà¤Ĩà¤° à¤ıà¤¸
à¤§ à¤§à¤°
Ġà¤ľ à¤ľ
à¤« à¤°à¤®
Ġà¤ªà¤¦ à¤®à¤ª
à¤Ĺ à¤ı
à¤®à¤¨ à¤ª
Ð¾ Ñģ
em ent
) -
à¤¿ (
à¤¯ à¤ªà¤¨
Ġà¤¬à¤¨ à¤Ń
à¥Įà¤ģ, âĢĿ
Ġ ï¿½...
ĠN ot
ĠÐ½ Ð°
Ġà¤² à¤Ľ
à¤ªà¤¨ à¤¦
à¤¶à¤¤ à¤µ
à¤µà¤°à¤£ à¤¬
Ġà¤ıà¤ħ à¤°à¤²
à¤° à¤ł
à¤ı à¤¤à¤²
à¤Ń à¤ª
à¤ķà¤² à¤¸
Ġà¤Ĺà¤£ à¤°
à¤ıà¤« à¤ıà¤ķ
à¤ļà¤¸ à¤¯
Ð ¶
à¤°à¤® à¤¸à¤¹
Ġà¤¬à¤² à¤µ
ay s
à¤£ à¤Ńà¤ķ
à¤ĺ à¤¸à¤¸
à¤¯à¤¤ à¤µ
Ġà¤¦à¤° à¤µà¤¨
ĠÐ ³
a x
à¤£ à¤²à¤Ĺ
à¤ĩ à¤¤à¤¬
à¥Įà¤Ĥ /
à¤¦à¤¨ à¤¸à¤®
Ġà¥§à¥¯à¥® à¥®
ide o
f e
p er
Ġà¤Ĺà¤° à¤®
à¤§ à¤°à¤£à¤²
Ġà¤Ĩ à¤°à¤¬
ĠâĢ į
à¤¶à¤¨ à¤²à¤ķ
Ġà¤ĵ à¤ĩà¤²
à¤¸à¤¬ à¤ķ
5 0
à¤Ĩ à¤°à¤®
à¤µà¤² à¤Ĺ
Ġà¤Ĩà¤¶ à¤¯à¤ªà¤¤
ĠP ortal
Ġà¥¨à¥¦à¥¨ à¥ª
ĠPolic y
b e
à¤² à¤¸à¤ķ
à¤² à¤ľà¤¯
Ġà¤¤ à¤µà¤°à¤®
à¤¶ à¤Ńà¤¨
Ġà¤ľà¤¨ à¤¬
Ġà¤¸à¤¡à¤ķ à¤ª
Ġ- ---
Ġà¤ľà¤¨à¤ķ à¤°
à¤¸ à¤ľà¤¨
Ġà¤ª à¤¯
à¤ľ à¤ķà¤°
à¤¸à¤¸ à¤¸
Ġà¥¨à¥¦à¥© à¥§
T op
à¤² à¤µà¤®
à¤¨à¤ķ à¤¤
à¥ĥ âĢĻ
Ġà¥§ à¥¦à¥Ń
Ġà¤Ĺà¤ł à¤¨à¤¸
Ġà¤Ńà¤µà¤¨ à¤¬
ĠS c
à ©
à¥ĭ à¥į
Ġà¤¬ à¤²à¤¬
Ġà¤ī à¤łà¤¨
à¤µà¤¤ à¤¸
al e
à¥ĩ ..
Ġà¤Ń à¤¯à¤²
Ġà¤Ĩ à¤Ĺà¤®à¤¨à¤ķ
9 8
k ed
Ġà¥¨à¥¦à¥© à¥Ń
Ġà¥¨à¥¦à¥© à¥®
à¤ĺà¤Ł à¤¨à¤ķ
à¤® à¤¢
Ð¸ Ð½
Ġà¤¶à¤ªà¤¥ à¤Ĺ
form ation
Ġn e
con om
M S
t s
à¤¹ à¤¬à¤°à¤®
Ġà¤Ĺ à¤®à¤Ĺà¤¢
à¥¤ &
Ġà¤ķà¤² à¤¸
Ġà¤ļà¤° à¤¨
Ġà¥§à¥¯à¥® à¥§
à¤¹à¤Ļà¤ķ à¤Ļà¤ķ
Ġ our
à¤ı à¤Łà¤°à¤ķ
Ġà¤īà¤ª à¤ľà¤ķ
Ġà¥§à¥© à¥¬
Ġà¤ķ à¤¹à¤°à¤ķ
à¤Ī à¤ı
à¤¨à¤² à¤Ļ
à¤°à¤µ à¤ª
n y
Ġà¤Ŀ à¤¯
Ġà¤ĺà¤° à¤ĺà¤°
Ġà¤ĸà¤Ł à¤ªà¤Ł
Ġ0 9
S t
à¤ķ à¤Ĺà¤¢
à¤°à¤¤ à¤²à¤Ĺ
Ġà¥¨à¥¦à¥ª à¥ª
m and
Ġà¤Ĺ à¤µ
Ġà¤¨ à¤¡à¤°
à¤Ī à¤ıà¤«à¤ı
Ġà¤Ĩà¤ĩ à¤ĵ
Ġà¤ıà¤¸ à¤¬
à¤ķà¤Ł à¤ª
our ce
à¤¡ à¤¤à¤°
à¤¢ à¤Ĺ
à¤ıà¤¨ à¤ıà¤ķ
Ġà¤® à¤¤à¤®
Ġà¤ħà¤¸ à¤Ī
à¤ı à¤¥
à¤·à¤ķ à¤¸
ic s
Ġà¤ĵà¤Ńà¤° à¤Ł
ĠFor um
å ¹
Ġà¤ı à¤²à¤¸
à¤§à¤¨ à¤¸à¤®
ĠâĢ¦ .
P ost
à¥ģ (
à¤°à¤® à¤¶à¤ķ
Ġà¤ĸ à¤¦
Ġà¤ľà¤¨ à¤°
Ġà¥§à¥¯à¥« à¥©
Ġ und
à¤¿ à¤¿
à¤Ł à¤Ľ
Ġà¤®à¤¹ à¤ķ
à¤ıà¤® à¤ľ
un icip
à¤² à¤¯à¤¸à¤¹
Ġà¤¬à¤ļ à¤¤à¤ķà¤°
à¤®à¤¸ à¤Ļ
Ġà¥§à¥¬ à¥®
in s
Ġà¤Ĩà¤ł à¤ľà¤¨
Ġw ebsite
Ġà¥¦à¥¬ à¥Ń
à¥®à¥® à¥§
Ġà¤Ŀà¤¡ à¤ªà¤ķ
Ġà¤ĸ à¤Ľ
à¤ł à¤²à¤Ĺ
al i
Ġà¤¨à¤µ à¤īà¤¦
Ð°Ð ²
9 5
à¤§ à¤ķà¤®
à¤¾à¤ģ -
Ġà¤ıà¤ķ à¤¦à¤²
à¤Łà¤¨ à¤°à¤ķ
à¤¬à¤² à¤Ł
yst em
à¤¨ à¤ĵà¤Ł
à¤¥ à¤¡
à¤Ī à¤¤à¤°
à¤ĩ à¤²à¤Ĺ
à¤Ļ à¤¨
à¤²à¤ķ à¤¸à¤¹
à¤ķà¤°à¤£ à¤¤à¤°
Ġà¤ħà¤¬ à¤²
Ġà¤ħà¤ª à¤Ĺ
on line
ĠN ew
Ġst atus
du c
å ı
à¤¸ à¤¥
à¤µ à¤Ļ
à¤Ī à¤¨à¤¨
à¥Į âĢĿ
à¤Ŀ à¤ª
Ġà¤¤à¤ª à¤¶
Ġà¥§à¥¯ à¥Ńà¥¬
Ġà¤«à¤°à¤ķ à¤®
ro w
à¤ľà¤¯ à¤ªà¤Ľ
ĠA D
Ġà¥§à¥¯à¥® à¥Ń
________ ________
Ġà¤¸ à¤µà¤¸
Ñģ Ñı
à¤µ à¤ĸ
à¤Ĺà¤® à¤Ĺ
Ġà¤ĺà¤° à¤¨à¤ķ
) ;
à¤¹ à¤¤à¤®
à¥Įà¤ģ âĢĻ,
à¤¸à¤µ à¤¹à¤°
ĠA ll
à¤ı à¤¶à¤¨à¤ķ
à¤£à¤¯ à¤¸à¤®
at s
Ġà¤Ńà¤°à¤¤ à¤°
Ġà¤ľà¤Ĺà¤¤ à¤¬à¤¹
à¤ķ à¤°à¤¬à¤°
Ġà¤ħà¤µ à¤¯à¤µ
Ġ5 0
ateg ic
N T
Ġà¤ļ à¤¯à¤¨à¤®
Ġa cc
ĠW ebsite
à¤¦ à¤¤à¤®
ÑģÑĤ Ð²
' '
à¤ª à¤ķà¤®
Ġà¤ķ à¤µà¤°
Ġà¤² à¤ļà¤ķ
à¤ħ à¤¸à¤¨
à¤ķà¤° à¤Ń
Ġà¤°à¤ķà¤® à¤®à¤§
Ġà¤Ĩà¤ī à¤¥
à¤·à¤§ à¤°à¤¹à¤°
p h
å ®
à¤Ł à¤ªà¤¤
Ġà¤Ľ à¤®
à¤¥ à¤¨à¤Ĺà¤°
Ġà¤¨à¤Ĺà¤° à¤¸
at er
ĠStr ategic
à¤¯ à¤²à¤¬
à¤¦ à¤¸à¤¤
à¤Ĺ à¤«à¤²
Ġà¤¸à¤¯ à¤µà¤Ł
Ġà¤ªà¤¦ à¤µ
Ġà¤®à¤² à¤¦
Ġà¥§à¥§ à¥¬
à¤²à¤ĸ à¤¬à¤°
Ġle ad
Ġ 00
à¤ª à¤²à¤®
Ġà¤ľ à¤²à¤¨
à¤Łà¤¨ à¤°à¤¸
od e
Ġà¤¨à¤ħ à¤ªà¤¨
l and
à¤¦ à¤¬à¤¦
Ġà¤¦ à¤¹à¤¨
à¤°à¤® à¤¬à¤¦
à¤ªà¤Ł à¤ķà¤®
Ġ9 8
20 30
à¤² à¤ħà¤ĺ
Ġà¤µ à¤¨à¤ª
à¤ĩ à¤¶
Ġà¤ħà¤ª à¤ļ
Ġ- "
ĠB e
à¤¯à¤ķ à¤¸
à¤°à¤¦ à¤ķ
à¤ªà¤£ à¤®
à¤ļà¤° à¤Ļ
ĠH e
** **
Ġà¤¹à¤° à¤ªà¤²
Ġà¥§à¥ª à¥®à¥®à¥§
Ġs ms
à¥§à¥ª à¥®à¥®
Ġpass word
à¤¦ à¤°à¤¹
à¤µ à¤°à¤¦
Ġà¤Ľ à¤ªà¤ķ
à¤·à¤£ à¤ķà¤°
Ġp e
Ġà¥¨à¥¦à¥¨ à¥¬
à¥Ī :
Ġà¤Ĩ à¤µà¤°
à¤°à¤£ à¤µà¤¶
à¤¶à¤¹à¤° à¤®
ĠC l
nepal news
à¤° à¤ľà¤²
à¥Ģ !
à¤µ à¤¥à¤¯
Ġà¤Ĩà¤ļ à¤°à¤£à¤ķ
ãģ Ĺ
à¥Įà¤Ĥ ||
à¤²à¤¨ à¤ļ
à¤Ĺà¤ķ à¤Ļ
Ġ, ,
Ġà¤ĭà¤£ à¤¬
Ġà¤· à¤·
ĠK oh
à¥ģà¥¤ âĢĿ
ordin ator
Ġd es
à¤ĩ à¤®à¤²
à¤Łà¤° à¤Ń
Ġà¤¹à¤° à¤«
Ġà¥¦à¥¬ à¥§
Ġà¤Łà¤¨à¤ķ à¤ª
Ġà¤¬ à¤¬à¤¨
Ġà¤Ľ à¤ļà¤²
à¤¦à¤¶ à¤¨à¤®
ç Ķ
à¤µ à¤¹à¤¨
à¤¨à¤® à¤°
à¥¯ à¥Ń
à¤¨à¤Ń à¤°à¤ķ
ĠDur ation
à¤ķ à¤°à¤¸
Ġà¥§à¥© à¥®
ad io
Top nepalnews
Ġ {
à¤° à¤ªà¤ķ
Ġà¤¨ à¤ķà¤®
Ġà¤® à¤°à¤®
Ġà¤§ à¤®à¤¨
à¤²à¤® à¤ķ
à¤²à¤Ĺ à¤Ńà¤Ĺ
ou nd
Ġà¥©à¥¬ à¥«
L S
ģ Ħ
Ġà¤ĺ à¤¨à¤®
ur k
à¤¤ à¤ĸà¤¤
à¤ħ à¤®à¤°
âĢ¦ ..
G C
à¤ĸ à¤µà¤°
à¤ĩà¤¨à¤² à¤¬
Ġà¤®à¤¦ à¤¦
Ġw e
ib le
à¤ı à¤Īà¤¸
à¤ıà¤ķ à¤ªà¤Łà¤ķ
à¤Ĩ à¤¨à¤¨
à¤®à¤® à¤§
Ġà¤¬à¤ļ à¤¤à¤®
Ġà¤¸à¤ľ à¤Ĺà¤¤
à¤²à¤¡ à¤®à¤¨
à¤Ńà¤ªà¤¤ à¤¨à¤ķ
S E
à¤® à¤£à¤ķ
à¤µ à¤Ńà¤¨
Ġà¤ĵ à¤¨
Ġà¤Ĳ à¤¨à¤¹à¤°
à¤® à¤ł
à¤ĩ à¤ĸ
à¤¸à¤² à¤°
à¥® à¥¦à¥¦
Ġà¤Ĩà¤ı à¤ľà¤¸
Ġf in
unicip ality
Ġà¥¤ âĢľ
Ġà¤Ń à¤°à¤¤à¤ķ
à¤¬ à¤¤à¤¬
à¥¯ à¥©
à¤ĥ âĢĵ
à¤Ńà¤Ĺ à¤µà¤¤
T E
à¤Ł à¤ĸ
à¤ı à¤ĩà¤®
Ġà¤ĺ à¤¨à¤¤
Ġà¤ĵ à¤ıà¤¸
à¤§à¤¨ à¤Ĺ
Ð¾Ð ±
Ġà¥§à¥¯à¥« à¥¯
ĠðŁ Ļ
ĠMic rosoft
á »
Ġas ked
L D
à¤® à¤²à¤®
à¤¤à¤ķ à¤¬
à¤°à¤ª à¤¥à¤ķ
d e
à¤¸ à¤¹à¤¨
Ġà¤Ĩ à¤¦à¤¨à¤ª
à¤Ķ à¤ªà¤ļ
ing s
à¤® à¤°à¤¸
à¤¦ à¤¶à¤ķ
à¤¶ à¤µà¤ª
Ġà¤ļ à¤ĸ
à¤®à¤¬ à¤ľ
áĥ Ĳ
Ġà¥§à¥¯à¥Ń à¥§
Ġà¤¤ à¤®à¤¸
à¤ļ à¤Ļ
à¤·à¤£ à¤ªà¤¤
à¤¹à¤¨ à¤µ
Ġà¤ªà¤¦à¤® à¤¬à¤¹
Ġà¥¨à¥¬ à¥Ń
, âĢĺ
Ġà¤Ĳ à¤ļ
Ġà¤Ĺà¤ľ à¤²à¤²
âĨ Ĳ
à¤ī à¤§
à¤°à¤® à¤ªà¤Ľ
Ġà¤ªà¤¤ à¤ŀ
à¤¨à¤Ĺà¤° à¤¸
ĠM B
à¤Ĺà¤Ń à¤Ļ
Ġà¤ ĳ
à¤¬ à¤¤à¤¸
à¤°à¤¹ à¤¸à¤®
à¤² à¤Ī
à¤µ à¤¬à¤ľ
à¤²à¤ķ à¤¸
à¤²à¤ķ à¤¦
à¥Įà¤ģ à¤Ĥ
à¤¬à¤² à¤¸à¤®
à¤¾ ;
à¤¤ à¤ªà¤°
Ġà¤Ŀ à¤Ŀà¤²
à¤®à¤¬ à¤¦
à¤°à¤¥ à¤°
Ġc an
Ð¸ Ð¹
à¤Ĩà¤¦ à¤°à¤£
ess age
à¥Ĥ '
Ġà¤¸à¤®à¤¯ à¤¬
Ġà¥¦à¥¬ à¥¬
im al
à¤ĭ à¤£
à¤ħ à¤ªà¤®
m an
à¤® à¤·
Ġà¤ľ à¤¯à¤¶
Ġà¤§ à¤¬
Ġà¤¸à¤¬ à¤¥
Ġà¤Ĩà¤¯ à¤¶
Ġ? ??
Ġà¤¨à¤Ĩ à¤ıà¤¸à¤®
a f
à¤® à¤µà¤¤
Ġà¤ī à¤¤à¤°
Ġà¤Ŀ à¤ª
Ġà¤®à¤Ĺ à¤ľà¤ķ
ïģ ¶
F ield
à¥ģ !
Ġà¤¸ à¤¥à¤ª
à¤§ à¤Ńà¤°
à¤¡ à¤Ł
à¤ĩ à¤¤à¤ķ
à¤£à¤¯ à¤ªà¤Ľ
Ġà¤Ńà¤µà¤¨ à¤Ń
Ð¾Ð³ Ð¾
Ġà¤ľà¤®à¤ĺ à¤Łà¤®
7 6
ï Ģ
Ġà¤² à¤¹à¤²
à¤ł à¤¤à¤®
âĢĻ âĢĶ
Ġà¤¬à¤² à¤ľà¤«
à¤¸à¤¹ à¤ľ
à¥Įà¤Ĥà¥¤ âĢĿ
r it
Â °
à¤¸ à¤ıà¤ķ
à¤¹ à¤Ļ
à¤Ĥ ...
à¤Ŀ à¤°
à¤¯ à¤¯à¤®
à¤« à¤²à¤®
à¤¾à¤ģ âĢĻ
à¥ĭà¥¤ [
à¤²à¤Ĺ à¤¹à¤°
Ġà¤ĸà¤¸ à¤ĸà¤¸
Ġà¤ıà¤« à¤ıà¤®à¤¬
à¤ªà¤° à¤ľ
Ġà¤¸à¤¹à¤° à¤¬
à¤§ à¤¨à¤¸à¤¹
à¤¤à¤ķ à¤¤
à¤Ĩ à¤®à¤®
Ġà¤Ĺà¤ĩà¤°à¤¹ à¤¨
ol d
à¤ľà¤Ń à¤¤
à¤¸ à¤£
à¤ĩ à¤Ńà¤®
à¤¶à¤¨ à¤¦
Ġà¥§à¥Ń à¥¬
it al
ro p
L E
S S
Ġà¤ħà¤¨ à¤¸
Ġà¥§à¥© à¥«
Ġà¥§à¥¬ à¥¬
Ġà¤ª à¤¥à¤ª
à¤£ à¤ĸ
ic es
Ġp r
ation s
i x
à¥Ĥ à¥į
à¤Ĩ à¤ĩà¤ķ
Ġà¤¬à¤¸ à¤°
Ġà¥§à¥¨ à¥¯
Ġà¥§à¥Ń à¥¦
ĠM unicipality
Ġà¤¨ à¤µà¤¸
à¤ľ à¤ħà¤¨
à¤ļ à¤Ń
à¤£ à¤Ń
à¤¾ ï¿½
à¤¹ à¤£à¤®
Ġà¤° à¤¸à¤®
Ġà¤ľ à¤ļ
à¤ī à¤¦à¤ķ
Ġà¥§à¥§ à¥®
à¤¿ Ã·
à¤µ à¤Łà¤®
à¤§ à¤µà¤²
à¤¸à¤¨ à¤¹
Ġà¤¹à¤¦ à¤¬à¤¨
,, ,
ĠÙ ħ
à¤° à¤ħà¤°
à¤µà¤° à¤µ
à¥Įà¤ģ âĢĿ
Ġà¤¥à¤ª à¤ĺà¤Ł
Ġà¥¨à¥Ń à¥«
or ld
ĠB o
å ¤
Ġ 01
Ġà¤Ĩ à¤¶à¤ķ
à¤« à¤¸à¤²
à¤¹à¤ķ à¤¸
Ġb usiness
à¤¯à¤ľà¤¨ à¤¬
à¥į à¥Ī
à¤² à¤µà¤°
à¤® à¤§à¤¨
à¤Ń à¤¡
à¤¨à¤¨ à¤¸à¤ķ
Ġà¤ľà¤¸ à¤¸
à¤®à¤® à¤£
à¤°à¤ª à¤Łà¤ķ
à¤Īà¤ķ à¤²à¤®
ore a
ĠP h
Ġà¥¨à¥¦à¥¨ à¥©
Ġà¤ĸà¤² à¤Ļ
l ig
Ġà¤Ĩ à¤¸à¤®
à¤ĺ à¤¤
Ġà¤Ĩà¤ĩ à¤ıà¤¨à¤ľ
à¤¨ à¤°à¤¤
à¥ģ âĢĿ,
Ġà¤ľà¤¨à¤¸ à¤ĸ
IN G
Ġ à¦
à¤ª à¤²à¤Ĺ
Ġà¤Ńà¤ı à¤Ŀ
à¤ĩà¤² à¤Łà¤ķ
Ġ- ----
à¥į.. !!
Ġà¤¸ à¤¨à¤ķ
à¤ľ à¤µà¤²
Ġà¥¦à¥ª à¥®
m ugu
å Ĳ
Ġ all
à¤§ à¤¸à¤Ń
à¤ĩ à¤®à¤®
Ġà¤¬à¤¸ à¤¸
Ġà¤¸à¤¯ à¤ľà¤¨
ãģ Ł
conom ic
à¤¨ à¤¸à¤¨
Ġà¤¤ à¤²à¤¤
ou nc
et ail
à¤® à¤¬à¤°
Ġà¤® à¤Ńà¤¨
à¤ħ à¤µà¤¸à¤°
ĠN ext
à¥¨à¥¦à¥¬ à¥¯
A pril
à¤¹ à¤Ĺ
à¤¦à¤° à¤ª
Ġà¤ıà¤® à¤ıà¤¸
à¤®à¤ļ à¤°
à¤Ĭ à¤®
Ð° Ñı
ĠÐ¾ Ð±
Ġà¤īà¤ª à¤ķà¤°à¤£à¤²
Ġà¤¢ à¤ķà¤®à¤ķ
Ġà¤¬à¤² à¤Ńà¤¦
à¥ĭâĢĵ âĢĺ
ĠB h
l es
à¤ĸ à¤¨à¤¬
Ġà¤ħà¤§ à¤ķ
âĢĻ à¥¤
Ġà¤ĺà¤° à¤ľà¤®
à¤¹à¤¨ à¤ª
Ġà¤ļà¤°à¤£ à¤¹à¤°
Ġà¥§à¥¬à¥« à¥©à¥ª
w an
à¤¦ à¤¯à¤¦
Ġà¤ľ à¤ķà¤¡
Ġà¤¤à¤° à¤µ
Ġà¤Ĩà¤Ī à¤¡à¤²à¤ķ
à¤² à¤°à¤¹à¤°
à¤¹ à¤ľà¤¸
à¤¶ à¤²à¤ķ
à¤Ń à¤ľà¤¨
à¤¯à¤® à¤ªà¤ŀ
à¤Ĩ à¤¤à¤®
ĠA r
ul s
Ġà¤¶à¤°à¤¦ à¤ķ
I ON
à¤ª à¤Ń
à¤¦ à¤īà¤¨
à¤ħ à¤¨à¤®
à¤²à¤¯ à¤µ
à¥ĭ' ,
Ġà¤¨ à¤¤à¤®à¤¸
à¤Ī à¤Ī
Ġà¥§à¥¯ à¥§à¥¦
Ġà¥§à¥Ń à¥«
Ġà¥¨à¥® à¥¦
à¤®à¤¯ à¤¦à¤°
Ġà¤²à¤¹à¤² à¤¹
à¤°à¤¹ à¤¥à¤µ
à¤ªà¤® à¤¤à¤ķ
Ġà¤Ńà¤¯ à¤Ń
à¤ıà¤¨ à¤ıà¤®
Ġà¤¸à¤¡à¤ķ à¤¸à¤®
Ġà¤¤à¤² à¤¸à¤®
ub lic
à¤ĩ à¤ľà¤²
Ġà¤« à¤°à¤®
à¤¨à¤Ĺà¤° à¤Ń
à¤ıà¤¸ à¤ıà¤¸à¤ª
ĠÐ °
à¤µà¤¸à¤¹ à¤®à¤¤
5 4
Ù Ĭ
Ġà¤Ĩà¤ĩ à¤ķà¤¨
Ġà¥§à¥¨ à¥¬
à¤¸à¤¹à¤° à¤ķ
à¤µà¤Ń à¤°à¤¬
ĠR ong
a pp
Ġà¤Ľ à¤°à¤ªà¤¸
à¤¶ à¤¤à¤°
à¤Ń à¤²à¤²
à¥Į ?
à¤¯à¤¸ à¤ªà¤¶
à¤Łà¤°à¤¸ à¤¹
Ġà¤Ĩ à¤Ĺà¤®à¤¨à¤®
à¥Įà¤Ĥà¥¤ '
Ġm an
tern ational
GC DP
C H
à¤¤ à¤¡à¤®
à¤ľ à¤¯à¤°
à¤· à¤¬à¤¹
à¤ľà¤® à¤¸
Ġà¥§à¥¯ à¥Ńà¥ª
à¤¼ ,
Ġà¤ªà¤¥ à¤Ń
cri pt
à¤ı à¤Ĩà¤°
à¤¬ à¤°à¤¤
à¤ªà¤° à¤¦
à¤°à¤¸ à¤¯
à¤°à¤ļ à¤²à¤¨à¤²
à¤°à¤ľ à¤¨à¤ķ
ig h
à¥Ģ &
à¤« à¤¯
à¤ŀ à¤¬à¤¹
Ġà¤¯à¤¸ à¤¬à¤°
Ġà¤ªà¤¹ à¤²à¤²
rig ht
à¥ Ľ
à¤¡ à¤°à¤¬
Ġà¤ľà¤¨ à¤ªà¤°
Ġà¤ĺà¤° à¤ĸà¤°
Ġà¤°à¤® à¤Ŀà¤®
ar ch
Ġw ill
à¤ļà¤¥ à¤°à¤®
d dc
Ġ `
à¤µ à¤ħà¤ĺ
Ġà¤ļ à¤ķà¤¨
Ġà¤¨à¤ļ à¤¢
ak e
m er
Ġà¤® à¤Ń
Ġà¤ľ à¤¯à¤¸
à¥Ĥ ...
à¤¸à¤® à¤§
à¤°à¤¹ à¤ª
à¤²à¤¬ à¤¦
à¤¤à¤² à¤¤
Ġà¤¦à¤² à¤¦à¤²à¤®
Ġà¥©à¥¨ à¥¦
i ed
à¤¿ ),
Ġà¤° à¤Ĺ
Ġà¤ħ à¤²à¤ķ
à¤ĸ à¤ªà¤¤
à¤°à¤£ à¤ª
Ġà¤ħà¤§ à¤°
ĠâĢĵ âĢľ
re n
à¤°à¤Ļ à¤¬
Ġà¤¬à¤¬à¤°à¤® à¤¹à¤²
â ģĦ
à¤¬ à¤°à¤¹à¤°
à¤ļ à¤¢
Ġà¤ħà¤¨ à¤¸à¤¨à¤ķ
à¤Ļ à¤¡
Ġà¤¯à¤¸ à¤ħà¤°
à¥ĩà¥¤ âĢĻ
ĠP AR
ĠC ha
Ġà¥¨à¥¦à¥¨ à¥Ń
à¤µà¤¯à¤® à¤²
à¥¨à¥¦à¥§ à¥«
ĠÂ« Â»
Ġ1148 6
a ut
b le
Ġà¤Ĺ à¤ľà¤¬
à¤¥ à¤Ńà¤¨
à¥Į -
or n
or s
Ġà¤ıà¤² à¤Īà¤¡
Ġà¤ĸà¤ªà¤¤ à¤ķ
Ġ1148 5
» ¿
Ġà¤ħà¤¸ à¤°à¤¹à¤°
à¥ĭà¥¤ "
à¤Ĩà¤ĩ à¤ıà¤¸
à¤²à¤Ĺà¤° à¤¹à¤°
Ġhe l
Ã ³
à¥Ī à¥Īà¤Ĥ
Ġà¤ı à¤¨à¤¬
Ġà¤ħà¤¸ à¤Ń
Ġà¤®à¤¹à¤° à¤²
Ġà¤Ī à¤ŀ
Ġà¥¨à¥¦à¥¨ à¥¯
Ð¸ Ð¼
Ġe le
ĠAug ust
Ġmin ut
7 7
à¤¦ à¤°à¤¦
à¤Ĺ à¤ªà¤Ľ
Ġà¤¹ à¤Łà¤²
à¤¹à¤° à¤ª
Ġà¤īà¤ª à¤ķà¤ª
Ġà¤°à¤ķà¤® à¤¸à¤¹
Ġà¥§à¥¯à¥Ń à¥®
ĠArt ists
J U
à¤° à¤ħà¤ĺ
Ġà¥§à¥© à¥©
oc al
Nepal i
à¤¡ à¤°à¤µ
à¤¡ à¤ľà¤¸
à¥¤ âĢ¦
Ġà¤®à¤¨ à¤¬
an a
Ġ1148 7
à¤Ĺ à¤µà¤¨
à¤ĩ à¤ħà¤ķ
Ġà¤ħà¤¨ à¤µ
Ġd i
Ġà¥¦à¥« à¥®
à¤¬ à¤ĺ
à¤¨à¤® à¤£
Ġà¤ĺà¤° à¤Ńà¤¨
Ġà¥§à¥¨ à¥©
ĠTr ans
ï »¿
à¤¨ à¤Łà¤®
à¤® à¤ªà¤°
à¤¸ à¤ħà¤«
à¤¥ à¤¨à¤²
à¤Ń à¤°à¤²
Ġà¤ıà¤ķ à¤¢
ĠC ent
ur a
ight s
à¤¯ à¤°à¤¶
Ġà¤ª à¤§
à¤¬ à¤Ĺà¤°à¤®
Ġà¤īà¤¡ à¤¨
Ġà¤¡à¤²à¤° à¤¸à¤®
Ġà¤¯à¤® à¤¨à¤®
à¤Ĺà¤ª à¤ŀ
iv ers
Ġà¥§à¥¯à¥ª à¥®
C O
T A
u res
à¥ĩ Â¥
à¤® à¤¦à¤²
Ġà¤¸ à¤¯à¤²
à¤ļ à¤Ł
à¤²à¤¨ à¤¦
it ed
ĠM an
Ġin t
w eet
à¤Ĺ à¤ĸ
Ġà¤¦ à¤ĸà¤²
Ġà¤¡ à¤°à¤ķ
à¤¶à¤ķ à¤¦
Ġà¤īà¤¦ à¤¯à¤°
Ġà¤ħà¤¹ à¤µ
à¤¸à¤¦ à¤¦
Ġà¤Ĩà¤īà¤¨ à¤ķ
à¤°à¤ļ à¤²à¤¨à¤ķ
Ġà¤Ŀà¤® à¤Ŀà¤®
R NA
à¤¤ à¤ħà¤²
à¤ª à¤¸à¤¹à¤°
à¤Ł à¤Ļ
Ġà¤Ĺà¤° à¤¨
à¤Ī à¤ªà¤²
Ġà¤°à¤ķà¤® à¤¸à¤®
Ġà¤ªà¤² à¤¹à¤°
Ġà¤ķà¤ł à¤ª
Ð¸ Ð¸
Ġà¤¹à¤Ļà¤ķà¤Ļ à¤¸
Ġà¤ħà¤ªà¤¹à¤°à¤£ à¤ªà¤Ľ
Ġart icle
à¤° à¤Ŀ
à¤· à¤ľà¤¸
Ġà¤¸à¤® à¤¤à¤²
à¤ĩ à¤ħà¤¨
at es
Ġà¤¤à¤²à¤¬ à¤¬
Ġà¤¸à¤®à¤¯à¤¸à¤® à¤¯à¤®
ÅĴ à¤µ
à¤ľà¤¯à¤¨ à¤Ĺà¤°
à¤µ à¤Īà¤®
Ġà¤ıà¤ķ à¤¹à¤ľ
Ġà¤Ĺ à¤ıà¤¸
Ġà¤¹ à¤¦à¤®
à¤²à¤Ĺ à¤ĩà¤¨
Ġà¥¨à¥© à¥¦
à¤°à¤¥ à¤®à¤¤
ik news
Ġà¤²à¤ĸà¤¨ à¤ī
ĠNE PAL
à¤ī à¤·
à¤²à¤¯ à¤ª
Ġà¤Ĺà¤¤ à¤¸
à¤¨à¤¸ à¤¯
à¥Ĥà¤ģ ,
à¤Łà¤¦ à¤¹
3 5
o f
à¤Ń à¤ıà¤®
Ġà¤¹à¤° à¤¸à¤®
æ Ĺ
à¤ĩ à¤¤à¤°
Ġà¥¨à¥¨ à¥¦à¥¦
P hone
R O
h y
à¤¿ à¥ĥ
Ġà¤Ĺ à¤¹à¤ķ
Ġà¤®à¤¨ à¤°
Ġà¤īà¤¨ à¤¬
Ġà¤Ķ à¤ķ
Ġà¤ľà¤¨à¤® à¤¤à¤²
Ġà¤¨à¤Ĺ à¤¦à¤®
p os
å Ĩ
à¤Ī à¤ĸ
à¤ĵ à¤¹à¤°
Ġà¤Ĩà¤ľ à¤®
Ġà¤§à¤¨ à¤¸à¤®
à¤ķ à¤µà¤°
à¤ķ à¤¥à¤°
Ġà¤Ĺ à¤ıà¤¨à¤¨
Ġà¤° à¤®à¤¨
à¤Ľ à¤ł
Ġà¤ľà¤¨ à¤¤à¤¨
Ġà¤®à¤¨ à¤¶
Ġà¤Ńà¤ı à¤Ľà¤¨
à¤Ľà¤² à¤«à¤²
à¤¶ à¤¬à¤¨
Ġà¤¸à¤® à¤§
Ġà¤ķà¤® à¤²à¤®à¤£
à¤¹à¤¨ à¤¤à¤²
Ġà¤¸à¤°à¤¸ à¤°
Ġà¤®à¤¨à¤® à¤¸
à¤Ńà¤² à¤ªà¤°
à¤µ à¤¶à¤¤
à¤ľ à¤Ńà¤¨
Ġà¤¹ à¤°à¤¦à¤®
Ġà¤ī à¤¸à¤¬
à¤®à¤¨ à¤Ĺà¤°à¤®
à¤ªà¤£ à¤²
ĠE duc
ec ond
Ġà¤¨à¤Ńà¤ĩ à¤ķà¤¨
à¥ĭ ),
à¤² à¤ªà¤®
à¤¤ à¤ĭà¤·
à¤°à¤¹ à¤¯
à¥ģà¤ģ âĢĻ
Ġà¤¢ à¤°
à¤ĵ à¤¹
Ġà¥§à¥¨ à¥¨
Ġà¤¬à¤§ à¤¶
à¥¨à¥¦à¥§ à¥ª
Ð» Ñı
o ber
Ġà¤Ĩ à¤ıà¤²à¤Ĺà¤¤
à¤¸à¤¨ à¤¸à¤¤
Ġà¤¨à¤¬ à¤¤
Ø ³
à¤¬ à¤ĩ
Ġà¤ħà¤° à¤¬à¤²
à¤®à¤¨ à¤¦
Ġà¤¨à¤ľ à¤°à¤¬
m m
p ort
Ġà¤¨ à¤¸à¤ļ
à¤ı à¤®à¤®
Ġà¤¬ à¤¶
à¤£ à¤¯à¤¨
à¤°à¤¸ à¤µ
à¤Ĭ à¤¦
Ġof f
E X
U TC
Ġà¤ıà¤® à¤ĵà¤¯
à¤ĩà¤Ł à¤¹
à¤¦à¤¶ à¤¨à¤ķ
Ġà¥©à¥¨ à¥«
à¤ĩà¤« à¤¸
anc ial
M P
à¤¸à¤² à¤§
if e
à¤® à¤ĺà¤°
à¤¸à¤® à¤Ŀà¤¦
Ð¸ ÑĢ
Ġà¤¹à¤Ļà¤ķà¤Ļ à¤¬
ãģ §
ch ool
Ġà¤ıà¤¨à¤Ĩà¤° à¤Ł
, "
à¤¨ à¤¬à¤¨
à¥Ī '
à¤ľ à¤¯à¤®
à¤Ī à¤²à¤®
à¤łà¤ķ à¤¸à¤®
Ġp er
à¤¦ à¤«
Ġà¤° à¤¶à¤®
Ġà¤¹ à¤ķà¤µ
à¤Ļ à¤ľà¤¸
à¤¸à¤® à¤¤
à¤ħ à¤£
à¤ļà¤¨ à¤ħà¤ĺ
à¤µà¤® à¤§
Ġag o
Ġlead ing
ä ½
Ġà¤® à¤Ĺà¤¨
à¤§ à¤Ĺà¤¯
à¤£ à¤¶à¤®à¤¶
r al
Ġà¤¬ à¤µ
à¤¾à¤ģ à¥¤
à¥ĥ à¥į
Ġà¤Ĩà¤Ī à¤ıà¤®
ul l
j ect
Ġà¤ıà¤ķ à¤¡
à¤ĩà¤¨ à¤¦
à¤ļà¤² à¤¨à¤ķ
Ġà¤Ĩà¤ı à¤¦
Ġn epcal
ĠApp le
mand u
9 9
à¤ĩ à¤ªà¤®
Ġà¤īà¤¡ à¤¡
ãģ Ħ
Ġà¤ ŀ
à¤¾ !!!
Ġà¤Ĩ à¤¹à¤¤
Ġà¤¥ à¤°à¤¥à¤°
à¤¨à¤µ à¤¹
Ġà¥§à¥© à¥Ń
Ġà¤¡à¤²à¤° à¤Ńà¤¨
ĠF M
4 2
à¤¸ à¤ł
à¤¶ à¤£
à¤ľà¤¨ à¤¦
à¥Įà¤ģ à¤ĥ
à¤ıà¤¨ à¤Ł
Ġà¤ĸà¤µ à¤°à¤¦
Ġ u
à¤ĩ à¤Ńà¤ķ
Ġà¤ĺ à¤¤
à¤·à¤£ à¤ħà¤¨
à¤°à¤Ń à¤²
à¤Ĺà¤ł à¤¬à¤¨
ĠN o
à¥ĭâĢĵ âĢľ
ĠE n
ãģ «
à¤¨ à¤¨à¤ķ
à¤ĩ à¤®à¤ķ
à¤Łà¤¨ à¤°à¤²
à¤ķà¤ª à¤¥
Ġà¥§à¥¨ à¥§
Ġà¤¨à¤ľ à¤°à¤¬à¤¨
Ġà¤Ī à¤Ļà¤Ĺ
ÐµÐ ¹
ĠEduc ation
m erica
n et
à¤¬ à¤¨à¤²
à¤ĩà¤¤ à¤Ńà¤¨
ĠB I
if ic
à¤®à¤Ľ à¤®
à¤¨ à¤°à¤µà¤²
à¤ī à¤ŀ
Ð¾ ÑģÑĤ
Ġà¤ıà¤ļ à¤ª
ĠðŁĻ ģ
à¤Ń à¤¡à¤ķ
à¤¶à¤ķ à¤¬
Ġà¤ĺà¤° à¤Ĩ
Ġà¤ħà¤ª à¤ļà¤²à¤¨
Ġà¤ľà¤¨à¤¸ à¤¤
Ġt r
ĠâĢ¢ âĢ¢âĢ¢
à¤ĩà¤¨à¤ĸà¤¬ à¤°à¤¸
à¤°à¤£ à¤¦
à¤²à¤¤ à¤¸à¤®
ĠA arth
ech n
Ġà¤ Ĥ
à¤¸ à¤°à¤Ń
à¥Į âĢľ
Ġà¤Ĳ à¤°à¤²
Ġà¥§à¥¬ à¥§
m it
à¤¹ à¤¸à¤ķ
à¤¬ à¤°à¤¸
à¤ĸ à¤¬à¤°à¤ķ
à¤¤à¤¨ à¤§
Ġà¤Ĩà¤® à¤ļ
ĠF S
6 6
Ġ out
à¤Ł à¤§
Ġà¤¹ à¤¤à¤ķ
Ġà¤ĭà¤£ à¤¦
Ġà¤Ĺà¤« à¤Ĺ
áĥ ĺ
à¤¾ âĢį
à¥į ï¿½
à¤ļ à¤¯à¤¨
à¤ĩ à¤ıà¤«à¤ı
Ġà¤ı à¤¸à¤ķ
Ġà¤« à¤¯
Ġà¤Ī à¤¬
Ġ201 1
Ġ0 8
Ġà¤ıà¤«à¤ı à¤®à¤²
à¤ħ à¤ļà¤²
Ġà¤ł à¤¨
à¤Ĩ à¤ķà¤°
Ġà¤®à¤¤ à¤¸à¤¹
Ġà¥§à¥¯ à¥ªà¥«
Ġà¥¨à¥¨ à¥«
Ġà¤¨à¤Ĩ à¤īà¤²
g h
Ø ¨
Ġ has
à¤¹ à¤¨à¤®
à¤§ à¤Ĺ
à¤Ī à¤¤à¤²
Ġà¤¸à¤ķ à¤²
à¤µà¤ķà¤ª à¤¬
ĠAarth iknews
L C
N ext
à¤Ĥ à¤Ĥ.
à¤¾à¤ģ à¥Ī,
à¤¦à¤¨ à¤¸à¤¹
Ġà¤¨à¤Ĩ à¤¤
07 3
I P
K D
å Ī
à¤¶ à¤¯à¤²
Ġà¤ľ à¤¶
Ġà¤¸à¤® à¤ļ
à¤ħ à¤ªà¤ķ
Ġà¤Ĺà¤¤ à¤¬à¤°
à¤¤à¤¨ à¤¦
Ġà¤Ĩà¤Ī à¤ıà¤¨à¤ľ
Ġ ),
à¤£ à¤ķà¤°
Ġà¤ħà¤ª à¤ľà¤¸
ĠP age
à¤ľ à¤²à¤ķ
Ġà¤¸à¤® à¤ªà¤¨
Ġà¤¨à¤Ĺà¤°à¤ª à¤²
à¤Ĩà¤° à¤Ĩà¤°
Ð¾Ð º
Ġà¥§à¥¯à¥Ń à¥Ń
FA merica
h C
à¤¿ |
à¤ĩ à¤«à¤ķ
à¤¤à¤ķ à¤¸à¤®
à¤Ĺà¤² à¤ª
à¤ķà¤¨ à¤¹à¤°
ĠA l
à¥įâĢĮ ,
ãĤ Ĵ
v ent
à¥ģ à¥ģà¤ģ
Ġà¤ª à¤¥à¤²
à¤§ à¤¯à¤®
à¤ģ )
à¤Ī à¤¬à¤¸
Ġà¤¥ à¤®à¤®
à¤ĵ à¤ªà¤¨
Ġà¤ıà¤® à¤ıà¤®
Ġà¥§à¥ª à¥¨à¥¦à¥«
ĠC on
à¤ĩà¤¬ à¤²à¤ķ
à¥į- âĢĺ
,, ,,
ĠIntern et
IA FAmerica
k a
w ard
y l
y pe
à¤° à¤¯à¤¸
à¤ķ à¤¸à¤¨
à¤Ī à¤Łà¤ķ
à¤ħ à¤°à¤®
Ġà¤¨à¤Ń à¤ĩà¤¸à¤ķ
å¹ ´
à¤Ĺà¤¤ à¤¬
Ġà¤¢ à¤²à¤ķ
Ġà¤ıà¤® à¤Ł
à¤ķà¤¸ à¤ª
Ġe conomic
Ġà¥§à¥¯à¥Ń à¥¨
Ġ ro
Ġ Ñĩ
à¤¹ à¤¨à¤¸
Ġà¤Ń à¤¸
à¤ĺ à¤¸à¤®
Ġà¤°à¤¹ à¤¨à¤ķ
Ġà¤¸à¤¹ à¤Ĩà¤¯
à¥ĭ, âĢĺ
Ġà¤¸à¤° à¤ª
Ġà¥§à¥¬ à¥Ń
à¤ķà¤ħ à¤ªà¤ķ
olog y
i er
à¥į "
à¤¡ à¤ķà¤°
Ġà¤°à¤¹ à¤¨à¤¸à¤¹
Ġà¤§ à¤¤
Ġà¤¸à¤Ļ à¤ĸ
à¤®à¤ª à¤¹
Ðµ Ðº
ĠW h
Ġà¤¬à¤ĸ à¤¤à¤ķ
à¤ļ à¤ĺà¤°à¤®
à¥¤ )
à¤¡à¤ķ à¤ªà¤®
ik e
Ġminut es
? "
à¤¤ à¤²à¤²
Ġà¤ıà¤® à¤Ĩà¤°à¤ª
à¤²à¤µ à¤¹
Ġà¥§à¥ª à¥«
à¤¯à¤Łà¤¨ à¤¸
à¤®à¤°à¤£ à¤¶à¤ķ
Ð° Ñģ
Ġc he
à¥¨à¥¦à¥« à¥®
n ar
o y
u f
Ġ _
Ġà¤¨ à¤°à¤¨
Ġà¤ªà¤° à¤²
à¤ľà¤¨ à¤¨
à¤ķà¤ķ à¤¥
Ġà¤ıà¤² à¤ĩà¤¡
b KD
Ġ et
à¤¸ à¤°à¤¹à¤ķ
Ġà¤¸ à¤¯à¤°
à¤µ à¤ªà¤°
Ġà¤¨ à¤Ĺà¤£
Ġà¥©à¥¦ à¥¦à¥¦
à¤ª à¤Ńà¤¨
à¤ª à¤ľà¤¸
Ġà¤¹ à¤¦à¤ķ
Ġà¤Ńà¤ı à¤Ńà¤°à¤ķ
Ġà¥§à¥« à¥§
ĠM H
v is
Ġ \
à¥į (
à¤ķ à¤ªà¤¨
Ġà¤ª à¤µà¤¨à¤ķ
Ġà¤° à¤Ļà¤®
à¤ĩ à¤¸à¤°
Ġà¤Ĩà¤° à¤§à¤¨
à¥ģà¥¤ '
o ice
Ġà¤Ĩà¤¦ à¤¤
à¤ľà¤¯ à¤¦à¤¶à¤®
à¤·à¤§ à¤°à¤¤
S h
Ġ 07
Ġà¤ ģ
à¤Ī à¤²à¤ķ
à¤°à¤® à¤¯
Ġà¤ħà¤Ĺ à¤®
à¤ķà¤¨ à¤¬
Ġà¥§à¥ª à¥ª
al d
lic ation
Ġcom mun
Ġpe ople
à¤ŀ à¤¨
à¤ŀ à¤¬
à¤²à¤® à¤¤
à¤ħ à¤®à¤²
Ġà¥§à¥« à¥«
Ġà¥¨à¥§ à¥¦
à¤ĩà¤ķà¤² à¤¬
Ġp ortal
Ġà¥ªà¥« à¥¬
Ġà¤ķà¤²à¤® à¤ķ
à¤¨à¤Ĺ à¤ĩà¤°à¤¹
à¤ľà¤Ĺà¤¢ à¤ķ
ĠØ ¨
áĥĲ áĥ
Ġà¤ª à¤ľ
Ġà¤¸à¤¨ à¤¸
à¤¬à¤² à¤¤
Ġw as
Ġre s
ri v
à¤ĩà¤°à¤¸ à¤²
A C
à¤¹ à¤Ń
Ġà¤¨ à¤Ĩà¤Ī
à¤ĩ à¤«à¤®
à¥Īà¤Ĥ âĢĵ
Ġv ar
Ġà¥¦à¥« à¥¬
Ġà¤ħà¤®à¤² à¤¦
t ion
Ã ¥
Ġà¤® à¤°à¤¹
Ġà¤ķà¤° à¤¸à¤®
à¤Ĩ à¤°à¤¬
Ġ? !
ic o
et ter
à¸ ²
à¤ĭ à¤¤
à¤¡à¤¹ à¤²à¤®
æ ĸ
ï ĥ
à¥ĩ, âĢľ
Ġà¤Ŀ à¤²à¤®à¤²
à¥ģà¤Ĥ à¤ģ
Ġà¤µà¤¨ à¤ľà¤Ļ
Ġà¥§à¥Ń à¥¨
à¤¼ à¤¿
Ġà¤¨ à¤¥à¤ª
à¤Ļ à¤Ľ
à¤¨à¤® à¤²
à¤Ĺà¤° à¤¬
à¤¯à¤¤ à¤¹à¤°
on th
Ġà¤¬à¤® à¤¬à¤¹
à¥¨à¥¦à¥ª à¥®
E D
à¤¨ à¤°à¤¹à¤°
Ġà¤¸ à¤ľà¤ķ
à¤ıà¤ķ à¤¦à¤®
à¤ĸ à¤°à¤¬
Ġà¤¸à¤¤ à¤ª
Ġà¤īà¤ł à¤¬à¤¸
Ġà¤ıà¤« à¤¡
ĠE th
ĠE ng
à¤Ĩà¤ĩ à¤¤à¤µ
online khabar
à¤ŀ à¤¦
à¤®à¤¨ à¤¹à¤°
Ġà¤Ĭ à¤ªà¤¸
ĠE t
ers ion
áĥ Ķ
; ,
C om
a ir
Ġà¤¬ à¤ķà¤°
à¤ľ à¤¤à¤ķ
âĢ ļ
à¤·à¤ķ à¤¦
Ġà¤Ĩà¤µ à¤¹
à¤ĩà¤² à¤°
à¤¡à¤® à¤Ľ
à¥ĩà¤Ĥ à¤ģ
à¤¯ à¤¬à¤°
à¤°à¤¤ à¤ª
Ġà¤ĵ à¤ļ
à¤®à¤£ à¤ª
ow er
à¥¨à¥¦à¥¬ à¥«
ocu ments
à¤µ à¤£à¤²
à¤ľ à¤¯à¤¸
à¤¡ à¤µà¤¹à¤°
à¤Łà¤ķ à¤¹
à¤µà¤ķ à¤¬
à¤ıà¤® à¤¡
à¤¦à¤¶ à¤°à¤¥
à¥¦à¥® à¥¨
Ġnepal i
m l
à¥ģ à¥Ĥ
à¥¤ âĢĺ
à¤Ĺà¤¤ à¤Ńà¤¨
à¤µà¤¨ à¤µ
al th
ĠS u
ĠÐ Ł
Ġà¤Ńà¤ĩ à¤ªà¤°
à¤¯à¤¸à¤ªà¤Łà¤ķ à¤ķ
à¤· à¤¤à¤®
à¤²à¤® à¤®
à¤ħà¤¨ à¤¶à¤¨
à¥Īà¤ģ à¤Ĥ
Ġà¤Ĩà¤ł à¤ªà¤¹à¤°
à¥Ģ. )
ĠW e
Ġy ear
à¥įà¥Ģ à¥Ģ
R T
à¤¦ à¤¯à¤°
Ġà¤Ĺ à¤¨à¤°
à¤¶ à¤Ĺà¤°
à¤¤à¤° à¤¹à¤°
à¤®à¤¤ à¤ª
Ġà¥§à¥« à¥¬
Ġà¤¬à¤ļ à¤¤à¤ķ
Ġm e
ĠA pril
à¤ĩà¤ª à¤¬
à¤ĩà¤¨à¤ĸà¤¬ à¤°à¤²
à¤ķ à¤ªà¤Ľ
à¤Ĺ à¤µà¤¶
Ġà¤ħà¤¬ à¤¶
Ġà¥§à¥§ à¥¯
ĠS et
Ġp re
Ġà¥¦à¥« à¥§
Ð°Ð ±
Ġà¤²à¤ĸà¤¨ à¤īà¤®
Ġ }
à¤¾ à¥ĭ
Ġà¤Ĺ à¤«à¤®
à¤Ī à¤¸à¤¹
à¤Ī à¤¸à¤°
Ġà¥¨à¥Ń à¥¦
Ġà¥§à¥¯à¥ª à¥¯
à¤¾ à¥ĥ
à¤¾ ....
à¤¸ à¤¡à¤°
à¤²à¤¯ à¤²à¤Ĺ
à¤ĵ à¤Ĩà¤°
ĠÐ Ĵ
à¤ľ à¤ľà¤¸
Ġà¤ĸ à¤°à¤ķ
Ġà¤ĸ à¤Łà¤¨
à¤Ĩ à¤¸à¤¨
à¥¨à¥¦à¥§ à¥¦
ath mandu
ĠVi ews
ĠOct ober
ĠNot ice
2 074
i um
Ġ Ø§ÙĦ
à¥Į :
Ġà¤ıà¤ķ à¤ĸ
à¤Ĩ à¤ĵ
à¤·à¤£ à¤Ńà¤°à¤®
Ġà¤Ĩà¤ľ à¤ªà¤¨
Ġà¤ļà¤ķ à¤ļà¤ķ
Ġà¤¥à¤² à¤Ļ
Ġà¤²à¤¹à¤° à¤®
um p
nepal ik
ĠUS B
à¤ľ à¤®à¤ķ
Ġà¤¹ à¤¥
à¤²à¤¨ à¤Ĺà¤°
Ġà¤ĵà¤Ńà¤° à¤¡
3 3
L I
g ram
Ġà¤° à¤£à¤¸
Ġà¤¹ à¤¬à¤²
Ġà¤¸à¤® à¤¯à¤¤
à¤ĩ à¤¥
à¤ĩ à¤ŀ
à µ
à¤ľ à¤²à¤®
à¤Ī à¤ıà¤¨
Ġà¤ķà¤¸ à¤°à¤¤à¤®
Ġà¤Ĩà¤® à¤°
à¤µà¤°à¤£ à¤¸à¤¹
at ure
à¤Łà¤¬ à¤²à¤¬
Ġn ew
Ġfin ancial
nepalik orea
S hare
a us
à¤® à¤°à¤²
à¤« à¤°à¤ª
à¤ľà¤¨ à¤ªà¤Ľ
à¤²à¤¨ à¤¤
à¤ĵ à¤¡
à¤¶à¤¬ à¤£
Ġà¤¨à¤¬ à¤ľ
qu e
ãģ ¦
end ra
all eng
à¤¹ à¤¤à¤°
Ġà¤Ľ à¤¯
Ġà¤Ľ à¤²à¤ķ
Ġà¤Ľ à¤®à¤Ľà¤®
à¤ī à¤ªà¤²
Ġà¤Ĩà¤ł à¤µ
he d
ol le
Ð°ÑĤ ÑĮ
b log
Â ¨
à¤ģ à¥¤âĢĻ
à¤Ń à¤²à¤ª
Ġà¤¸à¤® à¤¦
à¤°à¤ĸ à¤£
Ġà¤®à¤¦ à¤°à¤¸
et s
Ġà¥¦à¥¬ à¥¦
ãĥ ¼
c ent
d o
à¤µ à¤ªà¤¤
à¤°à¤¤ à¤µà¤°
Ġà¤¸à¤° à¤°
à¤łà¤ķ à¤¸
à¤²à¤¯à¤® à¤§
à¤ıà¤² à¤ı
ĠÐ »
aj akhabar
Ġà¤ĺà¤ļ à¤ĺà¤ļ
rad i
ĠEt ajakhabar
à¤µ à¤¢
à¤Ĺ à¤Ńà¤°
Ġà¤Ń à¤ľà¤¨à¤ķ
Ġà¤¹ à¤µà¤¨
à¤¬ à¤ªà¤Ľ
à¤°à¤£ à¤¨
Ġà¤Ĩà¤¸ à¤¨à¤®
ri st
à¤Ĩà¤®à¤® à¤¹
à¤ı à¤°à¤®
Ġà¤Ĩà¤ĩ à¤¡à¤²à¤®
ac y
Ð¾Ð ¶
Ġ0 6
à¤¹ à¤²à¤¯
Ġà¤¬ à¤Ĺà¤²
à¤ľ à¤ĺ
Ġà¤µ à¤¦
à¤Ĥ âĢĵ
Ġà¤ıà¤¸ à¤ıà¤®
Ġ/ /
T ube
à¤¤ à¤¹à¤ķ
à¥Ĥ (
Ġà¤¯ à¤²à¤®
Ġà¤ı à¤ŀ
à¥« à¥ªà¥¦
à¤¶à¤ķ à¤°
Ġà¤ķà¤² à¤µ
ĠR ep
ap os
b l
u z
à¤£ à¤ªà¤¶
à¤īà¤¨ à¤¤
à¥ĩ, '
à¤ĵ à¤ıà¤®
en er
à¤ªà¤¥ à¤¸
ãģ ª
e y
à¤ķ à¤Ĺà¤£
Ġà¤¸ à¤¤à¤²
à¤īà¤¨ à¤¤à¤°
am s
à¤¾: -
aw az
o int
à¤¬ à¤¤à¤²
Ġà¤« à¤®
à¤¹à¤°à¤£ à¤²
à¤°à¤¨à¤Ĺà¤° à¤¬
Ġà¥¦à¥« à¥¨
Ġà¤¨ à¤Ńà¤°
Ġà¤® à¤ĸà¤¨
à¤¬ à¤ľà¤¸
Ġà¤¶ à¤¤à¤µ
Ġà¤ħà¤§ à¤¬
à¥ģà¤ģ ,âĢĻ
Ġà¤ıà¤¸ à¤¯
à¤Ĩà¤ĩ à¤ı
Ġà¥§à¥¯à¥¬ à¥§
Ġà¤° à¤°
Ġà¥¬ à¥¦à¥§
Ġà¤Ī à¤ľà¤°
has hi
Ġ Î
Ġà¤¸ à¤Ĺà¤°
Ġà¤¨ à¤°à¤ª
Ġà¤¡ à¤ļ
à¤µà¤ķ à¤ªà¤²
à¤¦à¤¨ à¤¹
à¤¦à¤ķ à¤ªà¤¦
Ġà¤Ĩà¤ļ à¤°à¤£à¤®
Ġà¤ĸà¤¬ à¤°à¤¬
In ternational
à¤¦ à¤ħà¤¨
Ġà¤ķ à¤ªà¤¨
à¤¨à¤¨ à¤Ĺà¤°à¤®
à¤ľà¤² à¤¸à¤®
Ġà¥¦à¥« à¥¯
vi ew
A S
Ġà¤ķ à¤ļà¤¨à¤ķ
à¤Ĺ à¤Ĺà¤°
à¤· à¤°à¤¶
à¥¦ à¥¦à¥¨
Ġà¤ľà¤¨ à¤īà¤¤
Ġà¤¯à¤¸ à¤ĸ
Ġà¤®à¤¨ à¤ª
Ġ201 2
Ġà¤®à¤¹ÅĴ à¤µà¤ķ
à¤¸ à¤Łà¤°
Ġà¤¬ à¤¥à¤¨
Ġà¤® à¤ľà¤µ
Ġà¤ĸ à¤°à¤¸
Ġà¤ľà¤¨ à¤Ĩà¤ķ
à¤ķà¤® à¤®
à¤ıà¤¨ à¤Ĩà¤°
Ġà¤Ĩà¤¶ à¤²
Ġà¤ķà¤ª à¤Ł
à¤Łà¤°à¤ķ à¤¨
Ġà¥©à¥¬ à¥¦
ay a
Ġà¥Ńà¥ª à¥ª
Ġà¤¤à¤¡à¤ķ à¤Ńà¤¡à¤ķ
l i
Ġà¤Ĺ à¤ĩà¤¹
à¤Ļ à¤µà¤°à¤ķ
Ġà¤§ à¤¨à¤µ
à¤ħ à¤ŀ
Ġà¥§à¥¯ à¥ªà¥¦
Ġà¤§à¤¨ à¤ŀ
à¤ķà¤Ł à¤Ĺ
Ġm y
à¤¾à¥Īà¤ģ ,
Ġà¥¦à¥ª à¥Ń
à¤¸ à¤«à¤²
Ġà¤¥ à¤¬
Ġà¤¸à¤¦ à¤¶
Ġà¤Ī à¤Ļ
âĢĶ âĢĶ
à¤ĩà¤¬ à¤²à¤®
Ġà¥§à¥¯à¥¬ à¥Ń
ĠNA B
k aj
o x
y outube
Â ¬
à¥ĩ ;
à¤ª à¤¯à¤®
à¤ı à¤¬à¤®
Ġà¤¬ à¤£
à¤°à¤® à¤µ
à¤¯à¤¤ à¤µà¤¶
Ġm essage
it s
Ġn o
oc i
Ø§Ù Ĩ
Ġi Phone
à¥«à¥ªà¥¦ à¥¦à¥®à¥¨
Ġà¤¸ à¤²à¤²
Ġà¤¹ à¤£
Ġà¤¤ à¤£
à¤°à¤µ à¤®à¤¯
Ġà¤¦à¤¶ à¤µà¤°
à¤¥à¤² à¤¤à¤°
le d
à¤² à¤īà¤ªà¤°
à¤¹ à¤¡à¤¤
à¤¦ à¤Ńà¤®
à¤¹à¤° à¤¹à¤°
Ġà¤ªà¤° à¤¬
Ġà¤¬à¤° à¤«
à¤Łà¤® à¤¬
à¤ıà¤² à¤ĵ
um i
ÐµÐ» ÑĮ
G B
o j
à¤¾ à¥¤âĢĻ
Ġà¤¨ à¤µà¤µ
à¤· à¤²à¤Ĺ
Ġs ite
Ġà¥§à¥¯à¥® à¥©
ra vel
Ġ4 0
B S
s hashi
Â Ń
à¥ Ĳ
à¤Ł à¤Ńà¤°
Ġà¤Ń à¤¡à¤ķ
à¤ļ à¤°à¤£à¤ķ
à¤ĺ à¤°à¤¤
à¥Įà¤Ĥ '
Ġà¤ĵ à¤µ
Ġà¤Ĩà¤ĩ à¤¯
à¤ıà¤² à¤ľ
id ent
ag es
pan kaj
etail s
pankaj shashi
N ew
r on
Ġ Ñį
à¤ĩ à¤ıà¤ªà¤¨
Ġà¤ľà¤¨ à¤¸à¤°à¤ķ
à¤®à¤¨ à¤µà¤®
à¤¦à¤¨ à¤Ĺà¤°
à¤ĵ à¤¨à¤²
Ġà¥§à¥« à¥Ń
à¤¸à¤¬ à¤®
ĠM b
à¤ĸ à¤®à¤§
à¤ĺ à¤Ń
Ġà¤ľà¤¨ à¤Ĺà¤£à¤¤à¤¨
à¤ħ à¤µà¤¤
à¤¶à¤ķ à¤¶
à¤Łà¤° à¤ªà¤¨
Ġà¤ķà¤¸ à¤ľ
à¤ıà¤® à¤¡à¤¬
à¤ľà¤¦ à¤°à¤²
Ġà¥¦à¥« à¥ª
Ġà¤ĺà¤Łà¤ķ à¤¹à¤°
Ġent ry
C l
à¥į /
à¤ĩ à¤¸à¤²
Ġà¥« à¥§à¥¨
Ġà¤ĵ à¤®à¤¬à¤¹
Ġà¥§à¥¨ à¥Ń
il y
il ity
à¤§à¤¨à¤² à¤Ĺ
Ð¸ Ð»
Ġà¤ıà¤¸à¤ĩ à¤Ī
) âĢĻ
æ ĺ
à¤° à¤ĸà¤ķ
à¤¨ à¤ľà¤°
à¤¦ à¤ļ
à¤µ à¤īà¤ª
à¥Į |
à¤°à¤¤ à¤¸à¤®
à¤¨à¤® à¤ķ
Ġà¤ľà¤¨ à¤ħà¤¨
à¤¯à¤¸ à¤µà¤°
à¥ģà¤ģ à¤Ĥ
Ġà¤¢ à¤²à¤®
Ġà¥§à¥® à¥§à¥¬
à¤·à¤§ à¤°à¤²
Ġà¤Ĩà¤Ī à¤ªà¤°
à¤ıà¤² à¤ıà¤¨
or p
! âĢĿ
u c
Ġà¤¸à¤® à¤¬
à¤Ĩ à¤īà¤¦
à¤¸à¤µ à¤Ł
à¤ľà¤¬ à¤¸à¤®
NE T
à¤ľ à¤ªà¤Ľ
à¤¹à¤° à¤¸
à¤ļà¤¨ à¤ľà¤Ļ
Ġà¤ªà¤¤ à¤¨à¤ķ
Ġa m
Ðµ Ñģ
Ġà¤ļà¤°à¤£ à¤¸à¤®
T weet
Ġà¤ľ à¤¯à¤¬
à¥Ĥ :
Ġà¤ıà¤ķ à¤¬
à¤²à¤® à¤ĸ
à¤µà¤° à¤¨
Ġà¤¸à¤¡à¤ķ à¤¸
Ġà¥§à¥¬ à¥¨
Ġà¤Ĺà¤łà¤¨ à¤ªà¤Ľ
el y
Ġà¤ħà¤µà¤¶ à¤°à¤®
Ġà¥§à¥¯à¥« à¥«
6 8
à¥į à¥Į
Ġà¤¶ à¤µà¤¦
à¤°à¤£ à¤¸à¤¹
Ġà¤¸à¤ª à¤¥à¤Ĺ
Ġà¤Ĩà¤ªà¤¤ à¤µ
Ġà¥§à¥¯à¥¬ à¥«
ĠÐ¿ Ð¾
A W
à¤¤ à¤ļà¤¨
à¥ĩà¤Ĥ ,âĢĻ
le ase
ĠF ire
ĠH ack
à¤ķà¤° à¤°
à¤Łà¤² à¤¸à¤®
à¤¨à¤¦ à¤¹
ĠS e
ĠI S
à¤£à¤ª à¤¦à¤ķ
à¥¨à¥¦à¥¬ à¥¬
à¤°m à¤®
ĠYou Tube
c ed
Ġà¤¤ à¤ľà¤¬
Ġà¤ıà¤¨ à¤ĵà¤¸
ad a
Ġà¤¹à¤Ļà¤ķà¤Ļ à¤µ
CL US
l ish
Ġà¤° à¤¸à¤²
à¤ı à¤ıà¤«à¤¸
Ġà¤¤ à¤¬à¤®
à¤ĩ à¤ĵà¤ķ
à¤¸à¤ķ à¤®
Ġà¤®à¤¨ à¤¦
Ġà¤Ĩà¤° à¤ª
à¤·à¤® à¤§
à¤¨à¤Ĺà¤° à¤µ
Ġà¥«à¥¦ à¥¦à¥¦
Ġà¤Ĺà¤łà¤¨ à¤¸à¤®
at ur
Ġt Ã©
à¤¹ à¤Łà¤®
à¤ª à¤¥à¤°
à¤¤à¤® à¤¯
à¤ıà¤ļ à¤ĵ
ĠÐ¾ ÑĤ
CLUS IVE
C M
à¥ĩ |
à¤® à¤¸à¤°
Ġà¤Ĩ à¤¯à¤¤à¤¨
à¤ł à¤¸à¤¹
à¤¯à¤® à¤Ĺà¤°
à¤¤à¤° à¤¯
ãģ Į
Ġad min
ĠĠĠĠ ĠĠĠĠ
ĠUS A
à¤° à¤¯à¤ķ
Ġà¤Ń à¤°à¤¤à¤²
Ġà¤ĺ à¤°à¤¸
Ġà¤ħà¤ª à¤¶à¤¬
Ġà¤ıà¤® à¤ľ
à¤ıà¤¸ à¤¡
ot e
u x
Ã ŀ
Ġ ed
Ġà¤¸ à¤¸à¤®
Ġà¤ķ à¤Łà¤ķ
à¤§ à¤°à¤£à¤ķ
Ġà¤Ľ à¤łà¤²
à¤°à¤¹ à¤¸à¤¨
Ġà¤¸à¤° à¤Ĺà¤°
Ġà¤ļà¤² à¤¨à¤ķ
Ġà¤ªà¤¢ à¤¦
à¤īà¤ª à¤²à¤¬
à¤Ĺà¤¸ à¤Ļ
Ġà¤¬à¤ķ à¤ªà¤¤
Ð¸ Ð²
Ġà¤¡à¤² à¤°à¤²
http s
n b
Ġà¤µ à¤¦à¤²
à¤ĺ à¤Łà¤°
à¤°à¤² à¤¯
à¤¯à¤¤ à¤¤
à¤¹à¤¨ à¤°
à¤µà¤°à¤£ à¤¸à¤®
à¤µà¤¯à¤¨ à¤¬
à¤¶à¤Ń à¤°à¤®
pp ort
Ġà¤¨ à¤§
à¤¡ à¤ķà¤ķ
à¤°à¤¦ à¤¹
à¤¾à¤Ĥ à¥Ī,
ĠI t
Ġà¤ħà¤ľ à¤¯à¤ķ
pl ore
à¥ĩ âĢľ
Ġà¤¤ à¤¬à¤²
à¤ļ à¤ķà¤¤
Ġà¤Ł à¤ªà¤ķ
à¤ħ à¤µà¤¶
à¤°à¤µ à¤£à¤ķ
Ġà¤¨à¤Ń à¤¤
à¤¥à¤² à¤¦
Ġà¤Ľà¤²à¤«à¤² à¤¹à¤°
Ġà¤Ĩà¤¸ à¤¯
Ġs ource
201 7
u ch
à¤¿ âĢĻ,
à¤· à¤ªà¤¤
à¤Ī à¤Łà¤°
à¤Ī à¤Łà¤¸
à¥Įà¤Ĥ ?
à¤ļà¤¨ à¤¤
Ġà¤Ńà¤° à¤¸à¤ķ
Ġà¥§à¥¯ à¥¦
Ġà¤°à¤® à¤ľ
à¤īà¤¸ à¤«
ĠA ct
Ġà¤ľà¤¨à¤¸à¤® à¤°
áĥĶ áĥ
w ork
Ġà¤ľ à¤ľà¤ķ
Ġà¥§à¥¬ à¥©
Ġà¤ĭà¤£ à¤²
à¥ĩ. )
ĠRo ad
) âĢĵ
å ľ
à¤¾ !!
à¤¬ à¤¸à¤²
à¤Ľ à¤®
Ġà¤ıà¤ķ à¤¸à¤°
Ġà¥¨à¥§ à¥Ń
Ð° ÑģÑĤ
à¦ ¾
hap a
à¤¨ à¤¤à¤ķ
Ġà¤¯à¤¸ à¤¦
à¤¤à¤¨ à¤¸à¤®
Ġà¤ķà¤² à¤°à¤ķ
à¤ıà¤¨ à¤ıà¤«
Ġà¥§à¥« à¥©
er ing
ol l
à¥¦à¥© à¥©
Ġà¤¯à¤® à¤¨à¤ķ
EX CLUSIVE
s ha
à¤® à¤¸à¤²
à¤¸ à¤ħà¤°
à¤¥ à¤²à¤¸
Ġà¤¹à¤° à¤«à¤¹à¤°
âĢ¦ ]
ou ld
à¤ħà¤ª à¤¡
Ġà¤®à¤¦à¤¨ à¤ª
ãģ Ļ
à¤ıà¤Ī à¤¬
Ðº Ð¸
à¤Ń à¤ħà¤µà¤¸à¤°à¤®
à¤ĩ à¤¬à¤°à¤ķ
à¥Į à¥Īà¤Ĥ
Ġà¤ĺà¤° à¤Ĺ
Ġà¥§à¥¯ à¥Ńà¥©
à¤®à¤£ à¤¹à¤°
le t
ur n
Ġb est
Ġ0 2
Share Tweet
à¤° à¤¡à¤®
Ġà¤¬ à¤Ĺà¤¨
Ġà¤ľ à¤ľà¤²
Ġà¤¸à¤® à¤¦à¤°
à¤ľà¤¨ à¤Ĩà¤¨
Ġà¤ıà¤ķ à¤ł
Ġà¤Ĩà¤ĩ à¤¤
à¥ģ, âĢĿ
en ce
à¥ģà¥ģ à¥ģ
ĠR es
ra in
Ġ0 4
lig umi
ĠtÃ© ligumi
3 4
à¤¤ à¤µà¤²
Ġà¤Ń à¤°à¤¤à¤®
à¤· à¤ªà¤¨
à¤²à¤ķ à¤¥
Ġà¤¢à¤ķ à¤¢à¤ķ
à¥¦à¥§ à¥ª
har a
T h
Ġà¥ ¥
à¤ı à¤ļà¤¸
à¤°à¤¤ à¤¦
Ġt e
ĠÐ ¡
à¥¨à¥¦à¥§ à¥¯
us s
Ġà¤²à¤¹ à¤¡
n ic
Ġ Ú©
à¤¯ à¤¬à¤²
à¥ģ ..
à¤¦ à¤ľà¤¨
Ġà¤¬ à¤°à¤¬
or ities
bout à¤®
ĠÙ Ī
Ġ à¥Ģ
Ġ ar
à¤ľ à¤Ĺà¤¤
à¤§ à¤¡
à¤§ à¤µà¤°
Ġà¤Ľ à¤¸
à¤Ī à¤ªà¤Ľ
Ġà¤¯ à¤®à¤¬à¤¹
Ġà¥§à¥¯ à¥©à¥¦
à¤ķà¤¸ à¤¤
Ġà¥¦ à¥¦à¥Ń
Ġà¤īà¤ªà¤° à¤¥
Ġà¤¡à¤² à¤°à¤¬à¤°
Ġà¤ħà¤¹à¤® à¤¦à¤²
Ġà¤°à¤£ à¤ľ
Ġ200 9
Y A
Ġà¤ķ à¤°à¤£à¤²
Ġà¤¬ à¤°à¤¹à¤¥à¤µ
à¤¶ à¤°à¤¦
à¤Ī à¤Ńà¤°
à¤ħ à¤«à¤®
Ġà¤Ķ à¤·à¤§à¤ķ
à¤¸à¤¦ à¤Ń
Ġà¥§à¥ª à¥©
AN D
à¤¨ à¤Ī
Ġà¤ķ à¤£à¤¹à¤°
à¤ĩ à¤Ńà¤²
à¤Ŀ à¤Łà¤¬
à¤¯à¤ª à¤°à¤ķ
Ġà¤ıà¤¨ à¤ıà¤®
à¤¤à¤°à¤ķ à¤ķ
Ġà¥¨à¥¬ à¥«
ĠR ights
à¤¸à¤ķ à¤¬
à¤ĺ à¤Łà¤¸
Ġà¥§à¥ª à¥®
at ive
ĠP ay
Ġà¤Ŀà¤ķ à¤Ŀà¤ķ
Ġà¥§à¥§à¥¦à¥¨ à¥¨
Ñ ĸ
á Ł
à¤¬ à¤ĩà¤®
à¥Į à¥Ī
Ġà¤¶ à¤¶à¤ķ
à¤ĺ à¤µ
à¤ĩà¤¨ à¤¸à¤ķ
Ġà¤ĵ à¤¯
Ġs c
à¤ıà¤¨à¤ı à¤¨à¤²
æľ Ī
E M
à¤· à¤ľà¤¤
à¤¥ à¤¦
à¥Įà¤Ĥ âĢĿ,
à¤¡à¤® à¤§
à¤Ĺà¤¬ à¤¤
ĠR adio
ĠMin orities
M arch
à¤¨ à¤Ŀ
à¥Ģ âĢľ
à¤¦ à¤°à¤µ
à¤¦ à¤ľà¤¸
Ġà¤Ķ à¤ł
à¤°à¤¨ à¤ľ
Ġà¤Ĺà¤£ à¤¬
à¥¦à¥¦ à¥¦à¥¦
ah il
" à¥¤
8 6
à¤¾ ......
à¤¸ à¤ı
Ġà¤ķ à¤ªà¤²
Ġà¤° à¤¤à¤¨à¤ª
à¤¬ à¤µ
à¤µà¤² à¤ª
Ġà¤ħà¤® à¤°à¤ķ
à¤ıà¤¨ à¤¬
à¤¨à¤ª à¤ŀ
ĠA pr
is e
à¤ĺà¤¨ à¤¶
ĠG u
à¥¦à¥¯ à¥¬
-------- --------
Ġele ction
m d
Ġà¤Ĩ à¤Ļà¤¦
à¤¯à¤ķ à¤¦
à¤ķà¤® à¤£
à¤¯à¤° à¤¸à¤®
Ġà¤¦à¤² à¤¸à¤®
à¥¨à¥¦à¥¬ à¥Ń
fo x
Ġà¤Ĩà¤ĩà¤ıà¤® à¤ĩ
à¤° à¤Ĩ
à¤¨ à¤¥à¤²
à¤¸ à¤ıà¤ª
Ġà¤° à¤ļà¤¯
à¤Ł à¤ľ
à¤¡ à¤°à¤¶
à¤ĸ à¤¯
Ġà¥® à¥«à¥¦
à¤ĩà¤² à¤¨à¤®
Ġà¤Ńà¤ĩà¤°à¤¹ à¤ķ
Ġà¤¨à¤² à¤¡
à¸ Ļ
ers e
uls ipur
O D
u w
à¤ĸ à¤Ł
à¤¦à¤¨ à¤ªà¤¤
à¤ĩà¤² à¤Łà¤¹à¤°
à¥ĩà¤Ĥ âĢĻ
Ġà¤¨à¤Ńà¤Ī à¤ķà¤¨
ãģ ¨
ãģ ¾
\ \
Ã §
Ġà¤¬ à¤¯à¤¸
à¤£ à¤ķà¤²
à¥Īà¤Ĥ à¤Ĥ
à¤µà¤°à¤£ à¤µ
Ġà¤¦à¤¶ à¤µà¤Ł
l ung
t ed
Ġ ì
à¤¨ à¤ħ
à¥ĭ à¥ĩ,
à¤¸à¤¨ à¤ªà¤Ľ
à¥Įà¤Ĥ, '
Ġa f
ook s
à¥¨à¥¦à¥« à¥Ń
áĥĺ áĥ
plore r
G O
O W
Ġà¤ĸ à¤ŀ
Ġà¤ĩ à¤¤à¤°
à¤°à¤ľ à¤ª
ĠS erv
ĠK athmandu
æ Ī
à¤ķ à¤ľà¤¨
à¤µ à¤Īà¤ķ
Ġà¤® à¤Ī
à¤§ à¤°à¤¹à¤°
Ġà¤Ĩ à¤Īà¤²
à¤ĺ à¤²à¤Ĺ
à¤¯à¤® à¤°
Ġà¤¸à¤¡à¤ķ à¤ħà¤¨
à¤¸à¤¹à¤° à¤®
à¤Ĺà¤²à¤¬ à¤ľ
à¤¤à¤°à¤ķ à¤²
Ġà¥§à¥¯à¥¬ à¥®
Ð°Ð ¹
ĠJun e
3 7
J A
N RNA
d ing
h ot
k et
à¥ĭ Ã·
à¤® à¤¸à¤ķ
à¤¦ à¤¸à¤¹
Ġà¤ı à¤Ĩà¤Ī
à¤īà¤¨ à¤¸
à¤ªà¤® à¤¤
Ġà¤¸à¤¬ à¤®
à¤®à¤¤ à¤¸à¤¹
à¥ĩà¤ģ âĢĵ
Ġà¤ıà¤¨à¤Ĩà¤°à¤ıà¤¨ à¤ıà¤²
ĠPro f
vel op
5 5
w e
à¤° à¤¢
à¥ĩ à¤¿
à¤¯ à¤°à¤µ
Ġà¤ĩ à¤¨à¤²
à¤¬à¤¨ à¤¡
Ġà¤Ńà¤ı à¤¬à¤®
Ġà¤ħà¤¹ à¤Ļ
à¤ķà¤°à¤£ à¤¹à¤°
à¤¹à¤ķ à¤µà¤°
Ġà¥§à¥« à¥®
à¤ıà¤¸ à¤ĩ
à¤ªà¤¦ à¤¯
Ġà¤°à¤® à¤Ŀ
ĠT hapa
ĠH D
t r
à¤ļ à¤°à¤¨
Ġà¤ī à¤Ł
Ġà¤ıà¤ķ à¤®à¤¹
à¤¸à¤² à¤¨
à¥ĭà¥¤ ...
à¤·à¤ķ à¤¸à¤®
à¤¬à¤° à¤ª
an ch
Ġà¤«à¤² à¤¹à¤°
Ġà¤¦à¤®à¤ķ à¤²à¤ķ
à¤ıà¤¨à¤ı à¤¨à¤ķ
à¤¶ à¤²à¤²
Ġà¤² à¤Łà¤ķ
à¤¸à¤² à¤µ
à¤ĩà¤ľ à¤¤
Ġl ist
ig ital
à¤¯à¤£à¤Ĺà¤¢ à¤¬
Ġan y
à¥ģ ),
à¤ĺ à¤ľ
à¤ĺ à¤ĸ
Ġà¤Ĩà¤Ĺ à¤¨à¤®
âĢ¦ âĢĻ
à¤¤à¤°à¤£ à¤¸à¤®
à¤¯à¤Łà¤¨ à¤¸à¤®
ĠS ystem
à¤Łà¤°à¤® à¤§
Ġs o
is p
à¥¨à¥¦à¥§ à¥©
im es
ÐµÐ ²
?? ??
à¤¿ ..
à¥Ī (
Ġà¤¬ à¤ª
Ġà¤¤ à¤ķà¤¸
ĠÐ ļ
Ġp art
Ġà¥§à¥¯à¥« à¥¨
ĠEx plorer
à¤µ à¤ľà¤ķ
à¤ıà¤® à¤ª
Ġà¥¨à¥§ à¥ª
Ġf un
Ġà¤Ĺà¤¹à¤¨ à¤¤
Ġà¤¹ à¤²à¤²
à¤¡ à¤ĸ
à¤ĸ à¤¨à¤µ
à¤°à¤® à¤¤
à¤¸à¤® à¤¸à¤ķ
Ġà¤ł à¤¹
à¤µà¤° à¤«
Ġà¤¸à¤¡à¤ķ à¤¦
Ġà¥§à¥¯ à¥©à¥¯
à¤Ĺà¤¬ à¤®
ĠA P
ĠA ss
Ġà¤Ĺà¤ı à¤Ľ
ĠC ity
ĠL ink
à¥¨à¥¬ à¥§
ĠQ NET
E O
M ah
k t
à¤ģ /
à¥Įà¤Ĥ )
à¤¿, âĢĻ
st ru
ĠOff ic
Ð½Ñĭ Ñħ
C ontinue
K habar
à¤² à¤Ĺà¤²
Ġà¤¸ à¤ĸà¤°
à¤¹ à¤ªà¤¥à¤¸
à¤¹à¤° à¤£à¤®
Ġà¤ıà¤ķ à¤¹à¤ª
à¤ªà¤¨ à¤¹
Ġà¤Ńà¤° à¤¥
Ġà¤¸à¤¤ à¤¹à¤ķ
ĠC lick
Ġà¥¬à¥« à¥¦
Ġre g
oc ation
ĠFS X
B R
Ġ es
à¤¯ à¤¦à¤°
Ġà¤° à¤¥à¤ķ
Ġà¤¹ à¤¬à¤ķ
Ġà¤µ à¤¶à¤®
à¤¹à¤° à¤°
à¤Łà¤² à¤°à¤ķ
à¤ĩà¤Ł à¤¸
à¤¹à¤¤ à¤¸
ĠFire fox
' à¥¤
N S
S p
t d
å °
à¥ĩ à¥Ī
à¥ģ à¥ģÂ¥
à¤ª à¤²à¤¬
Ġà¤ħ à¤«à¤²
à¤ıà¤ķ à¤Ľ
à¤¯à¤® à¤¹
à¤ķà¤² à¤°
à¤¡à¤² à¤°
Ġà¥§à¥¬ à¥ª
Ġà¤ĭ à¤¦
Ġà¥¦ à¥¦
à¥¨à¥¦ à¥¦à¥¬
ÑĤ Ð¾
à¥¨à¥¦à¥§ à¥¨
à¤¾' ,
Ġà¤¸à¤¦à¤¨ à¤¬
m à¤¹à¤°
Ã ł
à¤¦ à¤Ńà¤¨
Ġà¤¨ à¤¡
Ġà¤¹ à¤ķà¤¹à¤°
Ġà¤ı à¤®à¤ķ
à¤Ļ à¤ªà¤Ľ
à¤ıà¤¸ à¤Īà¤Ī
à¤²à¤µ à¤¹à¤°
Ġà¥§à¥® à¥§
Ġà¤Ĺà¤² à¤«à¤¤
à¤Ĩà¤ľ à¤¸à¤®
ĠD R
à¥ĭ? âĢĻ
arg et
ĳ ī
à¤° à¤ľà¤¨à¤®
à¤¦ à¤²à¤Ĺ
à¤£ à¤ļ
Ġà¤ĺà¤° à¤Łà¤¹à¤°
ĠP r
à¥¨à¥¦à¥§ à¥§
Ġà¤Ĩà¤ĩà¤¨ à¤¸à¤ķ
à¤¸à¤°à¤¸ à¤«
Ñĩ Ðµ
ĠMar ch
à¥ °
à¤¤ m
à¤Ł à¤Ĺà¤¢
Ġà¤¹ à¤°à¤¹
à¥Į âĢĮ
à¤§à¤¨ à¤°
à¤ıà¤¨ à¤Ĩà¤ĩà¤¸
à¤¤à¤°à¤£ à¤¬
à¥¦à¥Ń à¥¦
ear ch
è ¿
Ġà¤¸ à¤°à¤¹à¤°
à¤ļ à¤¸à¤¹
à¤£ à¤Ĺà¤°
à¤°à¤¸ à¤¤
à¤Ĩ à¤Ļ
à¤®à¤² à¤ļ
Ð¾Ð ·
ÐµÐ½ Ð¸Ñı
OS T
Âº à¤¨
r ome
Ġ em
Ġà¤ķ à¤Ń
à¤ı à¤ĺ
Ġà¤¹ à¤«
à¤§ à¤¶à¤®à¤¶
à¤¶ à¤ľà¤¸
Ġà¤« à¤Ļ
Ġà¤®à¤¹ à¤Ĺ
ic t
Ð° ÑĨ
Ġà¤¡à¤² à¤°à¤¸
Ð°Ð ´
Ġqu e
rou p
7 0
Ġ if
Ġ ......
à¥ ¥
à¤² à¤°à¤¸
à¥ģ à¥ĩ
à¤¨à¤ķ à¤ķ
à¤¸à¤ķ à¤µà¤°
à¤Łà¤°à¤² à¤Ĺ
à¨ ¾
uck et
Ġ00 00
4 0
D A
b al
n er
Å Ł
à¤° à¤ĵà¤Ł
à¤¯ à¤¦à¤ķ
Ġà¤¸ à¤°à¤®
à¤µ à¤¯à¤¸
à¤ı à¤¨à¤®
à¤¥ à¤²à¤Ĺ
à¤°à¤ķ à¤°à¤£à¤¬
à¤®à¤² à¤¤
à¤¯à¤Łà¤ķ à¤¬
à¤°à¤· à¤Ł
à¥¨à¥¦à¥ª à¥Ń
âĨ ĳ
G oogle
j a
n ow
v en
à¥Į ,âĢĻ
Ġà¤ĩ à¤¨à¤ķ
Ġw ork
à¤ľà¤Ĺà¤¢ à¤²
2 00
à¤¨ à¤°à¤¬
à¤ı à¤²à¤¬
Ġà¤¬ à¤°à¤ķ
à¤ľ à¤Ł
à¤¶à¤¨ à¤ª
Ġà¤Ĩà¤ĩ à¤¬
à¤·à¤¯ à¤ª
à¤ªà¤Ł à¤ªà¤ķ
Ġd el
Ġà¥§à¥¯à¥« à¥ª
Ġà¤ħà¤µà¤¯à¤µ à¤¹à¤°
ounc il
Mah endra
K C
å Ŀ
Ġà¤ª à¤²à¤ķ
à¤ķà¤ķ à¤°
à¤ľà¤¨à¤ķ à¤°
Ġà¤¨à¤Ĺ à¤ı
ĠW ord
g et
Ġà¤° à¤Ļà¤²
à¤Ń à¤ľ
Ġà¤ıà¤ķ à¤ªà¤Łà¤ķà¤®
Ġà¤¬à¤¸ à¤Ń
Ġà¤Ĺà¤£ à¤²
à¤Ĺà¤®à¤¨ à¤¸à¤®
d ate
s c
à¤¤ à¤¤à¤²
à¤¸ à¤µà¤¸
Ġà¤¨ à¤ĺ
à¤ı à¤¶à¤¨à¤²
Ġà¤¬ à¤°à¤¬à¤°
à¤¥ à¤ħà¤¨
Ġà¤ľ à¤¯à¤¦
à¤ł à¤ľ
à¤Ĺà¤° à¤¨
Ġà¥¨à¥Ń à¥ª
à¥ĩà¤ģ ,âĢĻ
ĠB ible
id s
Ð¾Ð ¿
op y
à¤¨ à¤¹à¤¦
Ġà¤Ń à¤°à¤£à¤ª
à¤§ à¤ľà¤¸
à¤ģ âĢĻ,
Ġà¤ľ à¤£
Ġà¤ĸ à¤¤à¤®
à¤ĩà¤¨ à¤«
à¤·à¤¯ à¤¸à¤®
Ġà¥¨à¥« à¥¦à¥¦
Ġà¤°à¤ľ à¤¤à¤ª
Ġà¥§à¥¯à¥« à¥Ń
O O
ä ¼
à¤¶ à¤²à¤Ĺ
à¤Ī à¤¥à¤°
Ġà¤¡ à¤Ĺà¤®à¤Ĺ
à¤¶à¤¨ à¤µ
à¤¹à¤¨ à¤Ĺà¤°
Ġà¤®à¤¤ à¤¬
à¤ĸà¤¨ à¤¨à¤ķ
à¤ªà¤Ł à¤ªà¤®
Ġon e
Ġà¥¯à¥¯ à¥¯
ĠV oice
à¥¨à¥¦à¥« à¥§
à¹ Ī
ĠJul y
Ġ........ ...
à¤ķ à¤ªà¤ķ
à¥ģ âĢĶ
Ġà¤Ĩ à¤Ļà¤¬
à¤ļà¤¨ à¤ħà¤¨
à¤µà¤ķ à¤°à¤£
Ġà¥§à¥¯ à¥§à¥Ń
à¥¦à¥§ à¥¬
Ġà¥§à¥¯à¥¬ à¥¯
à¥¨à¥¦à¥« à¥¨
à¤®à¤¨à¤Ĺà¤° à¤¸
Ð½Ñĭ Ð¹
à¤¾ |
à¤¿ âĢį.
Ġà¤¸ à¤ľà¤¨
à¤¬ à¤ļà¤¤
Ġà¤µ à¤¦à¤®
Ġà¤¤ à¤Ľ
à¥įà¥¤ ...
à¤§à¤¨ à¤¦
à¤¯à¤¯à¤¨ à¤¶
à¤ıà¤² à¤ª
Ġà¤ıà¤² à¤¡
à¤Ĩà¤ľ à¤Ńà¤¨
à¤¯à¤ľà¤¨ à¤¹à¤°
Ġre st
ee k
à¥ĩ âĢĿ,
à¤¨à¤® à¤Ĺà¤°
à¤¤à¤° à¤īà¤¨
à¤ħ à¤ļà¤®
Ġà¤²à¤Ĺ à¤ĩà¤¨
Ġà¤Ŀ à¤ªà¤Ł
Ġà¤īà¤¦ à¤¯à¤²
à¤¸à¤¦ à¤¸à¤®
Ġà¥¨à¥¯ à¥«
à¤µà¤¨à¤ķ à¤¥
à¤Ĩà¤Ī à¤¤à¤¬
it er
ĠI s
Ġà¤ļà¤°à¤® à¤¸
à¤ªm à¤¬
Ġà¤Ĩà¤°à¤ıà¤¸ à¤Ĩà¤Ī
à¸² à¸
) âĢĶ
P R
á º
à¤ĸ à¤²à¤Ĺ
à¤¹à¤° à¤¬
Ġà¤§ à¤¨à¤¸
à¤¤à¤° à¤Ĺà¤¯
à¤¯à¤¤ à¤¹à¤ķ
Ġà¤īà¤¦ à¤¯à¤®
à¤ıà¤® à¤ĵà¤¯
ĠF r
à¤¼ à¥ĭ
à¤ªà¤¨à¤² à¤Ĺ
ple te
Ġà¤ħà¤¨à¤ķ à¤¨
A K
Ġà¤ķ à¤µà¤¯
Ġà¤µ à¤¨à¤¹à¤°
à¤Ī à¤ıà¤®
Ġà¤² à¤Łà¤°à¤®
à¤®à¤ķ à¤¨
à¤ķà¤° à¤¨à¤Ĺà¤°
ĠĠ Ġ
à¤²à¤° à¤¸à¤ķ
Ġà¤ªà¤ļ à¤¹à¤¤
ãģ ¯
à¥įà¤ģ à¥ĩ
à ½
Ġ ÑģÑĤ
à¤¬ à¤ķà¤°
Ġà¤ļ à¤ªà¤²
Ġà¤ĺ à¤°à¤¤à¤°
Ġà¤ķà¤® à¤²à¤²
Ġà¤ħà¤¸ à¤Ļ
à¤°à¤µ à¤¹à¤¨à¤ķ
à¥Įà¤ģ :
Ġà¤ĺà¤Ł à¤¦
à¤Ķ à¤ªà¤¨
ĠS k
Ðº Ð°
Ġà¤ħà¤Ĺà¤® à¤µà¤ķ
i ico
Ġà¤¨ à¤¢
Ġà¤® à¤ķà¤¹
à¤ľ à¤°à¤¹à¤°
à¥įà¥¤ "
à¥© à¥¦à¥¦
Ġà¤ĵ à¤Ĺ
à¤¨à¤µ à¤¹à¤°
Ġà¥§à¥® à¥«
it ation
ul ar
à¥¨à¥¦à¥¨ à¥¦
Ġ!!! !
4 4
Ġà¥ ŀ
Ġà¤Ĺ à¤Ĺ
à¤ī à¤¸à¤¬
Ġà¤Ł à¤¹à¤²
Ġà¤ħà¤¸ à¤¦
à¤Ĩ à¤ı
à¥įà¥¤ &
Ġà¤ħà¤® à¤°à¤ª
à¤ıà¤¨ à¤ıà¤²
Ġà¥§à¥« à¥¨
à¤¡à¤¬ à¤¡
Ġà¤Ĩà¤²à¤® à¤ķ
ĠÐ½ Ðµ
ïģ ®
Ġà¤ķà¤ļà¤¨à¤ķ à¤µà¤²
à¤° à¤Ĺà¤®à¤¨à¤ķ
à¤² à¤ĸà¤¨
à¤¡ à¤¢
à¤Ī à¤ľà¤¸
à¤ī à¤«
à¤¨à¤¸ à¤ĸà¤£
à¤ĵ à¤Ń
à¤Ĺà¤® à¤¨à¤ķà¤°
Ġà¥§à¥Ń à¥ª
à¤ıà¤¨à¤ı à¤ļà¤¸
ien ce
I M
P G
g en
à¤Ĩ à¤°à¤ľ
à¤ĩà¤¬ à¤²à¤²
Ġe st
Ġà¤Ĩà¤¸à¤¨ à¤¬
à¥©à¥« à¥Ń
ann el
4 5
6 0
w are
à¤ľ à¤²à¤²
à¤¶ à¤Ĺ
à¥Ĥ âĢĿ
à¤Łà¤® à¤¸
ĠD on
à¤Łà¤µà¤² à¤¸à¤®
ãĤ ĭ
Ġà¤¬à¤¬à¤°à¤® à¤¹à¤²à¤®
p x
à¤¸ à¤«à¤²à¤¤
Ġà¤µ à¤£
à¤ļ à¤ķà¤°
à¤ĺ à¤°à¤Ń
à¤¸à¤¨ à¤¯
Ġà¤¸à¤Ļ à¤Ĺ
Ġ201 0
à¤¯à¤¶ à¤°
ÑĢ Ñĥ
ow s
ĠIn formation
ä¸ Ģ
Y ou
à¤ķ à¤«à¤°
Ġà¤Ĺà¤° à¤°
à¤¡ à¤®à¤²
à¤Ĩ à¤ľà¤¦
Ġà¥© à¥¦à¥¨
Ġà¤¦à¤² à¤µ
Ġà¤ªà¤Łà¤ķ à¤Ńà¤¨
Ġà¤Ĳ à¤ľ
Ġd er
ĠH ong
à¥¨à¥¦à¥¬ à¥¦
ru ary
Ġà¤¹à¤¤à¤ķ à¤¡
à¤¦ à¤ĸ
à¤ľ à¤ªà¤ķ
Ġà¤ħ à¤¥à¤°
à¤Ļ à¤Ĺà¤°à¤²
à¤°à¤² à¤¯à¤ķ
Ġ! '
ĠE le
Ġà¤°à¤¹à¤° à¤ķ
ĠL ive
à¤ľà¤¸à¤® à¤§
ah ity
CM DP
3 2
i ent
Ġà¤Ĩ Âºà¤¨
âĢĵ âĢĵ
Ġà¤ĩ à¤¡à¤²
à¤·à¤¦ à¤¹à¤°
ad e
ĠB Y
et t
Ġà¤ķà¤¦ à¤®à¤¬
Ð¾Ð» ÑĮ
Ġ Ï
İ ¡
à¤Ł à¤Ĺà¤¦
à¤ļ à¤¬à¤°
à¤¸à¤ķ à¤¤
à¤°à¤¹ à¤£à¤®
Ġà¤¦à¤² à¤¹à¤¨
Ġà¤ħà¤Ŀ à¤¸à¤®
Ġà¤¹à¤² à¤¸à¤®
à¤Ĺà¤¢ à¤ķ
Ġà¤°à¤¨ à¤Ń
ĠC he
ĠB as
ag ar
ĠK ong
Ġthe ir
à¤µ à¤īà¤ªà¤ª
Ġà¤¬ à¤¨à¤®
Ġà¤ħ à¤ıà¤ķ
à¤ĺ à¤¢
Ġà¤ħà¤® à¤°à¤¤
Ġà¤¨à¤Ńà¤ı à¤¤
ĠÂ £
ĠInd ia
isp ak
A d
C T
à¥ĭ ]
à¤Ł à¤ĩà¤¨
à¤Ī à¤®à¤¨
Ġà¤ı à¤«à¤¬
à¤²à¤® à¤¸
ĠM o
C h
à¤¨ à¤ħà¤Ĺ
Ġà¤Ľ à¤°à¤ª
Ġà¤ı à¤¨à¤ķ
Ġà¤ľà¤¨ à¤Ĩà¤¸
Ġà¤Ŀ à¤¸à¤Ļ
à¤«à¤² à¤¸
Ġà¤¨à¤ª à¤¸
à¤Ĺà¤®à¤¨ à¤¬
à¤Ĺà¤ł à¤¨à¤¸
Ġd ie
Ġ1151 5
AT ION
A JU
G H
c y
à¥ĭ &
Ġà¤µ à¤ļà¤¨à¤²
à¤ļ à¤ĺà¤°
à¤ĩ à¤·
Ġà¤ħà¤® à¤°à¤¬à¤¹
à¤ľà¤¸ à¤ħà¤¨
à¤¬à¤² à¤ª
ĠC ont
Ġs k
à¤µà¤°à¤² à¤Ĺ
âĢį à¥ĭ
Ġà¤¦à¤¸à¤ķ à¤¦
ĠCent er
M O
N ispak
f acebook
à¤² à¤ĸà¤°
à¤² à¤ĺà¤¨
à¤¤ à¤ĺ
à¤ģ ...
Ġà¤ľ à¤²à¤¸à¤®
à¤¡ à¤¨à¤µ
à¤ĸ à¤ķà¤¸
Ġà¤ı à¤·
à¤¯à¤¸ à¤¨à¤²
à¤²à¤® à¤Ł
à¤¯à¤Łà¤ķ à¤¸
Ġà¤«à¤¨ à¤«à¤¨
Ð½Ñĭ Ðµ
iss ion
ĠOffic er
k v
ã İ¡
Ġ >
Ġà¤¨ à¤ħà¤Ł
Ġà¤ªà¤° à¤¸à¤®
à¤ŀ à¤¸à¤¹
à¤ħ à¤¨à¤¨
Ġà¤ªà¤¦ à¤¬à¤¹
à¤¸à¤° à¤¸à¤®
Ġà¤ıà¤¸ à¤ıà¤¸
Ġà¥§à¥¯ à¥§à¥ª
à¤µà¤¦ à¤¤
Ġà¤²à¤¡ à¤¨
Ġà¤ķà¤²à¤® à¤²
ÐµÐ ³
", "
p en
Ġ iafamerica
Ġà¤¸ à¤²à¤¬à¤²
Ġà¤ķ à¤²à¤ķà¤²
à¤¤à¤° à¤¸à¤°à¤ķ
Ġà¤²à¤Ĺ à¤¨à¤Ĺ
à¥įà¥¤ [
am a
à¤¸à¤« à¤°à¤ķ
ere n
ĠSet o
à¤¾ à¥Ī,
Ġà¤ķ à¤¦à¤ķ
Ġà¤ħ à¤Ĺà¤°
Ġà¤µ à¤°à¤£
à¤Ľ à¤°à¤®
Ġà¤ıà¤ķ à¤¹
à¤¤à¤ķ à¤£
Ġà¤Ĩà¤° à¤¨
Ġà¤¹à¤° à¤°
à¤°à¤®à¤£ à¤¸
Ġà¥§à¥¨ à¥ª
Ġ2 07
Ġ2 074
Ġl ink
Ġà¤¤à¤® à¤ĺ
à¤ıà¤« à¤¡
Ġà¤Ńà¤°à¤¤ à¤¬à¤¹
Ġc ap
Ġà¤¬à¤ļà¤¤ à¤ªà¤¤
Ġà¤ľà¤Ĺà¤¤ à¤ª
Ġà¤ĵà¤® à¤¨à¤ķ
à¤īà¤¥ à¤¹
ik on
à¤ľà¤¬à¤° à¤ľà¤¸
L O
N D
i j
à¥Ī âĢĿ
Ġà¤Ľ à¤¤à¤¬
à¤¡ à¤Ńà¤°
Ġà¤ı à¤¡à¤²
Ġà¤Ńà¤¯ à¤Ļ
re m
Ġà¤Ĩà¤Ī à¤®
om at
à¤ªà¤¸ à¤²à¤®
Ġm onth
Ġà¤ıà¤¨à¤Ĩà¤°à¤ıà¤¨ à¤¹à¤°
à¤Ĩà¤ĩ à¤ıà¤®à¤Ī
ĠL GCDP
ĠK atha
lo ck
4 3
M T
P S
T OR
à¥į ',
à¤¦ à¤Ļ
Ġà¤° à¤¸à¤ķ
Ġà¤¤ à¤¶
à¤£ à¤®à¤¨
Ġà¤ħà¤¦ à¤®
Ġà¥¨à¥§ à¥®
ĠS UR
à¤¯à¤£à¤Ĺà¤¢ à¤®
Ø§ Ø±
Ġapp lication
s k
à¤¨ à¤Ĺà¤¦
à¤ķ à¤¡à¤®
à¤¸ à¤°à¤ª
Ġà¤Ĺ à¤Ĺà¤¨à¤²
Ġà¤° à¤¥à¤²
Ġà¤µ à¤®à¤¨
à¤ĩ à¤Ĩà¤ıà¤ķ
Ġà¤ĸ à¤µà¤°à¤ķ
à¤¸à¤ķ à¤ķà¤¹
Ġà¤ľà¤¨ à¤¸à¤®à¤ķ
Ġà¤ķà¤® à¤²à¤¸
à¤Ĩ à¤®à¤¸
à¤ķà¤ķ à¤ķ
à¤µà¤¤ à¤¨à¤ķ
Ġà¤Ĩà¤¦ à¤®
Ġà¤ľà¤® à¤°à¤ķà¤Ł
à¤¤à¤¸ à¤Ļ
ĠP ahil
Ġà¥¦à¥« à¥«
Ġà¤µà¤ļà¤¨ à¤¬à¤¦
Ġà¤®à¤°à¤® à¤¸à¤²
H I
p ur
à¥ģ à¤¿
à¤¸ à¤¬à¤²
Ġà¤® à¤²à¤²
à¤¥ à¤ķà¤®
à¤ļ à¤£
à¤ļ à¤ħà¤¨
à¤²à¤¯ à¤Ĺà¤¤
Ġà¥§à¥© à¥¯
Ġà¥§à¥ª à¥§
à¤¨à¤¯ à¤¬
ar n
ct or
Ġà¤Ĩà¤ĩà¤ıà¤® à¤Īà¤²
åĨ Ĩ
åĿ ª
ãİ¡ (
9 0
R P
p ress
Ġà¤ļ à¤¹à¤ķ
à¤¯à¤ķ à¤Ĺ
à¤¯à¤® à¤¨à¤®
à¤Ĺà¤° à¤¸
Ġà¤¸à¤ķ à¤¨
à¤¨à¤¨ à¤Ĺà¤°à¤ķ
Ġà¤ħà¤µ à¤Ĺ
Ġà¤¬à¤¹ à¤¸à¤¹à¤°
le y
ĠW ith
ra b
Ġà¥§à¥¯à¥ª à¥¬
AR L
Ġhe re
== ==
à¤Ĥ -
à¤°à¤¹ à¤¸
à¤°à¤¹ à¤ªà¤Ľ
à¤ĩà¤¨ à¤¸à¤®
à¥ª à¥¦à¥¦
Ġà¤¹à¤ľ à¤°
Ġà¤ķà¤ª à¤¨à¤®
à¤ıà¤² à¤Ł
ĠP OST
Ġà¤Ńà¤°à¤® à¤Ĺ
Ñĥ ÑĢ
Ġà¤²à¤¹ à¤¡à¤®
Ġà¥§à¥¯à¥« à¥¬
Ġà¥§à¥¯à¥ª à¥¨
Ð½Ð¾ ÑģÑĤ
ĠSUR YA
4 7
G F
S u
c ha
g oogle
i y
o Post
à¤¬ à¤²à¤¬
à¤¾à¤Ĥ à¤Ĥ
à¤ıà¤® à¤µ
Ġà¤²à¤® à¤¤à¤¨
à¤¶à¤¹à¤° à¤ķ
ĠM ed
ĠCom plete
Ġà¤ĵà¤ĸ à¤°à¤ķ
ĠPahil oPost
B C
I X
P ress
s er
z e
à¤® à¤°à¤£à¤ķ
à¤¬ à¤¯
à¥Įà¤ģ )
à¤ķà¤¨ à¤¸à¤®
à¥¨à¥¦ à¥¦à¥®
epal ia
Ġb el
Ġnepal ikon
ĠPAR AJU
epalia awaz
Ġnepalikon epaliaawaz
ĠPARAJU LI
à¤¤ à¤¶à¤¤
Ġà¤¨ à¤µà¤ķ
à¤« à¤¸à¤®
à¤ªà¤¨ à¤ªà¤Ľ
à¤ĸà¤° à¤ª
à¤²à¤¤ à¤¹à¤°
à¤¬à¤¸ à¤ª
Ġà¤Ĩà¤Ī à¤¬
.... .....
Ġà¤Ńà¤ĩ à¤ķà¤¨
ut e
à¤° à¤Ĩà¤²
à¤¹ à¤Ńà¤¨
Ġà¤Ĩ à¤¸à¤ķ
à¤ī à¤Ļ
Ġ- '
Ġà¥§à¥® à¥©
Ġà¤¬à¤¹à¤¸ à¤ªà¤Ľ
à¤ĩà¤Ń à¤°à¤ķ
Ġ0 5
à¤ĸ à¤¶
à¥Į .
Ġà¤ħà¤¨ à¤Ļ
à¤²à¤® à¤¹
à¤µà¤ķ à¤°à¤²
Ġà¤Ľà¤²à¤«à¤² à¤¸à¤®
Ġà¤Ńà¤Ī à¤¦
à¤Ĭ à¤ķ
Ġs ub
ĠâĢ¦ ..
Ġà¤ıà¤¡ à¤®à¤ķ
à¥¦à¥¬ à¥®
à¤Ńà¤ªà¤¤ à¤¨à¤²
} }
à¤® à¤µà¤¹
à¤Ĥ âĢĻ
Ġà¤ľ à¤¯à¤¸à¤µ
à¤Ń à¤ıà¤°
Ġà¤§ à¤Ļ
on es
à¤¾) :
à¥¦à¥¬ à¥¯
Ġà¤ħà¤ľ à¤¯à¤®
ĠR ock
Â« à¥ĩ
v ish
à¤ķ à¤¤à¤ķ
à¤¯ à¤¥à¤²
à¤¸ à¤¯à¤®
à¤ĸ à¤Ĺà¤¨
à¥Įà¤Ĥ à¤ģ,
Ġà¤ĵ à¤ĸà¤²
Ġà¤ªà¤Ľ à¤¯
Ġà¤Ĩà¤Ī à¤ĵà¤¸
Ġà¤¤à¤² à¤¦
il m
Ġf ree
ĠE d
Ġà¥§à¥§à¥© à¥¦à¥Ń
ĠCh rome
ĠUn ivers
wan ews
ïĥ ĺ
vish wanews
R am
à¤® à¤¶à¤®à¤¶
Ġà¤ī à¤§à¤®
à¤°à¤® à¤ĸ
Ġà¤ıà¤ķ à¤¤à¤²
Ġà¤Ł à¤²à¤ķ
Ġà¤īà¤ª à¤®à¤¨
Ġà¤¸à¤¨ à¤«
Ġà¥¯ à¥«à¥¦
Ġà¤¸à¤¸ à¤«
Ġl ove
à¤Ĩà¤ĩ à¤«
Ġà¤ľà¤Ĺà¤¤ à¤ħà¤®
AR CH
Ġacc ess
à¤¿ Â·
à¤µ à¤Ľ
Ġà¤ķ à¤ļà¤ķ
à¤ľ à¤²à¤¬
Ġà¤ªà¤¦ à¤§
Ġà¤¦à¤¶ à¤°
Ġà¤Ĺà¤£ à¤®
Ġà¥§à¥Ń à¥Ń
à¤ľà¤ª à¤¥
ĠD etails
as ansar
Ġà¤Ĺà¤Ī à¤¸à¤ķ
ĠV ersion
ant s
ord er
Ġà¤°à¤£ à¤Ń
ĠFeb ruary
à§ ĩ
ĠMH z
s ahity
à¤¹ à¤¸à¤¹
Ġà¤Ĩ à¤Īà¤¨
à¤Ī à¤¨à¤¬
à¤°à¤² à¤²
à¤®à¤¤ à¤¸
Ġà¥§à¥¯ à¥©
à¤°à¤ľ à¤¤
à¤Ńà¤µ à¤¨à¤®
Ġà¤Ī à¤¦
Ġà¤®à¤¦ à¤¨à¤²
à¥¦à¥§ à¥Ń
Ġ115 05
ĠV ideo
Ġ1151 1
ä¸ ĩ
1 10
à¤¤ à¤µà¤°à¤£
à¤¹ à¤Łà¤ķ
à¤ļ à¤®à¤§
âĢ ł
Ġà¤§ à¤°à¤£
Ġà¤Ĩà¤® à¤¹à¤¡
à¤¸à¤¹ à¤µ
Ġà¥§à¥¯ à¥¨à¥¦
à¤Īà¤² à¤¹à¤°
in es
Ġà¤ĵà¤Ń à¤°à¤²
à¤¯à¤ľà¤¨ à¤¸
à¸ Ń
à¥¨à¥¦à¥¬ à¥§
........ ........
Ġ ________
Ġà¤ħ à¤ªà¤ķ
à¤ħ à¤¸à¤®
à¤ªà¤® à¤§
à¤Ĺà¤² à¤¹à¤°
Ġà¤Ĩà¤ĩ à¤ĵà¤¸
à¤ľà¤¦ à¤£
à¤ķà¤¬ à¤¡
Ġà¤ıà¤ª à¤¹à¤°
Ġw eb
ĠO r
à¥¦à¥ª à¥¬
ri end
Ġ115 07
Ġà¥®à¥® à¥¦
Ġ1151 2
ãĥ ³
av a
à¤½à¤½ à¤½à¤½
Ġag ain
Ð°Ð» ÑĮ
6 9
t v
t he
à¤¿ ï¿½
à¤® à¤ĺà¤°à¤®
à¤ı à¤Ĩà¤Īà¤ľ
Ġà¤¬ à¤Łà¤®
à¤ıà¤ķ à¤ķ
à¤£ à¤ĺ
à¤Ļ à¤ĺ
Ġà¤ĩ à¤²à¤®
à¤ļà¤¨ à¤¦
à¤µà¤°à¤£ à¤¸
ĠS ur
Ġin d
ay an
à¥§à¥ªà¥®à¥® à¥ª
à¥§à¥ªà¥®à¥® à¥Ń
æĹ ¥
E L
å Ľ
à¤¸ à¤ĸà¤°
à¤µ à¤Ĺà¤¤
Ġà¤ľ à¤¯à¤ľ
Ġà¤¹à¤° à¤ª
Ġà¤¨à¤® à¤ľ
Ġà¥§à¥ª à¥¨
ion al
Ġs econd
Ġd ocuments
Ġà¥ªà¥© à¥«
ec ial
rad e
W S
à¤¹ à¤²à¤²
à¤¹ à¤®à¤§
Ġà¤° à¤Ĺà¤¡
Ġà¤ĸ à¤²à¤ª
Ġà¤ıà¤ķ à¤¥
à¤®à¤ķ à¤°à¤£à¤ķ
Ġà¥¬ à¥Ńà¥«
à¤Łà¤² à¤°à¤²
à¤Ĺà¤¢ à¤®
à¤°à¤ĸ à¤¬à¤°
Ġà¤¤à¤¬ à¤°à¤²
Ġà¤ķà¤ļ à¤¹à¤°
lo bal
Ġ115 30
Ġà¤®à¤¹Ã¬ à¤µà¤ķ
erse ys
g an
à¥ģ ;
à¤ļ à¤²à¤¸
Ġà¤ľà¤¨ à¤¹à¤°
à¤µà¤¨ à¤¬à¤¹
à¤¤à¤¨ à¤¤à¤°
à¤Ĺà¤ķ à¤µ
à¤Ĺà¤® à¤¬
à¤ıà¤¸ à¤ıà¤ķ
à¤¯à¤Łà¤¨ à¤¬
Ġà¤Ĺà¤¨ à¤Ĺà¤¨
Ġp res
à¤¤à¤¹ à¤Łà¤²
Ġà¥«à¥« à¥«
âĢĮ âĢĮ
ed er
Ġà¤¨à¤Ĺ à¤¦à¤ķ
Ġà¤µà¤¢ à¤¨
Ġà¥§à¥¯à¥¬ à¥©
Ġ1151 3
9 7
I K
P l
r ation
â ĸ
à¤¨ à¤ı
à¤µ à¤§à¤¨
Ġà¤ķ à¤¹à¤°
à¤ľ à¤¤à¤°
à¤§ à¤¨à¤®à¤¨
Ġà¤¤ Ã¬
Ġà¤² à¤¯à¤²
Ġà¤ĸ à¤¸à¤¹à¤°
Ġà¤ħà¤¨ à¤¶à¤¨à¤²
à¤ķà¤² à¤¹à¤°
à¤ķà¤² à¤¨à¤²
Ġà¥¨à¥¦à¥ ¯
Ġà¤«à¤° à¤µà¤°
à¤²à¤¤ à¤¸à¤®à¤ķ
Ġà¤ħà¤« à¤°à¤¹à¤°
à¤ıà¤® à¤Ĩà¤°à¤²
al a
Ġà¥©à¥§ à¥¦
à¤ĩà¤ķà¤² à¤¯
am b
Ġà¤ľà¤¯à¤¨ à¤¨
à¤°à¤ľà¤¨ à¤¸
ĠCom p
if ied
Ġà¥§à¥Ńà¥© à¥¦à¥®
R N
s o
Ġà¤¨ à¤ĩà¤²
à¤°à¤¤ à¤ľà¤¸
Ġà¤ĺ à¤¤à¤²
Ġà¤īà¤ª à¤ľà¤¹à¤°
à¤Łà¤¨ à¤ªà¤Ľ
Ġà¤ħà¤µ à¤ļ
à¤ıà¤¨ à¤Ĩà¤Īà¤¸
Ġà¥¨à¥§ à¥«
Ġà¤ľà¤¨à¤ķ à¤ķ
ĠM y
Ġb r
Ġà¤Ĺà¤Ĺà¤¨ à¤ļ
Ġà¥§à¥¬à¥« à¥©à¥¨
Ġà¤¬à¤ĸ à¤¤à¤®
Ġ x
à¤¤ à¤Ĺà¤¢
à¤ļ à¤ªà¤Ľ
Ġà¤« à¤²à¤²
à¤ķà¤¨ à¤ªà¤Ľ
Ġà¥§à¥¬ à¥¦à¥¦
Ġà¤ľà¤¹ à¤¦
Ġt ime
ur re
Ġà¥§à¥¯à¥¬ à¥ª
Ø§ ÛĮ
ĠDec ember
ple ted
5 1
I m
n ess
u ary
Ð Ĳ
à¤² à¤¸à¤¨
à¤¦ à¤¯à¤µ
Ġà¤¬ à¤Łà¤°à¤«
Ġà¤µ à¤§à¤¶
à¤§ à¤ľà¤¯à¤¨
à¤¶ à¤ªà¤¤
à¤Ľ à¤Ł
à¤ĸ à¤¤à¤ķ
à¥Į ...
Ġà¤«à¤° à¤«à¤°
Ġà¤¨à¤ª à¤ļ
à¤ľà¤¯ à¤¬à¤¹
Ġà¤ĺà¤¨ à¤ĺ
à¤¼ à¥ĩ
Ġà¤Ĩà¤Ļ à¤Ľ
Ġà¥§à¥Ńà¥© à¥¦à¥Ń
Ġà¥§à¥Ńà¥© à¥¦à¥¬
Ġà¥§à¥Ńà¥© à¥¦à¥«
Ġà¥§à¥Ńà¥© à¥¦à¥¨
Ġà¥§à¥Ńà¥© à¥¦à¥ª
Ġà¥§à¥Ńà¥© à¥¦à¥©
iz ed
Ġcom ment
A P
U d
i ous
à¤° à¤Ĺà¤®à¤¨
à¤¯ à¤Ńà¤°
Ġà¤¸ à¤īà¤²
Ġà¤° à¤¬à¤°à¤ķ
Ġà¤ħ à¤¡à¤ķ
à¤· à¤ħà¤¨
à¤ĩ à¤¬à¤°à¤®
à¤Ļ à¤®à¤¤
Ġà¤¤à¤° à¤¹à¤°
Ġà¤ªà¤¦ à¤®à¤°
Ġà¤®à¤¤ à¤ħà¤¨
Ġà¥¨à¥¯ à¥¬
Ġà¥¨à¥© à¥¨
ant a
Ġpro v
y b
à¤ļ à¤Ĺà¤µ
à¤ī à¤ªà¤¦
à¤ī à¤Ĩà¤®
à¤·à¤£ à¤¸à¤¹
Ġà¤«à¤° à¤«
he l
am ent
et y
ĠG irl
ĠÐ² Ñĭ
à¤Ĩà¤®à¤¸ à¤ŀ
ARCH IVE
ä¸ĩ åĨĨ
e ep
à¤ķ à¤ĸ
à¤¿ Â¥
Ġà¤Ĺ à¤ĩà¤¯
à¤£ à¤Ńà¤¨
à¤ī à¤ªà¤Ľ
à¤ĩ à¤ıà¤°
Ġà¤ı à¤ıà¤¨à¤ı
à¤Ļ à¤¥
à¤®à¤¤ à¤Ĺà¤£à¤¨
Ġà¤ĸà¤° à¤ĸà¤ľ
re en
Ġà¥§à¥ª à¥¯
à¤ĸà¤ķ à¤·
Ġà¤¬à¤Ĺ à¤°à¤ķ
Ð° Ñħ
Ð½ Ð¾Ð¹
ov er
Ġ0 3
à¤® à¤¦à¤ķ
Ġà¤Ĩ à¤¦à¤¨
à¤°à¤² à¤®
à¤Ĩ à¤¨à¤ķ
Ġà¥ª à¥¦à¥¦à¥¦
à¥¬ à¥¦à¥¦
à¤Īà¤² à¤Ł
à¤ıà¤® à¤Ĩà¤Ī
Ġà¤Ĺà¤ł à¤ľ
Ġl ife
à¤µà¤¯à¤® à¤ķ
ĠR ai
à¤¾à¥Īà¤Ĥ à¥¤
Ġà¤Ĩà¤īà¤Ł à¤¸
Ġà¤ıà¤ħ à¤°à¤ķ
aus e
Ġ el
à¤² à¤·
à¥ģ |
à¤¹ à¤¬à¤¹
à¤ª à¤ł
à¤µ à¤¦à¤°
Ġà¥ ł
Ġà¤ķ à¤ªà¤°
à¤ı à¤°à¤ķ
Ġà¤ľ à¤Ĺà¤²
Ġà¤ĩ à¤ĸ
Ġà¤ªà¤ķ à¤µ
à¤¤à¤¬ à¤¦
Ġà¥¨à¥¨ à¥¨
à¤Ĺà¤®à¤¨ à¤ªà¤Ľ
à¤¯à¤Ł à¤ķà¤®
ĠB ank
Ġà¤²à¤ĸ à¤¤à¤°
ous e
à¹ ī
Y z
s on
é Ģ
à¤ľ à¤¥
Ġà¤¹ à¤°à¤¤
à¤¢ à¤¯
à¤¨à¤® à¤¹
à¤Ĺà¤¤ à¤¸
Ġà¤Ŀ à¤µ
à¤¹à¤ķ à¤¬
à¤·à¤® à¤¯
Ġà¤¬à¤² à¤°à¤²
Ġà¤¸à¤¹à¤Ń à¤Ĺ
om it
Ġà¤°à¤¹à¤° à¤®
Ġà¤°à¤¹à¤° à¤¹à¤°
ĠO LD
à¤ħà¤Ĺ à¤·
Ġà¤ķà¤¦ à¤®à¤®
Ġà¤ķà¤¦à¤° à¤ªà¤¤
ang e
à¥¨à¥¦à¥« à¥ª
ĠOLD ER
d oc
à¤Ł à¤ľà¤¤
à¤· à¤Ŀ
à¥ĥ à¤¿
à¤ĺ à¤°à¤¦
Ġà¤ľà¤¨ à¤ªà¤¦
à¤ķà¤ª à¤Łà¤ķ
Ġà¥¦ à¥©à¥¬
ĠÐ ľ
ĠP e
ĠH imal
à¤¨à¤Ĺ à¤ıà¤ķ
à¤ļà¤¥ à¤°à¤¬
Ġ6 0
9 74
p ro
à¤¨ à¤§à¤¨
à¤¤ à¤·
à¤¸ à¤¤à¤²
à¤¡ à¤Ľ
Ġà¤ı à¤ļà¤¬
à¤ªà¤° à¤¹à¤°
Ġà¤ıà¤ķ à¤¤à¤¨
à¤ħ à¤«à¤°
à¤²à¤¨ à¤Ń
à¥ĩ, âĢĿ
Ġà¤ĵ à¤ľà¤¸
à¤ĸà¤° à¤Ŀ
à¤ľà¤® à¤¹à¤²
Ġà¥§à¥® à¥¨
à¤Ĩà¤° à¤¡
Ġà¥¨à¥¯ à¥®
à¤Łà¤¬à¤² à¤ª
en e
our s
aj ura
M AND
à¤Ĺ à¤Ľ
à¤§ à¤Ļ
Ġà¤² à¤¦
à¤« à¤£
à¤°à¤¤ à¤ªà¤°à¤¸
Ġà¤Ĩà¤ľ à¤²
Ġà¤ĺà¤° à¤¨à¤ľ
Ġà¤®à¤² à¤Ļ
Ġà¤¨à¤¹ à¤¸
à¤¡à¤® à¤°
à¤µà¤ª à¤¦
Ġà¤ĸà¤¨ à¤ľ
Ð¸ Ð·
à¥Įà¤ģà¥¤ "
ĠL ocation
à¤¯à¤£à¤Ĺà¤¢ à¤ķ
Ġà¥§à¥§à¥© à¥¦à¥¨
Q W
v GF
à¤¤ à¤µà¤°
Ġà¤¦ à¤¨à¤ķ
à¤¶ à¤®à¤²
à¤°à¤¤ à¤Ńà¤°
Ġà¤ĺ à¤®à¤¨
à¤·à¤£ à¤¦
Ġà¤ĵ à¤Ńà¤²
à¤¬à¤° à¤Ĺ
Ġà¤ªà¤ķ à¤¡à¤®
ĠÐ Ŀ
Ð° ÐµÑĤ
Ġà¤ıà¤« à¤Ł
ĠW orld
op e
Ġ.. ?
oh n
Ġà¤ľà¤¯à¤ľ à¤¯à¤ķ
vGF kv
3 8
l er
Ø ´
Ġà¤¬ à¤°à¤®
Ġà¤ħ à¤Łà¤®
à¤Ń à¤Ĺà¤¤à¤²
à¤ķà¤® à¤¬
à¤ķà¤°à¤£ à¤¦
Ġà¤°à¤¹à¤¨ à¤¸à¤ķ
Ġà¤ıà¤¸ à¤¸
Ġà¥§à¥¯ à¥¨
Ġà¥§à¥¯ à¥©à¥®
Ð¸ Ñħ
ĠH ome
os s
Ġv i
ob ile
Ġ........... (
Ġà¤Ľà¤°à¤ª à¤·
MAND U
G z
O C
m b
t o
à¤ļ à¤ļ
à¤¡ à¤µà¤°
à¤Ń à¤¶
Ġà¤¡ à¤¯
à¤Ŀ à¤¯
à¤Ŀ à¤°à¤¨
à¤Łà¤° à¤ľà¤¸
Ġà¤Ńà¤Ī à¤°à¤¹à¤¨
à¤¾à¥Īà¤Ĥ -
à¤¼ à¥Ī
ys ansar
Ġhel lo
R L
f in
å Ĭ
à¤¡ à¤¹à¤²
à¤°à¤£ à¤Ńà¤¨
à¤ħ à¤ªà¤²
à¤°à¤¦ à¤¶à¤¨
Ġà¥§à¥ª à¥¬
com pleted
à¥¦à¥¬ à¥«
Ġà¤ıà¤®à¤ı à¤¡à¤¬
t ang
Ġ er
à¤¹ à¤£à¤²
à¤¶ à¤Ĺà¤¤
à¤ľà¤¨ à¤¶à¤ķ
Ġà¤¯à¤¸ à¤¤
Ġà¤ķà¤° à¤¹à¤°
à¤ķà¤® à¤¸
à¤ķà¤° à¤¨
à¤µà¤² à¤¡
Ġà¤Ĳ à¤¯
Ġà¥§à¥¯ à¥§
Ġà¥¨à¥© à¥©
Ġà¤Ĺà¤ı à¤Ľà¤¨
Ġb ut
and ard
ãģ ĭ
ĠK ang
Ġà¤ªà¤Łà¤ķà¤ªà¤Łà¤ķ à¤ķ
Ġà¤ıà¤¸à¤Ī à¤Īà¤ķ
T KC
w ma
Ġà¤ª à¤²à¤®
à¤¦ à¤²à¤¬
à¤Ł à¤ļà¤¨
Ġà¤Ń à¤¯à¤®
à¤ľ à¤®à¤²
à¤§ à¤²à¤Ĺ
Ġà¤¤ ÅĴà¤µ
à¤ī à¤¡à¤²
Ġà¤§ à¤¨à¤¨
Ġà¤¹à¤¤ à¤ªà¤¤
Ġà¥«à¥§ à¥Ń
ĠNepal ese
à¤°à¤ĺ à¤£
Yz TKC
Gz YzTKC
GzYzTKC wma
! âĢĻ
D R
Ġ à¥ĭ
Ġà¤µ à¤ļà¤¨à¤ķ
Ġà¤ī à¤¢
Ġà¤¸à¤® à¤Ń
à¤ĩ à¤§
à¤īà¤¨ à¤Ń
à¤īà¤¨ à¤ªà¤°
à¤²à¤ķ à¤ª
à¤ļà¤¨ à¤µ
à¤²à¤¬ à¤¡
Ġà¤¸à¤®à¤¯ à¤ħà¤Ĺ
à¤¸à¤¹ à¤¸à¤ļ
à¤ıà¤¸ à¤ĵ
ĠA rticle
à¤¤à¤¸ à¤¯
Ð¾ Ñĩ
Ġs erv
Ġà¤Ľà¤ł à¤²à¤Ĺ
ĠF orm
ail y
Ġà¥¯à¥® à¥«
ĠRe g
und ay
Ġà¤ľà¤¨à¤Ĺ à¤£à¤¤
Ġà¤ľà¤®à¤ĺ à¤Łà¤ķ
Ġ \'
à¤µ à¤ļà¤°
Ġà¤¬ à¤ĺ
Ġà¤ľ à¤¨à¤²
à¤°à¤¸ à¤Ĺ
Ġà¤ķà¤° à¤ª
à¤¤à¤² à¤ª
at o
à¤īà¤ª à¤¸à¤Ń
Ġà¤Ĺà¤¹ à¤Ńà¤°
Ñĥ Ð´
ap er
Î ¿
æ Ŀ
Ġà¤µ à¤¡à¤²
à¤Ŀ à¤¨à¤²
Ġà¤ķà¤® à¤²à¤¬à¤¹
à¤®à¤ķ à¤ķ
Ġà¤Ĩà¤® à¤¸
à¤ĩà¤¡ à¤¬
ĠâĢĻ âĢĻ
Ð½ Ð¾Ð³Ð¾
Ġre l
ang tang
ric t
ĠJan uary
% ,
N ews
p erson
à¤¯ à¤«
Ġà¤¨ à¤¬à¤°
Ġà¤µ à¤µ
Ġà¤¦ à¤ľ
à¤¯à¤ķ à¤¥
à¤ĺ à¤°à¤¸
Ġà¤ıà¤ķ à¤²à¤ķ
à¤²à¤¨ à¤¤à¤°
Ġà¥§à¥® à¥®
Ġà¥¦ à¥§à¥Ń
com e
ĠD h
à¤ıà¤« à¤Ł
Ġb u
ĠG urk
à¤¤à¤ķà¤® à¤§
ah oo
Ã© s
Ġà¤ķà¤¨à¤ķ à¤®à¤£
j k
Ġà¤ķ à¤²à¤¬
à¤°à¤£ à¤¬à¤¸
Ġà¤ĺ à¤°à¤¬à¤¹
à¤ĩà¤¨ à¤ĸà¤¬à¤°à¤ķ
à¤¸à¤µ à¤¬
à¤Łà¤µà¤² à¤¸
ot h
oc ial
ddc mugu
S P
m à¤¦
à¤¨ à¤°à¤ª
à¤¯ à¤¶à¤¨à¤²
à¤µ à¤®à¤®
Ġà¤ķ à¤Łà¤°
à¤Ł à¤ªà¤°
Ġà¤Ľ à¤ľà¤¨
Ġà¤ľ à¤«
à¤¤à¤ķ à¤¸
à¥¨ à¥¨à¥¦
à¤Ĺà¤² à¤ªà¤¨
à¤®à¤² à¤ª
Ġà¤Ĩà¤ľ à¤ªà¤°
Ġà¤ħà¤ª à¤¸
Ġà¤Ĳ à¤¡
à¤®à¤¸ à¤Ļà¤²
à¥¦à¥¬ à¥Ń
à¸ ĩ
ĠTr ump
sh ip
à¤ıà¤¯à¤° à¤ª
alleng e
C P
o ff
Å Ĥ
à¥ Ĩ
à¥ĩ à¥ģ
à¤ı à¤°à¤²
à¤¬ à¤¬à¤Ī
Ġà¤ªà¤° à¤«
à¤¸à¤® à¤¥à¤°
Ġà¥§à¥« à¥ª
Ġà¤ľà¤Ĺ à¤ľà¤Ĺ
Ġà¥§à¥ª à¥Ń
al s
an e
Ġà¥¨à¥ª à¥§
Ġà¥©à¥© à¥ª
Ġa ct
à¤¨à¤Ń à¤°à¤®
ir m
à¤ªà¤°à¤® à¤ª
äº Ĩ
Ġà¤Ľà¤²à¤ķ à¤ªà¤Ł
D ownload
W h
c u
Ã ¨
Ë Ī
à¤¦ à¤¯à¤¸
à¤¬ à¤Ń
Ġà¤Ĩ Ã
à¤Ļ à¤¬à¤ľ
à¤²à¤¨ à¤ľ
à¤°à¤ª à¤Ļ
à¤°à¤ľ à¤Ļ
Ġà¤¹à¤¸ à¤¨à¤²
à¤ľà¤¯ à¤¬
à¤°à¤¸à¤® à¤£
à¤¾- -
à¤²à¤¨à¤² à¤Ĺ
Ġd ay
ro om
ĠK ul
Ġà¤Ĩà¤īà¤Ł à¤¡
form s
T S
Ġà¤µ à¤¨à¤®à¤¨
Ġà¤¦ à¤¹à¤®
Ġà¤Ĩ à¤¶à¤¨
Ġà¤¥ à¤®à¤¨
Ġà¤ªà¤° à¤¯
Ġà¤ķà¤® à¤²à¤µ
à¤µà¤¨ à¤ªà¤¦
Ġà¤ħà¤µ à¤¦
er o
in i
Ġà¥§à¥Ń à¥®
à¤Ĩà¤ľ à¤¬
ĠA cc
is it
ĠF l
à¤Ĳ à¤¨à¤ķ
Ġ9 0
iz e
ĠCha ir
ĠProf ile
à¤ķ à¤ªà¤¤
à¤£ à¤¶
à¤Ń à¤¹
à¤ī à¤ĺà¤°à¤®
Ġà¤®à¤¨ à¤µ
à¤¶à¤ķ à¤¸à¤®
Ġà¤Ĩà¤° à¤Ĩà¤°
à¤«à¤² à¤«
à¤¾à¥ĩ )
à¤¤à¤¬ à¤ľ
à¥ĩà¥¤ âĢĿ
Ġà¤ĩà¤® à¤°à¤ľ
Ġl es
ĠA JA
ou th
velop ment
ĠAJA X
3 6
4 9
5 6
g er
j n
É Ļ
Ø ©
à¤ķ à¤¨à¤¸
à¤¸ à¤ıà¤¸
à¤ª à¤Ļ
à¤§ à¤µà¤¨
à¤Ń à¤µà¤ª
à¤ħ à¤µà¤ķ
Ġà¤ĺà¤° à¤ĸ
Ġà¤ıà¤® à¤µ
Ġà¤ıà¤® à¤Ĩà¤Ī
à¤¦à¤® à¤¯
Ġà¥¨à¥© à¥ª
à¤ıà¤ļ à¤ª
Ġdis c
f ul
y t
Î ±
à¤² à¤Ľ
à¤¯ à¤°à¤¸à¤¹
Ġà¤² à¤¹à¤¸
à¤ī à¤Łà¤ķ
à¤°à¤® à¤¹
à¤¯à¤² à¤¹à¤°
Ġà¤ħà¤µ à¤¶à¤°
Ġà¤¦à¤² à¤¦à¤²
ĠN e
Ġo ver
Ġ5 00
à¥¨à¥¦à¥« à¥¯
à¹ Ģ
Ġà¤¬à¤¬à¤°à¤®à¤¹à¤² à¤¸
ĠGurk ha
â Ī
à¤¿ --
à¤¿ Â«
à¤² à¤¹à¤¨
à¤ª à¤¥à¤®
à¤Ł à¤¬à¤¹
à¤Ń à¤µà¤¸
à¤ŀ à¤µà¤²
Ġà¥© à¥¦à¥«
à¤Łà¤° à¤¨à¤²
à¤°à¤¶ à¤®
à¤ıà¤¨ à¤Ĩà¤Ī
Ġà¤ıà¤® à¤Ĩà¤°à¤Ĩà¤Ī
Ġà¤Ĳ à¤¨à¤¬
Ġà¥¨à¥« à¥«
à¤·à¤§ à¤°à¤ķ
Ġà¥¨à¥¯ à¥¦
à¤¸à¤¨à¤² à¤Ĺ
ĠT arget
ĠM other
à¤¯à¤¯à¤¨à¤ķ à¤°
Ġà¥¦à¥« à¥Ń
Ġà¥§à¥¯à¥« à¥§
Ġà¤¦à¤®à¤¨ à¤¨
iz ation
ĠðŁ ĳī
Ġà¥§à¥§à¥¦à¥¨ à¥§
NT V
Ġche ap
æĺ ¯
Ġà¤ķà¤ļà¤ķ à¤ļ
sahity asansar
Ġ Ø§Ø
Ġà¤¨ à¤«à¤¸
Ġà¤ı à¤¨à¤²
Ġà¤« à¤²à¤®
Ġà¤ł à¤Ĺà¤¹à¤°
à¤µà¤° à¤Ń
Ġà¤ĵ à¤®à¤°
à¤ĸà¤° à¤¨
à¤¸à¤¬ à¤Ńà¤¨
à¤Īà¤¨ à¤²à¤ķ
ar s
Ġf e
Ġà¤¨à¤Ĺ à¤ıà¤°
à¤¤à¤Ń à¤£
à¤ķà¤ħ à¤ªà¤®
M A
a im
g o
w atch
à¥ĩ &
Ġà¤Ĺ à¤±
à¤Ī à¤ªà¤¨
Ġà¤¶ à¤®à¤¸
Ġà¤§ à¤°à¤®à¤ª
Ġà¤¸à¤¹ à¤ħà¤Ń
âĢĿ à¥¤
à¥¨à¥¦à¥ ¯
Ġp ress
Ġs ur
Ġs chool
.... "
à¥ĩ- âĢĻ
ol angtang
Ġv omit
Ġ4 5
ĠAn n
à¤£à¤Ĺ à¤Ļ
àµ į
radi olangtang
à¤¨ à¤°à¤ķà¤°
à¤¥ à¤°à¤®
à¥Į )
à¤°à¤¤ à¤¨
à¤¢ à¤¨
Ġà¤Ĩà¤ĩ à¤Ń
à¤ļà¤² à¤ª
Ġà¤ıà¤¨ à¤¡
ud io
Ġat t
pos h
echn ology
C S
T Z
l a
Ġà¤¬ à¤ķà¤¸
Ġà¤¹ à¤ķà¤¬
à¤§ à¤ľ
à¤Ī à¤ľà¤°
Ġà¤ĸ à¤°à¤¦
Ġà¤ı à¤®à¤¨
à¤Ĩ à¤¯à¤²
Ġà¤¸à¤° à¤Ĺà¤®
à¤Ĺà¤² à¤Ń
Ġà¤¢ à¤¡
Ġà¤ħà¤® à¤°à¤²
Ġ- &
an i
Ð¸ Ðº
Ġ8 0
ind ows
H e
Ġ other
Ġà¤¸ à¤ī
Ġà¤¸ à¤Ŀ
Ġà¤Ń à¤Łà¤°
à¤ļ à¤¯à¤²
à¤²à¤ķ à¤¸à¤®
à¤ľà¤ķ à¤¸à¤®
à¤ĩà¤² à¤¸
Ġà¤ıà¤® à¤ıà¤²
Ġà¥¨à¥¨ à¥Ń
à¤¾... âĢĻ
ĠT e
ĠT ong
à¤ıà¤« à¤ıà¤²
Ġà¤¨à¤Ĩ à¤ıà¤°
Ġs ex
ent s
Ð¸ Ñģ
7 3
n n
t ime
Ġà¤Ĺ à¤ľà¤°
Ġà¤° à¤ľà¤¹à¤°
à¤ı à¤ı
à¥Į à¥¤âĢĻ
à¤¯à¤ķ à¤¸à¤®
Ġà¤« à¤¸à¤²
Ġà¤¬à¤¢ à¤µ
à¤ķà¤ķ à¤¸
Ġà¤ļà¤² à¤¨à¤®
à¤ĥ ,
Ġà¤ĩà¤¨ à¤ª
à¤ĺà¤Łà¤¨ à¤ªà¤Ľ
in o
al t
al ly
ĠP art
et work
ot t
Ġà¤²à¤¨ à¤Ł
ĠØ ¯
d er
è Ģ
é ĩ
Ġ Ñħ
à¤° à¤¶à¤ķ
Ġà¤µ à¤°à¤ķ
à¤· à¤ļà¤¨
à¤ĩ à¤ĺ
à¤ĩ à¤¬à¤ķ
Ġà¤¥ à¤¸
à¤²à¤² à¤²
Ġà¤§à¤¨ à¤¤
à¤¿. )
ĠN CC
ep t
Ġd ownload
I I
Ø ¹
à¤® à¤¯à¤®
à¤Ĺ à¤Ĺà¤¨
à¤§ à¤¸à¤¹
à¤£ à¤ľà¤¨
Ġà¤ĸ à¤²à¤ķ
à¤¸à¤® à¤ħà¤¨
Ġà¤¬à¤¨ à¤¬
âĢĻ (
à¤ħ à¤ł
à¤Łà¤ķ à¤ĺà¤°à¤®
à¤Ĩ à¤¬à¤¦
re at
om en
Ġà¤ħà¤ľ à¤¯à¤²
à¤°à¤¨à¤Ĺà¤° à¤¸
Ġà¤Łà¤® à¤Ł
c es
å º
Ĥ ¬
à¤¯ à¤²à¤¯à¤¹à¤°
à¤Ĺ à¤¨à¤ª
à¤§ à¤Ńà¤¨
Ġà¤ľ à¤Ĺà¤ķ
Ġà¤ı à¤²à¤¨
à¤Ĺà¤® à¤¯
Ġà¤ıà¤¨ à¤Ĩà¤ĩà¤¬
Ġà¥§à¥® à¥¦à¥¦
Ġà¤¤à¤² à¤¤à¤²
H R
n ing
w o
Ġà¤¸ à¤¤à¤ķ
à¤£ à¤ľà¤¸
à¤¾à¤ģ "
à¤ķà¤² à¤Ļ
à¤²à¤¯ à¤¤à¤°
à¤¸à¤¨ à¤¸à¤¹
à¤µà¤¤ à¤¬
Ġà¤¬à¤² à¤¶
à¤ıà¤¸ à¤ıà¤¸
à¤¯à¤£ à¤Ĺà¤£
à¥¨à¥¦ à¥¦à¥ª
à¥į- âĢľ
Ñĥ Ñİ
ut ion
: âĢĿ
k antipur
à¤¨ à¤ıà¤ľ
à¥ĩ âĢĺ
à¤² à¤¤à¤ª
Ġà¤¸ à¤ĺà¤°
à¤Ł à¤®à¤¨
à¤Ł à¤ļà¤¨à¤²
Ġà¤® à¤°à¤£à¤ķ
Ġà¤ĩ à¤¦à¤ķ
à¤¦à¤¨ à¤ªà¤Ľ
à¤ķà¤ª à¤Ł
âĢľ ,
Ġà¤¹à¤² à¤Ń
it es
Ġt witter
ĠJ ohn
à¤Ĳ à¤¨à¤®
ĠÐ¸ Ð½
à¥¤à¥¤ à¥¤
Ġund er
atur day
M ore
o e
å ·
à¤ª à¤Łà¤®
Ġà¤ķà¤® à¤Ńà¤¨
à¤°à¤¹à¤° à¤£
à¤µà¤¨ à¤ľà¤²
Ġà¤ĵ à¤ªà¤¨à¤ķ
à¤¾. ,
à¤ıà¤® à¤Ĩà¤°
Ġà¤ªà¤² à¤Ļ
ĠÐ ł
à¤Ĺà¤ľ à¤²à¤ķ
Ġà¤ħà¤¸à¤® à¤ķ
à¥¦à¥¬ à¥§
__ _
Ġà¥Ńà¥© à¥Ń
à¦ °
Ġà¤ıà¤¸à¤ĩ à¤ĩ
Ð ŀ
à¤° à¤°à¤£
à¥ĭ à¤¾
à¤¶ à¤°à¤®
à¤ļ à¤²à¤Ĺ
à¤Ī à¤®à¤¹
à¤ĩà¤¨ à¤ª
Ġà¤īà¤¦ à¤¯à¤ķ
à¤ķà¤ª à¤²
Ġà¤ıà¤¸ à¤Ł
ist ry
à¥¨à¥¦à¥ª à¥¯
à¤Ľà¤²à¤« à¤²à¤ķ
à¤¨à¤ħ à¤Łà¤°
à¹Ģ à¸
= "
m en
å Ń
à¤¤ à¤µà¤ķ
Ġà¤¸ à¤¸à¤ķ
à¤· à¤¯à¤µ
Ġà¤Ľ à¤¤à¤ķ
à¤ļ à¤°à¤¸
à¤ī à¤Łà¤°
Ġà¤ı à¤¸à¤°
Ġà¤ı à¤²à¤¬à¤®
Ġà¤ħà¤¨ à¤ªà¤¢
Ġà¤ĩ à¤°à¤«
Ġà¤ĵ à¤łà¤ķ
ĠÂ ·
à¤ªà¤Ł à¤¨à¤®
Ġà¤¨à¤Ĺ à¤ª
ol or
Ġà¥§à¥§à¥© à¥¦à¥©
e v
Ġà¤¹ à¤ķà¤¸
à¤· à¤¸à¤ķ
à¤Ī à¤§
Ġà¤ī à¤¸à¤¸
à¤ľà¤¨ à¤ľà¤¤
à¤ħ à¤¥
Ġ( âĢĺ
Ġà¥§à¥Ń à¥§
à¤¤à¤°à¤® à¤¹
à¥¨à¥¦ à¥¦à¥¯
el s
ateg ory
ĠWord Press
ĠDon ald
doc s
J W
c red
f l
p s
Ð ¡
à¤² à¤¸à¤°
à¤Ń à¤Ń
à¥¤ (
à¥Į /
Ġà¤ı à¤Ĩà¤°à¤Ł
à¤ľà¤¨ à¤°à¤²
à¤µà¤¸ à¤§
à¤ħ à¤ĸà¤¬
à¤ķà¤² à¤Ł
à¤·à¤£ à¤ª
à¤Łà¤¨ à¤¦
à¤¹à¤ķ à¤ª
Ġà¤ıà¤¨ à¤Ĩà¤Īà¤¬
à¤®à¤ª à¤Ł
Ġà¤ħà¤ĸ à¤µ
ut ari
Ġv ideo
Ð°Ð ³
à¤¬à¤ĸ à¤¤à¤²
rad y
Ġus e
bo x
T ravel
w y
Ú ¯
à¤° à¤°à¤ķ
à¤§ à¤°à¤¤
Ġà¤² à¤¤à¤®
à¤ªà¤° à¤¯
Ġà¥© à¥¦à¥¯
Ġà¤¸à¤µ à¤Ńà¤¨
Ġà¥§à¥® à¥§à¥ª
en ing
Ġt er
ĠâĢ¦ âĢ¦âĢ¦
Ġd dc
ag lung
Ġà¥§à¥§à¥© à¥¦à¥«
Ġà¥§à¥§à¥© à¥¦à¥ª
Ġ1151 4
ãĤ Ĭ
ĠSt ate
ÐµÐ½ Ð¸Ðµ
Post ed
ĠEth nic
ĠTong ue
( "
A Z
P in
l ink
å Į
à¤® à¤ªà¤Łà¤ķ
à¤¦ à¤µà¤¸à¤¹
Ġà¤Ĺ à¤ĩà¤°
à¤¬ à¤Īà¤¸
à¤¡ à¤£
à¤ľà¤¨ à¤®à¤¤à¤²
Ġà¤¸à¤¹ à¤ĩà¤¨
à¤ħ à¤¥à¤µ
Ġà¤¤à¤° à¤ĸà¤°
Ġà¤ķà¤® à¤¨à¤µ
Ġà¤¬à¤ľ à¤°
à¤¦à¤² à¤¸
à¤¯à¤£ à¤¦à¤²
Ġà¥¨à¥§ à¥©
Ġà¤¨à¤µ à¤Ĺ
Ġà¥¨à¥¬ à¥¯
Ġà¤¦à¤¸ à¤Ĺà¤ľ
ĠS ch
ĠS ub
à¤Ĭ à¤²
ĠA LS
ĠI ce
19 54
Ġ200 8
ĠPro ced
Ġcl ass
n epcal
à¤¸ à¤¯à¤¤
à¤· à¤°à¤¸
à¤¤à¤® à¤°
Ġà¤ĺà¤° à¤Ľ
Ġà¤Ĩà¤® à¤¹à¤¡à¤¤
Ġà¤Ĺà¤ł à¤¨à¤²
à¤µà¤Ł à¤¯
Ġm eet
Ġthe y
ir d
à¥Ģ' ,
Ġà¥§à¥§à¥© à¥¦à¥¬
Ġà¥§à¥¯à¥ª à¥§
Ġwh ich
ä ¹
à¥ĩ .....
à¤¯ à¤µà¤²
Ġà¤° à¤¡à¤²
Ġà¤® à¤µ
à¤· à¤°à¤ķà¤°
à¤°à¤ķ à¤¸
Ġà¤ªà¤¦ à¤°
à¤ľà¤Ĺ à¤ľ
à¤Ĩà¤Ī à¤ıà¤ķ
ĠÂ ¨
Ġf l
em b
Ġà¤ıà¤ķà¤ªà¤Łà¤ķ à¤ķ
à¥ĭ? !
ĠK h
à¤ĩà¤ı à¤ħà¤¨
te rest
br b
G irl
Û ģ
Ġ right
à¤¾ #
à¤¨ à¤°à¤¹
à¤¨ à¤Ĺà¤łà¤¨
à¤² à¤ĺà¤°
à¤® à¤°à¤¨
à¤µ à¤¶à¤®à¤¶
Ġà¤µ à¤²à¤®
Ġà¤µ à¤ĸà¤¤
à¤¯à¤¤ à¤¹à¤®
à¥ĭà¥¤ &
Ġà¥¨à¥¦à¥Ń à¥Ń
à¤¨à¤µ à¤¦
à¤¦à¤µ à¤¬
Ġà¤®à¤¦ à¤¨à¤®à¤£
à¤ļà¤¨à¤ª à¤¶
Ġà¤ľà¤¡ à¤¤
ãĥ »
rop in
C ouncil
c ess
q v
å ¸
æ ī
à¤¨ à¤ıà¤¥
à¤µ à¤§à¤°
à¥Ī Â´
à¤²à¤ķ à¤¨
à¤¤à¤² à¤¹à¤°à¤ķ
Ġà¤ĺà¤° à¤ĺà¤¡
à¤²à¤¤ à¤¦
à¤Īà¤ķ à¤²à¤ķ
Ġà¤ķà¤µ à¤¹
Ġà¥¨à¥® à¥©
à¤¯à¤¯ à¤°à¤¤
à¤Ĩà¤Ī à¤ıà¤²
à¤µà¤ľ à¤¹à¤°
Ġà¤°à¤Ļ à¤¹à¤°
Ġà¤ıà¤¡ à¤µ
Ġà¤ĵà¤Ń à¤²à¤®
oo t
à¥ĭ? âĢĿ
à¸ ¡
pan y
Ġj ust
à¥Ģ.. âĢĿ
olle ge
ÑĩÐµ ÑģÐº
ĠChair person
T b
q c
å ¿
à¤ķ à¤Ļà¤®
à¥Ģ à¤¼,
Ġà¤ª à¤¡à¤ķ
Ġà¤ħ à¤²à¤¨
Ġà¤Ľ à¤łà¤®
à¤ļ à¤¤à¤²
à¤ĩ à¤¸à¤¨
à¤ł à¤µ
à¤Ļ à¤ķà¤°
à¤Łà¤ķ à¤¬
Ġà¤¢ à¤ķà¤¨
Ġà¤¦à¤² à¤ľ
à¤¤à¤°à¤£ à¤¸
à¤ªà¤² à¤Ĺà¤¤
Ġà¤Ĩà¤Ī à¤²à¤¬
à¤Ĺà¤¢ à¤¨
Ġà¤¦à¤¶à¤ķ à¤¤
à¤²à¤Ń à¤²
âĢį âĢį
à¸ ±
und ar
Ġà¤ĳ à¤Ł
Y ear
i i
Ù Ĥ
Ġà¥ ĥ
Ġà¤Ń à¤¬à¤¨
à¤ļ à¤°à¤£à¤®
Ġà¤ľ à¤¯à¤®
à¤¡ à¤µà¤²
à¤¬à¤° à¤Ńà¤¨
Ġà¤ªà¤¦ à¤¤
Ġà¤Ķ à¤·à¤¤à¤®
Ġà¤Ĳ à¤ľà¤¨
à¤¯à¤£ à¤¬à¤¹
Ġà¥¨à¥¨ à¥§
à¤īà¤ª à¤¸à¤®
ĠÐ µ
Ġà¤ħà¤¨à¤¶à¤¨ à¤¹à¤°
Ġre t
ol low
ud ur
Ġit s
äº º
ĠAd d
à¤¹à¤¹ à¤¹à¤¹
New Year
ĠKul ung
b a
w ay
à¤ķ à¤ªà¤®
à¤Ĺ à¤¥
Ġà¤Ĺ à¤ŀ
à¤¡ à¤ªà¤¸
à¤£ à¤Łà¤®
à¤£ à¤ħà¤¨
à¤« à¤²à¤²
à¤¯à¤ķ à¤°à¤£à¤ķ
Ġà¤ı à¤¨à¤°
à¤¨à¤ķ à¤®
Ġà¤ħà¤¨ à¤ľ
à¤²à¤ķ à¤µ
à¤°à¤§ à¤°
Ġà¤®à¤¤ à¤µ
Ġà¤¸à¤¤ à¤¬
Ġà¤ľà¤® à¤²à¤®
ĠS hare
à¤Ĭ à¤¦à¤ķ
ĠM edia
à¥Įà¤ģà¥¤ '
à¥¨à¥¦à¥« à¥¬
iv ing
ĠCh ina
Ġbe en
âĢ¢âĢ¢ âĢ¢âĢ¢
ĠÐ´ Ð»Ñı
ĠSh ort
L J
à¤¨ à¤Ĺà¤¨
Ġà¤ª à¤Ĺà¤²à¤²
à¤ı à¤¯à¤¤
à¤ı à¤¬à¤²
à¤¥ à¤¸à¤¹
Ġà¤Ĩ à¤¸à¤¨à¤ķ
Ġà¤ľ à¤ķà¤°
à¤¡ à¤µà¤ķ
à¤°à¤¤ à¤Ń
à¤¸à¤® à¤¯à¤²
à¤ĥ -
Ġ? ...
à¤¾à¥ĩ !
Ġà¤Ĩà¤ĩ à¤ķà¤¨à¤®
Ġ: )
Ġà¤Ī à¤Ļà¤²
à¥Ģ) âĢĵ
Ġà¤ľà¤² à¤ļà¤°
à¤Łà¤¬à¤² à¤ħà¤¨
Ġà¥ªà¥« à¥Ń
ĠB r
ĠB ucket
ĠR en
Ġh t
ak ing
à¥ĩ? âĢĻ
Ġà¤¶à¤°à¤¦ à¤²
op hy
ik i
ÐµÐ ·
ĠAct s
B A
m à¤ķ
à¤¿ âĢĶ
Ġà¤ķ à¤¡à¤°
à¤¥ à¤ªà¤¨
Ġà¤Ĩ à¤Ļà¤ķ
à¤łà¤® à¤¡
à¥« à¥¦à¥Ńà¥¬
Ġà¤Ĩà¤° à¤Ł
à¤®à¤¤ à¤µ
Ġà¥¨à¥ª à¥«
Ġà¤«à¤² à¤ª
à¤¹à¤¦ à¤¸à¤®
ĠR CC
ĠH ot
Ġà¤¸à¤¤à¤¹ à¤Ńà¤¨
ire ct
rou gh
à¤īà¤ªà¤ķ à¤°à¤£
D TZ
F o
J uw
K yb
P D
b x
d Tb
i Y
i EC
j hC
r N
u es
Ġ Ä
Ġ ra
à¤¤ à¤ĵà¤Ł
à¤¹ à¤¶
à¤ª à¤«
Ġà¤¨ à¤°à¤ķà¤ķ
à¤ľ à¤°à¤¬
Ġà¤¦ à¤°à¤¹à¤°
à¤¥ à¤ľ
à¤ļ à¤¯à¤®
Ġà¤ľ à¤²à¤²
à¤ĺ à¤ħà¤¨
Ġà¤®à¤¹ à¤®à¤¦
Ġà¤¡ à¤¨à¤¹à¤°
à¤¾, ...
Ġà¤ħà¤° à¤µà¤ķ
à¥ĭà¥¤ +
à¤ªà¤ķ à¤¸
Ġà¤¸à¤¡à¤ķ à¤Ľ
à¤łà¤ķ à¤µà¤°
Ġà¤Ľà¤² à¤Ľ
Ġà¥¨à¥ª à¥ª
Ġà¤ľà¤¨à¤ª à¤¥
Ġà¥ªà¥ª à¥§
Ġà¤ļà¤°à¤® à¤ªà¤¨
Ġà¤²à¤¹à¤° à¤²
um na
à¤¾? ?
à¤®à¤¤à¤² à¤µà¤ķ
à¥įâĢĿ ?
GB iY
md lo
AK jn
JW X
qv mdlo
LJ Kyb
DTZ qc
bx dTb
iEC bKD
AKjn qvmdlo
LJKyb G
P ro
c G
à¤¾ à¥ħ
Ġà¤¸ à¤ĩ
à¤¹ à¤ļà¤°à¤£
à¤¯à¤ķ à¤®à¤¨
à¤ħ à¤°à¤²
à¤µà¤¨ à¤¤
Ġà¤ĵ à¤¦
Ġà¤ªà¤¦ à¤ķà¤µ
er a
Ġà¤ļà¤¢ à¤¨
ĠÐ ŀ
à¤ıà¤« à¤Ĩà¤°
à¥¦à¥¬ à¥ª
ĠE p
Ġà¤Ŀà¤² à¤Ŀà¤²
à¤ľà¤Ĺà¤¢ à¤¸à¤®
Ġà¥¯à¥© à¥Ń
sp ot
sha res
à¤°à¤Ĩ à¤µà¤¸
A D
E N
H AT
O w
P rady
p Fo
u ter
v ail
Â ®
Ð ł
å į
à¥ģ Ã·
à¤¸ à¤Ńà¤°
Ġà¤ª à¤¯à¤°
à¤Ł à¤ħà¤ĺ
à¥Ī âĢĶ
à¤ı à¤ªà¤¶
à¤ľ à¤°à¤¨
à¤£ à¤ıà¤¶
à¥ĥ à¥ģ
à¤¯à¤® à¤ª
à¥Įà¤Ĥ .
à¤¤à¤ķ à¤¹
Ġà¥© à¥¦à¥®
à¤°à¤¬ à¤®
à¤ıà¤® à¤ıà¤²
à¤ľà¤¦ à¤°à¤µ
ĠÐ ¶
ĠC O
à¤Ĺà¤¸ à¤Ĺ
ĠI m
ir a
ĠIn v
Nepal NewYear
ub ajura
à¥©à¥« à¥¬
à¤¡à¤°à¤¸ à¤Ł
Ġà¥¨à¥«à¥¬ à¥«à¥¦
mm g
nar ubajura
Sh mmg
Mahendra Shmmg
wy MT
ĠProced ures
rN wyMT
Prady umna
Ġà¤° à¤Ľ
Ġà¤¬ à¤·
Ġà¤¬ à¤°à¤£
à¤Ľ à¤²à¤Ĺ
à¤Ĩ à¤ķà¤¸
Ġà¤¢ à¤ķà¤²à¤Ł
Ġà¥¨à¥« à¥§
Ġà¤ĩà¤¤ à¤°à¤ķ
Ġà¤®à¤¦ à¤¤à¤®
Ġp ol
Ġà¤ħà¤Ļ à¤¸
Ġà¤°à¤Ĺà¤¤ à¤¬
Ġà¤¦à¤¹ à¤ļ
Ġ14 4
Ð¸ÑĤ ÑĮ
...." ??
s udur
à¤¹ à¤¸à¤²
à¤¦ à¤¤à¤ķ
à¤Ń à¤¸à¤®
à¤ĩ à¤®à¤¤
à¤¤à¤° à¤ĸ
Ġà¤¸à¤¹ à¤²
à¤Ŀ à¤īà¤¨
à¤µà¤¨ à¤Ĺà¤°
à¤Ĩ à¤ªà¤¸
à¤·à¤£ à¤²à¤Ĺ
à¤µà¤°à¤£ à¤ªà¤¤
Ġà¤ħà¤² à¤Ļ
à¤ªà¤£ à¤µ
at ra
Ġà¤ĸà¤¸ à¤Ĩà¤°
Ġà¤¸à¤¡à¤ķà¤® à¤§
à¤Ĩà¤¤ à¤Ļ
Ġà¥§à¥§à¥© à¥Ń
ĠNE SE
Ġà¤ľà¤¯à¤¨à¤Ĺà¤° à¤¦
sudur khabar
4 1
u th
Ġ 75
à¤² à¤Ŀà¤£
à¤® à¤¯à¤²
Ġà¤ľ à¤µà¤ķ
à¤ĸ à¤²à¤¨à¤ķ
Ġà¤¶ à¤¦
Ġà¤¸à¤ķ à¤¸à¤ª
à¤®à¤® à¤¯
à¤ĺà¤° à¤ľà¤Ĺ
an b
Ġà¤¨à¤¬ à¤¦à¤²
ic ham
Ġà¥©à¥« à¥ª
Ġs undar
à¥§à¥« à¥¦
el f
ĠO f
Ġg r
ÐµÐ½ ÑĤ
Ġcom p
ĠÃ Ĺ
ere d
ĠViews à¤¨
hara icham
âĢ¢âĢ¢âĢ¢âĢ¢ âĢ¢
Ġsundar haraicham
Ġsundarharaicham un
Ġ eb
à¤¨ à¤·
à¥Ģ à¤¾
Ġà¤¸ à¤Łà¤°à¤ķ
à¤¹ à¤§
Ġà¤ľ à¤ľà¤¸à¤²
Ġà¤¬à¤¢ à¤¯
à¤Ĩ à¤Ĺà¤¨
à¤²à¤¨ à¤µ
Ġà¤¨à¤Ĺà¤° à¤¹à¤°
Ġà¤Ŀ à¤¨à¤ķ
à¤Ĥ. âĢĵ
Ġà¤Ĩà¤ł à¤¦
à¤¯à¤Ł à¤ķà¤®à¤§
Ðµ ÑģÑĤ
Ġà¤ļà¤°à¤£ à¤µà¤¦
ĠO b
à¤°à¤¨à¤Ĺà¤° à¤²
Â« Â«
Ñĥ ÑĤ
ĠPolic ies
ĠEng lish
O n
à¤¿ à¥¤âĢĻ
à¤µ à¤Ńà¤ķ
à¤ľ à¤¬à¤²
à¥¤ ,
à¤ĩ à¤ıà¤Ľ
à¤īà¤¨ à¤¯à¤¤
Ġà¤§ à¤°à¤®
à¤Ĩ à¤µà¤§
Ġ, âĢĻ
à¤¨à¤¬ à¤ľ
Ġà¤Ĩà¤¤ à¤¤
Ġà¥§à¥® à¥ª
Ġà¥¨à¥® à¥¨
ĠS w
ĠS an
ĠB ar
ist rict
à¤¨à¤µà¤² à¤ª
ast e
E V
g y
Ò ¯
à¤² à¤°à¤¬
à¤ª à¤Łà¤²
à¤¦ à¤¹à¤ķ
à¤Ł à¤Ĺà¤°
à¤¶ à¤°à¤¬à¤¹
Ġà¤ľ à¤ŀ
à¤ī à¤¸à¤¹à¤°
à¤ĩ à¤ľà¤¸
Ġà¤ĸ à¤¯à¤°
Ġà¤¡ à¤«
Ġà¤ĩ à¤¸à¤¹
à¤¯à¤¨ à¤ª
Ġà¤ħà¤® à¤°à¤°
à¤ĵ à¤ľ
à¤ļà¤² à¤¨à¤²
à¤®à¤¸ à¤Ļà¤ķ
à¤Ĭ à¤¦à¤²
à¤¥à¤²à¤® à¤§
Ġà¤ħà¤µà¤° à¤¸à¤®
ur nt
Ġb ack
Ġà¥¯à¥® à¥ª
ãĥ Ī
Ġà¤Ĩà¤ĩà¤ıà¤® à¤µ
åĲ į
) (
I p
à¤¹ à¤¤à¤²
à¤¶ à¤®à¤ķ
à¤ħ à¤ĸà¤£
à¤¯à¤¤ à¤ľà¤¸
Ġà¤®à¤¨ à¤Ĺà¤¢à¤¨
à¤²à¤¯ à¤Ńà¤¨
à¤°à¤¯ à¤¶à¤ķ
à¤¤à¤°à¤£ à¤ªà¤Ľ
Ġà¤Ĺà¤£ à¤ª
Ġà¥§à¥® à¥Ń
Ġà¤ľà¤¬ à¤ľ
Ġà¤ħà¤µà¤¸à¤° à¤¸à¤®
à¤¤à¤µà¤¨ à¤¸
ĠD al
à¥§à¥© à¥¨
os e
ĠCh annel
Ġà¤Ĺà¤£à¤ªà¤¤ à¤¯
: âĢĻ
S c
S cript
m à¤¸
o le
x x
è ¡
à¤¹ à¤ľà¤¨
à¥Ī ..
à¤« à¤¡
à¤Ŀ à¤¤
à¤Ĩ à¤¤à¤ķ
à¤²à¤¨ à¤¶
à¤®à¤¨ à¤Ĺà¤°à¤ķ
Ġà¤®à¤² à¤¹
Ġà¤Ĩà¤® à¤¦
à¤°à¤¨ à¤¹à¤°
Ġà¤Ĩà¤¶ à¤¯à¤²
Ġà¥§à¥® à¥¬
ĠD r
Ġd en
as es
Ġn ep
ov ation
à¤ıà¤ļ à¤ĵà¤ķ
ik a
à¤²à¤Ĺà¤° à¤²
ãĤ Ĥ
Ġà¤ľà¤¨à¤®à¤¤à¤¸ à¤Ļ
Ġà¤ľà¤®à¤² à¤¸
blog spot
" )
S EE
Z MANDU
Ù ģ
à¤° à¤°à¤²
à¤¸ à¤¤à¤¬
à¤Ł à¤ªà¤¨
à¤ļ à¤²à¤¤
à¤ļ à¤ªà¤Łà¤ķ
Ġà¤² à¤ķà¤°
Ġà¤¯ à¤£
à¤ªà¤¨ à¤°à¤¤
à¤¾. /
Ġà¤Ĩà¤Ī à¤ĵ
an u
à¤®à¤£ à¤µ
Ġà¤ıà¤² à¤ıà¤²à¤¬
ĠS er
ĠÂ ´
Ġà¤Ĺà¤ı à¤ľà¤¸
ĠT imes
à¥ĭà¤Ĥ ,
ÑĢ Ð°Ð½
Ð°Ð ¶
201 6
Ġà¤ıà¤¸à¤Ī à¤Īà¤®
ĠBI ZMANDU
cred i
K antipur
V Q
à¤® à¤µà¤²
Ġà¤ķ à¤ļà¤²
Ġà¤Ń à¤ĩà¤¸
à¤ľ à¤¬à¤ľ
Ġà¤² à¤µà¤ľ
à¤ī à¤§à¤¨à¤ķ
à¤ĩ à¤²à¤¨
Ġà¤ļ à¤ļ
à¤¸à¤ķ à¤¸à¤¹
Ġà¤ħà¤§ à¤µ
Ġà¤ħà¤° à¤°
Ġà¤īà¤¨ à¤¸
à¤¡à¤ķ à¤¹à¤°
Ġ| --
à¤¸à¤¦ à¤®à¤§
à¤¨à¤ª à¤¶
Ġà¥¦ à¥Ńà¥¬
à¤Ĺà¤łà¤¨ à¤¦
à¤µà¤Ń à¤°à¤®
à¤¡à¤µ à¤ĸ
Ġà¤Ĩà¤ĩà¤¡ à¤²à¤¬
ĠAn uz
Ġsu ite
ocu ment
S A
a ur
a id
b ack
h us
j ay
à¤¤ à¤§
à¤ª à¤¤à¤°
à¤¦ à¤¹à¤®
Ġà¤¬ à¤¯à¤°
à¤Ļ à¤Ńà¤¨
à¤²à¤ķ à¤¬à¤¸
Ġà¤ľà¤¨ à¤¦à¤¬
à¤µà¤¨ à¤¨
à¤Ĩ à¤¨à¤²
Ġ? âĢĻ,
à¤ĵ à¤ıà¤¨à¤ıà¤¸
Ġà¤®à¤¤ à¤¹à¤°
Ġà¥§à¥¯ à¥¨à¥©
Ġà¥§à¥¯ à¥©à¥«
Ġà¤ķà¤µ à¤ļ
à¤¸à¤¹à¤° à¤²
à¤¡à¤° à¤°
il es
Ġc lick
as on
Ġde ep
rest ha
à¥Ľ à¤°
Ġà¤®à¤°à¤¹ à¤ł
Q LS
Ä Ļ
å ½
ì Ŀ
à¤µ à¤ľà¤²
Ġà¤ķ à¤¬à¤°
à¤Ĺ à¤£à¤ķ
à¤ı à¤ĩà¤²
à¤ī à¤ªà¤¸
Ġà¤ĸ à¤µà¤°à¤²
Ġà¤ıà¤ķ à¤¤à¤®
Ġà¤¬à¤¨ à¤²
à¤¯à¤® à¤¸à¤®
à¤Ĩ à¤ĩà¤¨
à¤¸à¤¨ à¤Ń
à¤®à¤¨ à¤¨
à¤ļà¤ķ à¤¸à¤®
à¤°à¤®à¤£ à¤ª
Ġà¥§à¥« à¥¯
Ġà¤°à¤ķà¤® à¤¹à¤°
Ġà¤¨à¤Ń à¤ĩà¤¦
Ġà¤¦à¤¶ à¤¹à¤°
à¤µà¤¦ à¤¹à¤ķ
an te
com à¤®
ĠP M
ĠM al
Ġb l
Ġin formation
à¸ ¢
Ġas s
à¥ĩ! "
FA Ip
ïĢ ł
FAIp QLS
m on
p ert
ģ à¸
à¤² à¤ľà¤¨
à¤¯ à¤°à¤¹
à¤¯ à¤µà¤¨
à¤¦ à¤ķà¤®
à¤µ à¤¯à¤ķà¤°
Ġà¤µ à¤¸à¤²
à¤Ī à¤Ľ
Ġà¤¡ à¤°à¤®
à¤ªà¤¤ à¤¨
à¤¡à¤ķ à¤¨
Ġà¤¬à¤° à¤¨
Ġà¥§à¥® à¥¬à¥Ń
Ġà¤°à¤Ļ à¤°
Ġà¤Ķà¤¸à¤¤ à¤Ńà¤¨
ve st
ãĤ ¹
ãĤ ī
à¥¨à¥¦à¥« à¥©
Ġ19 8
omat ropin
F LD
H jk
L L
X bKD
c Cl
j VQ
r s
Ã ª
é ģ
à¤° à¤¯à¤®
à¤® à¤¹à¤ķ
à¥Ģ à¥į
Ġà¤¨ à¤īà¤¡
à¤ī à¤ĺ
Ġà¤ı à¤Łà¤®
à¤µà¤¨ à¤ªà¤Ľ
à¤°à¤¬ à¤¸
Ġà¤ļà¤² à¤ħà¤ļà¤²
à¤ľà¤¸ à¤ľ
Ġà¥¯ à¥¨à¥¦
Ġà¤ıà¤® à¤«
à¤°à¤®à¤£ à¤¸à¤®
à¥Īà¤ģ âĢĵ
à¤²à¤¨à¤ķ à¤°
Ġà¥¨à¥§ à¥¯
Ġà¥¨à¥ª à¥¯
Ġà¤Ńà¤µà¤¨ à¤¸
à¤ĩà¤ľ à¤°à¤ķ
à¤Ĩà¤Ī à¤ıà¤®
Ġl ike
ĠD es
ĠH el
ht ml
** *
Ow cCl
FAIpQLS cG
FLD s
Hjk FLDs
XbKD o
jVQ d
OwcCl XbKDo
à¥ĭ ....
à¤¯ à¤Ļà¤Ĺ
à¤ª à¤ħà¤ĺ
Ġà¤ķ à¤ķà¤ª
Ġà¤° à¤²
à¤ı à¤¹à¤°
à¤Ī à¤°à¤¸
Ġà¤² à¤ľà¤®
Ġà¤¶ à¤ĸ
à¤Ļ à¤®à¤¸
à¤·à¤ķ à¤¸à¤¹
Ġà¤ľà¤¸ à¤ª
à¤Łà¤® à¤£
ĠC y
Ġs er
Ð° Ð»Ð¸
Ġd ec
à¥§à¥§ à¥§
Ġà¤Ĩà¤®à¤¨ à¤°à¤¸
ĠW indows
Ġà¤²à¤¸ à¤ıà¤¨
Ġà¥¤) "
ä¸ Ń
ĠPro gram
**** ****
ĠUnivers ity
1 00
M IS
b u
Ġà¤ ½
à¤° Tags
Ġà¤¸ à¤¥
à¤¦ à¤¯à¤¬
Ġà¤° à¤¥à¤®
à¤Ł à¤°à¤¤
à¤¬ à¤®à¤¬
Ġà¤¦ à¤²à¤¬à¤²
à¤¶ à¤ĸ
à¤Ń à¤°à¤¸
à¤ĸ à¤²à¤¤
à¤°à¤¤ à¤Ĺà¤¤
Ġà¤¡ à¤¨à¤ķ
à¥ĭ, âĢľ
à¤ľà¤ķ à¤¸
Ġà¤ĵ à¤°à¤²
à¤¯à¤° à¤«
Ġà¤ħà¤Ĺ à¤®à¤¸
Ġà¤Ĳ à¤¨à¤¬à¤®
à¤łà¤ķ à¤¦
Ġà¤¨à¤Ń à¤ĩà¤¨
Ġà¥§à¥® à¥Ńà¥§
Ġà¤¹à¤² à¤ļ
Ġà¤Ĩà¤¸ à¤«
ĠÐ¸ Ð·
IT CO
Ð¾ÑĢ Ð¼
ĠSh ow
ĠÑĢ Ð°Ð·
oci ation
ava Script
D S
S unday
r act
v a
à ª
à¤¿ ;
Ġà¤Ĺ à¤Ł
Ġà¤® à¤°à¤¨
Ġà¤ľ à¤¤à¤¨
à¤¸à¤® à¤°à¤¶à¤®à¤¶
à¤°à¤¹ à¤£à¤²
à¤µà¤¨ à¤¹à¤°
à¤·à¤£ à¤¤
à¤§à¤¨ à¤Ń
Ġà¤ħà¤² à¤ª
à¤ĩà¤® à¤¸à¤²
à¤¤à¤°à¤® à¤¨
Ġm od
ĠS em
ĠA iico
Ð° Ñİ
à¥§à¥§ à¥Ń
as y
ĠL a
ĠK H
us ic
ãĤ Į
Ġà¤¸à¤¯à¤ķ à¤¡
à¤Łà¤ªà¤Łà¤ķ à¤ķ
Ġà¤Ĩà¤ĩà¤° à¤¨à¤ķ
ĠâĢĭ âĢĭ
E T
F I
b y
Ð Ĵ
å ¥
à¥Ģ ;
à¤Ĺ à¤¨à¤¬
à¤¬ à¤Īà¤²
à¤ļ à¤¤à¤¤
à¥§ à¥¦à¥¦à¥¦
à¤°à¤Ń à¤¦
Ġà¥§à¥¯ à¥¦à¥®
à¤¯à¤¯à¤¨ à¤¸à¤®
Ġà¥¨à¥§ à¥¬
ĠS l
ĠC ard
à¥Ģ... âĢĻ
Ġà¥©à¥ª à¥¦
à¥¨à¥« à¥®
ÐµÐ ¿
ain t
ĠQ u
âĢ¦âĢ¦âĢ¦âĢ¦ âĢ¦âĢ¦âĢ¦âĢ¦
A ut
m à¤®
Ġà¤µ à¤¤à¤¨
à¤¶ à¤µà¤²
à¤¥ à¤°à¤²
à¤¡ à¤¸à¤ķ
à¤ī à¤Ńà¤°
à¤ĩ à¤ıà¤¸
Ġà¤¶ à¤µà¤¹à¤°
Ġà¤ħà¤¨ à¤¦
à¤¤à¤° à¤ªà¤Ł
à¤¤à¤ķ à¤ª
à¤®à¤² à¤¸
à¤¸à¤¦ à¤ľ
à¤¸à¤¹à¤° à¤¬
à¤µà¤¶ à¤°
Ġà¤®à¤Ļ à¤¸
ĠD ar
ĠD PR
ĠT O
Ġn k
ĠG AM
Ġà¤ıà¤ļ à¤Ĩà¤°
à¤¨à¤¯à¤¨ à¤ªà¤¤
à¥į) à¥¤
ap an
ĠØ ³
Ġà¤ıà¤¯à¤°à¤¬ à¤¸à¤ķ
pe ople
ES S
TM L
i ber
w n
ç ľ
à¤¾ âĢĿ,
à¤µ à¤£à¤®
à¤Ĺ à¤§
à¤¯à¤ķ à¤Ńà¤¨
Ġà¤Ĩà¤ĩ à¤ĵà¤ıà¤¸
Ġà¤ļà¤° à¤Ļ
Ġà¤ıà¤¨ à¤ıà¤ļà¤ķ
Ġà¥¨à¥¬ à¥ª
ĠI P
ĠâĢ¦ âĢ¦
Ġà¤®à¤¦à¤¨ à¤¸
Ġà¤· à¤£
à¥¦à¥ª à¥ª
,âĢĿ âĢĵ
à¤¬à¤¢ à¤ķ
Ġe ver
ITCO IN
: à¥¤
L GCDP
d iv
Ġ ÑĦ
à¤¾ _
à¤² à¤ĺà¤°à¤ķ
à¤µ à¤Ĺà¤°
Ġà¤ķ à¤Łà¤¨
à¤ı à¤«à¤¬
à¤ľ à¤®à¤¨
à¤ī à¤ķà¤²
Ġà¤¶ à¤¤à¤¬
Ġà¤¸à¤¹ à¤®
Ġà¤Ĺà¤¤ à¤¹à¤ª
Ġà¤ľà¤¸ à¤¦
Ġà¤Ī à¤Ĩà¤Īà¤ı
Ġà¥¨à¥¨ à¥®
Ġà¤ıà¤¡ à¤µà¤°
ri e
Ġà¤²à¤¤ à¤ªà¤¤
ĠU pd
ĠRe l
à¤¦à¤¶à¤°à¤¥ à¤ļà¤¨
r d
y ahoo
å ¼
Ġ um
Ġà¤° à¤ª
à¤§ à¤Ĺà¤®
à¤¯à¤ķ à¤¨
à¤¾à¤ģ à¥Īà¤Ĥ
à¤°à¤£ à¤¤à¤°
Ġà¤¯à¤¸ à¤ħà¤Ĺ
à¤¯à¤° à¤«à¤ķ
à¤µà¤® à¤£
à¤Łà¤² à¤¸
Ġà¤¦à¤² à¤ª
Ġà¥§à¥ª à¥¦à¥¦
à¤ĺà¤° à¤ªà¤°
Ġà¤Ĩà¤ļ à¤°à¤£à¤²
ĠÐ Ķ
ĠT ulsipur
à¤ħà¤ª à¤¹à¤°à¤£
à¥¨à¥« à¥¦
à¤Ĩà¤ī à¤Łà¤ķ
pe ct
Ġal so
Ġà¤°à¤¹à¤¨à¤¸à¤¹ à¤¨à¤®
Ġà¤ıà¤¸à¤ıà¤® à¤ıà¤¸à¤®
- âĢĺ
A n
k e
x t
è ¯
à¤² à¤¡à¤ª
Ġà¤¸ à¤¸à¤°
Ġà¤ķ à¤ĸà¤°
à¤§ à¤§
Ġà¤ı à¤Ĩà¤°
à¤¯à¤® à¤Ń
à¤¸à¤¨ à¤ħà¤¨
Ġ- --------
à¤¯à¤Łà¤¨ à¤¨
Ġà¥¨à¥¯ à¥©
it i
ĠT ri
Ġa ward
à¤ĩà¤« à¤¸à¤ķ
à¥¦à¥¯ à¥Ń
Ġà¤²à¤µ à¤ľà¤®
ĠQ ual
Ġà¤¹à¤°à¤¤ à¤°à¤¹à¤²
F B
L ire
c he
Ä ħ
â Ļ
ç Ľ
à¤² à¤ļà¤®
Ġà¤¨ à¤ĵ
Ġà¥¤ ||
à¤§ à¤¸à¤°à¤ķ
à¤Ĥ à¥į
Ġà¤Ĩ à¤Ŀ
Ġà¤ľ à¤¦
à¤¡ à¤¨à¤¦
à¤Ī à¤Ĺà¤°
à¤Ĺà¤° à¤¹à¤°
à¤Ĺà¤° à¤¨à¤²
à¤¾, à¥ĩ
à¤ķà¤°à¤£ à¤ħà¤¨
Ġà¤Ī à¤µ
Ġà¤Ī à¤¡
à¤ľà¤¯ à¤¶
Ġà¤ľà¤¨à¤ķ à¤µ
ĠP er
à¥¨à¥¦ à¥¦à¥«
ur s
Ġc re
Ġà¤ıà¤¡ à¤®à¤¨
à¥¦à¥¬ à¥¬
ĠR ob
!! !!
à¤¸à¤¯ à¤ªà¤¤
op ati
à¤ıà¤¸à¤ı à¤²à¤²à¤Ĺ
Ġtr ans
à¤ıà¤¸à¤ĩ à¤Ī
Ġà¤§à¤Ļ à¤§à¤Ļ
A pp
à¤¾ ï¿½...
Ġà¤¸ à¤µà¤°
à¥Ī ?
Ġà¤ľ à¤¨à¤²à¤¹à¤°
à¤²à¤ķ à¤¬à¤¹
à¤¯à¤¸ à¤Ļ
à¤°à¤² à¤Ĺà¤¤
à¤²à¤® à¤ª
à¤µà¤¨ à¤ļà¤ķ
à¤°à¤µ à¤§
Ġà¤Ĩà¤µ à¤ľ
à¤Ĺà¤² à¤Ŀ
Ġà¤ıà¤® à¤Ń
à¤²à¤¤ à¤¸
Ġà¤¨à¤Ńà¤ı à¤ľà¤¸
Ġo ak
à¤Ĩà¤ĩ à¤ĵà¤ıà¤®
Ġà¤ıà¤ļ à¤Ł
à¥į) )
ort s
ust ral
ĠEx c
à¤µ à¤¬à¤¨
à¤¶ à¤¤à¤¨
à¤Ľ à¤¹à¤°
à¤Ń à¤¨à¤ķ
à¤°à¤® à¤²à¤Ĺ
à¥Į âĢĮà¤Ĥ
Ġà¤ªà¤° à¤ªà¤°
à¤¸à¤ķ à¤µ
à¤ħ à¤°à¤¨
Ġà¤ł à¤°à¤ķ
à¤®à¤¤ à¤ªà¤Ľ
à¤¦à¤¨ à¤¦
à¤ĵ à¤¶
Ġà¤ľà¤® à¤¦à¤Ĺ
à¤®à¤¬ à¤°à¤£
Ġà¤¶à¤¹à¤° à¤¸
Ġà¤ľà¤¡ à¤¸
ĠT rade
Ġà¤¦à¤® à¤¨à¤®
ĠF air
Ġà¥©à¥® à¥¦
Ġh ow
Ġà¤¦à¤®à¤ķ à¤¸
IK O
J ul
K TM
à¤® à¤¶à¤ķ
à¤¹ à¤¥
Ġà¤® à¤łà¤ķ
à¤¬ à¤°à¤£à¤®
Ġà¤² à¤ªà¤ķ
à¤ľà¤¨ à¤Ĺà¤£à¤¤à¤¨
à¤ĺ à¤¨à¤®
à¤°à¤¹ à¤Ń
à¤Ŀ à¤µ
à¤ķà¤® à¤Ĺ
Ġà¥¬ à¥§à¥§
Ġ? )
Ġà¤Ĩà¤ĩ à¤ıà¤¸à¤ķ
à¥ĩà¥¤ '
ar ly
Ġp ar
Ġà¤¤à¤¬ à¤°à¤¬
Ġin ter
à¤īà¤ľ à¤°à¤®
à¤¸à¤« à¤°à¤®
Ġà¤Ĩà¤¬ à¤§
ra ph
Ġà¥¦à¥ª à¥¯
du ct
U B
c ss
k s
Î ¹
ĥ ½
à¤¾ [
à¤° à¤«à¤¤
à¤° à¤ĺà¤°
à¤° à¤Ĩà¤¨
à¤ķ à¤Ŀ
à¥ĭ à¥Ī
à¤® à¤Ńà¤°
à¤® à¤ľà¤¨à¤®
à¥Ī "
à¤ľ à¤Ĺà¤°
Ġà¤¤ à¤Ĺà¤¡
à¤ģ à¥į
à¤ī à¤°à¤®
à¤ĩ à¤Ļà¤²
à¥ĥ à¤ģ
Ġà¤Ł à¤¨à¤Ńà¤¨
Ġà¤¹à¤ľ à¤°à¤¤
Ġà¥ª à¥§à¥¦
à¤Łà¤² à¤µ
Ġà¤§à¤¨ à¤ªà¤¤
à¤¬à¤¸ à¤¤
Ġà¥§à¥¬ à¥§à¥®
Ġà¤¸à¤¹à¤° à¤¸
ĠS m
ĠÐ ¢
he re
ĠB K
Ġd u
Ġà¥«à¥¬ à¥«
ah ad
ĠOff ice
ĠÃ ł
Ġwh o
Ġ{ {
åľ ¨
vail able
à¤¨ à¤Ńà¤¯
à¤µ à¤ªà¤°à¤°
Ġà¤¹ à¤¡à¤¬à¤¡
à¤¥ à¤¬à¤¹
à¤Ń à¤°à¤£à¤ķ
à¤ī à¤ī
à¤°à¤ķ à¤¬
Ġà¤¶ à¤Ł
à¤°à¤£ à¤¤
Ġà¤īà¤ª à¤ľà¤²
Ġà¥§à¥¯ à¥©à¥ª
Ġà¤ħà¤« à¤°à¤ķ
à¤¥à¤² à¤Ń
Ġà¥¨à¥¨ à¥ª
à¤¯à¤Ł à¤¨à¤²à¤Ĺ
ĠC ar
Ġà¤ħà¤°à¤¬ à¤¬
ĠCh rist
Ġà¤ıà¤ķà¤®à¤¤ à¤°à¤¹
Ã¼ r
è ¦
à¤¯ à¤¨à¤®à¤¨
à¤ª à¤¦à¤¨
Ġà¤Ń à¤®à¤°
à¤ī à¤¥à¤Ĺ
à¤°à¤ķ à¤¤à¤¤
à¤Ŀ à¤«
à¤·à¤£ à¤°à¤¹
Ġà¤ħà¤¹ à¤®à¤¤
re t
Ġà¤µà¤¨ à¤ľà¤¨
à¤¯à¤¬ à¤®
Ġà¤ľà¤¬ à¤ľà¤ķ
Ġà¤¨à¤µ à¤²à¤ķ
st r
Ġt urnt
ag ement
ok es
ĠRe d
à¤¡à¤°à¤¸ à¤Łà¤®
à¤¡à¤°à¤¸ à¤Łà¤¸
Ġcommun ity
Ġà¤°à¤ľà¤¤à¤ª à¤Łà¤®
j e
l ess
à¤ª à¤ªà¤¤
à¤¦ à¤¯à¤¤
Ġà¤¨ à¤ľà¤®
à¤¶ à¤¯à¤¨
à¤¥ à¤«
à¤¥ à¤¨à¤¬
Ġà¤ļ à¤¸à¤ķ
à¤ĺ à¤°à¤¹à¤°
à¥Įà¤Ĥ ',
à¤°à¤¸ à¤ļ
Ġà¤ªà¤¹ à¤²à¤¬
âĢ¦ âĢĿ
Ġ: âĢĵ
Ġà¥§à¥§ à¥¦à¥¦
in ation
à¤®à¤Ĺ à¤¨
Ġà¤Ĩà¤Ī à¤°à¤¹à¤¨
à¤ĩà¤¸ à¤ŀ
Ġà¤ħà¤¡ à¤ķà¤²
ĠC an
ãģ Ĭ
à¥¨à¥¦à¥« à¥«
Ġà¤²à¤ĸà¤¨ à¤Ĭ
ĠÙ Ĩ
app y
) ?
8 53
M E
m y
p o
t on
à¤¯ à¤°à¤¦
Ġà¤¨ à¤ªà¤ķ
âĢ º
Ġà¤¶ à¤°à¤¦à¤°
Ġà¤ĸ à¤ªà¤Ł
Ġà¤¬à¤¨ à¤Ĺ
Ġà¤Ł à¤ķà¤²
à¤°à¤®à¤® à¤®
à¤ĩà¤°à¤¹ à¤¦
Ġà¤¢ à¤²à¤²
à¤ıà¤¨ à¤Ĩà¤°à¤Ł
Ġà¤§à¤¨ à¤Ĺà¤¡
à¤īà¤¦ à¤Ľà¤¨
à¥ĩà¤Ĥ âĢĵ
à¤ĩà¤¡ à¤¸
à¤Ĩà¤Ī à¤ıà¤¨à¤ľ
ĠN RN
ĠA AW
ĠC E
à¥§à¥« à¥®
ï¼ Ī
ä¸ į
ĠÐ¿ÑĢ Ð¸
Ġhel p
ĠAss ociation
ĠAAW AZ
a is
f a
à¤¸ à¤ħà¤ª
à¤¹ à¤Łà¤²
à¤µ à¤Ĺà¤¨
à¤ľ à¤Ĩà¤ľ
Ġà¤ľ à¤ľà¤®
Ġà¤ļ à¤Łà¤¨
à¤ł à¤¨à¤²
à¤ł à¤¸à¤²
Ġà¤§ à¤ªà¤ķ
à¤²à¤® à¤ł
Ġà¤ķà¤® à¤²à¤¨
à¤¤à¤® à¤®
Ġà¤¦à¤° à¤Ńà¤¨
Ġà¤ĺà¤° à¤«
à¤¦à¤ķ à¤¬
or th
ĠP RO
Ġp h
à¤¾âĢ¦ âĢĻ
Ġthe re
us h
ĠIn st
Ġfor m
ap ur
ĠÐ¿ Ð¾Ð´
Ġup date
ĠTh is
L e
c i
l ing
y ch
à¤ķ à¤Ĩà¤īà¤Ł
à¤¯ à¤µà¤ķ
Ġà¥¤ à¥ģ
à¤¬ à¤®à¤²
Ġà¤¤ ÅĴ
Ġà¤Ĩ à¤łà¤ķ
Ġà¤ľ à¤¯à¤²
à¤Ī à¤¨à¤°
à¤£ à¤¯à¤ķà¤°
Ġà¤Ńà¤¨ à¤¨
à¤°à¤¤ à¤Ńà¤¨
à¤ĺ à¤µà¤¦
Ġà¤Ł à¤«
à¤ħ à¤¬à¤¦
Ġà¤²à¤Ĺ à¤¨à¤ķ
à¤Ĩ à¤ĩà¤²
à¤¨à¤¸ à¤¨à¤²
Ġà¤Ķ à¤¤
à¤²à¤Ĺ à¤Ļ
Ġà¤¬à¤¹ à¤²
Ġà¤ħà¤ª à¤¬
Ġ- âĢĿ
à¤®à¤¦ à¤¨à¤ķ
Ġà¥¨à¥® à¥Ń
ĠA c
à¤īà¤ª à¤¶
ĠD ep
ĠT o
à¥ĩâĢĵ âĢľ
ĠM et
ãģ £
à¸ µ
ud e
ĠOff er
IT H
Ġwh en
ĠPay ments
Ġmonth s
9 6
C E
c ont
å ĵ
à¤¨ à¤ĺà¤°
Ġà¤¦ à¤¹à¤ķ
Ġà¤² à¤¯à¤ķ
à¤ĸ à¤¤à¤°
à¤°à¤ķ à¤¤
Ġà¤¶ à¤°à¤¤à¤¸
Ġà¤ĸ à¤Łà¤®
Ġà¤¬à¤¨ à¤°
Ġà¤ĩ à¤¨à¤¸
à¤²à¤Ĺ à¤¡
à¤¹à¤¨ à¤¬
à¤¨à¤µ à¤¬à¤¸
Ġà¤Ī à¤ľà¤²
Ġà¤Ĭ à¤¹
ic on
à¥ĭà¥ĩ âĢ¦
ro ll
à¤·à¤¸ à¤°à¤¹
ĠÐ¿ ÐµÑĢ
ĠHe ad
stru ction
ĠInv itation
Ä į
ï Ĥ
à¤ª à¤łà¤¨
à¤Ĺ à¤¸à¤®à¤ķ
Ġà¤¬ à¤¯à¤²
Ġà¤¹ à¤µà¤¸
Ġà¤µ à¤¦à¤¨
à¤· à¤¡
à¥Ĥ à¤ĥ
à¥Į !!!
Ġà¤ĸ à¤¨à¤¨
Ġà¥« à¥¦à¥ª
à¤Ĺà¤® à¤£
à¤¨à¤µ à¤¬
Ġà¤ıà¤¸ à¤ľ
in st
Ġà¥¨à¥© à¥§
à¤ıà¤² à¤¡
Ġà¤ĭà¤£ à¤¹à¤°
it a
il i
Ġs uryakhabar
ĠB ITCOIN
ĠG ork
à¤ĩà¤« à¤Ł
ĠL td
Ġh is
um n
Ġv er
art ha
Ñı ÑĤ
arm a
ĠSt andard
ĠÑģ Ð²
ï¼ ī
à¤¬à¤ĸ à¤¤à¤¨
Ġà¤ħà¤®à¤¨ à¤ļà¤¯à¤¨
arg in
Ġagain st
ĠRen ovation
S ud
p ar
è ¨
à¤² à¤ªà¤¨
à¤® à¤Ĺà¤¤
à¤µ à¤ļà¤¯
à¤Ł à¤ħà¤Ł
Ġà¤Ľ à¤Ńà¤¨
Ġà¤¸à¤¹ à¤¬
Ġà¤Ĩà¤µ à¤¸à¤ķà¤¤
à¤ķà¤¤ à¤¹à¤°
à¤£à¤¯ à¤Ĺà¤°
Ġà¥§à¥¯ à¥¨à¥ª
Ġà¤Ŀà¤¨ à¤Ŀà¤¨
Ġà¥¨à¥§ à¥¨
ĠA ND
Ġà¤®à¤Ĺà¤° à¤¸
Ġs ystem
ur l
as i
Ġw orld
ĠL im
ak ar
à¸ Ķ
ĠU RL
art ment
à¥¨à¥¦à¥© à¥¬
6 95
7 8
f er
Å ¾
à¥į ï¿½...
Ġà¤¸ à¤¨à¤²
à¤Ĺ à¤£à¤¤
Ġà¤¬ à¥Ŀ
à¤· à¤¸à¤¹à¤°
à¤¡ à¤¹à¤µ
à¤ī à¤ªà¤¹
à¤¯à¤ķ à¤ªà¤°
à¤īà¤¨ à¤ª
Ġà¤ľà¤¨ à¤ľà¤¨à¤ķ
à¤°à¤¦ à¤°à¤¹
Ġà¥© à¥Ńà¥«
à¤ĸà¤° à¤ļà¤¨
à¥¯ à¥Ńà¥Ń
Ġà¥§à¥¯ à¥§à¥§
à¤łà¤ķ à¤µ
à¤ªà¤Łà¤ķ à¤ªà¤Łà¤ķ
à¤Ĥ. -
er ve
om b
Ġà¤¶à¤¹à¤° à¤¸à¤®
à¤ħà¤¸ à¤¤
à¥ĭâĢĻ âĢĵ
à¤ģ, âĢĿ
am es
Ġe in
à¥¨à¥¦à¥« à¥¦
Ġà¤¸à¤¡à¤ķà¤² à¤Ĺ
Ð¼ Ð¸
ens e
Ġpl ay
ĠDe velopment
ount ry
ĠRo y
ener al
ĠÏ Ģ
p ost
å ĩ
à¤° à¤ľà¤®
à¤µ à¤Ĺà¤£
à¤· à¤¸à¤²
à¤ıà¤ķ à¤µà¤Ł
à¤ģ âĢĿ
à¤ģ Ã·
Ġà¤Ĩ à¤Ķ
à¤Ľ à¤ª
Ġà¤ļ à¤°à¤£à¤²
à¤« à¤®à¤®
à¤¨à¤® à¤¤
Ġà¤Ŀ à¤ŀ
à¤ªà¤ķ à¤ª
Ġà¤¦à¤° à¤ª
Ġà¤īà¤² à¤Ļ
à¤¡à¤² à¤¦
Ġà¤ıà¤¨ à¤ı
Ġà¥§à¥® à¥¬à¥¦
Ġà¤Ĩà¤Ī à¤ĵà¤ıà¤¸
at n
Ġà¥¨à¥© à¥®
à¥ĭ... âĢĻ
Ġà¤¹à¤ķ à¤ħà¤¨
à¤²à¤Ń à¤°à¤ķ
ĠP re
Ġà¤ıà¤« à¤µ
Ġb log
Ġà¥ªà¥¬ à¥¦
à¤¾' :
um an
à¤®à¤Ĺà¤ł à¤µà¤¨
MO U
8 00
h ya
Ð Ŀ
à¤· à¤°à¤¸à¤¹
à¤Ĥ )
à¥ĥ à¤¾
à¤ľà¤¨ à¤¸à¤¹à¤Ń
Ġà¤ıà¤ķ à¤Łà¤ķ
Ġà¤ıà¤ķ à¤®à¤¨
Ġà¤ıà¤ķ à¤µà¤Ł
à¤¨à¤² à¤¤
à¤°à¤¦ à¤¸
à¤ĩà¤ķ à¤¹à¤°
Ġà¤Ĺà¤£ à¤¹à¤°
à¤¾) ....
Ġà¥¨à¥© à¥«
Ġà¤ħà¤¶ à¤°
à¥ģà¥¤ "
Ġà¤Ĩà¤¸ à¤¯à¤ķ
ĠM S
ĠO F
à¥ĭ- âĢĻ
ĠW ITH
à¸ ´
ĠIn c
---- -
Ġg et
à¤¬à¤Ĺà¤° à¤¬
Ġ.... ...
ĠSamac har
58 0
do or
Ġeb aglung
] .
g r
à¤¿ à¥Ī
à¤µ à¤°à¤¤à¤°
Ġà¤ķ à¤°à¤¤
Ġà¤Ĺ à¤Īà¤¨
à¤« à¤¸à¤¹
à¤¯à¤ķ à¤ħà¤¨
à¤¯à¤¨ à¤¤
Ġà¤Ńà¤ı à¤ľà¤¤
Ġà¤Ķ à¤¡
à¤ĩà¤¨à¤² à¤Ĺ
Ġà¤¦à¤¶à¤ķ à¤Ń
ĠS MS
à¥¨à¥¦à¥ ®
Ġà¥Ńà¥« à¥Ń
Ġf ile
à¥§à¥§ à¥©
Ġà¤īà¤ªà¤ķà¤°à¤£ à¤¬
em s
ov ern
à¤¿à¥¤ '
ĠIn fo
à¤ĩà¤ļ à¤¢
Ġg o
Ġà¤ĵà¤Ľ à¤¯
Ġà¤Ĺà¤¡ à¤Ĺà¤¡
Ġà¤ĵà¤ĸà¤° à¤ª
Ġcont ent
Ġà¤ĸà¤Łà¤¨ à¤ªà¤Łà¤¨
ç »
à¤° à¤īà¤¨
à¤ķ à¤Łà¤°
à¤¯ à¤¶à¤¨à¤ķ
à¤¶ à¤¯à¤¤
à¤ļ à¤ĵà¤Ł
à¤¸à¤ķ à¤¦
à¤ľà¤¨ à¤ļ
Ġà¤ĩ à¥Ľà¤°
à¤¸à¤° à¤ľà¤¸
à¤ıà¤¸ à¤¨à¤®
à¤Ńà¤µ à¤¨à¤ķ
Ġà¤µà¤¸ à¤ª
à¤Ĺà¤ľ à¤¹à¤°
à¤§à¤¸ à¤¤à¤ķ
à¤®à¤Ń à¤ŀ
ãĢ Į
à¥¨à¥¦à¥ª à¥«
à¤µà¤²à¤¨ à¤¶
Ġà¤¦à¤²à¤® à¤§
ĠØ ª
à¥ľ à¤ķ
Ġ144 580
8 5
l in
à¤¾ <
à¤® à¤²à¤¬
Ġà¤¨ à¤ķà¤Ł
à¤ı à¤Ļ
à¤Ľ à¤¬
à¤µà¤¸ à¤¦à¤¸
à¤°à¤µ à¤®
à¤¸à¤¨ à¤¤à¤¨
Ġà¤Ĩà¤® à¤ľà¤¨à¤®
Ġà¤ıà¤¸ à¤ĵà¤ıà¤¸
à¤¨à¤ª à¤¸
Ġà¥§à¥Ń à¥¯
à¤£à¤¨ à¤Ĺà¤°à¤®
à¤¤à¤¹ à¤Łà¤¬
Ġà¤ªà¤¸à¤² à¤¦
ĠB el
ĠF eder
Ġà¤Ńà¤ĩ à¤Ĩà¤ıà¤ķ
ĠK A
ĠV ID
Ġà¤¶à¤°à¤¦ à¤¸
Ġà¤²à¤ĸ à¤¨à¤ª
à¤ĩà¤°à¤¸ à¤¹à¤°
14 0
Ġà¤ıà¤®à¤ı à¤ıà¤ļà¤ķ
sh ya
vis ion
Th is
Im age
f or
Ð ĺ
à¤¯ à¤²à¤¯à¤¬
Ġà¤Ĺ à¤²à¤Ĺ
Ġà¤° à¤ľà¤ķ
à¤ı à¤Ĩà¤Ī
Ġà¤¬ à¤®à¤¬
Ġà¤ī à¤Ńà¤¯
Ġà¤¸à¤® à¤®
à¤¸à¤¨ à¤ľà¤¸
à¤¤à¤¨ à¤Ĺà¤°à¤®
à¤§à¤¨ à¤Ĺà¤°à¤®
à¤µà¤® à¤¯
à¤ĩà¤² à¤¸à¤®
Ġà¤Ńà¤ĩà¤°à¤¹ à¤¦
Ġà¥§à¥® à¥¦à¥§
à¤ĩà¤¡ à¤¹à¤°
ĠÐ Ĳ
ĠD i
ĠD igital
il ot
ĠP ower
ĠC ollege
Ġà¥©à¥© à¥®
Ġf ace
Ġc o
à¤ĩà¤¬ à¤°à¤²
à¤¾âĢ¦ .
Ġà¤ıà¤¯à¤° à¤«
ãģ ı
ri me
Ġ3 8
Ġà¥Ńà¥© à¥¬
ip s
âĢ¦âĢ¦ .
ãĢ į
Ð¾Ð² Ñĭ
Ġà¤¤à¤¦ à¤ħà¤¨
à¤ıà¤¸à¤ıà¤² à¤Ĩà¤°
Ø§Ø ª
DA Y
B l
Ġà¤® à¤¤à¤®à¤§
à¤ľ à¤®à¤¤
à¤ĩ à¤ªà¤°à¤¬
à¤¨à¤ķ à¤¨
Ġà¤Ł à¤¨à¤¸à¤®
à¥Įà¤Ĥ |
à¥ģà¤ģ âĢĵ
à¤°à¤¬ à¤¹à¤¨
Ġà¥« à¥¦à¥«
à¤¦à¤¨ à¤°
Ġà¤ķà¤² à¤¶à¤ķ
Ġà¤Ķ à¤¸
Ġà¤¤à¤¹ à¤Ńà¤¨
à¤µà¤¯à¤¨ à¤ªà¤Ľ
Ġà¥¨à¥Ń à¥¬
ĠA g
à¤Īà¤ķà¤² à¤²
ĠK han
à¤ĺà¤Ł à¤¨à¤®
Ġk now
iv es
Ġà¤¨à¤Ŀ à¤°
B ay
Ġà¤ķ à¤ķà¤Ł
Ġà¤Ĺ à¤¦à¤°
à¥Ĥ ;
Ġà¤ī à¤Łà¤ªà¤Ł
à¤« à¤°à¤¹à¤°
Ġà¤§ à¤µà¤¨
Ġà¤Ł à¤¸à¤®à¤¸
à¤¯à¤¸ à¤¨à¤®
à¤ĩà¤¨ à¤ħà¤¨
à¤ķà¤® à¤µ
à¤ļà¤¨ à¤¤à¤°
Ġà¤ªà¤¦ à¤ķà¤®
âĢ¦ à¥¤
Ġà¤¨à¤Ń à¤ĩà¤°à¤¹
à¥ĩà¥¤ [
à¤Ĺà¤¦ à¤°à¤¬
Ġà¥§à¥© à¥¦à¥¦
Ġà¥§à¥¬ à¥¬à¥¦
Ġà¥§à¥Ń à¥Ńà¥©
ad y
Ġo pt
ĠL etter
ĠU N
à¤¾à¥į à¥ĩ
Ġà¤¦à¤®à¤ķà¤² à¤²
ss anu
Ġle g
hak o
Ġdis e
ĠBl ack
Ġcommun ic
Ġfun ny
Ġdeep ssanu
h r
y d
à¤¤ à¤¡à¤ķ
à¥ģ âĢĮà¤Ĥ
Ġà¤Ń à¤Ĺà¤¤à¤²
Ġà¤ı à¤ıà¤¸
à¤īà¤¨ à¤Ńà¤¨
à¤²à¤ķ à¤¦à¤²à¤ķ
Ġà¤¡ à¤µà¤²
âĢĵ âĢľ
à¤µà¤¨ à¤ªà¤°
à¤²à¤¯ à¤¨à¤ķ
à¥įà¥¤ .
à¤¶à¤¨ à¤Ĺà¤°
à¤Ĺà¤² à¤Ł
à¤ıà¤¨ à¤ıà¤«à¤ª
Ġà¤ıà¤® à¤Ĩà¤°
Ġà¤ıà¤¨ à¤Ń
à¤¶à¤² à¤Ł
Ġà¤ľà¤² à¤¦
ĠD ay
à¤®à¤°à¤£ à¤¹à¤°
à¥¨à¥¦ à¥¦à¥©
Ġà¤Ľà¤ł à¤ªà¤Ľ
à¤ħà¤ª à¤¹à¤°à¤£à¤ķ
à¤Ĩà¤ĩ à¤ıà¤®
ĠL LC
Ġà¤ħà¤°à¤¬ à¤ªà¤¤
à¤¼ âĢ¦
Ġ10 53
ĠMar ket
urk hus
Ġ??? ?
å¤ §
Nispak shya
anb ahad
Sud anbahad
urkhus ha
Sudanbahad urkhusha
v o
å ¯
å ¾
à¤® à¤°à¤¹
à¤¦ à¤¬à¤ķ
Ġà¤¨ à¤¬à¤²
à¤¬ à¤ķà¤ķ
à¤· à¤°à¤¬
à¤ļ à¤ªà¤²
Ġà¤ľ à¤®à¤¨
à¤¡ à¤ĺà¤Ł
à¤ĸ à¤Ńà¤°
Ġà¤ĸ à¤²à¤ķà¤ķ
Ġà¤¥ à¤ļà¤ķ
Ġà¤¸à¤¬ à¤²à¤¤
Ġ( "
à¤¯à¤¨ à¤µ
à¤¸à¤² à¤¬
à¤¤à¤® à¤¹
Ġà¥« à¥¨à¥¦
à¤®à¤¨ à¤¬
Ġà¥ª à¥¦à¥«
Ġà¤ĵ à¤łà¤²
Ġà¤ķà¤² à¤¹à¤ķ
à¤¹à¤¨ à¤¶à¤®à¤¶
Ġà¥§à¥¯ à¥¦à¥¦
Ġà¤§à¤¨ à¤¦
à¤¯à¤¬ à¤¤
à¤ħà¤¸ à¤«à¤²à¤¤
à¤¦à¤µà¤² à¤Ĺ
Ð¸ ÑĩÐµÑģÐº
à¥§à¥® à¥®
Ð½ Ð°
am ily
à¤ĭ à¤Ĺ
Ġj okes
Ġaf n
w ood
Û Ĵ
ç ī
à¤° à¤ı
à¤¨ à¤¥à¤°
à¤¦ à¤µà¤®
à¤µ à¤¯à¤¤
à¤Ĺ à¤¨à¤¦
Ġà¤® à¤°à¤ķ
Ġà¤¦ à¤¦
à¤¡ à¤ªà¤¥
à¤ĸ à¤¤à¤®
à¤ī à¤¸à¤°
Ġà¤ī à¤¸à¤°
Ġà¤ı à¤¯à¤°à¤®
à¤¡à¤ķ à¤¬
Ġà¤Ĩà¤µ à¤°à¤®
à¤Ĺà¤² à¤¦
Ġà¤ħà¤¬ à¤ļ
Ġà¤¬à¤¹ à¤¤
Ġà¤ħà¤« à¤®
à¤ļà¤® à¤Ĺ
Ġà¥¨à¥ª à¥¨
à¤¡à¤° à¤¸à¤®
à¤ĩà¤¡ à¤°à¤²
à¤ªà¤¹ à¤ª
à¤¸à¤¤ à¤¹
Ġa c
ĠB iz
ac har
ot s
à¤Ĩà¤ĩ à¤ĵà¤¸
Ġthe m
ĠQual ity
ĠVID EO
U N
d en
v an
æ Ķ
Ġ ve
à¤¿ âĢĮ
à¤§ à¤ħà¤¨
à¤ļ à¤¹à¤ľ
à¤¡ à¤¬à¤°
Ġà¤ı à¤ı
Ġà¤ĺ à¤Łà¤ķà¤ķ
à¤°à¤¹ à¤ľ
à¤ħ à¤µà¤²
à¤°à¤¯ à¤£
à¤Ĺà¤² à¤ľà¤¸
à¤®à¤² à¤°
à¤¨à¤µ à¤µ
à¤¡à¤² à¤°à¤ķ
Ġà¥§à¥¯ à¥©à¥©
Ġà¥¦ à¥§à¥«
Ġà¥¦ à¥ªà¥«
à¤¥à¤ķ à¤¬
Ġd ays
âĢĮ à¤¾
Ġà¤¡à¤² à¤°à¤¬
Ġà¥©à¥Ń à¥¦
ÑĢ Ð°
à¤°à¤ľà¤¨ à¤¹à¤°
Ġà¤¡à¤Łà¤ķà¤® à¤¸
Ġh and
ĠW atch
Ġk eep
if y
ĠAd min
r ish
à¤¨ à¤ļà¤¨
à¤® à¤ªà¤ķ
à¤¯ à¤¯à¤²
Ġà¤¸ à¤¯à¤¨
Ġà¤Ĩ à¤Ĭà¤¨
à¤¡ à¤¸à¤²
à¥Ĥ à¥ģ
à¤ī à¤¦à¤°
à¤ĩ à¤®à¤§
à¤ªà¤¨ à¤ĩà¤¤à¤°
à¤ħ à¤ľà¤¯
à¥ģà¤ģ à¥¤âĢĻ
à¤Ĩ à¤¯à¤®
à¥ĭà¥¤ âĢĺ
à¤Łà¤° à¤°
Ġà¤īà¤¦ à¤¹
à¤¦à¤ķ à¤¸
Ġà¥¤âĢĻ ,
Ġà¥§à¥® à¥§à¥«
à¤ĺà¤° à¤¸à¤®
Ġà¤Ĭ à¤¬
Ġa b
à¤²à¤ĸ à¤¬à¤¨
is hed
Ġà¤¨à¤°à¤¹ à¤²
Ġw ould
Ġ3 5
Ġà¥¦à¥« à¥©
Ð¾Ð² Ð°Ð½
Ð¾ÑĤ Ð¾ÑĢ
T V
à¤¾ ||
à¥ĩ ï¿½
à¤² à¤Ńà¤ķ
Ġà¤ħ à¤Ĺà¤²
Ġà¤¤ à¤Łà¤ķ
à¤ıà¤ķ à¤ªà¤Ľ
à¤Ń à¤°à¤¬
à¤ī à¤ľà¤¸
à¤°à¤® à¤¬à¤ľ
Ġà¤¥ à¤°à¤¹à¤°
Ġà¤®à¤¹ à¤ľ
à¤¯à¤¸ à¤ĸ
... âĢĻ,
à¥© à¥§à¥®
à¤ıà¤¨ à¤ıà¤®à¤¬
Ġà¤ħà¤ª à¤°à¤®
Ġà¤¥à¤ª à¤¡
Ġà¤®à¤¤ à¤¸
Ġà¤ıà¤¸ à¤ıà¤²
Ġà¥§à¥¯ à¥§à¥®
à¤µà¤¯à¤¨ à¤¤à¤°
à¤Ķ à¤²
ad i
ĠS econd
Ġs ave
à¤¦à¤¨à¤ķ à¤°
à¥¦à¥¨ à¥¬
à¤ĩà¤°à¤¸ à¤¬
ĠRe view
Ġj erseys
Ġwh at
Ġcon s
æľ ī
ific ation
ä¼ ļ
Ġ eng
à¤¸ à¤Ŀ
à¤§ à¤¦à¤ķ
à¤¶ à¤°à¤¤
à¤ļ à¤ķà¤®à¤§
à¤Ľ à¤Ńà¤¨
Ġà¤ªà¤° à¤ĸ
Ġà¤§ à¤¨à¤¬
Ġà¤§ à¤°à¤®à¤°
Ġà¥© à¥¦à¥ª
Ġà¤Ĩà¤ĩ à¤ıà¤¸à¤²
à¤·à¤¤ à¤¯
Ġà¤¸à¤¡à¤ķ à¤Ńà¤¨
âĢľ à¥ģ
Ġm ost
Ġà¤°à¤¨ à¤Ĩà¤īà¤Ł
Ø§Ù ħ
ark ari
hak a
Ġyear s
à¤¾!! !!!
d f
} .
å ±
è §
é Ŀ
Ġ ë
Ġ Ã©
à¤ª à¤¹à¤²
à¤Ł à¤ĩà¤£
à¤¥ à¤Ł
à¤ĸ à¤°à¤¹à¤°
Ġà¤¸à¤¹ à¤¸à¤®
Ġà¤Ńà¤Ī à¤¹
à¤ļà¤° à¤°
à¥ĩà¤ģ -
at her
à¤®à¤ª à¤¶
ĠS and
Ðµ Ñĩ
ĠI FB
ĠB ids
à¤¨à¤Ń à¤µà¤¨à¤¸
Ġw ord
ĠH er
à¥ĭ? '
Ġà¤Ĺà¤¦ à¤Ĺà¤¦
ĠU K
à¦ ¨
Ġà¤ıà¤®à¤ı à¤ıà¤ļ
ĠArt hako
ĠÐ¾Ð± Ð»
the me
Ġsecond s
ĠHimal ayan
ĠArthako artha
5 2
E x
v ol
Ð ļ
å ĭ
à¤¦ à¤µà¤¨
Ġà¤ķ à¤£à¤°
Ġà¤° à¤«à¤¤
Ġà¤¨ à¤¢à¤²
à¤ı à¤Łà¤°à¤²
Ġà¤¬ à¤ł
à¤§ à¤¬à¤¹
à¤ļ à¤Łà¤®
Ġà¤ľ à¤¯à¤¤
à¤ĸ à¤°à¤¸
Ġà¤īà¤ª à¤ľà¤®
à¤µà¤ķ à¤µ
à¤µà¤¨ à¤¸à¤®
à¤µà¤¨ à¤Ńà¤°à¤ķ
à¤¿à¤ģ ,
Ġà¥Ń à¥©à¥¦
à¤¾. )
à¥įâĢ ľ
Ġà¤«à¤° à¤°
Ġ- âĢĺ
Ġà¥¨à¥¨ à¥¬
en n
à¤¯à¤°à¤¤ à¤¸à¤®
ĠP erson
Ġs om
Ġf r
ter s
à¸ £
ra ft
ãĤ ¤
ly ing
end ed
AR U
urb a
Ġà¤Ńà¤Ĺà¤¤ à¤¸
Ġà¤ħà¤Ĺà¤° à¤¬à¤¤
B log
M US
p and
à¤ķ à¤°à¤¤
à¤ķ à¤¨à¤¸à¤¹
à¤® à¤°à¤¬à¤¹
à¤µ à¤īà¤ªà¤ķ
à¤ı à¤ļà¤¬
Ġà¤ħ à¤ķà¤®à¤ķ
Ġà¤Ľ à¤¡à¤ķ
Ġà¤« à¤ķà¤°
à¤¢ à¤¦
à¤ªà¤° à¤¨
à¥įà¥¤ )
Ġà¤¸à¤®à¤¯ à¤¹à¤°
à¥ģ, '
Ġà¤ĺà¤Ł à¤¯
Ġà¤ĺà¤°à¤® à¤§
Ġà¤Ĺà¤łà¤¨ à¤¬
Ġà¥¨à¥¬ à¥®
Ġm ay
ou n
ĠT arkari
ĠM aj
ĠL o
iv a
aj ha
à¥¬à¥¯ à¥¬
aw s
Ġà¤ıà¤®à¤ı à¤®à¤ķ
Ġà¤ıà¤¯ à¤°à¤¹
Ġà¥¨à¥¦à¥® à¥¦
à© Ģ
ĠBh at
ĠAcc ount
] ;
y n
à¤¦ à¤°à¤®à¤£
Ġà¤Ĺ à¤¯à¤°
Ġà¤¨ à¤¤à¤°
Ġà¤¬ à¤¬à¤°
Ġà¤Ń à¤°à¤£
à¤¬ à¤°à¤§
à¤¬ à¤ĩà¤ķ
à¤¶ à¤ļ
Ġà¤ļ à¤ķà¤®à¤¨
à¤°à¤¤ à¤µà¤¨
à¤¤à¤° à¤Ńà¤¨
à¤µà¤° à¤ªà¤°
Ġà¤ªà¤¦ à¤®à¤²
à¤¹à¤¨ à¤ļà¤¨
à¤µà¤ª à¤ŀ
à¤²à¤¸ à¤ĸ
à¤ķà¤¸ à¤Ļ
à¤ĸà¤ķ à¤¦
à¤ľà¤ª à¤¥à¤ķ
Ġà¤Ĺà¤² à¤¹à¤¤
Ġ1 000
Ġs al
à¥§à¥¨ à¥ª
Ġd et
Ġà¥©à¥ª à¥ª
Ġh igh
ĠU J
ÐµÐ ¶
up er
à¥Ńà¥Ń à¥Ń
Ġcon f
rou nd
ĠFOR SEE
row ser
ĠServ ice
H DAY
] ,
l s
à¥ĩ à¥ĥ
à¤² à¤°à¤¤
à¤¤ à¤ªà¤¨
à¤ı à¤ıà¤ķ
Ġà¤Ń à¤ľà¤¨à¤®
Ġà¤¹ à¤°à¤®
à¤ļ à¤¯à¤¤
à¤ļ à¤®à¤¤
à¤ļ à¤²à¤µ
à¤ĸ à¤ľà¤¨
à¤īà¤¨ à¤°
à¤Ļ à¤¶
à¤¸à¤ķ à¤¨
âĢ¯ ĠĊ
ĠâĢĺ ...
à¥įà¥¤ âĢ¦
à¤ĵ à¤Ĩà¤Īà¤ª
Ġà¤ĺà¤° à¤ħà¤Ĺ
à¤ıà¤¨ à¤¯
à¤¯à¤ª à¤¦à¤ķ
Ġà¤ľà¤Ĺ à¤¬
Ġà¥§à¥ª à¥¨à¥¦à¥¯
à¤µà¤¯à¤¨ à¤¸à¤®
Ġà¤¶à¤¹à¤° à¤¬à¤ľ
Ġà¤¸à¤¹à¤° à¤¤
Ġà¤¦à¤¶à¤ķ à¤¬
ĠD HR
Ġà¤¦à¤® à¤¨à¤²
Ġs et
is ion
Ġc ategory
Ġà¥©à¥Ń à¥Ń
ĠE ve
Ġà¥¬à¥© à¥«
oc us
201 4
ĠSt ud
ill s
à¤½à¤½ à¤½
ual ly
95 5
LE BR
ĠBI RT
ĠRep ort
Ġà¤¸à¤ī à¤²à¤®
ĠCE LEBR
ĠDHR MUS
ĠBIRT HDAY
ĠCELEBR ATION
T O
Ã £
à¤¯ à¤ħà¤Ń
Ġà¤Ĺ à¤¬
à¤Ł à¤ı
à¤ī à¤Ńà¤¨
à¤¢ à¤¸à¤¯
à¤¤à¤° à¤ŀ
à¤²à¤® à¤°
à¤ĩà¤¨ à¤°à¤¹à¤°
à¤¸à¤¨ à¤¤à¤°
Ġà¤Ŀ à¤²à¤ķà¤®
Ġà¤¨à¤¯ à¤°
à¤ķà¤°à¤£ à¤²à¤Ĺ
Ġà¤¤à¤¹ à¤ħà¤¨
Ġà¤¦à¤¶ à¤¦
Ġà¥¨à¥« à¥¨
à¤Ńà¤µ à¤¶
à¤£à¤® à¤¯
à¤µà¤¨à¤ķ à¤°
Ġt ype
ĠD ARL
ĠT er
Ġf ull
ĠâĢĻ ,
ĠR AN
à¥ĩ- '
Ġà¤ľà¤¯ à¤²à¤²
ĠV al
um ber
Ġà¤ħà¤«à¤° à¤ħà¤¨
Ġà¤¬à¤Ĺà¤° à¤«
US HI
NE PAL
à§ į
ĠSc orp
ĠPAR OD
Ġà¤®à¤°à¤¹ à¤Ł
ĠEng ine
ĠBas anta
GH ARU
ĠDh urba
ĠKH USHI
ustral ia
ĠUJ JU
ĠDARL ING
ĠRAN GHARU
ĠPAROD Y
m p
m à¤²à¤ķ
y le
à¤® à¤²à¤¨
à¤¤ à¤Ł
Ġà¤¨ à¤²à¤¸
à¤Ĥ à¤¾
Ġà¤ľ à¤¹à¤°
à¤Ń à¤¬à¤¤
à¤ī à¤ĺà¤°
à¤Ļ à¤Ŀ
à¤ŀ à¤¸à¤®
à¤ªà¤¤ à¤²
Ġà¤Ĩà¤¯ à¤°
à¤Ĩ à¤®à¤¨
Ġà¤ħà¤¬ à¤¤
Ġà¤¬à¤² à¤°à¤ķ
Ġà¤¬à¤² à¤°à¤¹à¤°
Ġà¤Ĳ à¤¨à¤¸
Ġà¤ħà¤« à¤°à¤®
à¤ĩà¤ķ à¤Ł
Ġà¥¨à¥® à¥«
ĠS omatropin
ĠM ag
Ġa ut
à¥¨à¥¦ à¥¦à¥§
ĠF ocal
Ġà¥ªà¥¨ à¥¬
ĠL ove
Ġre m
ol a
lo em
Ð» Ñĥ
ec ur
à¥©à¥ª à¥©
à¥§à¥¯à¥¯ à¥¦
Ġà¥§à¥§à¥¦ à¥¦à¥«
itt ing
66 4
a it
v eng
Ġ à´
à¤ ³
à¤¿ à¥Ĥ
Ġà¤ª à¤Łà¤°
Ġà¤ª à¤ļà¤²
à¤¹ à¤²à¤¯à¤ķ
à¤Ĺ à¤ľà¤¬
à¤Ń à¤Ĺà¤¤
à¤¸à¤® à¤¯à¤¸
à¤ķà¤² à¤¨à¤¬
à¤ķà¤° à¤µà¤°
à¤ĵ à¤Ŀ
à¤ļà¤ķ à¤¬à¤§
à¤ľà¤² à¤ľà¤²
re et
Ġà¤¶à¤¹à¤° à¤¦
Ġà¤ľà¤¨à¤ķ à¤¬à¤¹
à¥ģà¥ģ à¥ģà¥ģ
il os
Ġs ome
Ġd eb
em p
ãģ ķ
à¤¨à¤Ĺ à¤¯
à¤ıà¤Ī à¤µ
Ġg u
iz er
ĠâĢł âĢĻ
Ġim age
Ġà¤ļà¤¹à¤² à¤ªà¤¹
à¤ıà¤¨à¤Ĩà¤° à¤ıà¤¨à¤ķ
Ġ207 2
A ug
O L
à¥ĭ à¥ĩà¥¤
Ġà¤¨ à¤łà¤¹à¤°
à¥Ĥ âĢľ
Ġà¤ļ à¤®à¤ļ
à¤ľà¤¨ à¤¬à¤¢
à¤ķà¤² à¤Ŀ
Ġà¤ĩ à¤¹
à¥Įà¤ģ ...
à¤²à¤Ĺ à¤°à¤ķ
Ġà¤Ĭ à¤®
Ġà¤¨à¤¬ à¤Ĺ
à¤ıà¤« à¤ĵ
ĠB it
ur al
ent ation
ĠL ight
bs cri
Ġ& #
à¤Ĳ à¤¨à¤²
ĠCom mun
âĢĭ âĢĭ
Ġpro f
Ġ20 07
Ġj e
Ġà¥¦à¥¯ à¥«
Ġ200 0
D is
à¤ķ à¤§à¤®
à¤¯ à¤Ĺà¤®à¤¨
à¤¯ à¤¯à¤®à¤¬
à¤ª à¤ªà¤¶
à¤Ĺ à¤£à¤²
à¤Ł à¤ľà¤¨
Ġà¤¨ à¤ħà¤²
Ġà¤ħ à¤²à¤ķà¤¤
Ġà¤¤ à¤®à¤¨
à¤ıà¤ķ à¤¥à¤°
Ġà¤ľ à¤ľà¤¹à¤°
Ġà¤Ĩà¤« à¤¸
à¤Ŀ à¤Łà¤®
à¤ķà¤² à¤¨à¤ķà¤°
Ġà¤Ĩà¤¯ à¤¬
à¤Ĩ à¤·
à¤¶à¤¨ à¤¸à¤¹
Ġà¤ĺà¤° à¤ľ
à¤¦à¤Ľ à¤ĺà¤£
Ġà¥§à¥® à¥¨à¥«
à¤°à¤¥ à¤®à¤²
à¤ıà¤« à¤Ĩà¤°à¤ıà¤¸
Ġs ee
à¤¨à¤Ń à¤µà¤¨
ÑĤ Ð¾Ð¼
Ġà¤ħà¤ľ à¤Ļ
Ġà¤¥à¤ķ à¤¥à¤ķ
ãĤ ĵ
Ġsp ace
ĠCha utari
Ġà¤°à¤®à¤Ŀ à¤®à¤®
% ),
P A
c ap
l ar
m i
v t
Ġ à¸
à¤¾ âĢĮà¤Ĥ
à¤¿ .....
à¤® à¤¥à¤¨
à¤¸ à¤¯à¤ķ
Ġà¤ķ à¤Ĺ
Ġà¤® à¤ľà¤Ĺ
Ġà¤Ń à¤ĩà¤¨à¤¨
Ġà¤ħ à¤ľà¤°
Ġà¤¹ à¤²à¤µ
à¤§ à¤°à¤®
à¤ģ âĢĿ,
à¤Ī à¤ĵà¤ķ
à¤ĸ à¤ĺ
Ġà¤ıà¤ķ à¤µ
Ġà¤®à¤¨ à¤¨à¤¯
Ġà¤ķà¤® à¤²à¤¬à¤ľ
Ġà¤ĺà¤° à¤¨
Ġà¤Ĳ à¤¨à¤µ
à¤·à¤¯ à¤Ńà¤¨
Ġà¥¨à¥© à¥¯
à¤¾à¥¤ âĢĿ
ĠM ex
ĠIn ter
à¤°à¤ķà¤°à¤£ à¤ªà¤Ľ
iv ity
ie f
ä¸ Ĭ
ĠNE WS
ian p
äº ĭ
Ġturnt able
D ata
e KTM
n al
í ķ
à¤¾ ?âĢĻ
à¤¸ à¤°à¤¦
Ġà¤Ĺ à¤¹à¤¤
Ġà¤¨ à¤īà¤¤
Ġà¤² à¤¯à¤°
à¤ī à¤ľà¤°à¤ķ
Ġà¤ļ à¤¬
à¤¨à¤ķ à¤¹à¤°
à¤ħ à¤²à¤ķ
ĠâĢĺ ,
Ġà¥© à¥¦à¥©
Ġà¤Ńà¤¯ à¤¬
à¤ľà¤² à¤ª
Ġ' ...
Ġ! ,
Ġà¥§à¥¬ à¥§à¥¦
à¤Īà¤¨ à¤Ń
Ġà¤ľà¤² à¤ªà¤°
ĠT est
Ġà¤¤à¤²à¤¬ à¤²
Ġc ar
à¥Ńà¥© à¥§
un e
Ġà¤ıà¤ķà¤¦ à¤¶à¤ķ
Ġà¥«à¥ª à¥©
à¤¾à¥Īà¤Ĥ âĢĵ
ri es
Ġ3 00
à¤ļà¤¥ à¤°à¤²
âĢ¦âĢ¦ âĢ¦
od y
ðŁ Ĵ
Ġâ Ĥ¬
ãģĹ ãģŁ
R I
h u
æ ķ
è ĩ
ĩ à¤¨
à¤ķ à¤ıà¤ķ
à¤² à¤ħà¤Ń
à¤¸ à¤¦à¤¨
Ġà¤Ń à¤¯à¤°
Ġà¤¹ à¤łà¤ķ
Ġà¤µ à¤²à¤²
Ġà¤« à¤¨à¤ª
Ġà¤ıà¤ķ à¤¬à¤¦
Ġà¤ªà¤¹ à¤²à¤¹à¤°
à¤Ĩ à¤ªà¤°
à¥¯ à¥§à¥¦
Ġà¥Ń à¥¦à¥§à¥Ń
à¤ĩà¤ľ à¤°à¤²
Ġà¥©à¥§ à¥«
ĠÂ ¤
il le
ĠM aster
Ð¸ Ñİ
Ġw r
à¤ıà¤ļ à¤ıà¤¸
à¤ıà¤ļ à¤ĵà¤²
ãģ Ĩ
ĠW eek
áĥ Ŀ
Ġth an
à¥©à¥© à¥¯
Ð¿ ÑĢ
Ġà¤Ĩà¤¡ à¤Ńà¤°
fe j
âĢĶâĢĶ âĢĶâĢĶ
ĠIS O
anch ar
CP M
8 0
? ,
S L
t ro
æ °
Ġ ________________
à¤¨ à¤¶à¤ķ
à¤¨ à¤ľà¤¤
à¤¸ à¤ĩà¤¬
Ġà¤¸ à¤²à¤ķ
à¤¦ à¤¯à¤¹à¤°
Ġà¤ķ à¤°à¤¸à¤¹
Ġà¤¬ à¤ķà¤®
à¤¡ à¤®à¤®
à¤Ī à¤Ļ
à¤Ī à¤ıà¤ªà¤Ľ
Ġà¤¯ à¤µ
Ġà¤ļ à¤īà¤°
Ġà¤¶ à¤°à¤£à¤ķ
Ġà¤¥ à¤ļ
Ġà¤®à¤¹ à¤«
Ġà¤§ à¤®à¤ķ
à¤²à¤® à¤¯
à¥Įà¤Ĥ à¤Ĥ,
à¤ĩà¤¨ à¤°à¤ķ
Ġà¤¸à¤°à¤ķ à¤°
à¤Ĩ à¤ĩà¤®
à¤®à¤¨ à¤Ńà¤°
à¥¯ à¥ªà¥¨
à¤¨à¤µ à¤²à¤ķ
Ġà¥¨à¥« à¥©
à¤¾) à¥¤
in ch
Ġà¥¨à¥© à¥¬
à¤°à¤Ĺà¤¤ à¤®
st e
à¤¹à¤°à¤£ à¤¬
Ġà¤¬à¤¡ à¤¹à¤°
ro ss
Ġà¥©à¥¬ à¥ª
Ð½ Ð°Ñı
à¤·à¤ķà¤® à¤§
Ġin cl
ĠH ug
Ġà¤ĸà¤¬ à¤°à¤¸
Ġà¤Ĩà¤ĩà¤¸ à¤«à¤²
Ġ10 6
if t
ud d
ĠCh it
ult ure
88 8
ĠUpd ate
ĠBiz Khabar
! '
) ...
g i
à ®
Ġ ×
à¤² à¤ªà¤°
à¤Ĺ à¤ªà¤¨
Ġà¤Ĺ à¤«à¤²
à¤Ł à¤ħà¤ªà¤®
Ġà¤¬ à¤Ľ
à¤ľ à¤ĸ
à¤ĸ à¤°à¤¤
Ġà¤ī à¤¥
Ġà¤¯ à¤®à¤ķ
Ġà¤ı à¤ªà¤°
à¤°à¤£ à¤µà¤¸
Ġà¤ıà¤ķ à¤¬à¤°
Ġà¤®à¤¨ à¤ļ
Ġà¤®à¤¨ à¤Ľ
Ġà¤ĩ à¤¹à¤²
à¥§ à¥¦à¥§
à¤Łà¤¨ à¤¹à¤°
Ġà¤īà¤¦ à¤£
à¥Ń à¥¦à¥¦
à¤¶à¤¨ à¤°à¤¤
Ġà¤īà¤® à¤°
à¤ªà¤² à¤ļ
à¤¨à¤ª à¤¦à¤µ
Ġà¥¦ à¥«à¥¦
à¥ĩà¤ģ à¥¤âĢĻ
Ġà¥¨à¥ª à¥¬
à¤Ĩà¤Ī à¤ıà¤®à¤Ī
à¤¡à¤¬ à¤²à¤®
Ġm ain
Ġ) à¥¤
Ġà¤¹à¤ķ à¤Ń
à¤īà¤ª à¤¸à¤ļ
ĠT E
Ġd ata
ĠF e
el come
Ġà¤Ĩà¤īà¤Ł à¤ª
à¤ĩà¤ı à¤¤
ĠU nd
à¥¨à¥¦à¥ª à¥¨
ĠØ ´
áŀ ¶
hak i
Ġne fej
ĠMed ianp
haka haki
Ġnefej hakahaki
6 4
à¤¯ à¤ľà¤¨à¤²
à¤µ à¤«
à¥Ī âĢľ
à¤ı à¤ľà¤¤
à¤¬ à¤ķà¤²
à¤§ à¤°à¤ª
à¤¡ à¤ªà¤¬
à¤Ī à¤¥
à¤Ī à¤¹à¤ľ
à¤°à¤¤ à¤¸à¤¹
à¤¢ à¤¸
Ġà¤ħà¤§ à¤ķà¤²
à¥Ģ, ...
à¤¶à¤® à¤¬à¤¹
Ġ, âĢĺ
à¤Łà¤¬à¤² à¤¸
Ġp lease
Ġs l
Ġs m
and a
à¤°à¤ľà¤¨ à¤ª
ĠH ol
à¤¤à¤ľà¤¨ à¤¸
Ð°Ð ¿
aj a
Ġman y
ĠTrans posh
Ġà¤¸à¤¤à¤² à¤ľ
Jul y
ilos ophy
Ä Ľ
à¤² à¤²à¤ķ
Ġà¤Ĺ à¤ķ
Ġà¤° à¤¸à¤ª
Ġà¤ħ à¤²à¤¬
Ġà¤Ĩ à¤Ĺà¤°
âĢ İ
à¤ĩ à¤¸à¤¹
Ġà¤ł à¤¯
à¤µà¤ķ à¤§
Ġà¥© à¥¦à¥¬
à¤°à¤µ à¤ļà¤¨à¤ķ
à¤ªà¤ķ à¤ľ
Ġà¤ĵ à¤®à¤¸à¤¤
à¤ķà¤ª à¤¨à¤ķ
à¤¨à¤µ à¤°à¤¹
Ġà¤īà¤ł à¤¯
Ġà¤°à¤® à¤ªà¤®
à¤¯à¤¬ à¤¶
Ġà¥¨à¥¯ à¥¯
Ġ1 48
or a
ĠT rain
Ġà¤ľà¤¨à¤® à¤¨à¤®
à¤ıà¤« à¤Ĩà¤ĩà¤¡
Ġd a
ĠR ating
Ġà¥ªà¥Ń à¥®à¥©
Ġh ours
à¥¨à¥¯ à¥ª
ri b
ut ing
ĠCom m
te e
ĠY outube
Ġà¤µà¤¯ à¤·
ĠLe vel
ĠSu pport
à¤¡à¤°à¤¶ à¤Ł
Ġà¥ł à¤·
O B
U n
t om
Ð Ł
à¤¾ à¥Į
à¤¨ à¤ªà¤²
à¤· à¤ļ
Ġà¤² à¤Ńà¤°
Ġà¤ħà¤¨ à¤¯
à¤¤à¤° à¤²à¤¤
à¤²à¤¯ à¤ľà¤¸
Ġà¤īà¤¦ à¤¯à¤¬à¤¹
Ġà¤ħà¤µ à¤¤à¤°
Ġà¤ļà¤° à¤¨à¤ķ
à¤·à¤¦ à¤µ
à¤ľà¤¯ à¤ĸà¤°
Ġà¤ĭ à¤£à¤¸
in al
Ġà¤ĸà¤¡ à¤Ĺ
Ġà¤®à¤¦ à¤¤à¤²
à¤ħà¤¸ à¤«à¤²
Ġà¥ªà¥« à¥¦à¥¦
ĠO ri
à¤ļà¤¨à¤² à¤Ĺà¤¤
à¥¦à¥© à¥¬
Ġà¤ĵà¤® à¤¨à¤®
ir t
Ðº Ñĥ
à¥§à¥¯à¥¯ à¥®
Ġ7 0
Ġà¤ĺà¤°à¤ª à¤Ŀ
Ġà¥§à¥¦à¥¯ à¥®
land s
Aut umn
W e
o z
s pl
à¤¨ à¤Łà¤ķ
à¤¦ à¤°à¤Ń
à¤µ à¤Łà¤°
Ġà¤¨ à¤ķà¤²
à¤ı à¤ŀ
à¤ľ à¤°à¤¤
à¤ģ âĢĺ
à¤¨à¤® à¤Ĺà¤°à¤²
Ġà¤ĺ à¤°à¤¯
Ġà¤ľà¤¨ à¤Ĩà¤µ
Ġà¤īà¤ª à¤°à¤ķ
Ġà¤Ĺà¤¤ à¤²
à¤ķà¤ķ à¤¬
Ġà¤Ĩà¤° à¤§
à¤Ńà¤¨ à¤ª
Ġà¤ĩà¤¨ à¤¬
Ġà¥¨à¥« à¥¯
à¤¯à¤£ à¤¬
Ġà¤ľà¤¬ à¤ľà¤²
ic a
ep l
Ġp erson
he ad
Ġà¤¨à¤Ĩ à¤īà¤¦
à¥¨à¥¦ à¥¦à¥¨
Ġd em
Ð¸ Ð´
à¸ ¥
oc r
à¤¯à¤¦à¤² à¤¹à¤°
ang u
à¥¨à¥¦à¥¨ à¥®
Ġst art
ry pt
ld er
Ġà¤ħà¤®à¤¨ à¤ļ
Ġà¤Ĩà¤ĩà¤ĵ à¤ıà¤®à¤ķ
Ġà¥ªà¥Ńà¥®à¥© à¥¦à¥¯à¥Ń
i or
i que
Ġ ir
à¤² à¤Łà¤®
à¤² à¤ļà¤¸
Ġà¤¹ à¤°à¤¦
Ġà¤µ à¤²à¤ķ
à¤· à¤ķà¤°
à¤§ à¤¯à¤²
à¤§ à¤Ńà¤ķ
à¤¶ à¤¦à¤¤
à¤ļ à¤ľà¤¸
à¤£ à¤¹à¤¤
à¤Ń à¤¨à¤²
à¤°à¤® à¤¤à¤°
à¤°à¤® à¤Ńà¤¨
Ġà¤ļ à¤¯
Ġà¤®à¤¹ à¤Ń
à¤¯à¤® à¤Ńà¤¨
Ġà¤¤à¤¥ à¤Ĩ
Ġà¤¸à¤¹ à¤¶
Ġà¤ĩ à¤¨à¤®
à¤·à¤£ à¤ľà¤¸
à¤µà¤² à¤¨à¤ķ
à¤§à¤¨ à¤¤à¤°
Ġà¤ĸà¤° à¤ĸà¤°
à¤Łà¤® à¤°
à¤¹à¤¨ à¤¦
à¤¹à¤¨ à¤ľ
Ġà¤Ĩà¤ĩ à¤ıà¤¸à¤¸
à¤ķà¤¨ à¤°
à¤µà¤¯ à¤¬
Ġà¤§à¤¨ à¤µà¤¨
Ġà¥§à¥Ń à¥¨à¥Ń
Ġà¤ªà¤² à¤ªà¤²
it or
Ġà¥©à¥« à¥¦à¥¦
à¤īà¤ª à¤µ
Re veng
07 6
à¤¯à¤°à¤² à¤Ĺ
ab ility
ator s
à¤¡à¤ļ à¤¢
) /
H E
v ing
Î ½
Ķ Ĥ
à¤ķ à¤°à¤¹
à¤Ł à¤¤à¤®
à¤ľ à¤¤à¤®
à¤¬ à¤°à¤¸à¤¹
à¤ĸ à¤¨à¤¦
à¤ĩ à¤ĩ
Ġà¤¶ à¤Ń
à¤°à¤£ à¤®à¤¨
Ġà¤Ł à¤ªà¤¨
à¤Ĩ à¤¤à¤¦
Ġà¥© à¥¦à¥§
à¤Łà¤° à¤Ĺ
Ġà¥® à¥©à¥¦
à¤µà¤¤ à¤§
Ġà¤¦à¤² à¤¦
à¤°à¤®à¤£ à¤ħà¤ĺ
Ġà¤°à¤ķà¤® à¤¦
Ġ- âĢľ
à¤¯à¤¯à¤¨ à¤¸
à¤¯à¤ķà¤° à¤¥
Ġ/ >
ĠÐ ĳ
Ġà¤ľà¤¨à¤® à¤¤à¤®
Ġà¤¨à¤Ĩ à¤ıà¤®
Ġà¤¨à¤Ĩ à¤ĩà¤ª
Ġà¤Ĺà¤ľ à¤²à¤Ĺ
à¤ģà¥¤ '
Ġà¤ĥ âĢĵ
Ñģ Ð¿
ãģ Ĥ
Ġà¤²à¤¹à¤° à¤ķ
Ġà¤Ĩà¤Īà¤ıà¤¸ à¤ĵ
Ġdes ign
aut y
Ġà¤¸à¤ĸà¤° à¤ĸà¤£
Ġà¤ĨÃ ĩà¤¨
ecur ity
Ã ½
à¤¨ à¤ªà¤ķ
à¤¦ à¤Ĺà¤°
à¤Ĺ à¤°à¤£à¤®
Ġà¤¦ à¤¶à¤¨
à¤¾à¤ģ âĢ¦
Ġà¤« à¤¡à¤ķ
Ġà¤ıà¤ķ à¤²à¤µ
Ġà¤ıà¤ķ à¤ĺà¤£
Ġà¤¸à¤ķ à¤¤
âĢĻ ...
à¤Ŀ à¤¡à¤ªà¤®
à¤ħ à¤¢
Ġà¤Ĩà¤µ à¤°à¤£à¤ķ
à¤²à¤¤ à¤Ń
à¤·à¤¦ à¤¦
Ġà¤Ĩà¤Ī à¤ı
Ġà¤ľà¤µ à¤¸à¤®
Ġà¥¨à¥¯ à¥¨
Ġà¤ľà¤² à¤Ńà¤£
Ġà¤¸à¤« à¤°
à¤°à¤¥ à¤®à¤ķ
ĠN GO
à¥§à¥§ à¥ª
à¥Įà¤ģà¥¤ âĢĿ
à¤¨à¤¹ à¤ľ
ag ram
à¤¤à¤¸à¤® à¤ķ
Ġà¥«à¥¬ à¥¦
Ġà¤¬à¤¦ à¤°à¤ķ
Ġth rough
ff ect
ts c
Ġcap tion
div ide
ĠDep artment
R S
l ass
Ġà¤Ĺ à¤Ń
Ġà¤ħ à¤°à¤¹
Ġà¤µ à¤ļà¤¨à¤®
Ġà¤Ľ à¤Ļ
à¤¡ à¤ķà¤®
à¤Ī à¤¨à¤µ
à¤£ à¤ªà¤Ł
à¥Į à¥¤âĢĿ
Ġà¤¶ à¤°à¤®
Ġà¤ħà¤¨ à¤Ł
à¤ĩà¤¨ à¤°à¤²
à¤Ĩ à¤Ń
Ġà¤Ĩà¤° à¤ıà¤²
à¤«à¤² à¤¡
à¤ĵ à¤ı
à¤¦à¤® à¤£
Ġà¥¨à¥¨ à¥¯
Ġà¤¨à¤µ à¤§à¤¨
à¤·à¤° à¤ªà¤Ľ
ĠS ex
Ġà¤Ĺà¤ı à¤¦
à¤°à¤¹à¤£ à¤ªà¤Ľ
Ġà¤ıà¤¡ à¤ª
Ġà¤¡à¤² à¤°à¤¸à¤¹
Ġ3 2
Ġ3 7
out u
Ġà¤°à¤¨à¤° à¤ħà¤ªà¤ķ
à¥¨à¥¦à¥ª à¥¦
Ġà¤ıà¤¸à¤ıà¤®à¤ıà¤¸ à¤¬
ĠPl ay
ĠPost ed
ĠSam loem
ne ct
oft ware
ical ly
Ġz u
Ð°Ð¼ Ð¸
ĠBe ach
opy right
He alth
PD MS
Ġ email
à¤¨ à¤ħà¤§
à¤ķ à¤²à¤ķà¤¹à¤°
à¤® à¤¥à¤°
à¤¸ à¤Ī
à¤¦ à¤µà¤°
à¤¦ à¤µà¤ª
à¤Ł à¤¶
Ġà¤¨ à¤¹à¤ķ
Ġà¥¤ ..
à¤· à¤Ľ
à¤· à¤®à¤ķ
à¤§ à¤¹à¤¸
à¤ĸ à¤ľà¤¤
Ġà¤¯ à¤¶à¤ķ
Ġà¤ªà¤° à¤¹
Ġà¤¬à¤¨ à¤ľà¤Ļ
Ġà¤Ĩà¤µ à¤Ń
à¤°à¤¶ à¤Ļ
Ġà¥§à¥¯ à¥¦à¥©
à¤¨à¤ª à¤ĸ
à¤¾... !
Ġà¤®à¤¦ à¤°à¤²
ĠS un
Ġp ara
Ġs ol
Ġà¤ªà¤¸à¤² à¤¸à¤®
Ġà¤ıà¤« à¤ľ
ĠR am
oo th
Ġà¥ªà¥¯ à¥«
ĠK B
Ñĥ Ð±
op ian
à¤¡à¤°à¤¸ à¤¨à¤²
à¥¯à¥¯ à¥¬
ĠMin istry
Ã³ n
Ġdi ff
C on
c ell
h up
Ã Ĺ
æ Ń
à¤¹ à¤¸à¤ª
à¤µ à¤ªà¤¨
à¤Ĺ à¤¬à¤¸
Ġà¤Ĺ à¤ľà¤ķ
Ġà¤Ĺ à¤ĩà¤¦
Ġà¤¨ à¤«à¤²
à¤Ĥ (
Ġà¤Ĩ à¤Ľ
à¥Ĥ "
à¤ī à¤¡à¤¸
Ġà¤ļ à¤²à¤®à¤²
Ġà¤®à¤¹ à¤¤à¤°
Ġà¤ľà¤¨ à¤ħà¤¦
à¤¤à¤° à¤¦à¤ķ
à¤¯à¤¤ à¤Ńà¤¨
à¤ķà¤² à¤¯à¤ķ
à¤ķà¤² à¤°à¤¸
à¤µà¤° à¤ļà¤¨
à¤®à¤¤ à¤ªà¤¤
à¤ľà¤ķ à¤¬
à¤µà¤² à¤¤
Ġà¤Ķ à¤¸à¤§
Ġà¤®à¤² à¤¹à¤°
à¤ķà¤¨ à¤µ
Ġà¤Ĩà¤¶ à¤¬à¤¹
Ġ- (
Ġà¥§à¥® à¥®à¥§
Ġà¥¦ à¥¦à¥¦
à¤ªà¤£ à¤ªà¤Ľ
à¤¾à¥¤ '
Ġà¤Ĩà¤ı à¤Ľà¤¨
ĠB u
Ġd ep
ĠF ree
à¥§à¥ª à¥®
Ġà¥ªà¥ª à¥«
Ġo b
à¥ĭ- '
Ġh er
à¸ Ĺ
à¤ĸà¤¨à¤¨ à¤¬
os p
à¤ıà¤¨à¤ıà¤® à¤ıà¤¨
Ð°Ð± Ð¾ÑĤ
Ġdel iv
y an
à¥ĭ âĢľ
à¤¯ à¤¡à¤ķ
à¤ª à¤¥à¤²
à¤µ à¤ĩà¤ļ
à¤Ł à¤ªà¤®
Ġà¥¤ .......
Ġà¤¹ à¤°à¤¬
à¤¬ à¤¸à¤¹
Ġà¤µ à¤¨à¤ķà¤°
à¤§ à¤Ķà¤ªà¤¨
Ġà¤Ľ à¤īà¤¨
Ġà¤¤ à¤¨à¤®
Ġà¤¦ à¤²à¤¨
à¤ļ à¤Ĺà¤°
à¤ļ à¤°à¤£à¤²
à¤Ī à¤ľà¤ķ
Ġà¤¶ à¤¯à¤¨
Ġà¤ı à¤®à¤²
Ġà¤§ à¤µà¤¨à¤²
Ġà¤ľà¤¨ à¤¤à¤²
à¤°à¤¹ à¤¦à¤ķ
Ġà¤¡ à¤¸à¤¨
à¤°à¤¹à¤° à¤®
à¤µà¤¨ à¤ľ
à¤°à¤¬ à¤¦à¤²à¤ķ
à¤Łà¤¨ à¤ľ
à¤®à¤¨ à¤¤
Ġà¤ĵ à¤ľà¤¨
Ġà¤Ķ à¤ª
Ġà¤Ĩà¤¦ à¤°à¤Ń
Ġà¤¦à¤² à¤Ńà¤¨
à¤¤à¤ª à¤¸
à¤¨à¤ª à¤Ł
Ġà¥§à¥® à¥¯à¥¦
à¤®à¤ª à¤°à¤ķ
Ġm et
Ġà¥©à¥§ à¥§
à¤µà¤¨à¤® à¤°à¤£à¤ķ
ĠT echnology
à¤ıà¤« à¤®
Ġà¥©à¥© à¥«
as ed
em d
Ġb ox
Ġw ay
à¥¨à¥¯ à¥«
à¤°à¤¸à¤ķ à¤¨
Ġà¤®à¤¸à¤² à¤¨
Ġpro gram
Ġà¤¸à¤¶ à¤Ļ
ne y
ĠÑĤ Ð°Ðº
Ġup load
ĠDar az
y outu
Î µ
Ø Ń
è ®
à¥ģ ',
Ġà¤¸ à¤²à¤Ĺ
à¤ª à¤¸à¤¨
Ġà¤° à¤Ń
Ġà¤® à¤²à¤¯
à¤¬ à¤¥
à¤· à¤®à¤²
à¤¶ à¤¬à¤®
à¤ī à¤¸à¤Ń
Ġà¤ļ à¤īà¤°à¤®
Ġà¤®à¤¹ à¤²à¤¹à¤°
à¤²à¤¯ à¤ľ
Ġà¤¨à¤Ĺà¤° à¤¸à¤®
à¤¶à¤¨ à¤¬à¤®
Ġà¥¬ à¥¦à¥«
à¤¨à¤®à¤¨ à¤¤
à¤ĵ à¤Ĺ
Ġà¤ķà¤² à¤°à¤®
à¤¶à¤¤ à¤¦
Ġà¤¸à¤¡à¤ķ à¤¬à¤¤
à¤¨à¤¤ à¤¸
Ġà¤¹à¤¸ à¤¨à¤ķ
Ġà¥¦ à¥©à¥«
Ġà¤Ńà¤Ĺ à¤µà¤¦
à¤¯à¤°à¤¤ à¤°
Ġp ri
à¥§à¥¨ à¥¯
ĠB B
Ġà¤ħà¤ľ à¤°à¤¬
à¤ıà¤ļ à¤ıà¤®
à¥¦à¥¨ à¥Ńà¥ª
ay akhabar
lo s
à¥ĩ? âĢĿ
Ġà¥¯à¥¯ à¥©
ist er
à¥ĭâĢĿ âĢĵ
Ġst ud
à¥¨à¥¦à¥ª à¥©
eric an
ĠÐº Ð¾Ð¼
ele ct
oj pur
Sp y
ĠCy ber
ĠReview ed
R ep
b b
f ore
m à¤°
t ulsipur
é Ļ
ī Ī
à¤® à¤Ĩ
à¥ģ à¥Ī
Ġà¤¸ à¤¯à¤®à¤®
à¤Ł à¤īà¤ªà¤Ĺ
à¤ľ à¤ľà¤¨
à¤§ à¤®à¤¤
Ġà¤¤ à¤µà¤¸à¤®
à¤ļ à¤°à¤¬
à¤£ à¤µà¤¹
à¤ĸ à¤ħà¤¨
âĢ ²
à¥Į âĢĻ,
à¤¤à¤° à¤ħà¤¨
à¤¯à¤¤ à¤¸à¤®
à¤¯à¤¤ à¤ħà¤¨
à¤ªà¤¤ à¤¬
Ġà¤ķà¤° à¤¡
à¤¬à¤¨ à¤¸
à¤µà¤¨ à¤¦à¤°
Ġà¤Ĩà¤® à¤īà¤ªà¤Ń
Ġà¤®à¤¤ à¤¹à¤¤à¤ķ
à¤łà¤ķ à¤ħà¤ĺ
Ġà¤Ĩà¤ī à¤Łà¤°
re nd
Ġà¤ķà¤¥ à¤¨à¤²
Ġà¥¦ à¥©à¥®
Ġà¤Ńà¤ıà¤¨ à¤Ńà¤ıà¤ķ
à¤²à¤¸à¤® à¤ķ
à¤¬à¤® à¤¹à¤°
Ġà¤¸à¤°à¤¸ à¤¹à¤¯
ĠD istrict
ĠT ags
Ġà¤Ľà¤ł à¤¸à¤®
ĠB usiness
ĠB ato
Ġà¤¨à¤Ĺ à¤ıà¤ªà¤Ľ
ĠH ere
ri ve
à¤¯à¤£à¤Ĺà¤¢ à¤¤à¤°
Ñĥ Ð¿
ĠAn al
Ġà¤²à¤ļà¤ķ à¤¦
çĶ Ł
ĠMarket ing
tulsipur khabar
9 1
m as
Ä Ł
Ñ ĳ
à¤¿ ï¿½...
Ġà¤ħ à¤¡à¤°
à¤¶ à¤·
à¤¶ à¤¯à¤¬
à¤Ľ à¤¥à¤°
à¤°à¤£ à¤ļ
à¤ĺ à¤ª
à¤ĺ à¤ĺ
Ġà¤®à¤¹ à¤¦
à¤¯à¤¸ à¤ħà¤µà¤¸à¤°à¤®
à¤ħ à¤¸à¤¹
Ġà¤ĵ à¤®à¤µ
Ġ? ,âĢĻ
Ġà¤Ĩà¤® à¤µ
Ġà¤¸à¤Ļ à¤ĺ
Ġ, âĢĿ
à¤°à¤®à¤£ à¤µ
à¤¨à¤Ĺà¤° à¤¸à¤Ń
in n
Ġà¤¤à¤² à¤ªà¤Ł
Ġà¥¨à¥Ń à¥§
Ġà¥¨à¥Ń à¥¯
Ġà¤ħà¤ķ à¤¬à¤°à¤²
Ġà¥¨à¥¯ à¥§
Ġà¤Ńà¤µà¤¨ à¤¸à¤®
ĠN OW
Ġà¥©à¥§ à¥®
ĠÂ °
Ġp df
Ġà¥©à¥¨ à¥§
Ġà¤¨à¤ĸ à¤Ł
am j
Ġà¥ªà¥ª à¥¦
Ġw ere
ak a
iv al
Ġà¤ļà¤®à¤ķ à¤¦
à¨ ¿
org an
à¤Ĩà¤°à¤Ĩà¤Ī à¤®
Ã¶ r
Ġne ed
A g
P H
a a
l or
Å Ľ
à¤² à¤īà¤¦
Ġà¤¹ à¤µà¤ķ
à¤· à¤¥à¤ª
à¤¯à¤ķ à¤®à¤§
à¤ľà¤¨ à¤ħà¤¨
Ġà¤ıà¤ķ à¤«
Ġà¤¸à¤ķ à¤¸à¤®
à¤ħ à¤¨à¤¸
Ġà¤ĩ à¤¥à¤¨
à¥ģà¤ģ ...
à¤ļà¤¨ à¤Ńà¤¨
à¤µà¤° à¤§
à¤µà¤² à¤¸
Ġà¥¯ à¥§à¥¦
Ġà¤ıà¤¨ à¤Ĩà¤Ī
Ġà¥§à¥® à¥©à¥§
in c
Ġà¥¨à¥Ń à¥¨
Ġà¤¨à¤µ à¤µà¤°
à¤Ĩà¤Ī à¤ĵà¤¸
ĠN etwork
ĠP ER
à¤Ĩà¤¯ à¤°à¤²
is ode
Ġà¤¨à¤¸ à¤¹à¤¨
à¤ĩà¤Ń à¤¸
à¥§à¥§ à¥¦à¥ªà¥ª
Ġc ook
am achar
Ġà¤ļà¤°à¤£ à¤¦
Ġà¥©à¥® à¥«
ĠG roup
à¤¨à¤Ĺ à¤ŀ
Ġà¤ıà¤¨à¤Ĩà¤° à¤ıà¤¨à¤®
ĠÑģ Ð¿
ack ed
lic h
à¤¡à¤°à¤¸ à¤Łà¤ķ
à¥¨à¥¦à¥© à¥©
Com ments
áŁ Ĵ
Ġà¥§à¥¬à¥§à¥® à¥¦à¥¨à¥Ńà¥ª
Ġà¥§à¥¬à¥§à¥®à¥¦à¥¨à¥Ńà¥ª à¥§à¥§à¥¦à¥ªà¥ª
) '
I t
N P
t a
Å ¼
â ľ
à¤¤ à¤Ŀ
à¤¬ à¤°à¤¹à¤¥à¤µ
à¤· à¤¹
à¤ģ à¤¾
à¤£ à¤¶à¤®
à¥Ĥ âĢĻ,
à¤ĸ à¤ķà¤®
à¤¹à¤° à¤¦
Ġà¤ı à¤«à¤ķ
à¤°à¤£ à¤²à¤Ĺ
à¤¯à¤¸ à¤ħà¤Ĺ
Ġà¤¸à¤¹ à¤¯à¤¤
à¤¯à¤¨ à¤¤à¤°
à¤Ĩ à¤¸à¤ª
à¥¨ à¥¦à¥¦à¥¦
à¤Łà¤° à¤¡
à¤¯à¤° à¤ª
Ġà¤¸à¤®à¤¯ à¤¬à¤¦
Ġà¤ĺà¤° à¤ĺà¤°à¤¬
Ġà¤Ĩà¤® à¤¸à¤°
Ġà¤¦à¤² à¤¸à¤¹
à¤¬à¤² à¤¦
à¥¦à¥Ń à¥®
Ġà¥¨à¥« à¥Ń
ĠS te
ĠS TOR
ĠT ele
à¤¨à¤Ľ à¤¹à¤°
ow k
à¤®à¤Ļ à¤ª
Ġà¥§à¥¯à¥ª à¥ª
ĠÐ² Ñģ
à¥¨à¥¦à¥© à¥¯
à¤ħà¤µà¤¤ à¤°à¤£
æĪ ĳ
R adio
k l
z a
Å ¡
à¤ķ à¤¥à¤¨
à¤® à¤ľà¤¨
à¤¸ à¤Łà¤¨
à¤¦ à¤ľà¤¨à¤ķ
à¤µ à¤Ĩà¤°
à¤¥ à¤ļ
Ġà¤Ĩ à¤¨à¤ķ
à¤Ī à¤Łà¤¨
à¥Ĥ /
à¤ī à¤¤à¤¹à¤°
Ġà¤¥ à¤ªà¤®
Ġà¤ħà¤¨ à¤²à¤ķ
Ġà¤¡ à¤°à¤¤
à¤µà¤° à¤ľà¤¸
à¤¯à¤² à¤¦
Ġà¤¸à¤¦ à¤°à¤²
à¤§à¤¨ à¤ªà¤¤
Ġà¤¸à¤¯ à¤ľà¤¤
à¤°à¤Ń à¤°à¤¬
Ġà¤ªà¤Łà¤ķ à¤¦
à¤ıà¤® à¤ıà¤ķ
Ġà¤Ńà¤Ł à¤Ńà¤Ł
Ġà¥§à¥® à¥¬à¥§
à¤Ĺà¤®à¤¨ à¤¸
Ġm ed
à¥Ĥà¤ģ à¤Ĥ
Ġd as
am ro
Ġà¥ªà¥® à¥§
ĠK ing
à¸ §
te xt
ĠAn g
ĠÑģ Ð¾
Ġà¤¸à¤¨à¤® à¤ķ
ain ik
ĠTr ail
æľ ¬
Ġà¥¨à¥¦à¥® à¥«
ĠEth iy
ĠMex icon
ĠEthiy opian
5 7
o om
Ã ¸
à¥ĭ ......
à¤² à¤ħà¤Ĺ
à¤® à¤°à¤¹à¤°
Ġà¤ª à¥Ŀ
Ġà¥ Ī
Ġà¤Ĺ à¤¯à¤²
Ġà¤° à¤ľà¤Ĺà¤ľ
à¤Ł à¤¸à¤¬
Ġà¤¬ à¤Łà¤°
à¤§ à¤°à¤£à¤¹à¤°
à¤Ī à¤¡à¤ķ
Ġà¤² à¤Łà¤®
à¤°à¤ķ à¤¹
Ġà¤¶ à¤µà¤°
Ġà¤¬à¤¨ à¤µ
à¥Įà¤Ĥ !
à¤¬à¤¨ à¤¬
à¤Ĩ à¤µà¤¦
à¥Ģ, âĢĻ
à¤°à¤µ à¤¬à¤¹
Ġà¤ħà¤² à¤ľà¤ľ
Ġà¤°à¤ķà¤® à¤Ńà¤¨
à¤¹à¤² à¤¯à¤®
Ġà¤ıà¤¨ à¤Ĩà¤Īà¤¡
Ġà¤ķà¤ª à¤¨à¤ķ
à¤¹à¤® à¤£
Ġà¤¤à¤² à¤µà¤®
à¥ĩà¤ģ '
Ġà¤ļà¤²à¤¨ à¤¹à¤°
ĠP revious
Ġp ilot
ĠM obile
Ġà¤¶à¤µ à¤Ĺ
Ġà¤ªà¤ļ à¤ªà¤¨
id ding
Ġre c
ĠH igh
ĠâĢĿ ,
à¤ĸà¤¬ à¤°à¤²
Ġà¤²à¤ĸ à¤ªà¤¤
ĠPost s
Ġà¤¤à¤Ļ à¤¨
Ġcont act
Ġ98 4
Ġà¤ľà¤¯à¤¶ à¤Ļ
ĠSk ype
Ġserv ice
Ġever y
Spy oo
I nd
Ë Ĳ
Ð ľ
à¥ĩ ',
à¤® à¤¬à¤¨
Ġà¤Ĩ à¤¸à¤²
Ġà¤Ĩ à¤¡à¤µ
à¤¡ à¤Łà¤ķà¤®
Ġà¤² à¤Łà¤°
Ġà¤² à¤ľà¤ķ
à¤ĸ à¤ªà¤Ľ
Ġà¤¶ à¤¶à¤¸
Ġà¤ı à¤ıà¤¨à¤ıà¤ķ
à¤°à¤£ à¤¬à¤¹
Ġà¤ıà¤ķ à¤¬à¤¹
à¤²à¤ķ à¤®à¤§
Ġ( ...
Ġà¤īà¤¨ à¤¨
Ġà¤īà¤¤ m
à¤Ĩ à¤°à¤Ń
à¥¯ à¥¦à¥¦
à¤ĵ à¤¢
à¤²à¤¸ à¤ľ
Ġà¥¨à¥¬ à¥¨
à¤¶à¤¬ à¤¬à¤¹
à¤Łà¤°à¤ķ à¤¹
Ġà¥©à¥§ à¥¨
à¥Ĥà¤ģ à¥¤
à¤²à¤Ń à¤¤
Ðµ Ñħ
ĠI ss
ur ope
Ġà¤ķà¤¦à¤® à¤ª
Ġw ater
à¥§à¥¬ à¥«
Ġ3 6
âĢį à¥ĩ
Ġà¤²à¤¹à¤° à¤¹à¤°
Ġà¤Ĩà¤Ĺà¤®à¤¨ à¤ªà¤Ľ
Ġà¤ħà¤®à¤² à¤Ł
ĠApp s
Ġà¤ıà¤²à¤¬ à¤®à¤ķ
mit tee
ĠLim ited
A l
k an
s ch
ç Ĳ
ç Ļ
à¤¹ à¤¯à¤¤
à¤¹ à¤¹à¤ķ
à¤¹ à¤ħà¤ĺ
à¤µ à¤®à¤ķ
à¤Ĺ à¤¡à¤®
à¤ľ à¤ļ
à¤£ à¤¨à¤®
Ġà¤ī à¤¤à¤°à¤¦
Ġà¤ļ à¤¦
à¥Į à¥Īà¤ģ
à¤¯à¤ķ à¤ª
à¤ł à¤¯à¤ķ
à¤¸à¤® à¤¸à¤®
à¤ŀ à¤¶
Ġà¤ķà¤° à¤Ľà¤²
Ġà¤¸à¤¬ à¤¨à¤®
Ġà¤ħà¤¸ à¤²à¤®
Ġà¥« à¥¦à¥§
à¤¬à¤° à¤Ń
Ġà¤¬à¤¹ à¤¶
à¤ıà¤¸ à¤Ī
à¤¾... )
Ġà¤Ĺà¤² à¤¬à¤¨
ĠS al
ĠP aper
à¤®à¤¶ à¤°
Ġà¥©à¥Ń à¥¯
Ġw ant
Ġin s
Ġà¥ªà¥© à¥®à¥©
Ġà¤ıà¤ļ à¤µ
Ð» ÐµÐ½
Â« à¥ĭ
à¤ķà¤ħà¤ª à¤ªà¤Ľ
à¥¤à¥¤ à¥¤à¥¤
Ġex t
ĠRep ublic
ShareTweet Pin
Pl us
On line
ĠÐ¾Ð±Ð» Ð°ÑģÑĤ
9 4
b it
à ¼
à¤ķ à¤·à¤£à¤ķ
Ġà¤ª à¤ķà¤²
à¤¦ à¤°à¤¸
Ġà¤ķ à¤Ńà¤°à¤®
à¤¡ à¤°à¤¸à¤¨
Ġà¤² à¤µà¤£
à¤Ľ à¤ľà¤¸
à¤ī à¤Ŀ
à¤ĩ à¤¬à¤¸
à¥Į à¤ĥ
Ġà¤¡ à¤¨à¤²
à¤Ŀ à¤²à¤¨
Ġà¤ķà¤° à¤«
à¥© à¥©à¥¦
Ġà¤¸à¤¨ à¤¤
Ġà¤ħà¤® à¤°à¤ľ
à¤¾. (
à¤°à¤¨ à¤¬
Ġà¤ħà¤² à¤¸
Ġà¤ıà¤¨ à¤ıà¤«à¤Ĩà¤°à¤ıà¤¸
à¤µà¤¦ à¤¹à¤®
à¤Ķ à¤·
ĠS P
à¤īà¤ª à¤ľ
Ġp age
ĠC HAT
à¤ªà¤Ł à¤¨à¤²
Ġc le
à¥¦à¥¬ à¥¦
et ition
Ġà¤¹à¤¨ à¤¨à¤ķ
Ġà¤Ĺà¤ľà¤² à¤¸
ĠH y
ir c
ĠU s
Ñĥ Ð»
Ġà¥¤" ...
ction s
pl ay
ĠÐº Ð¾ÑĤÐ¾ÑĢ
Ġsh ort
Ġcont ract
à¤ĸà¤°à¤² à¤²
ĠPh ilosophy
Ġdise ases
M B
m ed
Î º
Ð ¢
à¤¨ à¤Ĩà¤ıà¤ķ
à¤¯ à¤¶à¤¨à¤®
Ġà¤¸ à¤īà¤¦
à¤µ à¤īà¤ªà¤°
Ġà¥¤ _
Ġà¤® à¤Ĺà¤®à¤Ĺ
Ġà¤µ à¤¯à¤®
Ġà¤Ľ à¤¸à¤®
à¥ĥ ,
à¤Ļ à¤Ĺà¤²
à¤ªà¤¨ à¤¤à¤°
à¤¤à¤° à¤Ĩà¤¤
Ġà¤Ĩà¤° à¤¡
Ġà¤ĵ à¤¥
Ġà¤ĵ à¤łà¤¹à¤°
Ġ? à¥¤
Ġà¥Ń à¥¨à¥¦
Ġà¤Ĩà¤® à¤ª
à¤°à¤ª à¤¹à¤°
à¤ıà¤® à¤Ĩà¤°à¤ª
à¤ªà¤£ à¤¬
Ġà¥¨à¥© à¥Ń
ic ht
ĠA ut
ĠP H
Ġc ode
Ð¸ ÑģÑĤ
ĠF ilm
à¤¼ à¥ģ
ĠW eb
Ġ4 00
Ġà¥¦à¥ª à¥¨
|| ~
Ġà¤µà¤ľà¤¨ à¤¦
Ġ~ ||~
Ġint o
ĠÑĩ ÑĤÐ¾
alleng es
Ram esh
ĠSur g
ĠAnn ounc
Ġclass room
C A
m à¤²à¤¹à¤°
t ain
à¤¨ à¤īà¤¨
à¤¨ à¤ĩà¤ļ
à¥ģ &
à¤¹ à¤®à¤²
à¤¦ à¤¤à¤¬
à¥Ī âĢĻ,
à¤ıà¤ķ à¤®
à¤£ à¤¯à¤¸à¤¹
à¤¹à¤° à¤ľà¤¨
à¤¸à¤® à¤¯à¤¸à¤®
à¥Įà¤Ĥ âĢ¦
à¤°à¤¦ à¤¹à¤®
Ġà¤ħà¤° à¤¬à¤¸
à¥įà¥¤ âĢĺ
à¤µà¤² à¤¹à¤°
à¤ķà¤°à¤£ à¤ľà¤¸
à¤¦à¤° à¤¬à¤¨
Ġà¤Ĩà¤īà¤¨ à¤¬
à¤®à¤¦ à¤¯
re ak
Ġà¤¸à¤¹à¤° à¤Ń
à¤¸à¤¤ à¤¹à¤®
ĠA ustralia
à¤ĩà¤ķà¤² à¤¸à¤¹
Ġd ur
à¥§à¥© à¥«
ĠG r
ĠL ist
à¥§à¥¯à¥¯ à¥©
ust om
pl ace
à¤¨à¤Ĺà¤¢ à¤ķ
Ġà¤Ĩà¤ĩà¤ĵ à¤ıà¤®à¤²
ĠBh ojpur
m itt
à¤¸ à¤¸à¤®à¤ķ
Ġà¤ª à¤µà¤°
Ġà¤ķ à¤ļà¤¨
à¤Ĺ à¥Ŀ
à¤ı à¤¸à¤°
à¤ľ à¤°à¤¸
Ġà¤Ĺà¤° à¤ı
à¤°à¤® à¤¬à¤¹
Ġà¤ļ à¤Ļà¤Ĺ
Ġà¤¶ à¤°à¤¤
Ġà¤ľà¤¨ à¤§
Ġà¤¡ à¤¹à¤°
à¥ģà¤ģ à¤ģ
à¤Ĺà¤¤ à¤Ĺà¤¤
Ġà¤īà¤¦ à¤¯à¤¸
Ġà¥ª à¥¨à¥¦
à¤¤à¤µ à¤¹
Ġà¥§à¥§ à¥§à¥¨
à¤§à¤ķ à¤Ł
à¤Ńà¤ķ à¤°à¤ķ
Ġà¤Ĩà¤Ī à¤ıà¤²
Ġà¤Ĭ à¤ªà¤¶
Ġà¥¨à¥¬ à¥§
à¤®à¤£ à¤°
Ġm ake
ĠS ol
Ġf ind
ist ration
Ðº Ð¾
áĥ ł
à¤¾à¥Īà¤ģ à¥¤
à¤¡à¤Ń à¤ŀ
ãĥ «
co in
Ġà¤¬à¤ļà¤¨ à¤¬à¤¦
ĠÐ¿ÑĢ Ð¾
Ð¸ÑĤ ÐµÐ»ÑĮ
à¤¸à¤ı à¤ªà¤®
ĠEve rest
ĠSTOR Y
' t
O I
] ]
p a
ä ¿
à¤ ©
à¤° à¤¥à¤²
à¤ķ à¤°à¤µ
à¤ķ à¤¶à¤ª
à¥ĭ âĢĺ
à¤¤ à¤Ĺà¤£
à¤¯ à¤Ľ
à¤¸ à¤°à¤¸à¤°
Ġà¤¸ à¤°à¤£
Ġà¤ª à¤Ń
à¤µ à¤²à¤¬
Ġà¤¨ à¤°à¤ķà¤®
à¤¡ à¤¬à¤ķ
à¤ĩ à¤Ľà¤¨
à¤īà¤¨ à¤¨
Ġà¤ĺ à¤¨à¤ª
à¤¤à¤° à¤ªà¤Ľ
à¤¯à¤¨ à¤¯
à¤²à¤¯ à¤¨à¤²
Ġà¤¹à¤ľ à¤®
à¤¬à¤° à¤¨
Ġà¤¬à¤° à¤Ĺ
Ġà¤¬à¤¹ à¤¸à¤¬
à¤¦à¤µ à¤¹à¤°
Ġà¥¨à¥« à¥ª
in ce
à¤Ĺà¤¢ à¤µ
Ġà¤¨à¤µ à¤Ĩà¤Ĺà¤¨
ĠÐ ĵ
ĠÐ ĺ
Ġp ur
he ll
Ġc al
Ġà¥ªà¥® à¥¦
à¤°à¤ľà¤¨ à¤¨à¤ķ
Ġin st
Ġre qu
Ġà¥ªà¥¬ à¥«
Ġà¥ªà¥¬ à¥§
ra w
Ġg ood
Ġà¤Ńà¤ľà¤¨ à¤¹à¤°
ĠRe cent
ĠØ ¬
tern et
Ġbe ing
/ âĢĵ
B yl
F L
N ayakhabar
P oint
R E
U T
n ame
Ó ©
Ø ²
æ Ģ
æ Ħ
à¤° à¤ĸà¤²
Ġà¤° à¤¸à¤¦
à¤ľ à¤®à¤®
Ġà¤¹ à¤Łà¤¨
Ġà¤µ à¤Łà¤¨
à¤ī à¤¦à¤®
Ġà¤¯ à¤«
Ġà¤µà¤° à¤ª
à¥§ à¥¦à¥¨
à¤°à¤µ à¤¹à¤°
à¤¤à¤¨ à¤¤
à¤·à¤ķ à¤¤à¤¤
à¤¬à¤° à¤ľà¤¸
Ġà¤¹à¤° à¤°à¤°
Ġà¤¢ à¤ªà¤ķ
Ġà¤ħà¤® à¤¨à¤²
à¤ĥ âĢĻ
à¤ĩà¤² à¤¨à¤ķ
Ġà¤¸à¤¤ à¤¤
Ġà¤¬à¤ļ à¤¤à¤²
à¤¦à¤® à¤ķà¤²
Ġà¤µà¤¨ à¤¸à¤®
Ġà¤¨à¤ķ à¤Ĩà¤īà¤Łà¤ķ
Ġà¥¨à¥¬ à¥¬
il s
ĠP ati
ou g
Ġp or
ĠT our
le ys
Ġc ent
à¤ģà¥¤ âĢĿ
ĠK antipur
Ġà¤µà¤¢ à¤¦
à¤¨à¤Ĺ à¤Ī
ĠU p
à¥¨à¥¦à¥© à¥¦
ĠSp orts
ãģ¾ ãģĻ
Byl aws
. âĢĿ
L A
f r
o or
Ġ order
à¤° à¤ī
à¤ķ à¤²à¤ķà¤²
à¤¯ à¤Ĺà¤¢
à¤Ĺ à¤°à¤¤à¤°
à¤Ł à¤¸à¤¨
Ġà¤ħ à¤°à¤¸
Ġà¤Ĩ à¤ĵ
Ġà¤¯ à¤¶à¤°
Ġà¤ªà¤¨ à¤¡
à¤Ļ à¤ķà¤²
à¤¯à¤® à¤ĸ
à¤ĩà¤¨ à¤¸à¤¹
à¤®à¤ķ à¤Ł
... à¥¤
à¤Ĩ à¤Ļà¤²
à¤¤à¤® à¤Ńà¤ķ
à¤ľà¤ķ à¤¦
à¤Ĺà¤² à¤¸à¤®
Ġà¤¹à¤° à¤«à¤®
Ġà¤¸à¤¯ à¤¬
Ġà¤ªà¤¦ à¤¸à¤®
Ġà¥Ń à¥§à¥¦
Ġà¤ĩà¤¨ à¤¬à¤ķ
Ġà¤ħà¤ª à¤ł
Ġà¤Ĩà¤ĩ à¤ı
re am
Ġà¥¨à¥§ à¥¦à¥¦
Ġà¥¨à¥¨ à¥©
Ġà¥¨à¥® à¥§
Ġà¤¦à¤¸ à¤µà¤°
or ies
Ġl ooks
Ġt wo
Ðµ Ð»Ð¸
Ġà¤Ńà¤ĩ à¤ıà¤²
ot o
à¤°à¤ľà¤¨ à¤¬
à¤Ļà¤Ĺ à¤£à¤®
à¤¨à¤Ĺ à¤ª
ber s
à¸ ļ
Ġà¥®à¥ª à¥¦
ĠNews p
Ġ= >
ĠSh restha
à¤°à¤®à¤Ń à¤Ļ
cl aim
urre nt
Ġà¤¬à¤ķà¤¸ à¤ªà¤¤
, )
F P
H acked
N C
S aturday
z y
æ ³
ç ´
Ġ id
à¥į à¥į,
à¥ĭ âĢķ
à¤¸ à¤ľà¤¨à¤ķ
Ġà¤ķ à¤£à¤ķ
Ġà¤¨ à¤ľà¤²
Ġà¤® à¤łà¤¹à¤°
à¤¢ à¤®
Ġà¤®à¤¹ à¤¬
Ġà¤īà¤ª à¤¸à¤¨
à¥§ à¥¨à¥¦
à¤²à¤¬ à¤µ
à¤¤à¤® à¤ª
à¤§à¤¨ à¤¤
Ġà¥¨à¥¦à¥Ń à¥®
à¤µà¤¤ à¤¤
à¤µà¤¤ à¤¹à¤°
à¤ľà¤® à¤§
à¤ķà¤¸ à¤ªà¤®
ar oo
Ġà¥¨à¥® à¥®
Ġà¤ĭà¤£ à¤Ń
ĠS ource
ĠA re
ĠC S
Ġd r
Ð¸ ÑĨ
Ġà¤īà¤ªà¤ķà¤°à¤£ à¤¸à¤¹
à¥Ģà¤Ĥ ,
à¥¦à¥« à¥§
ĠO lder
ãģ ł
à¤Łà¤°à¤¬ à¤°
ĠÐ¿ Ð¾Ð»
Ġst r
ĠCh allenge
Ġà¤¹à¤µà¤² à¤¦
ld quo
ĠÐº Ð¾Ð½
ĠÐ¿ÑĢ ÐµÐ´
erv ed
çĶ ¨
Ġint ent
ĠScorp ion
D ev
c a
f itting
Ê »
Ġ ÑĨ
à¤° à¤¥à¤ķ
à¤° à¤Ĩà¤ĸ
à¤¨ à¤¤à¤°à¤£
à¤ķ à¤Ļà¤ķ
à¤® à¤¹à¤¨
Ġà¤ª à¤±
Ġà¤° à¤Ĺà¤ķ
Ġà¤° à¤ħà¤ķ
à¤ı à¤Ĩà¤ĩà¤ľ
Ġà¤® à¤²à¤Ĺ
Ġà¤¹ à¤°à¤¸
Ġà¤¤ à¤¹à¤°
à¤Ń à¤·
à¤ĩ à¤¸à¤¹à¤°
Ġà¤ļ à¤°à¤ķ
Ġà¤ıà¤ķ à¤§
à¤²à¤¯ à¤¸à¤®à¤ķ
à¥ĭà¥¤ )
à¤·à¤ķ à¤ħà¤¨
à¥Įà¤ģ ?
à¤Ĺà¤² à¤«
à¤¨à¤¸ à¤ªà¤Ľ
à¤¾à¥ĩ à¤Ĥ
à¤ľà¤Ĺ à¤¤à¤ķ
à¤¨à¤¬ à¤¸
à¤īà¤¦ à¤¯
in fo
Ġ2 073
à¤Ĺà¤¢ à¤²
à¤°à¤ĸ à¤®
ĠN RNA
à¤«à¤ķ à¤¦
ĠM ang
à¤¾à¥Ī âĢĮà¤Ĥ
ÑĤ ÐµÑĢ
à¤°à¤ļà¤²à¤¨ à¤¸à¤®
id er
à¤Ĩà¤ĩ à¤ıà¤¨à¤ľ
Ġv ery
ÐµÐ ±
ĠØ ®
ib ra
à¥¨à¥¦à¥© à¥«
Ġà¤¦à¤²à¤¬à¤² à¤¸à¤¹
P rab
i qu
m à¤Ń
r as
w a
| à¤¾
æ ²
é ĸ
à¤¤ à¤¹à¤®
Ġà¤Ń à¤īà¤ķ
à¤¶ à¤²à¤®
à¤¡ à¤¸à¤¨
à¤Ī à¤ķà¤°
à¤Ī à¤¬à¤¹
à¤ī à¤¥à¤ķ
Ġà¤ľà¤¨ à¤ľà¤¨à¤®
à¤Ĺà¤° à¤¸à¤®
Ġà¤¸à¤¹ à¤¤
à¤¯à¤¤ à¤Ń
Ġà¤ħà¤¹ à¤²
à¤¯à¤° à¤¨
à¤§à¤¨ à¤§
à¤ķà¤¨ à¤ľ
à¤°à¤¨ à¤µ
Ġà¥§à¥® à¥ªà¥®
Ġà¤Ĩà¤ª à¤¸à¤ķ
at ic
Ġà¤¶à¤¹à¤° à¤¤
ad h
Ġà¤Ĩà¤ı à¤¤
Ġm ail
it ive
ĠA b
Ġà¤¬à¤¡ à¤ĺà¤°
ĠÐ £
ĠD ocuments
il ly
Ġà¥©à¥¨ à¥©
ĠF rom
un n
un t
ĠE arly
ĠL iving
ĠCom ment
ong s
Ġch allenges
one y
ïģ ¬
à¥ħ à¤Ĥ
ĠLe ave
Ġar ound
ĠEle ct
eren ce
Ġ________ ____
à¤ĩà¤¨à¤ĸà¤¬à¤°à¤ķ à¤°
Ġà¤īà¤Ńà¤¯ à¤ļà¤°
ĠSupport ing
& #
1 07
Ġ ict
à¤° à¤°à¤®
à¤¨ à¤¬à¤²
à¤¨ à¤Ĩà¤īà¤¨
à¤¸ à¤¸à¤Ń
à¤ı à¤¸à¤Ń
à¤¡ à¤µà¤¤
à¤ī à¤¡à¤¬
Ġà¤¯ à¤Ļ
à¤« à¤ľ
Ġà¤ıà¤ķ à¤¦à¤°
à¥į, "
Ġà¤ªà¤¦ à¤ķà¤¬
à¤ıà¤¨ à¤Ľ
à¤ķà¤¨ à¤Ĺ
Ġà¥¦ à¥¨à¥®
à¥ĩà¤Ĥ -
à¥ĩà¤ģ âĢĻ
à¤§à¤¨à¤ķ à¤°
à¤°à¤ĸ à¤¬à¤¹
à¤Łà¤¬ à¤ķ
à¤ĩà¤¨à¤² à¤Ńà¤¨
à¤Ĩà¤Ī à¤®
ĠP u
ĠM er
Ġs i
ĠF irst
Ġà¤Ńà¤ĩ à¤Ľ
ĠL and
Ġe Bay
Ġà¤¸à¤ĸ à¤¡
ver t
ĠÃ Ľ
eng th
Ġal ert
Ġsu pport
Ġà¤°à¤¹à¤¨à¤¸à¤¹ à¤¨à¤ķ
Ġà¤Ŀà¤ªà¤Ł à¤¬à¤¹
ĠEp isode
tro fitting
b ol
k o
n ÃŃ
v es
Ê ¼
Î »
ç §
Ġ ___
à¤¾ à¥Ĥ
à¤° à¤ĩà¤Ļ
à¤ķ à¤īà¤¤
à¤ª à¤ľà¤¨
Ġà¥¤ âĢĵ
à¤ľ à¤¶à¤¬
à¤¥ à¤Ń
à¤Ī à¤¡à¤®
à¤Ī à¤¨à¤¹à¤°
à¤Ī à¤ıà¤²
ĠâĢĺ âĢĻ
à¤¯à¤¨ à¤ľ
à¥§ à¥©à¥¦
à¤²à¤¯ à¤ħà¤Ĺ
à¤ķà¤° à¤¸à¤®
à¥© à¥¨à¥¦
Ġà¤¸à¤¦ à¤Ĺà¤¤
à¤¨à¤¸ à¤°à¤¹
à¤¬à¤² à¤°
à¤¬à¤² à¤¹à¤°
Ġà¥§à¥¯ à¥§à¥¯
à¤¨à¤¬ à¤ķ
à¤¦à¤µ à¤¦
à¥¦à¥Ń à¥Ń
à¤Ńà¤µ à¤¹
Ġà¤Ī à¤¨à¤°
re l
à¤¯à¤£ à¤¦à¤¤
à¤Ĩà¤° à¤Ĩà¤Īà¤ķ
Ġà¥¦ à¥§à¥ª
Ġà¥¦ à¥©à¥Ń
Ġà¥¨à¥ª à¥©
à¤ķà¤µ à¤ļ
à¤ļà¤¨à¤® à¤¯
à¤ĩà¤¡ à¤°à¤ķ
Ġà¤°à¤¸ à¤Ĺ
à¥Įà¤Ĥà¥¤ "
ou d
ĠC D
à¤µà¤¹ à¤¨à¤ķ
Ð° ÑĪ
el o
ĠE Y
ul ation
à¤¤à¤ľà¤¨ à¤¬
pp ing
Ġst ress
Ġpro pert
ill a
Ð½Ð¸ Ðº
ĠBe auty
ident ified
Ð½Ð¾ÑģÑĤ Ð¸
ĠKang aroo
Ġà¤¨à¤ĵ à¤ĩà¤²
ĠWeek ly
U K
c mugu
c ause
à¤¨ à¤¯à¤°
à¥Ģ âĢĺ
à¤ª à¤Ńà¤°
à¤Ł à¤µà¤¯
Ġà¤¬ à¤ķà¤¬
Ġà¤® à¤Ĺà¤°à¤®
Ġà¤µ à¤µà¤¶
Ġà¤¦ à¤¥
à¤¡ à¤°à¤µà¤²
à¤Ń à¤°à¤¹à¤°
à¥¤ âĢľ
à¤« à¤¤à¤²
Ġà¤ı à¤¦
à¤Ļ à¤Ĺà¤°
à¤ĺ à¤·à¤ķ
à¤ªà¤¨ à¤¤
à¥Įà¤Ĥ (
Ġ( -
à¤¸à¤¨ à¤§
à¥Īà¤Ĥ à¥¤
à¤¦à¤¨ à¤µ
à¤µà¤² à¤¦
Ġà¤¨à¤® à¤ĸ
à¤ķà¤ª à¤ª
à¤®à¤ļ à¤¤
à¤¨à¤ª à¤¹
à¤¥à¤² à¤µ
à¤²à¤µ à¤ľ
à¤Ĩà¤° à¤ı
Ġà¤Ńà¤ıà¤¨ à¤Ľ
ad d
à¤ħà¤¸ à¤Ī
Ġm ult
Ġà¥©à¥§ à¥©
Ġp op
Ġp ublic
ĠM ach
ĠI T
Ġd tom
âĢĮ .
ĠF lying
Ġon ly
Ġà¥ªà¥¯ à¥®
ir th
à¤¹à¤ª à¤ŀ
ĠV ote
Ġà¤Ĩà¤¯à¤ķ à¤°à¤®
dc cmugu
à¥ĩâĢĶ âĢĺ
à¥¨à¥¦à¥© à¥®
con on
Ġà¤ľà¤®à¤ĺ à¤Łà¤²
à¤ķà¤ħ à¤ªà¤²
hak t
Ġhello ddcmugu
Ġhello dccmugu
Ġddc mugu
âĻ ¦
cont ent
Ã£ o
Ġdtom ugu
B y
N ot
P P
V i
m ang
Ã º
Ø ¬
å ĳ
ĉ Ġ
Ġ Ñı
à¥į ),
à¤¨ à¤ħà¤ª
à¤Ł à¤°à¤¹
à¤ı à¤Īà¤¦
Ġà¤¦ à¤¸à¤µà¤Ł
Ġà¤Ĩ à¤ľà¤¨
Ġà¤Ĩ à¤ŀ
à¤ĸ à¤ľà¤¸
Ġà¤Ńà¤¨ à¤ķ
à¥Įà¤Ĥ à¤ģà¥¤
à¥ĭ, "
Ġà¤ĵ à¤Ĩà¤°à¤ľ
à¤¯à¤° à¤Ĺ
à¤ĵ à¤¸à¤ķ
Ġà¤ĩà¤¨ à¤«
Ġà¥® à¥¦à¥¦à¥¦
Ġà¥¯ à¥§à¥¯
à¤ľà¤² à¤ľ
à¤ıà¤¸ à¤Ĩà¤°
à¤ªà¤¦ à¤¬
Ġà¤Ńà¤µ à¤¨à¤²à¤Ĺ
Ġà¤Ńà¤Ī à¤¯
Ġà¥¨à¥§ à¥§
à¤ķà¤µ à¤¹
Ġà¤ľà¤² à¤īà¤¤
à¤µà¤¶ à¤°à¤£
ĠS chool
ĠA vailable
ĠM ysansar
Ġà¤¶à¤µ à¤ªà¤°
Ġà¥©à¥© à¥§
Ġà¥©à¥© à¥©
Ð½ Ð¾Ð¼
Ġà¥«à¥® à¥¦
ĠSt ay
à¥§à¥¯à¥¯ à¥«
ÐµÐ½ ÑĮ
Ġà¤®à¤²à¤® à¤ªà¤Ł
Ġ.... .....
ãģĹ ãģ¦
ÐµÐº ÑĤ
ïĥ ¼
ĠJohn ny
ĠKhan e
Aug ust
/ >
7 2
7 9
] à¥¤
k y
Å Ļ
à¤ķ à¤Ĩà¤¸
à¤² à¤ľà¤µ
à¤¯ à¤Ŀ
à¤Ł à¤ķà¤®à¤²
Ġà¤¤ à¤¡à¤ª
à¤Ī à¤¹à¤ª
à¤ĸ à¤Ĺà¤°
Ġà¤ħà¤¨ à¤¸à¤¨à¤²
à¤Ļ à¤®à¤§
Ġà¤« à¤¨à¤ķ
à¤ĺ à¤ľà¤¸
Ġà¤ķà¤° à¤Ļ
à¤²à¤¯ à¤ĸà¤µà¤°
à¤°à¤µ à¤¬
Ġà¥ª à¥©à¥¦
à¤¶à¤¨ à¤Ń
Ġà¤ķà¤² à¤¶à¤®
à¤µà¤¤ à¤µ
Ġà¤Ĭ à¤ª
at al
à¤°à¤¥à¤® à¤ªà¤Łà¤ķ
st er
ĠS ing
à¤īà¤¤ à¤¸
ĠN TC
ĠP vt
à¤¯à¤°à¤ķ à¤ª
Ġa uf
à¤§à¤¨à¤® à¤§
Ġà¤¬à¤Ł à¤¨à¤®
Ġà¤ľà¤Ĺà¤¤ à¤¸
à¥¦à¥ª à¥®
à¥įà¤¾ à¤¿
Ġà¥®à¥ª à¥«
ik t
à¤ıà¤ľà¤¸ à¤°
ĠÙ ¾
ĠðŁ ĺ
ater ial
nar conon
roll ment
, (
j i
Ġ ist
à¤¨ à¤¦à¤ķ
à¥ĩ à¥ĭ
à¤¸ à¤Łà¤²
Ġà¤ª à¤¤à¤¨à¤ªà¤Ľ
à¤¦ à¤¬à¤ľ
Ġà¤¨ à¤¸à¤¦
Ġà¤¹ à¤²à¤Ĺ
Ġà¤¤ à¤ĸ
à¤¶ à¤Ł
à¤ģ ?
à¤¡ à¤¸à¤°
à¤ī à¤¥à¤µ
à¤¢ à¤¹à¤°
à¤¯à¤¨ à¤Ĺà¤°
Ġà¤ħà¤¸ à¤¨à¤ķ
à¤µà¤¨ à¤Ń
à¤²à¤¨ à¤ľà¤¸
à¥įâĢ º
à¤°à¤¨ à¤¦
Ġà¤§à¤¨ à¤²à¤ķ
à¤ıà¤¸ à¤°à¤¹
à¤°à¤ľ à¤Ĺà¤¤
à¤ĩà¤ķ à¤°à¤ķ
à¥Ī, âĢĻ
Ġà¥¨à¥® à¥¯
Ġm uch
à¤ĩà¤ķà¤² à¤¹à¤°
ĠP a
ĠT v
à¤·à¤¬ à¤¢
Ġà¤¸à¤ĺ à¤¨à¤¤
ĠF ear
à¥§à¥ª à¥ª
Ġn a
un ction
à¥¦à¥« à¥¯
us e
à¸ «
ia ble
ok har
Ñĭ Ð²
ĠSt ar
ĠÐ´ Ð¸
av as
ÙĨ Ø¯
Ġà¤¸à¤¤à¤² à¤ľà¤²
è¿ Ļ
Ġpres erve
urre nc
ïĤ §
amj ung
, à¥¤
F l
g in
r akar
u ance
æ Ĭ
à¤² à¤¤à¤µ
à¤¸ à¤ıà¤®
Ġà¤¸ à¤Ļà¤ķ
Ġà¤ª à¤¶à¤¨
Ġà¤ķ à¤¸à¤®à¤¸
Ġà¤¨ à¤īà¤®
à¤ı à¤ıà¤®à¤¸
Ġà¤ħ à¤µà¤¨à¤¤
Ġà¤¤ à¤ķà¤¨
à¤ģ à¥ģà¤Ĥ
à¤ī à¤¯
à¤¿à¤Ĥ à¤Ĥ
Ġà¥Ń à¥¦à¥¦à¥¦
à¤²à¤Ĺ à¤ª
Ġà¤ħà¤¬ à¤Ĺà¤¤
à¤¹à¤¨ à¤¤à¤®
à¤¨à¤Ĺà¤° à¤ªà¤²
Ġà¥§à¥ª à¥§à¥«
à¤ĩà¤¸ à¤¯
à¤¤à¤°à¤ķ à¤¹à¤°
Ġm it
ĠA ward
ĠD ocument
Ġp rom
ĠC up
he m
he emd
à¤ħà¤ª à¤µ
ĠB ack
Ġd on
ro ad
ĠG eneral
Ġà¥©à¥¯ à¥¦
Ġà¤Ĩà¤īà¤Ł à¤®
Ġg cu
Ġ6 6
ub l
Ġà¤¦à¤¶à¤°à¤¥ à¤ª
Ġ200 6
ĠEx am
uth or
Ġà¤ıà¤¸à¤ıà¤² à¤Ĩà¤°
heemd att
Ġgcu i
G au
p ut
t op
y e
Ã ´
à¤¨ à¤¦à¤°
à¤ķ à¤ĵà¤Ńà¤°
à¤¸ à¤Ĩà¤°
Ġà¤¸ à¤¶à¤¤
Ġà¤¸ à¤¸à¤¸
à¤¦ à¤®à¤§
à¤ı à¤Łà¤ķ
à¤¬ à¤°à¤¹
à¤¬ à¤ķà¤¹à¤°
à¤§ à¤¯à¤ķ
à¤§ à¤°à¤¸
à¤¶ à¤¯à¤¹à¤°
à¤¥ à¤²à¤¤
à¥Ĥ âĢĶ
à¤ī à¤²à¤Ĺ
Ġà¤¸à¤® à¤°à¤ķ
Ġà¤¥ à¤¯
Ġà¤ı à¤¨à¤µ
à¤ľà¤¨ à¤¹
à¤ĺ à¤Łà¤ķ
à¤ªà¤¨ à¤ľà¤¸
Ġà¤¸à¤ķ à¤¸à¤ķ
Ġà¤¸à¤¹ à¤ĩà¤ŀ
à¤ħ à¤«à¤ķ
à¤ķà¤² à¤¯
Ġà¤ĩ à¤¯à¤°à¤ķ
à¤°à¤µ à¤ļà¤¨à¤®
Ġà¤Ŀ à¤ªà¤ķ
Ġà¥ª à¥§à¥¨
à¤¤à¤² à¤¹à¤°à¤²
à¤ļà¤ķ à¤¸
Ġà¥§à¥¯ à¥©à¥Ń
Ġà¥¤âĢĻ âĢĵ
à¤®à¤¦ à¤¬
Ġà¤ľà¤Ĺ à¤¤à¤°
Ġà¤Ī à¤Ĺ
Ġà¤Ĩà¤Ī à¤ıà¤ķ
Ġà¤Ĩà¤Ī à¤Łà¤®
à¥ĩà¤ģ ;
Ġà¤ıà¤² à¤ıà¤²à¤¸
ĠS a
ĠS outh
ĠA f
à¤µà¤ķà¤ª à¤ªà¤Ľ
ĠM ac
ĠM ira
à¤ıà¤« à¤ıà¤¸
à¥§à¥« à¥¦à¥¦
ĠB est
à¤°à¤ļà¤²à¤¨ à¤ħà¤¨
em y
Ġà¥©à¥Ń à¥¨
à¤¯à¤°à¤® à¤§
à¤īà¤ľ à¤°à¤¹à¤°
ĠG ad
à¤ıà¤ļ à¤ıà¤²
Ġà¥¬à¥ª à¥«
ak er
Ġà¥¯à¥« à¥§
Ġà¥Ńà¥¬ à¥«
th er
à¥§à¥¯à¥¯ à¥ª
ä¸ ª
à¤°à¤µà¤£ à¤¶à¤ķ
Ġà¤¸à¤¯à¤® à¤§
oci ety
áĥĺáĥ ¡
Nispak hya
Ð½Ð¾ÑģÑĤ ÑĮ
Ġdeb uting
Health y
L PG
M e
k i
n h
s ub
w eb
y ou
Ã Ī
à¤¨ à¤°à¤¸à¤¹
à¤ķ à¤łà¤®
à¤ķ à¤°à¤¸à¤¹
à¥ĩ ....
Ġà¤¸ à¤Īà¤ķà¤²
Ġà¤° à¤ľà¤µ
Ġà¤¨ à¤ªà¤²
Ġà¤¨ à¤ħà¤¸
Ġà¤¬ à¤ķà¤µ
Ġà¤ħ à¤°à¤®
Ġà¤µ à¤¸à¤®
à¤§ à¤¤à¤°
à¤Ĥ à¥ĩ
Ġà¤ľ à¤Ĺà¤°à¤¨
Ġà¤¯ à¤ľà¤®
Ġà¤ļ à¤¯à¤¨à¤²
Ġà¤ıà¤ķ à¤²à¤®
à¤ªà¤¨ à¤¨
Ġà¤Ł à¤µ
à¤·à¤£ à¤Ńà¤¨
Ġà¥ª à¥Ńà¥«
à¤§à¤¨ à¤Ńà¤¨
Ġ| âĢĿ
à¤ĥ )
Ġà¤¸à¤®à¤¯ à¤ªà¤¶
à¤ĵ à¤Ĩà¤°à¤ķ
à¤Łà¤® à¤¯
Ġà¥® à¥§à¥¯
Ġà¤ĺà¤Ł à¤ķà¤²
à¤Ļà¤® à¤¯
à¤µà¤Ł à¤°à¤®
it le
ĠD el
ĠP lease
ĠM um
à¤ıà¤« à¤ľ
Ġf riend
Ġo p
Ġre sp
ãģ ĵ
Ġà¥ªà¥Ń à¥¦
à¤¹à¤£ à¤¹à¤°
ak es
Ġà¥«à¥Ń à¥¦
Ġà¤ĸà¤ªà¤¤ à¤®
à¤¨à¤Ľ à¤ķ
à¤¸à¤¡à¤ķ à¤¦
ĠCom mittee
Ġ200 5
áŀ ļ
________________ ____
ĠEn ter
Ad d
==== ====
ĠGork h
overn ment
rish na
ĠOri entation
5 9
F O
G A
Q L
Q u
m ysansar
Ë ļ
å Ĵ
è ´
ô Ģ
à¤¯ à¤ļà¤¨
à¥Ģ ....
à¤¸ à¤µà¤ª
Ġà¤® à¤Ĺà¤ľ
Ġà¤ħ à¤¶à¤²
à¤Ī à¤ħà¤¨
à¥Ĥ ?
Ġà¤¸à¤® à¤ªà¤°
Ġà¤ı à¤¸à¤²
Ġà¤« à¤°à¤¹
à¤¯à¤® à¤¬à¤®
à¤¯à¤¤ à¤¹
à¤¯à¤¤ à¤²à¤Ĺ
à¤°à¤¹à¤° à¤ķ
Ġà¤Ńà¤ı à¤¥
Ġà¤ĵ à¤ĩ
à¤§à¤¨ à¤ªà¤¶
Ġà¤ħà¤¬ à¤®
Ġà¤Ĩà¤ĩ à¤ıà¤²
à¤ľà¤® à¤¨à¤²
à¤£à¤¯ à¤¬à¤®
à¤Ńà¤µ à¤¸à¤®
Ġà¤ķà¤¥ à¤¨à¤ħà¤¨
Ġà¥§à¥® à¥®à¥¬
Ġà¤Ńà¤¤ à¤Ńà¤¤
Ġà¤ıà¤² à¤Ł
ĠM a
ĠM essage
Ġà¤¤à¤²à¤¬ à¤¸à¤¹
à¤ģ, '
ĠB hakt
ĠF in
Ð½ Ñı
à¥¦à¥§ à¥«
à¤Ĩà¤ĩ à¤ıà¤²
à¤ĩà¤²à¤® à¤ķ
Ġv isit
à¤Łà¤¦ à¤²à¤®
Ġ4 8
Ġà¥®à¥¯ à¥Ń
ab in
à¨ °
Ø± ÛĮ
Ġà¤ıà¤¯ à¤°à¤¸
ĠVi jay
bo ard
Ġà¤Ŀà¤®à¤ķ à¤ķ
St ory
à¤ħà¤®à¤° à¤Ĺà¤¢
ARL ESS
Ġà¤ħà¤¨à¤Ļ à¤Ĺà¤¨
ĠKang mang
Ġleg acy
Ġcommunic able
ĠChit rakar
ĠTE ARLESS
ĠTrain ing
hup ada
ĠAnnounc es
Prab hupada
ĠEY ES
ĠFear ism
avas cript
l ist
Ï ģ
à¤® à¤¸à¤Ń
Ġà¤® à¤ĩ
Ġà¤ħ à¤Łà¤µ
à¤¬ à¤®à¤§
Ġà¤Ĩ à¤Ĺà¤¤
à¥Ĥ à¤¿
à¤ī à¤ľà¤®
à¤« à¤¤à¤ķ
à¤īà¤¨ à¤Ł
à¥ĥ .)
.. âĢĻ
à¤Ŀ à¤¨à¤ķ
à¤°à¤¦ à¤ªà¤Ľ
à¤µà¤° à¤¬à¤¦
Ġà¤ħà¤¹ à¤¸
Ġà¥ª à¥§à¥§
à¤¶à¤¨ à¤Ńà¤¨
à¤¿à¤Ĥ ,
à¤²à¤Ĺ à¤¸
Ġà¥§à¥¦ à¥¦à¥®
à¤¤à¤°à¤£ à¤²à¤Ĺ
à¤ªà¤² à¤¡
à¤ĩà¤Ł à¤¸à¤®
ĠâĢĵ âĢĵâĢĵ
à¤²à¤µ à¤¬
Ġà¤ķà¤µ à¤¯à¤¤
re ed
Ġà¥¨à¥Ń à¥®
Ġ1 01
it ening
Ġà¤ĺà¤¨ à¤ļà¤ķ
à¥ģà¥¤ à¥¤
Ġs im
Ġà¤Ĺà¤ľ à¤²à¤¬
Ġà¤łà¤¹à¤° à¤¸à¤¹
Ġn ow
Ġb et
Ġo pen
Ġin c
à¤¦à¤¨à¤² à¤Ĺ
Ġà¥¬à¥ª à¥¦
Ġà¤ķà¤¦ à¤®à¤ļ
ĠW ork
ik o
à¤Ĩà¤ł à¤°
à¥¨à¥¦à¥¨ à¥«
Ġà¤Ĩà¤ĩà¤¨ à¤ª
Ġ.. ??
Ð½Ñĭ Ð¼
ÑģÐº Ð¸Ð¹
Ġ25 0
Ġà¤°à¤ĸ à¤µ
Ġà¤Ńà¤Ĺà¤¤ à¤ª
Ġà¥¨à¥¦à¥® à¥¨
Ġed it
ĠCont act
ĠOb ject
claim er
M M
N O
P C
S M
h m
n ost
Ġà¤¸ à¤Łà¤°à¤®
à¤¹ à¤²à¤¬
Ġà¤° à¤ľà¤¶
Ġà¤¨ à¤®à¤ķ
à¤ı à¤ıà¤«
à¤§ à¤¹
Ġà¤¤ à¤ķà¤Ńà¤°
à¤¡ à¤¦à¤°
Ġà¤² à¤²à¤¨
Ġà¤ªà¤° à¤ļ
à¤ĺ à¤¶
Ġà¤ľà¤¨ à¤¦
à¤¤à¤° à¤µà¤°
à¤Łà¤ķ à¤ĺà¤°
Ġà¤Ńà¤ı à¤Ńà¤¨
à¤¸à¤¨ à¤Ńà¤¨
à¤¤à¤® à¤¨à¤¸
à¤®à¤¨ à¤ªà¤°
à¥Įà¤ģ âĢĮ
à¤Ĺà¤² à¤¤à¤°
Ġà¤¬à¤° à¤ª
Ġà¥Ń à¥¨à¥«
à¤¶à¤¤ à¤ľà¤¤
Ġ! ''
à¤·à¤¯ à¤¤à¤°
à¥ĩà¤ģ âĢĶ
à¤¸à¤¨à¤² à¤®
Ġà¤ħà¤¸à¤° à¤«
à¤¤à¤µà¤¨ à¤µ
Ġp oint
Ġà¥«à¥« à¥©
Ġà¥ªà¥¨ à¥«
Ġo wn
Ġw ell
Ġ3 3
à¥ĩ? '
ul ip
Ġà¤¨à¤¹à¤° à¤¬
Ġà¤Ĩà¤Ĩà¤« à¤¨
Ġà¥¦à¥ª à¥©
ue st
og raph
az on
ert ain
à¤ĵà¤Ńà¤° à¤Ł
Ġent er
Ġáĥ Ľ
Ð°Ð¹ ÑĤ
åĽ ½
à¤¨à¤ı à¤ľà¤°
) ",
2 075
7 19
A s
i ac
æ Į
à¤° à¤ħà¤²
à¤ķ à¤¨à¤²à¤Ĺ
à¤® à¤ĸà¤°
Ġà¤¸ à¤¸à¤¦
Ġà¤Ĺ à¤¤à¤ķ
Ġà¤¹ à¤²à¤¨
Ġà¤¦ à¤¹à¤¬
à¤ļ à¤¹
à¤Ī à¤²à¤¬
à¤Ī à¤Ĩà¤Īà¤ı
à¤£ à¤¦à¤²
à¤Ľ à¤¹
à¤ī à¤¤à¤¬
à¤ĩà¤¨ à¤Ľ
Ġà¥« à¥Ńà¥«
à¤®à¤¨ à¤¶
Ġ| ...
âĢĿ :
à¤ªà¤² à¤¸
Ġà¥«à¥¦ à¥¦à¥¦à¥¦
à¤¯à¤Łà¤¨ à¤¦
Ġà¤¸à¤¡ à¤¨
à¥Įà¤ģ, '
Ġà¥¨à¥¯ à¥ª
Ġà¤¬à¤® à¤ľà¤¨
Ġm en
Ġl ook
ic les
à¤Ńà¤Ĺ à¤µà¤¦
ĠP at
ĠM e
ĠM ind
à¤ªà¤Ł à¤ªà¤²
à¤·à¤ķà¤² à¤Ĺ
ĠI N
ĠI OS
Ð¸ Ñĩ
Ġà¤ħà¤¸à¤® à¤ŀ
à¥¦à¥« à¥®
ĠG e
Ġà¥©à¥¯ à¥§
ĠL PG
à¥§à¥¬ à¥Ń
Ġà¥Ńà¥¬ à¥§
à¸ ģ
Ġà¤Ĺà¤Ĺà¤¨ à¤Ĺ
à¤°à¤«à¤²à¤® à¤§
ly wood
Ġà¤¸à¤°à¤¦ à¤°à¤®
Ġà¤°à¤¨à¤° à¤ħà¤ªà¤²
30 5
Ġà¤Ĺà¤¡ à¤ıà¤¨
ĠAn t
à¥§à¥¯à¥¯ à¥Ń
ï¼ ļ
Ġà¤ĵà¤ĸ à¤°à¤¬
Ġprov ide
DR MP
FI LE
ĠPRO FILE
ĠIss uance
: ,
m nt
s ych
æ ł
ç ¤
à¤¿ &
à¤® à¤µà¤¨
à¥Ģ âĢĿ,
à¤¸ à¤ľà¤¨à¤²
Ġà¤¸ à¤¬à¤¨
à¤¹ à¤ľà¤¨à¤²
Ġà¤® à¤¸à¤¹
à¤ļ à¤§
à¤ļ à¤°à¤¸à¤¹
à¥Ĥ âĢ¦
à¤Ń à¤¯à¤ķ
Ġà¤ħà¤¨ à¤«
à¤°à¤£ à¤ľà¤¸
à¤²à¤ķ à¤ļ
Ġà¤¬à¤¢ à¤Ľ
Ġà¤ĩ à¤ķà¤®à¤°
Ġà¤¸à¤¬ à¤°
à¤¬à¤° à¤«
Ġà¤ªà¤¦ à¤®à¤ķ
Ġà¤ķà¤² à¤¹à¤²
à¤Ńà¤° à¤Ł
à¤ķà¤¨ à¤¦
Ġà¤¸à¤¤ à¤µ
à¤¨à¤µ à¤¯
à¤¨à¤µ à¤ª
à¤°à¤ª à¤¦
Ġà¤Ńà¤ıà¤° à¤ªà¤¨
Ġà¤īà¤ł à¤¦
à¤ķà¤¸ à¤¹à¤°
à¤ĩà¤° à¤²à¤ķ
on y
al inch
Ġà¤Ĩà¤ľà¤ķ à¤²à¤ķ
Ġà¥¨à¥® à¥¬
ad ams
Ġà¤¦à¤¶à¤ķ à¤¹à¤°
it ch
Ġl ocal
à¤°à¤« à¤°
Ġà¤¨à¤Ĺà¤¦ à¤°à¤¹
Ġp our
ĠT op
ĠM on
is a
ĠR at
à¤¥à¤Ĺ à¤¨à¤ķ
ÑĢ Ð¾Ð²
à¤Ĩà¤ĩ à¤µ
ãģ į
à¥¦à¥ª à¥Ń
ve y
Ġà¤ĺà¤°à¤Ń à¤Ī
áĥ ķ
Ġ5 8
Ġg e
Ġg roup
Ġth ese
Ñĭ Ð¹
à¥ģ... à¥¤âĢĿ
à¤®à¤ĸ à¤®à¤²
à¤°à¤ķà¤°à¤£ à¤¸
Ġpro duct
à¦ ¿
à¤¾à¤¿ à¤¿
Ġpl c
Ä± n
ĠAm erican
cl us
Ġà¤¶à¤ª à¤¥à¤ķ
ĠMan ang
ĠEn rollment
orp or
Ð°ÑĨ Ð¸Ð¸
è¡ Į
ĠBit coin
çĲ Ĩ
ĠBhakt apur
mnt v
alinch owk
A r
m à¤Ł
Ã Ł
Ð ķ
à¤¾ âĢĮ
à¥į Ã·
à¤° à¤ħà¤¸
à¤ķ à¤¶à¤¤
à¤® à¤ªà¤£
à¤Ĺ à¤ľà¤¨
à¤Ł à¤£
à¤ľ à¤ĸà¤¬à¤°
Ġà¤Ĩ à¤®à¤ķ
âĢ ¨
Ġà¤ªà¤° à¤¤
à¤¨à¤® à¤¯
Ġà¤ľà¤¨ à¤Ĩà¤§
à¤°à¤² à¤°
Ġà¤Ńà¤ı à¤Ĺà¤°
à¤ķà¤°à¤£ à¤¸à¤¹
à¤ĵ à¤Ľ
à¤ıà¤¨ à¤ıà¤®à¤¸
à¤¹à¤¨ à¤¹à¤°
à¤®à¤° à¤¸à¤®
Ġà¤µà¤¨ à¤Ĺ
Ġà¥¦ à¥ªà¥¦
Ġà¥¨à¥Ń à¥©
om an
Ġà¤ľà¤¬ à¤ľà¤¬
à¤¨à¤¸à¤® à¤ķ
Ġà¥¨à¥¬ à¥©
à¤Ĩà¤Ī à¤¤à¤µ
ĠN orth
Ġt est
ĠD o
Ġà¥«à¥« à¥¬
ĠR RP
un ch
ĠE l
à¥¦à¥« à¥¨
à¥¦à¥« à¥¬
ĠL DRMP
à¥ĭ? "
à¤¸à¤µà¤® à¤¯
ĠIn s
à¥¨à¥¦à¥¨ à¥¨
à¤°à¤ªà¤¥ à¤Ń
az er
aw aj
à¥¨à¥¦à¥© à¥§
Ġqu est
ĠHe alth
Ġaf ter
èĢ ħ
ĠSub ba
EV IN
F S
I L
r is
æ İ
Ġ il
à¤° à¤ľà¤Ĺ
à¤¹ à¤ªà¤¶
Ġà¤° à¤¸à¤¸
à¤Ł à¤µà¤ķ
Ġà¤¨ à¤īà¤Ń
à¤ı à¤ıà¤¸
à¤ı à¤¯à¤°à¤²
Ġà¤¬ à¤Łà¤²à¤°
Ġà¤® à¤ĺ
Ġà¤® à¤²à¤¬
Ġà¤¹ à¤°à¤¹à¤®
Ġà¤µ à¤ľà¤¨à¤ķ
Ġà¤¤ à¤Łà¤¹à¤°
Ġà¤ļ à¤ķà¤Ł
Ġà¤ĺ à¤°à¤¸à¤¹
Ġà¤ķà¤® à¤°à¤¸
à¤ĩà¤¨ à¤Ńà¤¨
à¤ķà¤® à¤¤
à¤Ĩ ËĨà¤¨
Ġà¤Ŀ à¤Ļ
Ġà¤Ŀ à¤Łà¤ªà¤Ł
Ġà¥« à¥©à¥¦
Ġà¤¸à¤¨ à¤ª
à¤ľà¤¸ à¤¬
Ġà¤ħà¤² à¤Ł
à¤ĩà¤¤ à¤°à¤ķ
à¤ĺà¤° à¤ĺà¤°à¤®
ar ge
à¤¡à¤° à¤ħà¤¨
à¤¹à¤¦ à¤¤
à¤¦à¤¨à¤® à¤§
Ġà¤ıà¤¡ à¤ľà¤¸
à¥ĭâĢ¦ âĢĻ
à¥¦à¥§ à¥¯
Ġà¥©à¥¯ à¥¨
à¥§à¥¬ à¥¦
Ġà¥ªà¥¯ à¥¦
ĠJ ack
à¸ ¸
ĠV isit
Ġà¤¦à¤°à¤® à¤ĸ
ãĢ Ĭ
Ġde ath
à¥§à¥¯à¥¯ à¥¯
able d
Ñį Ñį
Ð½Ð¾ Ðµ
à¤£à¤¨à¤Ĺà¤° à¤¸
ĠBl ue
ĠMo U
ĠÄ ĳ
èĩ ª
Ġpropert y
! )
g a
g har
m à¤¤
v al
à¤° à¤·à¤£
à¤ķ à¤¬à¤¨
Ġà¤ķ à¤£à¤²
Ġà¤® à¤°à¤Ń
Ġà¤¤ à¤°à¤¹à¤²
à¤Ī à¤£
à¤Ī à¤²à¤²
à¤Ī à¤«à¤ķ
Ġà¤² à¤°à¤¬à¤°
à¤ī à¤§à¤¨
Ġà¤¯ à¤®à¤¬
à¤¯à¤ķ à¤¶
à¥ĥ à¥ĩ
à¤°à¤£ à¤°
Ġà¤¡ à¤°à¤¬
à¥§ à¥¦à¥«
à¤Łà¤¨ à¤°à¤®
Ġà¥« à¥Ńà¥¬
Ġà¤ĵ à¤Īà¤°
à¤ķà¤°à¤£ à¤¤
Ġà¤Ĩà¤ľ à¤µ
Ġà¥§à¥¯ à¥¨à¥§
à¤¯à¤¸à¤® à¤ķ
à¤ķà¤¸ à¤°à¤¹
al ax
à¤ĸà¤² à¤¨à¤²
à¤ĸà¤¨ à¤¨à¤®
Ġà¤ĸà¤¬à¤° à¤ªà¤Ľ
Ġà¤¨à¤µ à¤°à¤¤
à¤Ĩà¤Ī à¤ĵà¤ıà¤®
ĠS il
Ġà¥©à¥« à¥Ń
Ġà¥©à¥§ à¥Ń
ĠÂ ®
à¤Łà¤¸ à¤²à¤ķ
Ġà¤Ĺà¤¹ à¤µ
ĠP R
ĠP ar
ou l
ou gh
à¤ıà¤« à¤¡à¤¬
Ġs he
Ġà¤Ńà¤ĩ à¤Ĺà¤¯
Ġw ar
Ġh ome
à¤¾' '
Ñĥ Ñģ
ĠOn e
ere nt
Ġà¤Ĩà¤ĩà¤ĵ à¤ıà¤®
Ġacc ount
off ee
Dis claimer
9 2
g u
n es
å İ
ç İ
à¤¨ à¤¤à¤¨
à¤² à¤ŀ
à¤® à¤ķà¤®
à¤¤ à¤Ľà¤¨
à¤¤ à¤ľà¤¨à¤®
à¥ģ âĢį
à¤¸ à¤Ĺà¤¨
à¤ª à¤µà¤¨
à¤Ĺ à¤Ŀ
Ġà¤¨ à¤°à¤Ńà¤ķ
Ġà¤Ń à¤°à¤¦
Ġà¤Ĺà¤° à¤ıà¤ķ
à¤¬ à¤£
à¤ļ à¤Ķ
à¤ī à¤¤à¤°
à¤°à¤ķ à¤¥
à¤ĩ à¤ĵà¤²
Ġà¤« à¤Ľà¤°
Ġà¤Ł à¤¸à¤ķ
à¤°à¤¦ à¤¯
Ġà¤¸à¤¬ à¤Īà¤²
Ġà¤ªà¤¹ à¤²à¤µ
à¤Ĺà¤¤ à¤¸à¤®
à¤Ĩ à¤¤à¤¸
à¤²à¤¨ à¤Ł
Ġà¤ĵ à¤ıà¤¸à¤¸
à¤¿à¤Ĥ .
à¤ķà¤°à¤£ à¤µ
Ġà¥¯ à¥©à¥¦
Ġà¤Ĩà¤ĩ à¤ıà¤¸à¤ª
à¤¯à¤Łà¤ķ à¤¸à¤®
à¤¯à¤£ à¤¥
Ġà¥§à¥® à¥ªà¥¬
à¥¤âĢĻ âĢĻ
à¥Ģ) à¥¤
Ġà¤®à¤¦ à¤¹
ĠD em
ĠP ok
Ġp ay
he ld
à¤°à¤Ļ à¤Ĺ
à¤¦à¤¯ à¤Ļ
à¥§à¥ª à¥¦
Ġn on
id ge
un a
Ġw rit
ĠO ut
ĠK EVIN
Ġà¥«à¥© à¥¬
à¤¸à¤¡à¤ķ à¤¬
à¥ĢâĢ¦ âĢĻ
ãĢ ĭ
Ġ9 4
ĠÐ¸ Ð»Ð¸
Ð°Ð½ Ð¸Ñı
à¤°à¤µà¤¹ à¤¨à¤®
Ġà¤ĩà¤¯à¤° à¤«
Ġex per
ĠX à¤¹
à¤Ĩà¤°à¤ıà¤¸ à¤Ĩà¤Ī
itt le
ĠAm azon
27 2
ante en
ĠHead line
åĴ Į
O V
S T
c le
y p
Ï Ħ
à¤° à¤ħà¤Ĺ
à¤¯ Tags
Ġà¤ª à¤īà¤²
à¤Ĺ à¤ľà¤µ
Ġà¤¨ à¤Ĺà¤²
Ġà¤¹ à¤¬à¤®
à¤· à¤°à¤¸à¤®
à¤ĸ à¤§
à¤ĸ à¤¤à¤°à¤¨
à¤ī à¤°à¤ķ
Ġà¤ī à¤¸à¤ª
Ġà¤ı à¤¸à¤®
à¤¨à¤ķ à¤¹
Ġà¤ĺ à¤ľ
Ġà¤²à¤Ĺ à¤¯
à¤®à¤ķ à¤Ńà¤¨
à¤¯à¤¨ à¤¸à¤®
à¥§ à¥¦à¥¬
à¥ĩ, ...
Ġà¥ª à¥§à¥©
Ġà¥¨à¥¦à¥Ń à¥¯
Ġà¥¯ à¥§à¥«
à¤ıà¤® à¤¹à¤°
Ġà¥¨à¥« à¥®
Ġà¤Ī à¤¦à¤ķ
Ġ[ &
ad o
Ġà¤Ĺà¤² à¤¤à¤ķ
ĠS at
à¤¶à¤¹à¤° à¤¬
Ġà¥©à¥¨ à¥¬
ĠM od
Ġà¤°à¤Ļ à¤Ĺ
Ġà¥ªà¥¯ à¥¯
Ġà¥¯à¥® à¥¬
à¥įâĢĻ âĢĵ
Ġà¥Ńà¥Ń à¥Ń
ãĥ ĥ
à¤ļà¤ĸ à¤ªà¤¨
Ġà¤Ŀà¤¡ à¤ªà¤²
az ine
Ð³ Ð¾
time à¤ķ
hell ip
S ON
i h
m of
v ar
v ir
Ã ±
Ä ģ
è ĥ½
Ġà¤ İ
à¤° à¤¨à¤¸
Ġà¤¸ à¤«à¤¤
Ġà¤ª à¤Łà¤®
Ġà¤ķ à¤¥à¤®
Ġà¤Ĺ à¤®à¤ķ
à¤Ł à¤ħà¤ªà¤ķ
Ġà¤ħ à¤ļà¤¨
à¤ıà¤ķ à¤ļ
à¤ļ à¤«
à¤¡ à¤ªà¤¨
à¤¡ à¤¸à¤®à¤ķ
à¤£ à¤¢
à¤Ń à¤ıà¤ªà¤¨
à¤ĸ à¤®à¤¦
Ġà¤ļ à¤ªà¤°
Ġà¤ı à¤ľà¤ķ
à¤ł à¤Ł
à¤ł à¤ľà¤¸
Ġà¤ªà¤° à¤«à¤°à¤®
Ġà¤¸à¤¹ à¤Ĺ
à¤ĩà¤¨ à¤ľà¤¸
Ġà¤ł à¤°
Ġà¤ĩ à¤°à¤ķ
à¤²à¤¯ à¤²à¤²
à¥ĭà¥¤ âĢ¦
Ġà¥« à¥¦à¥¨
à¤°à¤Ń à¤ŀ
Ġà¤ĸà¤° à¤ĸà¤ľà¤¨
Ġà¥Ń à¥¦à¥¨
Ġà¤Ĩà¤ĩ à¤¡à¤²à¤²
Ġà¤²à¤ķ à¤°à¤®
Ġà¥§à¥¯ à¥§à¥¨
Ġà¥§à¥¯ à¥¦à¥«
à¤¦à¤² à¤µ
à¤ıà¤¸ à¤¯
à¤¯à¤¯à¤¨ à¤ªà¤¶
Ġà¥§à¥® à¥«à¥Ń
Ġà¤¹à¤² à¤ĸ
Ġà¤ħà¤¡ à¤ļà¤¨
ĠS ar
ĠS ie
ĠC ap
à¤¤à¤¹ à¤¸à¤®
ĠI V
à¥§à¥ª à¥©
ot a
Ġw here
Ġà¤ħà¤¨à¤¶à¤¨ à¤¸
ĠL ay
Ġà¤¨à¤Ĺà¤°à¤ķ à¤®
ĠJ izer
Ġà¤²à¤¹ à¤¡à¤ķ
Ġà¥¯à¥Ń à¥¦
Ġv an
ebook s
Ġth ank
à¤ıà¤¨à¤Ĩà¤°à¤ıà¤¨ à¤ıà¤ķ
Ġà¤µà¤ļà¤¨ à¤¹à¤°
Ġà¤Ĩà¤ĩà¤¨ à¤¸
201 3
OR P
ib ooks
AT E
anc er
à¤°m à¤®à¤®
ĠSc ience
ÑģÑĤÐ² ÐµÐ½
ĠâĢ¢âĢ¢âĢ¢ âĢ¢âĢ¢
ĠEle ment
Ġoak leys
ĠMaj door
ĠNewsp ortal
6 3
B heemdatt
F acebook
T r
i et
j ag
l ength
o on
v ers
z i
à¤¯ à¤Łà¤°à¤®
Ġà¤ª à¤ļà¤°
Ġà¤ķ à¤µà¤¨
Ġà¤ķ à¤²à¤²
à¤Ĺ à¤¯à¤¤à¤ķ
à¥Ī ),
Ġà¤¨ à¤Ńà¤¯
Ġà¤Ľ à¤¥à¤°à¤ķ
à¥Ĥ !
Ġà¤ı à¤ıà¤«
à¤ĺ à¤°à¤§à¤¨
Ġà¤ĺ à¤°à¤Ńà¤°
à¤ªà¤® à¤¤à¤²
Ġà¤Ńà¤ı à¤ª
à¤Ĩ à¤ĩà¤ıà¤ķ
à¥© à¥«à¥¦
à¤ªà¤ķ à¤¦
Ġà¤ĵ à¤®à¤®
à¤ĥ à¥ģ
à¤ıà¤¨ à¤µ
Ġà¥¯ à¥ªà¥¦
Ġà¤Ĩà¤ĩ à¤ķà¤¨à¤ķ
à¤°à¤ª à¤¥à¤¸
à¤°à¤®à¤£ à¤¤
Ġà¥§à¥¯ à¥¨à¥Ń
à¤²à¤µ à¤¶
Ġà¥§à¥® à¥®à¥¨
Ġà¤ıà¤² à¤ıà¤²
ĠS ocial
ĠN tv
Ġl og
à¤¡à¤¸ à¤ľ
Ġà¤¨à¤Ĩ à¤ıà¤ªà¤¨
Ġs ch
à¤Ĺà¤£ à¤¹à¤°
ĠI f
ur anc
ro l
à¥ĭâĢ¦ .
Ġà¤¬à¤Ł à¤®à¤²
Ġà¤Ĺà¤ľà¤² à¤¸à¤Ļ
Ġà¥«à¥ª à¥¦
Ġh ad
Ġà¥¬à¥® à¥«
Ġà¤¯à¤® à¤¨à¤²
à¥į- '
iv er
ĠØ ±
Ġà¤ħà¤²à¤® à¤²à¤²
à¥įà¥Ģ à¥Ģà¥ĩ
ÐµÑĤ ÑģÑı
à¹ ģà¸
à¤¨à¤Ĺà¤¢ à¤®
ĠNot ices
gan epal
Ġà¤¬à¤°à¤® à¤Ŀ
ĠTrail bl
ĠGorkh ali
ghar jag
ĠNtv Plus
gharjag ganepal
9 48
D C
m ark
u a
Ù ĥ
å ł
ç «
ë ĭ
à¤ķ à¤ħà¤«
à¥ĭ Â»
à¤¸ à¤ĩà¤µ
Ġà¤ķ à¤°à¤£à¤ķ
à¤ľ à¤¤à¤ª
à¤¬ à¤²à¤Ĺ
à¤§ à¤¸à¤¤
Ġà¤¤ à¤ľ
à¤¥ à¤®à¤ķ
à¤¥ à¤ľà¤¸
à¤ļ à¤ľ
à¤£ à¤¨à¤²
à¤Ń à¤«à¤²
à¤ī à¤²à¤²
à¤ĩ à¤ªà¤Łà¤ķ
à¥Į !
Ġà¤®à¤¹ à¤Ļà¤Ĺ
Ġà¤ħà¤§ à¤¯à¤ķ
âĢĻ )
à¤¾, âĢĿ
Ġà¤ĩ à¤ķà¤¬
à¤Ĩ à¤Ł
à¤Ĩ à¤ªà¤¤
Ġà¥« à¥§à¥¦
à¥Įà¤ģ /
à¤°à¤¯ à¤²
Ġà¥ª à¥¦à¥Ń
Ġà¥ª à¥§à¥®
Ġà¤¹à¤° à¤«à¤²
Ġà¥¬ à¥¦à¥¦à¥¦
à¤ĩà¤°à¤¹ à¤ķ
à¤¶à¤® à¤°
Ġà¤ıà¤® à¤Ĩà¤Īà¤Ł
à¤ıà¤¸ à¤ıà¤®à¤ıà¤¸
à¤°à¤ľ à¤¬
Ġà¤¦à¤¶ à¤²
Ġà¤¨à¤ª à¤¡
Ġà¤ªà¤°à¤® à¤ªà¤°
Ġà¥¦ à¥©à¥©
Ġà¥¨à¥® à¥ª
ĠS ER
it u
à¤¤à¤µà¤¨ à¤¸à¤®
à¤¶à¤¨à¤² à¤Ĺ
Ġà¤ļà¤²à¤¨ à¤ħà¤¨
à¤ªà¤Ł à¤¨à¤ķ
Ðµ Ðµ
Ġà¤Ĩà¤¦à¤° à¤ª
ate st
à¥¦à¥« à¥Ń
ĠO il
Ġà¥©à¥¯ à¥«
ĠH ar
ĠK es
ig en
ĠU FO
ĠV ir
Ġà¥®à¥Ń à¥¯
à¥§à¥¯à¥¯ à¥§
à¤ªm à¤ķ
ai ic
Ġal low
Ġà¥§à¥¦à¥ª à¥©
Ġqu ality
Ġim p
ĠÐ± Ñĭ
ĠÐ° Ð²
ĠWith held
angu age
ĠTour ism
C anteen
h ip
u et
Ġ organ
à¤ķ à¤¯à¤ķ
à¤¤ à¤Ńà¤ıà¤ķ
à¤¯ à¤µà¤®
Ġà¤¸ à¤ĩà¤¦
à¤¹ à¤¬à¤®
à¤µ à¤¬à¤®
Ġà¤¨ à¤łà¤Ĺ
à¤ı à¤ī
à¤ļ à¤¡à¤ķ
à¤¹à¤° à¤Ńà¤µà¤¨
à¤¨à¤² à¤Ļà¤ķ
à¤¤à¤° à¤Ĺà¤°
Ġà¤īà¤ª à¤¸à¤°
à¤µà¤ķ à¤µà¤°
Ġà¤ħà¤¸ à¤¨à¤®
à¤Ĺà¤¤ à¤µ
à¥§ à¥§à¥¨
à¤¸à¤¨ à¤ĸ
à¤¦à¤¨ à¤¤à¤°
Ġà¤ħà¤® à¤°à¤¨
Ġà¤Ķ à¤·
Ġà¤®à¤² à¤¸
Ġà¤Ĩà¤® à¤¬
Ġà¤Ĳ à¤¨à¤¨
Ġà¤Ĳ à¤¨à¤¦
Ġà¤¦à¤¶ à¤¹à¤ľ
an agar
Ġà¥¨à¥¯ à¥¦à¥¦à¥¨
à¤Ķ à¤¸à¤¤
Ġà¥©à¥« à¥¬
Ġà¤ľà¤¨à¤® à¤¤à¤¬
à¤īà¤° à¤Ļ
ĠI CT
Ġà¥ªà¥¨ à¥Ń
ãģ Ľ
à¥¦à¥ª à¥¯
Ġà¥Ńà¥ª à¥¦
ĠW ik
Ġà¥Ńà¥© à¥¨
Ġà¥®à¥® à¥®
à¤Ĳ à¤°
Ġà¥Ńà¥¯ à¥¦
os h
Ġà¤Ńà¤ľà¤¨ à¤¸
Ġ7 6
Ġà¤Ĩà¤¯à¤ķ à¤°à¤ķ
ĠÐº Ð°Ðº
Ġan n
à¤«à¤¸à¤² à¤¬
aut ari
ĠMan agement
RO ID
68 4
ĠAP K
Ġà¤¦à¤¶à¤° à¤¥à¤²
ĠAND ROID
ĠBB Q
H TML
T H
h re
l ight
Ã ¢
æ ĥ
è µ
Ġà¤Ĺ à¤¯à¤ķ
à¤ı à¤Łà¤²
Ġà¤® à¤ıà¤ķ
Ġà¤® à¤¡à¤¸
Ġà¤¹ à¤Łà¤ķ
à¤¬ à¤¬à¤¹
à¤¬ à¤ľà¤°
à¤¶ à¤°à¤ľ
Ġà¤Ĩ à¤ªà¤ķ
à¤¡ à¤Ľà¤¨
à¤Ī à¤«à¤²
Ġà¤¶ à¤µà¤®
à¤īà¤¨ à¤¯
à¤Ļ à¤ĵà¤Ńà¤°
Ġà¤ıà¤ķ à¤°à¤¤
à¤Ĺà¤° à¤¹
à¤ªà¤¨ à¤µ
à¤Ŀ à¤ĸà¤£
à¤ħ à¤ľà¤¯à¤ķ
à¤Ĩ à¤°à¤§à¤¨
à¤¤à¤¨ à¤¸à¤¹
Ġà¤¸à¤®à¤¯ à¤ªà¤¹
à¥į, âĢľ
Ġà¤ĺà¤° à¤ĺà¤°à¤ķ
Ġà¥¯ à¥ªà¥«
Ġà¤Ĩà¤¨ à¤¦
Ġà¤¨à¤¹ à¤²
à¤ľà¤Ĺ à¤¤à¤°
Ġà¥§à¥¯ à¥¦à¥ª
à¤§à¤ķ à¤¦à¤ķ
à¤ıà¤¸ à¤Ĩà¤Ī
Ġà¤¸à¤¹à¤ľ à¤ª
à¤¯à¤£ à¤Ł
à¤¾) --
à¤¨à¤¯ à¤¨à¤²
Ġà¥§à¥Ń à¥¦à¥¦
Ġà¥¦ à¥©à¥¯
Ġà¤¶à¤¹à¤° à¤µ
Ġà¤Ĩà¤ı à¤Ŀ
Ġà¥©à¥« à¥«
ĠT ime
ĠC al
ĠM onth
Ġa iico
Ġà¥©à¥¬ à¥Ń
el a
el le
id th
ÑĢ ÐµÐ´
Ġw eek
à¥¦à¥« à¥«
à¥¦à¥« à¥ª
Ġre al
Ġà¥ªà¥¯ à¥ª
ch he
Ġà¥®à¥« à¥¬
th ar
ĠV er
ok ya
201 5
nt c
ĠPl c
à¥¨à¥¦à¥© à¥ª
ÙĪ Ø¯
ĠUn identified
ĠZ one
ĠÐ· Ð°
ins uranc
ph p
AC K
Ãŀ m
Ġht ml
áĥĿ áĥ
epl c
aiic co
insuranc eplc
A ll
G o
P T
X X
Î ·
ı à¤¨
à¥į à¤¾à¤ģ
à¤ķ à¤¬à¤°
à¤ı à¤¯
Ġà¤¬ à¤°à¤¸
Ġà¤Ń à¤²à¤¬
Ġà¤Ń à¤ĩà¤ķ
à¤ľ à¤§à¤¨
à¤¬ à¤Ĺà¤°à¤ķ
à¤§ à¤¨à¤¨
à¤ıà¤ķ à¤ħà¤°
à¤ģ âĢĶ
à¥Ĥ à¥ĥ
à¤ĸ à¤ıà¤ķ
à¤ĩ à¤Ļà¤ķ
à¤¸à¤ķ à¤¸à¤®
à¤¢ à¤µà¤°
à¤¸à¤® à¤¯à¤¦
à¤ªà¤¨ à¤°
Ġà¤Ł à¤ªà¤²
Ġà¤¡ à¤µ
à¤Ŀ à¤Łà¤ķ
à¥Įà¤Ĥ &
à¤¯à¤¤ à¤¦
Ġà¤ķà¤® à¤²à¤¦
Ġ( âĢľ
à¤¯à¤¨ à¤¨
à¤Ĺà¤¤ à¤¬à¤°
à¤²à¤¨ à¤ªà¤¶
à¤ªà¤ķ à¤¬
à¤ĵ à¤®à¤°
à¤Łà¤® à¤¹à¤°
à¤¦à¤° à¤ĸ
Ġà¥§à¥¯ à¥©à¥¬
à¤¦à¤µ à¤ľ
à¤ľà¤¯ à¤Ń
Ġà¥§à¥® à¥®à¥¯
à¤ıà¤² à¤Īà¤¡
Ġà¤Ĩà¤ł à¤ĵà¤Ł
Ġm ov
ĠS y
ĠS IP
à¤Ĭ à¤Ľ
à¤²à¤¦ à¤°à¤¬
ĠP ass
Ġà¥©à¥¨ à¥¯
à¤ıà¤« à¤Ĩà¤Īà¤¡
Ġà¥©à¥© à¥«à¥¬
à¤īà¤¡ à¤°à¤²
Ġd own
à¤¬à¤¤ à¤·
ĠR aj
Ġà¤®à¤¦à¤¨ à¤¬à¤¹
Ġà¤¹à¤Ļà¤ķà¤Ļ à¤®à¤®
ÑĢ Ð¾
ĠG a
à¤ıà¤ļ à¤Ĩà¤°
Ġà¤ķà¤¦ à¤°à¤¸
à¤Ĺà¤µ à¤¤à¤®
ĠJ oy
Ġv on
Ġà¤¦à¤®à¤¨ à¤¬
à¥¨à¥¦à¥ª à¥ª
ĠY ork
à¥¨à¥¦à¥© à¥Ń
Ġsp ins
à¤¤à¤²à¤¹à¤° à¤¬
Ġà¤®à¤¤à¤® à¤¤
à¤ıà¤¨à¤ıà¤« à¤ıà¤¨
alax y
ĠTrailbl azer
7 16
B L
B U
W B
f lo
w er
à¤¨ à¤¯à¤¸
à¤ķ à¤ĩà¤¨
à¤® à¤°à¤¬
à¥ģ ....
à¤¹ à¤ľà¤¹
à¤ª à¤¡à¤ķ
Ġà¤¨ à¤¨à¤¸
à¤ı à¤ıà¤¨à¤ı
Ġà¤® à¤Łà¤°
Ġà¤ľ à¤¤à¤¨à¤¸
à¤Ī à¤ķà¤®
à¤Ī à¤ķà¤ķ
à¤Ī à¤¤à¤®
à¤Ī à¤¡à¤°
à¤Ń à¤¸à¤²
à¤ĸ à¤¸à¤®à¤ķ
à¤« à¤¨à¤ķ
Ġà¤¶ à¤¯à¤°
Ġà¤ªà¤¨ à¤ķ
à¤¢ à¤µ
à¤ªà¤¨ à¤Ĺà¤°
à¥« à¥¨à¥¨
à¤¯à¤¨ à¤¦
Ġà¥« à¥¨à¥«
à¤µà¤² à¤Ĺà¤¤
à¤ĵ à¤Ĩà¤°à¤®
à¤ħà¤¨ à¤¸à¤¨
Ġà¥Ń à¥¨à¥¬
Ġ! )
Ġà¤§à¤¨ à¤¶
Ġà¤¦à¤¶ à¤ķà¤²
à¥ģà¤Ĥ ,
re ad
à¤ĩà¤° à¤¨à¤ķ
à¤¾) -
Ġà¥¨à¥ª à¥®
à¤ĸà¤¨ à¤¶
à¤ķà¤¬ à¤ľ
Ġà¤Ĩà¤ĩà¤ª à¤¡
Ġà¤ıà¤² à¤µà¤®
Ġm ind
it o
Ġà¤°à¤¨ à¤¬à¤¹
Ġl aw
ĠC L
à¥§à¥¯ à¥¬à¥¬
à¤Ĺà¤£ à¤¬
is ch
Ġà¤īà¤ĸ à¤°à¤®
ÑĢ ÐµÐ¼
ĠL ife
Ġre f
ch allenge
Ġà¤ªà¤ª à¤Ĺ
Ġà¤ľà¤¯ à¤Ĺ
à¤¬à¤¢ à¤®
ĠV ER
Ñĥ Ñĩ
Ġà¤ķà¤¸à¤ķ à¤¸à¤²
Ġà¤ľà¤¨à¤°à¤² à¤²
ĠRe c
ĠCh all
ĠØ ¢
46 8
ĠÐ¾ Ñģ
rad u
Ġcon c
anc y
à´ ¿
ĠSp ecial
row n
Ġ98 69
ĠCl ub
åĪ °
Ġte am
ĠRoy ale
pand ulip
Ġsal okya
Ġà¤¹à¤°à¤¬ à¤ĸà¤¤
Ġ984 98
ĠLay out
pandulip ibooks
? ,âĢĻ
P ol
a o
j al
m o
t en
w ar
w ays
à¥į à¥Īà¤Ĥ
à¤® à¤²à¤²à¤Ĺ
Ġà¤¸ à¤Łà¤ķ
Ġà¤ª à¤¥à¤ķ
à¤µ à¤·
Ġà¤Ĺ à¤²à¤²
Ġà¤° à¤ªà¤®
à¤ľ à¤¬à¤¨
à¤¶ à¤¸à¤ļ
à¤Ń à¤ıà¤¸
à¤Ń à¤ıà¤ľà¤¸
à¤« à¤®à¤°
à¤ľà¤¨ à¤¸à¤Ļ
à¤¨à¤® à¤®
à¤°à¤¬ à¤Ł
Ġà¤¸à¤° à¤«
Ġà¥ª à¥§à¥ª
à¤¦à¤¨ à¤Ńà¤¨
à¤§à¤¨ à¤ľà¤¸
Ġà¥Ń à¥¦à¥®
Ġà¤Ĩà¤® à¤®à¤¤à¤¦
Ġà¤Ĩà¤ĩ à¤ıà¤¸à¤¬
à¤ķà¤¨ à¤ª
à¤°à¤ľ à¤µ
à¤¥à¤² à¤Ńà¤¨
Ġà¤ķà¤¥ à¤¨à¤ķ
Ġà¤Ĩà¤Ī à¤ķà¤¨
à¤¾... âĢĻ,
Ġà¤¬à¤® à¤¹à¤°
,âĢĻ âĢĻ
à¤Łà¤¬à¤² à¤°à¤ķ
Ġm edia
ĠS aturday
à¤²à¤ª à¤Ł
à¥Ģà¤ģ âĢĵ
Ġà¤Ľà¤ł à¤ľà¤¸
Ð¸ Ð»Ð¸
Ġà¥©à¥ª à¥®
and s
à¥§à¥© à¥Ń
ĠE nd
ĠE arth
Ġà¤ªà¤µ à¤¨à¤²
à¤Ĩà¤ĩ à¤¸à¤²
ĠG lobal
ĠH appy
Ġà¤ıà¤ļ à¤ı
Ġà¤ıà¤ļ à¤ıà¤ļà¤¸
ol es
Ð» Ñİ
Ġà¥¬à¥¬ à¥©
ĠJ erseys
à¸ ª
à¸ Ħ
à¤Ĳ à¤¯
Ġà¤®à¤Ĺ à¤ľà¤®
ik habar
à¤¸à¤¡ à¤ķà¤²
od ay
Ġà¤¬à¤¹à¤° à¤®
à¦ ²
Ġ16 5
ÑģÐº Ð°Ñı
ĠâĢĵâĢĺ âĢĺ
Ġà¤ıà¤Ļ à¤ķà¤°
à¤ĩà¤ªà¤° à¤Ł
æĸ °
md ash
ĠComp etition
fa ult
, âĢľ
A G
H A
I AL
P h
g ar
g lobal
z er
Â ł
æ µ
è ª
à¥į à¥ĥ
à¤° à¤ıà¤°
à¤¨ à¤Ļ
à¥ģ ï¿½
à¤ª à¤īà¤¨
à¤µ à¤ľà¤¨à¤ķ
à¤Ł à¤¬à¤°
à¤ıà¤ķ à¤¸
Ġà¤ľ à¤ĸ
à¤£ à¤¹
à¥Ĥ à¤¾
Ġà¤¯ à¤®à¤¨à¤¸
Ġà¤¥ à¤°à¤²
Ġà¤ħà¤¨ à¤¬
à¤¨à¤² à¤¸
à¤Ŀ à¤¹à¤°
Ġà¤ħà¤¸ à¤¦à¤ķ
à¥§ à¥¦à¥ª
Ġà¥© à¥Ńà¥©
à¤ķà¤° à¤ļ
Ġà¥ª à¥¦à¥§
Ġà¤¸à¤¦ à¤°à¤ĸ
Ġà¤¹à¤° à¤¨
à¤ķà¤°à¤£ à¤ª
Ġà¤ķà¤² à¤¹à¤°
à¤Ĺà¤® à¤ªà¤®
Ġà¤ħà¤ª à¤¶
Ġà¤Ĩà¤ĩ à¤«à¤²
à¤°à¤ļ à¤°
à¤ıà¤¸ à¤µ
Ġ- âĢĻ
à¤Īà¤ķ à¤Łà¤°à¤ķ
à¤®à¤¬ à¤²à¤ķ
à¤¿. (
Ġà¤ıà¤¨ à¤Ĩ
Ġà¤«à¤°à¤ķ à¤²
Ġà¤Ĩà¤Ī à¤ıà¤¸à¤²
Ġà¤¬à¤Ĺ à¤¹
à¤ĩà¤¡ à¤°à¤¹à¤°
à¤Łà¤¬à¤² à¤¤à¤°
Ġà¤Ĩà¤ı à¤ħà¤¨
ic eb
Ġà¤ıà¤ķà¤² à¤¤à¤°
à¤ĩà¤ª à¤¹à¤°
Ġà¤Ńà¤°à¤¤ à¤®à¤£
ĠB ig
ĠG h
ch thar
à¥¨à¥¬ à¥¦
à¥¦à¥© à¥«
ĠJ avaScript
Ġà¤¨à¤¹à¤° à¤²
à¤ĭ à¤£à¤ķ
ff ic
à¥¨à¥¦à¥¨ à¥ª
Ġà¥§à¥¯à¥ª à¥©
12 684
ãĥ ª
pan chthar
Ñħ Ð¾Ð´
Ð´ Ð°
à¹ Ħ
uk t
39 2
Ġse ems
ÑĦ Ð¾ÑĢÐ¼
ron ic
Ġà¤¦à¤¶à¤° à¤¥à¤ķ
Le ave
åĵ ģ
åĩ º
rypt oc
ĠGad get
272 468
Ġ9869 272468
Ġ98498 12684
' );
c m
h o
p al
ç µ
Ġ ut
Ļ ×
à¤° à¤Ĺà¤¤à¤ķ
à¤¨ à¤¶à¤®à¤¶
à¥ĩ ......
à¤® à¤¶à¤®
à¤¤ à¤¦à¤°
à¥Ģ à¥ģ
à¤¸ à¤Ĺà¤łà¤¨
à¤µ à¤°à¤¸à¤¹
à¤Ĺ à¤¨à¤¸
Ġà¤ħ à¤ľà¤¨
à¤§ à¤¬à¤¨
Ġà¤Ĩ à¤Ļà¤¸
à¤ī à¤ĺà¤°à¤ķ
Ġà¤ı à¤¹
Ġà¤ı à¤Ĩà¤ĩ
à¤µà¤¸ à¤¹à¤°
Ġà¤ĩ à¤Ĺà¤²
à¤µà¤ķ à¤¯
à¤¾à¤Ĥ ...
à¤·à¤£ à¤Ń
à¤¶à¤¨ à¤¤
Ġà¤ĵ à¤¸à¤¨
Ġà¤ĵ à¤®à¤¨à¤¸
Ġà¥Ń à¥§à¥®
âĢĿ -
Ġà¥® à¥§à¥¦
Ġà¥® à¥¨à¥¨
Ġà¥¯ à¥§à¥§
à¤¦à¤ķ à¤¦
Ġà¤ľà¤® à¤²à¤ķ
Ġà¥§à¥¯ à¥¦à¥¯
Ġà¤¨à¤ľ à¤°à¤ķ
Ġà¤Ī à¤Ľà¤¨
Ġà¤¨à¤° à¤Ĺ
re place
Ġà¥¦ à¥¨à¥¯
al ign
Ġà¤Ĩà¤Ī à¤ıà¤¸à¤ķ
à¤Ĩà¤Ī à¤µ
à¤¶à¤¨à¤® à¤°
ĠÐ Ľ
ĠD am
Ġà¤Ĩà¤¸ à¤ªà¤®
Ġà¤®à¤¹à¤° à¤ķ
ĠT em
ĠT aja
Ġà¤¨à¤Ĩ à¤ĩà¤¸à¤ķ
Ġs eren
ĠI I
Ġd ist
à¥§à¥§ à¥®
Ġà¤°à¤Ļ à¤¸
as ino
à¤¨à¤ľ à¤¸à¤²
ag a
ĠL ong
Ġà¤¨à¤Ĺ à¤µ
Ġà¤Ĳà¤¨à¤² à¤Ĺ
à¤¾à¤Ĥà¥Ī à¥¤
Ġde v
ric e
ĠÂ« Â«
Ġ15 0
Ġà¤Ĩà¤ĩà¤ıà¤® à¤Īà¤ķ
Ġà¤ľà¤²à¤¶ à¤¯à¤¨
Ø§Ø ¯
Ã¡ s
à¤ħà¤¯ m
hot mail
Ġà¤¸à¤ĸà¤° à¤ĸà¤¨
à¤¥à¤Ł à¤ªà¤¸
emp or
uet ooth
Ġseren ity
. /
9 77
F ood
L ocal
P age
d aily
t m
é «
à¤¾ Â·
à¥ĩ ï¿½...
à¤² à¤ī
à¤¯ à¤ıà¤ķ
à¤¸ à¤¯à¤²
à¤¹ à¤µà¤°
à¤µ à¤īà¤¦
Ġà¤ķ à¤ľà¤µ
à¤Ĺ à¤īà¤¨
Ġà¤¨ à¤Ļà¤®
Ġà¤¬ à¤¨à¤ķà¤°
à¤¬ à¤ķà¤®
Ġà¤µ à¤¦à¤°
à¤¶ à¤µà¤¨
à¤¥ à¤°à¤¨
à¤¥ à¤²à¤²à¤Ĺ
à¤Ĥ âĢį
à¤¡ à¤°à¤¦
à¤£ à¤¨à¤ķ
Ġà¤ī à¤ĸà¤²
Ġà¤¸à¤® à¤¥à¤²
à¤ĩ à¤Ĺà¤°à¤ķ
Ġà¤ı à¤°à¤ª
Ġà¤ı à¤ıà¤¨à¤¸
Ġà¤ľà¤¨ à¤°à¤²à¤ķ
à¤°à¤¹ à¤¦à¤¶
à¤¯à¤¸ à¤ªà¤²
à¤Łà¤ķ à¤¸
à¤°à¤µ à¤¦à¤²
à¤°à¤¬ à¤²à¤ķ
Ġà¤Ŀ à¤ķà¤¬à¤¹
à¥Įà¤ģ âĢĶ
Ġà¤®à¤² à¤¹à¤®
Ġà¥® à¥§à¥¬
Ġà¤Ĩà¤¦ à¤°à¤ķ
Ġà¤¸à¤¡à¤ķ à¤Ńà¤°
Ġà¤Ĩà¤Ī à¤¯
Ġ2 10
à¤Ĺà¤łà¤¨ à¤ª
à¤ĩà¤ľ à¤¤à¤°
Ġà¤¸à¤¹à¤° à¤¸à¤®
or ang
ĠS ha
ĠN O
Ġà¥©à¥« à¥§
ĠA awaz
ha i
Ġp riv
Ġà¤Ńà¤°à¤¤ à¤µ
Ġs a
Ġà¥©à¥© à¥Ń
à¤²à¤ĸ à¤¨à¤ª
à¥§à¥¨ à¥Ń
ĠF ile
Ġn ick
Ġà¤¡à¤Łà¤ķà¤® à¤¬
Ġ?âĢĻ âĢĻ
Ġà¥ªà¥© à¥ª
Ġre p
ĠK TM
Ġà¤ıà¤ļ à¤ıà¤ļ
Ġà¥Ńà¥¬ à¥¦
Ġà¤¶à¤°à¤¦ à¤ļà¤¨
ra v
à¤µà¤Ĺ à¤£à¤²
à¤¨à¤µà¤¤ à¤¸
ack age
AR K
ï¼ Ł
Ġà¤ĵà¤ĸ à¤²à¤®
ĠÐ¼ Ð¾Ð¶
ĠX box
Ġâ Ī
ĠDe v
88 86
ati ya
Ð¾Ñģ Ð»
ĠBo ys
ddc panchthar
ucket challenge
Ð°Ñİ ÑĤ
ĠÐºÐ¾Ð¼ Ð¿
à¥«à¥¨à¥¨ à¥¨à¥¨
iceb ucketchallenge
ryptoc urrenc
6 1
A nd
F E
m es
| à¥ĩ
à¥į à¥ģà¥ģ
à¤¨ à¤¨à¤®
à¤® à¤ıà¤ķ
à¤¹ à¤ħà¤µà¤°
à¤Ĺ à¤ķà¤®
Ġà¤® à¤²à¤®à¤²
Ġà¤Ń à¤ľà¤¨à¤²
Ġà¤ħ à¤°à¤£
à¤ļ à¤ħà¤§
à¤¡ à¤¤à¤¨
Ġà¤ī à¤²à¤¨
Ġà¤¸à¤® à¤¹
Ġà¤¥ à¤Ļ
Ġà¤§ à¤¡à¤ķà¤¨
Ġà¤µà¤° à¤µà¤°
âĢĻ _
à¤ĩà¤¨ à¤µ
Ġà¤Ńà¤ı à¤°à¤®
à¤Łà¤¨ à¤¢
Ġà¤ĺà¤° à¤Ŀ
à¤¸à¤¦ à¤¨à¤®
Ġà¤Ĩà¤Ĺ à¤¡
Ġà¤ľà¤® à¤¦
Ġà¥§à¥¯ à¥¦à¥Ń
à¤§à¤® à¤§
Ġà¤¹à¤Ł à¤¸
à¤¯à¤Łà¤¨ à¤Ĺ
Ġm i
it ar
à¤¹à¤¦ à¤¬
à¤¶à¤µ à¤£
ĠC C
Re trofitting
Ġà¥©à¥¨ à¥¨
Ġà¥©à¥¨ à¥ª
Ġà¤µà¤¹ à¤¸à¤ķ
à¤ĩà¤¬ à¤°à¤¯
ĠF und
Ġà¤Ĩà¤ªà¤¤ à¤®
Ġà¥©à¥¬ à¥®
Ġà¥©à¥ª à¥«
Ġw in
Ġin terest
à¤ıà¤ļ à¤ıà¤¨à¤ıà¤«à¤ıà¤¨
ĠH ow
ĠH ouse
Ġà¥ªà¥§ à¥Ń
Ġ3 4
ĠW omen
âĢį -
ĠV in
Ðº ÑĤ
Ġ-- (
Ġis s
ric ket
Ġà¤ķà¤¸à¤°à¤¤ à¤ªà¤Ľ
ĠY ung
Ġà¤ħà¤²à¤® à¤²à¤ķ
Ġà¤ıà¤¡à¤® à¤£
Ð°Ð½ Ð¸Ðµ
ĠUS D
Ġà¥§à¥®à¥¯ à¥ª
uck s
à¤Īà¤¸à¤¯ à¤ħà¤§
ĠCl ash
uf g
OW ER
âĸ ĩ
Ġ--------- -
ĠMum chhe
ĠJizer ou
ĠKes har
J avaScript
d a
p ol
u le
Â ħ
Ġ ãĤ
Ġ ess
à¤° à¤ªà¤®
à¤¨ à¤Ńà¤µà¤¨à¤®
à¤ķ à¤Ĺà¤°
à¤¿ ....
à¤¿ Â¨
à¥ĭ à¥ģ
à¥ĭ à¥ĥ
à¥Ģ à¥¤âĢĻ
à¤¹ à¤®à¤ķ
Ġà¤¨ à¤Ī
Ġà¤¨ à¤°à¤Ń
Ġà¤¹ à¤·
Ġà¤µ à¤ª
à¤· à¤·
à¤Ī à¤ľà¤²
Ġà¤² à¤µà¤¶
Ġà¤² à¤ľà¤¹à¤°
Ġà¤¥ à¤ªà¤¨
à¤ľà¤¨ à¤¤à¤°
à¤²à¤ķ à¤Ł
Ġà¤Ł à¤®à¤²
Ġà¤²à¤Ĺ à¤¨à¤Ł
à¤¾à¤Ĥ ,
Ġà¤¨à¤¯ à¤ª
Ġà¤¬à¤° à¤ĸ
à¤¨à¤¸ à¤¬
Ġà¥¬ à¥§à¥Ń
Ġà¤ħà¤Ĺ à¤®à¤µ
à¤ķà¤°à¤£ à¤Ńà¤¨
à¤Łà¤® à¤ªà¤Ľ
à¤¶à¤® à¤¯
à¤µà¤¤ à¤¦
à¤µà¤¤ à¤¬à¤¹
à¤¡à¤² à¤¸à¤¹
Ġ: &
Ġà¤ħà¤« à¤¯
à¤¯à¤¯à¤¨ à¤¸à¤¹
à¤¸à¤¹à¤° à¤¹à¤°
Ġà¥§à¥® à¥«à¥¦
à¤ķà¤Ł à¤µà¤°
in ese
à¤ĩà¤® à¤£
Ġà¤Ĭ à¤¤
à¥ĩà¤Ĥ à¥¤âĢĻ
Ġà¤¸à¤¹à¤° à¤¦
ĠS elect
Ġà¤°à¤¨ à¤ªà¤Ľ
Ġl ight
à¤Łà¤¨à¤Ĺà¤° à¤¸à¤®
Ġp aste
à¤²à¤ĸ à¤¬à¤°à¤¸
le x
à¤Łà¤µà¤² à¤¤à¤°
ĠB i
âĢĮ à¥ĩâĢĮ
Ð¸ Ð¾Ð½
Ġà¤ķà¤¦à¤® à¤µ
ag g
Ġà¤ľà¤Ĺà¤¤ à¤Ĺ
ak man
Ġà¤¦à¤®à¤ķ à¤²à¤®
Ġà¥¬à¥¬ à¥«
Ġà¥¤' '
Ñĭ Ðµ
end er
Ġpro ble
ĠCh ar
ĠY ear
à¤ħà¤µà¤¸ à¤°à¤ķ
à¤²à¤Ŀ à¤°à¤¨
Ġi Spyoo
à© ĩ
Ġoff line
æĸ ¹
ĠShare Point
çľ Į
Ġdeliv ery
akman ch
5 00
N L
U M
g ufg
i ya
l ot
y en
é Ĺ
à¤° à¤¯à¤¨
à¥ĭ ï¿½
à¤¸ à¤°à¤µ
à¤¸ à¤īà¤²
à¤Ĺ à¤łà¤ķ
à¥Ī à¥¤âĢĻ
Ġà¥¤ ....
Ġà¤® à¤¸à¤®
Ġà¤¦ à¤ľà¤¨
Ġà¤ľ à¤²à¤°
à¤Ī à¤¡à¤²
à¤Ľ à¤°à¤ķ
à¤ī à¤¥à¤²
à¤ĩ à¤ªà¤¨
Ġà¤ĸ à¤¯
Ġà¤ªà¤¨ à¤°
Ġà¤ħà¤¨ à¤¤
à¤¯à¤® à¤²à¤Ĺ
Ġà¤Ł à¤¨à¤®
Ġà¤Ł à¤ļà¤¸
à¥Įà¤Ĥ Ã·
à¤°à¤¹à¤° à¤²
Ġà¤ĩ à¤Ńà¤°
à¤¯à¤µà¤¸ à¤¯
à¥§ à¥¦à¥¯
à¤¨à¤¨ à¤ľ
à¤īà¤Ł à¤°à¤ķ
à¤Ĺà¤² à¤ªà¤¨à¤ķ
Ġà¤Ĩà¤īà¤¨ à¤²
Ġà¤Ĩà¤® à¤§
Ġà¥§à¥¯ à¥©à¥¨
à¤·à¤¯ à¤ħà¤¨
Ġà¤¨à¤ľ à¤¦
à¤ĩà¤ķ à¤°à¤²
à¤¸à¤¬ à¤¸
Ġà¤ĭ à¤ĸ
à¤¤à¤¸ à¤°à¤®
Ġà¥©à¥¨ à¥Ń
ĠM c
Ðµ ÑĪ
Ġà¤ľà¤Ł à¤¹
Ġà¤¸à¤Ł à¤°à¤¹à¤°
ĠF ull
ĠE asy
Ġà¥«à¥¬ à¥©
Ġh ar
à¥¦à¥© à¥¦
à¤Ķà¤·à¤§ à¤¸à¤®
Ġ3 9
ĠW ill
ĠV ol
Ġà¥¯à¥¬ à¥¦
Ġ.. |
are nt
........ ..
à¥§à¥¯à¥¯ à¥¨
est ival
ĠÙ ģ
ĠUn ion
que en
Ġfun ction
Ġà¤¤Ã¬ à¤µ
Ġà¤ĨÃ ıà¤¨
ĠÑģÐ² Ð¾
ĠFeder ation
mitt ed
gufg af
3 14
7 1
R V
a ar
t em
Ä ĩ
â ĶĤ
â īĪ
é ķ
Ġ hab
à¤¿ ?âĢĻ
à¥ĩ :-
à¤¦ à¤ªà¤¤
Ġà¤® à¤Łà¤¨
à¤§ à¤®à¤²
à¤¥ à¤Łà¤¬
Ġà¤ľ à¤Ĺà¤°
Ġà¤² à¤ªà¤¤à¤¬
à¤£ à¤¡
Ġà¤¸à¤® à¤¨à¤ª
Ġà¤Ńà¤¨ à¤ª
Ġà¤¶ à¤¡
Ġà¤ªà¤° à¤ļà¤ķ
à¤¸à¤® à¤¬
ĠâĢ ¯
Ġà¤§ à¤¯
Ġà¤ľà¤¨ à¤¬à¤°
Ġà¤²à¤Ĺ à¤¨à¤²
à¤µà¤ķ à¤°à¤ķ
Ġà¤īà¤¦ à¤Ĺà¤®
à¤¯à¤² à¤°
à¤ªà¤ķ à¤¸à¤®
Ġà¥ª à¥§à¥«
à¤¶à¤¨ à¤ħà¤ĺ
Ġà¤ĺà¤° à¤ľà¤¸
Ġà¥® à¥¨à¥¦
à¤¾. -
à¤ļà¤ķ à¤¬
à¤¨à¤µ à¤Ĺà¤ł
Ġ! ?
à¤Ńà¤µ à¤ľà¤¸
à¤ķà¤Ł à¤¸à¤®
er man
at ures
om s
à¤Ĩà¤Ī à¤ıà¤¨
st atus
it an
à¤ľà¤¤ à¤¸
à¤¤à¤¸ à¤°à¤¹
Ġà¤¨à¤Ĺà¤¦ à¤¬
ĠD har
Ġà¥©à¥© à¥¨
à¥§à¥¨ à¥«
Ġf Ã¼r
à¤ĩà¤Ń à¤°à¤¹à¤°
Ġc ol
âĢĮ à¥Ģ
Ð½ ÑĥÑİ
Ġà¥ªà¥ª à¥®
Ġn h
Ġà¥©à¥® à¥©
Ġà¤· à¤¤
ĠL ib
ĠL ee
ĠW ebs
Ġà¥Ńà¥Ń à¥¦
à¸ Ī
um b
Ġ9 2
Ġà¤Ļ à¤µ
Ġwith out
Ð¾Ð» Ð¾Ð³
Ġup d
ek na
Ð¾ÑģÑĤ Ð¾
ĠCon struction
???? ????
argin ia
Ġincl ud
Rep ort
6 7
i Ã³n
k m
m ah
Ø ·
Ġ ï»¿
à¤¨ à¤¯à¤ª
à¥ĭ [
à¤² à¤Ĩ
à¤® à¤¯à¤¦
à¤¯ à¤¡à¤®
à¤Ĺ à¤¡à¤²
Ġà¤¨ à¤Ĺà¤¤
à¤ľ à¤²à¤¯
à¤ľ à¤Ńà¤ķ
à¤¬ à¤Ĺà¤¨
à¤¶ à¤°à¤ķ
Ġà¤ī à¤¶
Ġà¤ļ à¤Łà¤°
à¤« à¤ªà¤Ľ
Ġà¤¶ à¤µà¤¸
Ġà¤ı à¤²à¤ķ
à¤īà¤¨ à¤¡
Ġà¤« à¤ļ
Ġà¤« à¤²à¤¬
à¤¢ à¤°
à¤¢ à¤Ļ
à¤¨à¤² à¤¸à¤¹
à¤ªà¤¨ à¤ª
à¤ªà¤¨ à¤¸à¤¹
à¤¤à¤° à¤Ĩà¤¬à¤¦
à¤Ŀ à¤¨à¤®
à¥Įà¤Ĥ .....
Ġà¤ħà¤¸ à¤°à¤®
Ġà¤ħà¤¸ à¤¦à¤²
à¤µà¤¨ à¤Ĺ
à¤¸à¤¨ à¤¯à¤¨
Ġà¤ľà¤¸ à¤µ
Ġà¤¬à¤° à¤«à¤ķ
Ġà¤ħà¤Ĺ à¤¨
Ġà¥Ń à¥Ńà¥«
Ġà¤ħà¤¬ à¤¹
à¤ªà¤² à¤¹à¤°
Ġà¤¸à¤¡à¤ķ à¤¤
Ġà¥¨à¥« à¥¬à¥¨
à¤¯à¤£ à¤¹à¤°
à¤¯à¤Łà¤¨ à¤µ
Ġà¤Ĩà¤ł à¤¸à¤¯
à¤Ĩà¤Ī à¤ıà¤¸à¤²
à¤Ĩà¤Ī à¤ıà¤²à¤ĵ
ĠP res
ĠC ons
ĠC ode
à¥§à¥« à¥¨
Ġà¥«à¥« à¥¨
à¤ĩà¤¬ à¤°à¤¬
à¥ĭ) à¥¤
Ġn umber
Ġb k
ĠO pen
ĠL ED
ãģ ĳ
pp er
Ġà¤°à¤ľà¤¤ à¤ľà¤¯à¤¨
Ġà¤¬à¤¬ à¤Īà¤®
à¤°à¤¡ à¤®à¤ķ
à¤ĩà¤¨à¤ĸà¤¬ à¤°à¤¬
ition al
ild ren
ÑģÑĤÐ² Ð°
of queen
Ġro ad
---------------- ----------------
iter ature
oug ht
D e
I d
u an
à¤¨ à¤ĸà¤®
à¤¨ à¤īà¤¤
à¤² à¤ıà¤ķ
à¤¯ à¤Łà¤²
à¤¯ à¤ªà¤²
Ġà¤¸ à¤ľà¤²
à¤µ à¤Ĩà¤Īà¤ľ
à¤Ł à¤¸à¤¸
Ġà¤¨ à¤ĸà¤¨
Ġà¤Ń à¤ĸà¤°
à¤¬ à¤ŀ
à¤ıà¤ķ à¤ªà¤²
à¤ļ à¤¬à¤ľ
à¤Ī à¤Łà¤¬
Ġà¤² à¤Łà¤ªà¤Ł
à¤Ń à¤¯à¤¤
à¤°à¤¤ à¤ªà¤Ľ
à¥ĥ ...
à¤°à¤¹ à¤¸à¤¹
à¤¯à¤¤ à¤¹à¤²
Ġà¤īà¤ª à¤ķà¤¥
âĢĵ ...
à¤®à¤ķ à¤£
Ġà¤ĩ à¤¡à¤¨
Ġà¤ħà¤µà¤¸ à¤°à¤¸
à¥ĭà¥¤ .
Ġà¤īà¤¦ à¤¯à¤¦
Ġà¤ĺà¤° à¤µà¤°
Ġà¥¯ à¥¦à¥©
Ġà¥§à¥¯ à¥¦à¥§
à¤ľà¤§ à¤°
an es
Ġà¥¨à¥ª à¥Ń
à¤ĩà¤¡ à¤°à¤®
à¤®à¤£ à¤¬à¤¹
ĠN aya
à¤Ĭ à¤¸
à¤Ĭ à¤¦à¤Ľ
ĠM P
ĠM ot
Ġà¤¤à¤²à¤¬ à¤¸à¤®
Ġà¤ªà¤¸à¤² à¤Ń
Ġà¤ıà¤« à¤«
ĠâĢ¦ à¥¤
as ia
Ġà¥ªà¥ª à¥¨
id d
Ġin ternational
Ġà¤ħà¤¨à¤¶à¤¨ à¤ª
ĠH il
Ġà¥ªà¥¯ à¥¬
Ñĥ Ð½
Ġà¤ĩà¤Ļ à¤¨
à¤Ļà¤Ł à¤¨à¤²
Ġ4 22
à¤ĸà¤¸ à¤¯à¤²
Ġth ink
ab asi
à¤¾" ,
à¥¨à¥¦à¥¨ à¥¯
201 1
du st
à¦ ¤
ain ing
ä¸ º
Ġà¤ľà¤¯à¤¨à¤Ĺà¤° à¤¬
ĠUn ited
Ġsu ch
Ġà¨ ¦
ä» ¥
ÙĬ Ø©
ï»¿ (
ĠÑį ÑĤ
åľ °
Ġvi ews
Ġright s
ĠTri o
atn anagar
ĠCommun ity
ĠSurg ery
Ġnick name
( /
. âĢ¦
I G
k u
k han
n ie
Ġ end
à¤ķ à¤°à¤¬à¤¹
à¤¯ à¤¯à¤¤
à¤µ à¤Łà¤¬
à¤µ à¤¹à¤°à¤£
Ġà¤Ĺ à¤®à¤¨
Ġà¤ħ à¤¦à¤¨
Ġà¤¦ à¤ª
à¤¶ à¤ªà¤¥
à¤Ń à¤ħà¤¨
à¤Ń à¤²à¤°
Ġà¤¯ à¤Ī
à¤īà¤¨ à¤¹
à¤Ļ à¤ħà¤¨
Ġà¤ĺ à¤¨à¤²
Ġà¤¬à¤¨ à¤ľ
à¤°à¤¸ à¤Ń
à¤¯à¤¤ m
à¤ķà¤² à¤¯à¤®
à¤®à¤ķ à¤¦
Ġà¤ĩ à¤Ĩà¤ĩà¤ı
à¤Ĩ à¤ĩà¤¤
à¤¤à¤® à¤²à¤Ĺ
Ġà¥ª à¥¦à¥ª
à¤ĸà¤° à¤¸à¤®
à¤ķà¤°à¤£ à¤Ń
à¤Ĺà¤® à¤¬à¤¹
à¤®à¤ļ à¤°à¤£à¤®
Ġà¥§à¥¯ à¥¦à¥¬
Ġà¥§à¥¯ à¥¨à¥®
Ġà¤ıà¤¨ à¤ıà¤®à¤¸
Ġà¤Ī à¤¯à¤°
à¤ªà¤Łà¤ķ à¤¥
re y
à¤¨à¤¯ à¤¶
Ġà¤Ĩà¤Ī à¤ıà¤®à¤ı
ar ai
à¤ĸà¤¨ à¤¸à¤®
à¤Ķ à¤°
à¤ıà¤² à¤ıà¤¨à¤²
à¤µà¤¶ à¤Ļ
ĠA M
Ġà¤Ĺà¤ı à¤Ĺ
ou ble
à¤ıà¤« à¤Ĩà¤°à¤®
Ġà¤¦à¤²à¤² à¤Ĺ
ĠB ut
ĠB log
ur g
ent al
id ay
ag on
Ġà¥©à¥® à¥§
ĠE OI
à¤¯à¤¨à¤ķ à¤ķ
Ġà¤ľà¤Ĺà¤¤ à¤¬
Ġà¥¯à¥® à¥¦à¥Ń
Ġà¤ĸà¤ªà¤¤ à¤²
ul a
Ġv arginia
Ġ4 50
our se
à¥¨à¥¦à¥¨ à¥Ń
à¥¨à¥¦à¥¨ à¥¬
Ġst ate
if orm
à¤ķà¤²à¤ķ à¤¤
Ġcom pany
act ion
Ġà¤¦à¤¸à¤ķ à¤®
Ġsh ow
per ation
ĠÙħ ÛĮ
à¤Ńà¤²à¤ªà¤° à¤¹à¤°
à¤īà¤ªà¤¦ à¤«
Bl ack
bscri be
ĠPu ja
âĸĩ âĸĩ
= âĢĿ
M CPM
Ð £
à¤® à¤°à¤µ
à¤¸ à¤ªà¤¤
Ġà¤¬ à¤°à¤¹
Ġà¤¬ à¤¶à¤¨
à¤ľ à¤·
Ġà¤ħ à¤¬à¤¨
Ġà¤ħ à¤¦à¤°
Ġà¤µ à¤²à¤°
Ġà¤¦ à¤ľà¤°
Ġà¤Ĩ à¤ªà¤¦
à¤Ī à¤®à¤°
à¤ĸ à¤¯à¤¤
à¤¹à¤° à¤¨
Ġà¤¸à¤® à¤īà¤·
à¤°à¤ķ à¤£à¤²
à¤ĩ à¤Ĺà¤®
à¥Į ?âĢĿ
Ġà¤ªà¤¨ à¤²
Ġà¤ıà¤ķ à¤¹à¤¦à¤¸à¤®
Ġà¤§ à¤¨à¤¸à¤°
à¤¤à¤° à¤ªà¤¨
à¤¯à¤¤ à¤¬à¤¸
à¤°à¤¦ à¤¹à¤ķ
Ġà¤ĩ à¤¬à¤°
à¥ģà¤ģ âĢĻ,
à¤°à¤µ à¤ľ
à¤°à¤¬ à¤²à¤²
Ġà¥« à¥¦à¥©
à¤¬à¤° à¤ľà¤¤
à¤®à¤² à¤Ĺà¤¢
à¤ħà¤¨ à¤ª
Ġà¤Ķ à¤¶
Ġà¥¯ à¥§à¥¨
à¤¡à¤® à¤¹à¤°
à¤·à¤¯à¤® à¤§
Ġà¥§à¥¯ à¥¨à¥«
à¤®à¤¹ à¤¤à¤²
à¤ıà¤® à¤ĵ
Ġà¤Ī à¤®à¤°
à¤¯à¤£ à¤¦
à¤¹à¤® à¤¦à¤²
à¤¯à¤¬ à¤§
Ġà¤Ĭ à¤ļ
at ter
à¤ıà¤² à¤ıà¤¨à¤ķ
ĠS ee
à¤Ĭ à¤ª
Ġl o
Ġl ine
Ġl ik
Ġp o
Ġp os
Ġp hot
ĠT HE
ĠC opy
à¤¤à¤¹ à¤¬
à¤®à¤°à¤£ à¤¯
ĠB ay
Ð¸ Ð¿
à¤¾à¥Ī à¥¤
à¤µà¤¸à¤® à¤ķ
ĠE urope
ãģ Ī
Ġà¤¥à¤² à¤¹
à¤¤à¤ļ à¤°à¤ķ
à¥¨à¥¨ à¥¨
ĠW est
ĠNepal iko
ĠJ e
Ġà¤ľà¤¨à¤¸à¤Ļ à¤ĸ
Ġe ven
Ġà¤®à¤Ĺ à¤§
Ġ12 0
Ġà¤°à¤£ à¤§
Ġr ay
à¥¨à¥¦à¥© à¥¨
áŀ ĵ
Ġwh itening
Ġà¥§à¥®à¥¯ à¥¬
Ġ...| ...
Ġà¤¹à¤°à¤ķ à¤¤
ÑģÑĤÐ² Ð¾
ĠNEPAL IKO
blog ger
do ctor
ĠÐ» Ñİ
ux ury
ãĥ³ ãĤ
æĿ ¥
à¤ªà¤łà¤¨ à¤ª
NEPAL IKO
ðŁĴ ¿
ĠDhar abasi
, âĢĵ
H S
M ay
S ep
W ebsite
p ad
Â ¤
É ª
Ø Į
ç ķ
à¤ķ à¤ªà¤°
à¤ķ à¤£à¤¬
à¤¹ à¤¯à¤ķ
à¤¦ à¤Ńà¤°
Ġà¤ķ à¤łà¤®
à¤ı à¤Ĩà¤°à¤ķ
Ġà¤Ń à¤ļ
à¤¬ à¤°à¤£à¤ķ
à¤· à¤ªà¤¶
à¤§ à¤Ĺà¤°
Ġà¤¦ à¤Ī
Ġà¤² à¤ĸà¤°
à¤£ à¤µà¤°
à¤Ń à¤ĺ
Ġà¤¶ à¤¯à¤¨à¤ķà¤ķ
à¤Ļ à¤ķà¤ķ
à¤°à¤£ à¤ħà¤¨
à¤°à¤¹ à¤¨à¤ķ
à¤Ŀ à¤®à¤ķ
à¤ªà¤¤ à¤ª
à¥« à¥¨à¥¦à¥§
à¤Ĩ à¤£à¤µ
à¤Łà¤¨ à¤¸à¤¤
à¤ķà¤ķ à¤°à¤£
Ġà¤ķà¤² à¤°à¤²
Ġà¥Ń à¥§à¥¯
Ġà¥Ń à¥§à¥«
âĢĿ .
à¤ıà¤¨ à¤Ľà¤¨
à¤ıà¤¨ à¤ĵà¤¸
à¤¬à¤² à¤¤à¤°
à¤°à¤¨ à¤°
Ġà¤¤à¤¹ à¤µ
Ġà¤ļà¤²à¤ļ à¤¤
à¤¹à¤² à¤¸
Ġà¤ħà¤ªà¤° à¤¹à¤£
Ġà¤Ńà¤Ł à¤Ł
à¤¾âĢĻ à¥¤
Ġà¤Ĳà¤¨ à¤¸à¤®
Ġà¥¨à¥© à¥¦à¥¦
Ġà¤¶à¤¹à¤° à¤Ń
en c
or i
Ġm er
ĠA S
ĠP as
Ġp at
Ġs am
à¤°à¤Ļ à¤¦
Ġf ollow
ĠB en
Ġà¤ªà¤Ł à¤ķà¤²
Ġc olle
Ġb lock
Ġin form
Ġre port
ãģ Ŀ
ĠH all
ĠH TML
ol lywood
Ġà¤ķà¤²à¤® à¤ľ
à¤Ļà¤Ł à¤¨à¤®
Ġth en
à¤¸à¤Ĺ à¤ŀ
à¤°à¤¬à¤¦ à¤²à¤²
ãĥ ©
Ġpro ject
Ġà¤²à¤ĸà¤¨ à¤īà¤ķ
ER V
áŀ ĺ
Ġà¤Ĩà¤Īà¤ıà¤®à¤Ī à¤Ĩà¤Ī
Ġres ult
æĸ ĩ
Ġà¤ıà¤¨à¤ıà¤® à¤ıà¤²
ĠOr gan
ĠVER SP
Ġ..| ...
, à¥ĩ
H UB
S amachar
h n
Ñ Ĭ
Ø ®
Ø µ
é ļ
Ġ ê
à¤¨ à¤ıà¤ķ
à¥ĭ âĢį
à¤® à¤°à¤£à¤²
à¤ª à¤¦à¤²
à¤¦ à¤¯à¤¨
Ġà¤¬ à¤°à¤²
à¤§ à¤°à¤¹
Ġà¤¤ à¤¨à¤ķ
à¤Ī à¤¨à¤¸
Ġà¤² à¤¶
Ġà¤² à¤²à¤ķ
à¤ī à¤¶
Ġà¤ļ à¤µ
Ġà¤ĸ à¤¸à¤ķ
à¤ªà¤° à¤ª
à¤¯à¤® à¤ľà¤¸
à¤ŀ à¤ķà¤¹
Ġà¤µà¤° à¤ªà¤°à¤¬
à¤°à¤¦ à¤ľ
à¤ªà¤® à¤²
à¤Ĺà¤¤ à¤¹à¤°
à¤Ĩ à¤°à¤¤
à¤°à¤µ à¤Ĺ
à¤°à¤¬ à¤¤
à¤ķà¤ķ à¤¨
à¥ĭà¥¤ à¥¤
à¤ķà¤° à¤ľ
à¤·à¤ķ à¤Ń
à¥Įà¤ģ âĢĿâĢĵ
Ġà¤ĵ à¤ľà¤ª
Ġà¤¢ à¤Ĺ
à¤¤à¤ª à¤Łà¤ķ
Ġà¤ıà¤¨ à¤ħ
à¤¯à¤¦ à¤²à¤¬
Ġà¤µà¤¨ à¤°à¤ķ
à¥¤âĢĻ âĢĺ
Ġà¤Ĩà¤Ī à¤ıà¤®à¤ıà¤¸
à¥Ģ) -
à¤µà¤Ł à¤¸
ĠS im
à¤Łà¤¨à¤Ĺà¤° à¤¦
ĠD E
ĠT echn
ĠC re
ĠC ham
ed ding
à¥§à¥® à¥©à¥§
à¤¨à¤Ń à¤ı
Ġà¥©à¥ª à¥Ń
ĠE r
ĠG o
Ġà¥«à¥¨ à¥§
ãģ ©
à¤¤à¤ļ à¤°à¤¹à¤°
ĠH atiya
Ġà¥«à¥¯ à¥©
ĠW ild
à¤¸à¤¡à¤ķ à¤¸
à¤Ĳ à¤ķ
wit ch
our t
ap e
end e
Ġà¤²à¤ĸà¤¨ à¤īà¤¸
à¥§à¥¯à¥¯ à¥¬
Ġà¤¸à¤¯à¤® à¤¦
Ġr atnanagar
ĠÑĤ ÑĢ
à¤Łà¤Ĩà¤īà¤Ł à¤¬
74 1
ek t
ä» ¬
å® ¶
MP TE
42 00
Ø¨ Ø±
Â¬ âĢĵ
\\ \\
Ð¾Ð»ÑĮ Ð·
ĠPe ace
Ġwr ite
ĠPER SON
ubl ished
Ġratnanagar news
J ee
L TE
a e
b all
f ect
æ ±
é ħ
Ġ ant
Ġ ide
Ĺ ı
à¥į *
à¤° à¤Ĺà¤®
à¤ķ à¤¬à¤²
à¤² à¤¤à¤¨
à¤¸ à¤¶à¤ķ
Ġà¤ª à¤ľà¤¨
à¤Ł à¤¸à¤¹à¤°
à¤Ł à¤ħà¤Ĺ
à¥Ī :-
à¤ı à¤°à¤¹
à¤· à¤®à¤®
à¤ļ à¤¡à¤²
à¤¡ à¤¯à¤¨à¤ķ
Ġà¤² à¤¤à¤²
à¤Ľ à¤łà¤ķ
à¤ĸ à¤²à¤²
Ġà¤¯ à¤§à¤ª
à¤°à¤¹ à¤Ĺ
à¤¾, '
à¤ªà¤® à¤®
Ġà¤ĩ à¤¦à¤®
à¤Łà¤ķ à¤ª
à¤µà¤° à¤ľ
Ġà¤ħà¤¸ à¤°à¤¦
Ġà¥¬ à¥Ńà¥¬
à¤µà¤¤ à¤¹
Ġà¥¯ à¥¦à¥®
Ġà¤Ĩà¤® à¤¸à¤®
Ġà¤ħà¤¤ à¤¹à¤°
à¤¬à¤² à¤¸
Ġà¤®à¤¹à¤¤ à¤¸
Ġà¥§à¥¯ à¥§à¥©
Ġà¥§à¥¯ à¥¨à¥¨
à¤²à¤¸ à¤Ł
Ġà¤¦à¤¶ à¤²à¤®
Ġà¤ķà¤ª à¤Łà¤ª
Ġà¤Ńà¤Ī à¤°
Ġà¤Ńà¤Ī à¤ķà¤¨
à¤¸à¤¸ à¤Ĺ
à¤ıà¤² à¤ıà¤¸
Ġà¤ħà¤¡ à¤ķà¤²à¤¬
à¤Ĩà¤Ī à¤¯
ĠN et
Ġà¥©à¥« à¥¨
Ġà¤®à¤¨à¤® à¤¨à¤®
à¤·à¤Ń à¤¤
ĠB ik
ĠF ore
Ġà¥©à¥¬ à¥¬
ch and
à¤¾à¤ĥ ,
à¤²à¤Ĺà¤¨ à¤ĸ
ul es
áĥ ļ
Ð² ÐµÑĤ
Ð¾Ð² Ð°ÑĤÑĮ
est er
ĠPl us
ure d
Ġhe alth
à¤²à¤ł à¤Ł
pe ed
ari us
29 81
Ġ........ ........
ĠBl uetooth
ĠÐ³ Ð¾Ð´
Jee van
8 7
L ist
N Y
O s
u j
ç ²
è Ĥ
ă ...
Ġ ri
à¤¨ à¤¹à¤¸
Ġà¤ª à¤¦à¤¨
à¤ª à¤ĸà¤²
à¤¦ à¤§
à¤¦ à¤¶à¤¤
à¤µ à¤Ľà¤¨
Ġà¤Ĺà¤° à¤¬
à¤§ à¤¦à¤°
Ġà¤¤ à¤¸à¤²
à¤¶ à¤ľà¤Ļ
Ġà¤² à¤µà¤°
à¤°à¤ķ à¤£
à¤ĩ à¤ľà¤¨à¤ķ
à¤ĩ à¤Ĺà¤°à¤²
Ġà¤ĸ à¤Ļ
à¤Ļ à¤ķà¤®
à¤¸à¤ķ à¤Ńà¤°
à¤ªà¤° à¤Ļ
à¤²à¤ķ à¤¹
à¤Ĺà¤° à¤¸à¤¹
à¤°à¤¹ à¤ħà¤¨
à¤¯à¤¸ à¤°à¤¹
à¤¤à¤° à¤§
à¤Ŀ à¤¸
à¤°à¤¸ à¤¦
à¤¾, âĢ¦
à¤®à¤ķ à¤¬
Ġà¥© à¥¦à¥Ń
à¤¸à¤¨ à¤ľ
à¤Łà¤¨ à¤°à¤¹à¤°
Ġà¤¸à¤° à¤ªà¤²
à¥Įà¤ģ ),
à¥Ń à¥§à¥«
Ġà¥ª à¥¦à¥©
à¤°à¤¶ à¤¯
Ġà¤¢ à¤²à¤¨
à¤ĵ à¤ªà¤Ľ
Ġà¤ķà¤² à¤¹à¤®
à¤µà¤® à¤ŀ
à¤Łà¤² à¤Ń
Ġà¥§à¥¯ à¥¨à¥¯
à¤ļà¤² à¤Ńà¤°
Ġà¤°à¤ķ à¤¡
à¤ķà¤Ł à¤µ
an z
ad ha
Ġà¤¸à¤« à¤Ł
Ġà¤ıà¤² à¤ıà¤ķ
ĠS MPTE
à¥Ģà¤ģ ,
à¤Łà¤¸ à¤²à¤®
ĠD ainik
à¥ĩ. ,
Ġà¤ķà¤®à¤² à¤ľ
ĠM en
ĠM ult
à¥Ģ. :
Ġc ountry
à¥§à¥® à¥¯
Ġà¥©à¥¬ à¥©
Ġà¥©à¥ª à¥©
Ġà¥©à¥ª à¥¯
Ġà¥ªà¥® à¥¨
00 00
ĠE mb
à¤īà¤ľ à¤°à¤²
ĠG od
ĠG ood
Ġà¥«à¥® à¥¬
Ġà¥Ńà¥© à¥©
Ġà¤¸à¤¦à¤¨ à¤¦
ess ional
Ð¾ÑĢ Ð¾Ð´
à¥įâĢ¦ )
NE SE
ound ation
ĠBo ard
ĠØ¨ Ùĩ
ãĥ¼ ãĤ
ãĥ¼ ãĥ
æĪ Ĳ
ĠEd ition
à¸Ń à¸ĩ
97 741
åŃ ¦
è¨ ĺ
HUB CL
4200 85
( \'
6 2
6 5
P I
P L
T witter
d is
e h
k er
l ation
Ð Ľ
ç ®
ç Ħ
Ġ à¥įà¥¤
Ġ Ê»
à¥į à¤¾à¥ĩ
à¤¤ à¤¸à¤¤
à¤¯ à¤īà¤¨
à¤¯ à¤ħà¤µà¤§
à¤¸ à¤µà¤¨
Ġà¤ª Ãŀm
à¤¹ à¤µà¤²
à¤¹ à¤£à¤¸
à¤¦ à¤ľà¤°
à¤Ĺ à¤°à¤¤
à¥Ī &
Ġà¤¨ à¤ļà¤°
Ġà¤Ń à¤°à¤²
Ġà¤¤ à¤°à¤¹
Ġà¤¤ à¤ľà¤µ
à¤ī à¤ıà¤ķ
Ġà¤ı à¤Ĩà¤Īà¤ķ
à¤¾à¤ģ '
à¤¨à¤® à¤Ĺ
à¤ħ à¤¨à¤ķ
à¤ħ à¤²à¤®
à¤ĩà¤¨ à¤ĸ
Ġà¤²à¤Ĺ à¤¤à¤®
à¤¤à¤¨ à¤Ĺà¤°à¤ķ
à¤īà¤Ł à¤®
Ġà¤Ĩà¤ľ à¤¸
à¤¦à¤ķ à¤¸à¤®
à¤¦à¤² à¤Ń
à¤¯à¤¯à¤¨ à¤¦
Ġà¤Ĺà¤łà¤¨ à¤¬à¤¨
Ġà¤Ĩà¤² à¤Ļ
à¤°à¤° à¤°
à¥ĢâĢĻ ...
ad es
Ġà¤ªà¤² à¤ªà¤²à¤®
à¤¤à¤µà¤¨ à¤¤à¤°
Ġl ear
Ġl ady
Ġt ra
ĠT om
à¤ıà¤« à¤ıà¤®
ĠF ix
ĠR E
Ġà¥©à¥ª à¥¬
à¤Ĩà¤ĩ à¤ıà¤¨
ĠL og
à¤¡à¤¹à¤° à¤®
Ġ3 70
Ġà¤¦à¤µ à¤¦à¤µ
Ġà¥Ńà¥© à¥®
Ġà¥¬à¥¬ à¥¦
Ġà¥¬à¥¬ à¥¬
ia b
Ġà¤ħà¤µà¤¤à¤°à¤£ à¤®
à¤Ĳ à¤²
à¥ĩâĢ¦ .
Ġ5 4
Ġg irl
ab al
ham ro
à¤¤à¤¨à¤Ĺà¤° à¤¸
Ġal ong
Ġà¤ľà¤¯à¤¨à¤Ĺà¤° à¤¸à¤®
Ã¡ n
Ġpl an
Ã¤ r
Ġà¤ĳ à¤«
led ge
Ġà¤ķà¤Łà¤ķ à¤Ł
à¤ıà¤¸à¤ĩ à¤ĩ
ĠTe am
ĠDes ign
ĠTest ament
ibra Khabar
Ġ370 01
" :
A Y
h al
m ission
n i
v ed
Ï ĥ
à¥į à¤¿à¤¾
à¤¨ à¤Ĩà¤ķà¤°
à¤¤ à¤¦à¤¨
à¥Ģ à¥ĥ
Ġà¤ª à¤¤à¤°
à¤Ĺ à¤µà¤¸
Ġà¤¨ à¤ĸà¤°
Ġà¤¨ à¤īà¤ķ
Ġà¤® à¤ªà¤¨
Ġà¤Ń à¤¯à¤¨
Ġà¤¤ à¤µà¤°à¤ķ
à¤¥ à¤Ĺà¤¤
Ġà¤Ĩ à¤¤à¤ķ
Ġà¤² à¤µà¤¦
à¤Ľ à¤¡à¤ķ
à¤« à¤¨à¤²
à¤²à¤ķ à¤°à¤ķ
Ġà¤¸à¤¹ à¤²à¤Ĺ
à¤°à¤¸ à¤°à¤¹
Ġà¤ķà¤® à¤Ĺà¤°
Ġà¤²à¤Ĺ à¤Ńà¤ķ
à¤µà¤¨ à¤Ńà¤¨
Ġà¤¸à¤¨ à¤¤à¤ķ
à¤ľà¤ķ à¤ª
à¤¦à¤¨ à¤¯
à¤°à¤®à¤® à¤§
à¤¨à¤¸ à¤°à¤ķ
Ġà¥¬ à¥§à¥¦
Ġà¤ĩà¤¨ à¤Ń
Ġà¤¸à¤¤ à¤¹à¤²
Ġà¥¦ à¥§à¥¬
Ġà¤Ĭ à¤Ń
Ġà¤Ĭ à¤¨à¤ķ
Ġm a
Ġm ark
Ġm aterial
ĠS EO
it ute
à¤Ĭ à¤²à¤²
ha in
Ġp np
Ġs ign
Ġà¥Ńà¥« à¥«
Ġà¥©à¥© à¥¯
Ðµ ÑĨ
ing bo
Ġd an
Ġd ies
ac es
Ġà¥ªà¥® à¥Ń
Ġo ch
ĠG l
à¤ĩà¤« à¤²à¤ķ
Ġà¥«à¥ª à¥¯
us a
lo ss
Ð» Ð¾
Ġto p
ist ory
Ñĥ Ð¼
Ġv ot
ãĤ ģ
ab il
Ġ9 9
ash ion
ash ing
aj has
ĠÑģ Ð°Ð¹ÑĤ
Ġà¤ıà¤ħ à¤°à¤¬à¤¸
à¥«à¥« à¥«
und ai
ide os
av ator
Ġan al
ens ion
Ġwh ile
Ġun s
Ð°ÑĢ ÑĤ
ĠInd ust
å® ī
åĪ Ĩ
Ð°Ð± ÐµÑĤ
ĠRoad s
ãģĭ ãĤī
ĠExc avator
è¦ ģ
Ġà¤ķà¤®à¤²à¤¨ à¤¯à¤¨
à¥¨à¥¯à¥« à¥¦à¥Ńà¥¨
Ġà¥¯à¥®à¥¦à¥Ń à¥¨à¥¯à¥«à¥¦à¥Ńà¥¨
Ġpnp khabar
D I
c ast
l à¤²
m et
p g
æ ¸
à¤¨ à¤¡à¤°
à¤² à¤Ļà¤ķ
à¤¸ à¤¸à¤¬
Ġà¤¸ à¤Īà¤ķ
à¤¦ à¤®à¤²
à¤µ à¤®à¤²
à¤Ĺ à¤Ĺà¤¤
Ġà¤° à¤¡à¤ķ
Ġà¤° à¤¨à¤¤
à¤Ł à¤ªà¤²
Ġà¤¹ à¤¡à¤°
Ġà¤µ à¤Ĺà¤°
Ġà¤¤ à¤ĸà¤²
à¤¥ à¤¸à¤¹à¤¯
à¤¡ à¤¥
Ġà¤² à¤Ńà¤®
à¤ªà¤° à¤«
à¤¯à¤¸ à¤Ĺ
à¤¤à¤° à¤¸à¤¹
à¥« à¥¨à¥¦à¥¨
à¤Ĩ à¤ªà¤¤à¤ķ
à¤²à¤¯ à¤²à¤ķ
à¤¸à¤² à¤¦
à¤²à¤¨ à¤Ńà¤¨
à¤²à¤¨ à¤ħà¤ĺ
à¤®à¤¨ à¤¬à¤¹
Ġà¤ĵ à¤ªà¤¨à¤®
à¥® à¥ªà¥®
Ġà¤ķà¤² à¤°à¤«
Ġà¥Ń à¥¦à¥«
Ġà¤ħà¤¬ à¤¸à¤°à¤ķ
à¤¾à¥ĩ à¥ĩ
Ġ... à¥¤
Ġà¤¨à¤Ń à¤¯à¤ķ
Ġà¥§à¥® à¥ªà¥Ń
Ġà¥¦ à¥©à¥ª
à¤ªà¤£ à¤¸à¤®
Ġà¥¨à¥Ń à¥¦à¥¦
at ist
à¤Ĺà¤łà¤¨ à¤¸à¤®
à¤Ķ à¤§
Ġà¤¬à¤® à¤µà¤°
Ġà¤¸à¤ª à¤¥à¤ķ
st and
st ate
à¤¤à¤°à¤® à¤§
com p
ĠA ir
ĠA udio
Ġà¤Ĩà¤¸ à¤¯à¤ªà¤¤
ĠP ublic
ĠP OWER
Ġp ower
à¥§à¥¯ à¥¦
Ġa ir
à¤·à¤Ń à¤°à¤®
ĠI C
Ġc ele
Ġc ryptocurrenc
Ġà¤ķà¤¦à¤® à¤ªà¤Ľ
Ġà¥©à¥Ń à¥¬
à¤ıà¤ļ à¤Ĩà¤Īà¤Ń
Ġà¤ĵà¤® à¤¨à¤²
eb han
Ġà¤²à¤¯ à¤¬à¤¦
Ġ5 5
à¤ĭ à¤ļ
ess ion
Ġad ams
Ġus ing
Ġus ed
?' |
ĠðŁĻ Ĥ
à¤¸à¤ı à¤ªà¤²
ĠServ ices
LO G
ĠHot el
ĠSer ies
ĠLove ofqueen
! "
- '
4 00
A I
d i
m à¤²à¤®
m à¤¸à¤²
r or
Ð ĵ
å Ģ
è ī
à¤¿ âĢĺ
à¤® à¤£à¤¸
à¥ģ à¥Ģ
Ġà¤¸ à¤ªà¤®
à¤¦ à¤ªà¤¨
Ġà¥ ľ
à¤Ĺ à¤Ī
Ġà¤° à¤¸à¤°
Ġà¤¬ à¤«à¤°
Ġà¤® à¤ľà¤ķ
Ġà¤¹ à¤¦à¤²
à¤§ à¤°à¤£à¤¸à¤Ń
à¤Ĥ à¥ģ
Ġà¤Ĩ à¤ļà¤°
à¤¡ à¤¸à¤¨à¤²
à¤Ī à¤ľà¤®
à¤« à¤®à¤ķ
à¤¯à¤ķ à¤¸à¤¹
Ġà¤ı à¤ªà¤¸
à¤ĺ à¤łà¤¨
Ġà¤ıà¤ķ à¤Łà¤ķà¤²
à¤¤à¤° à¤Ń
à¤ħ à¤ķà¤¸
à¥Įà¤Ĥ "
à¤ªà¤¤ à¤¯
à¤®à¤ķ à¤¹à¤°
à¤Łà¤° à¤ľà¤¤
Ġà¤Ĩà¤° à¤ıà¤ķ
Ġà¥« à¥¦à¥¬
Ġà¥« à¥¦à¥¯
à¤®à¤¨ à¤¹
Ġà¤ĵ à¤®à¤¶
Ġà¥¬ à¥©à¥¦
Ġ? âĢĵ
Ġà¤¬à¤² à¤ľ
Ġà¤ħà¤ª à¤ľà¤¸à¤ķ
Ġà¤Ĩà¤ĩ à¤¤à¤°
à¤ľà¤® à¤¹à¤²à¤ķ
à¤¤à¤µ à¤¨à¤²à¤Ĺ
à¤ľà¤² à¤¸à¤ķ
Ġà¥§à¥§ à¥®à¥®
Ġà¤Ľà¤²à¤«à¤² à¤ªà¤¶
Ġà¥§à¥® à¥¯à¥«
à¤Ĩà¤° à¤ıà¤«
Ġà¤µà¤¨ à¤¦
à¤µà¤¤à¤¨ à¤¸
Ġà¤Ĩà¤ª mà¤¨
Ġà¤Ĩà¤Ī à¤¡à¤²à¤®
Ġà¤ķà¤ķ à¤¸à¤²
à¤£à¤® à¤£
Ġà¤®à¤¦ à¤¨à¤¨
ad min
Ġà¤ľà¤² à¤§
à¤°à¤Ĺ à¤£
Ġm il
ĠS C
Ġà¤īà¤ªà¤° à¤ĸ
ĠÐ Ĺ
à¤ĩà¤ķà¤² à¤¸à¤®
ĠT ibraKhabar
à¥§à¥¯ à¥«à¥¦
Ġs hare
Ġa bs
ĠB rowser
Ġc or
em a
Ġà¤¦à¤®à¤ķ à¤¬
à¤¨à¤¶ à¤Ł
Ġg en
"" "
201 2
Â» ,
Ġpro cess
Ġpost date
Ð¼ ÐµÐ½
à¥¯à¥® à¥«à¥§
Ð°ÑĤ ÐµÐ»ÑĮ
à¤¨à¤ªà¤Łà¤ķ à¤¸à¤®
Ñī Ðµ
ä» ¶
Ð¸Ð½ Ð°
Ġà¤¹à¤¤à¤ķ à¤£
Ġà¤ħà¤¬à¤¶ à¤°à¤®
âĸ ª
OC AL
spl it
à¥§à¥©à¥« à¥¯à¥¦
H D
S ub
à¤¾ ă...
à¤¯ à¤Łà¤°à¤ķ
Ġà¤¸ à¤ªà¤ķ
Ġà¤¸ à¤²à¤ķà¤ª
Ġà¤ª à¤¡à¤¨
Ġà¤ª à¤«à¤°
à¤µ à¤ħà¤Ń
Ġà¤ķ à¤¨à¤¸
à¤Ĺ à¤°à¤£à¤²
Ġà¤¹ à¤Łà¤®
Ġà¤¹ à¤łà¤²
à¤· à¤®à¤¨
à¤§ à¤ľà¤²
à¤¥ à¤°à¤¹
à¤ļ à¤®à¤ķ
à¤ļ à¤ħà¤²
à¤ĸ à¤¡à¤²
Ġà¤¸à¤® à¤¥
à¥¤ âĢĶ
à¤ĩ à¤ł
Ġà¤¶ à¤µà¤µ
à¤ł à¤ªà¤Ľ
à¤ł à¤Ńà¤¨
à¤°à¤£ à¤¯à¤ķ
à¤ªà¤° à¤Ł
Ġà¤ľà¤¨ à¤¤à¤ķ
à¤¤à¤ķ à¤¸à¤¹
à¥« à¥©à¥¨
à¤Ĩ à¤Ĭ
à¥§ à¥¦à¥©
à¤¸à¤² à¤Ń
à¥Īà¤Ĥ âĢĻ
Ġà¤¸à¤¦ à¤®
à¤¯à¤° à¤ªà¤Ľ
à¤ĵ à¤ĩ
Ġà¥Ń à¥¦à¥©
Ġà¥Ń à¥¨à¥Ń
à¤£à¤ķ à¤Ł
à¥įâĢ ĺ
Ġà¤¦à¤² à¤¦à¤²à¤¬
à¤°à¤¨ à¤°à¤¸
Ġà¤ħà¤² à¤ļ
Ġà¥¤âĢĻ -
à¤¡à¤° à¤«
Ġà¤ķà¤ł à¤°
à¤Łà¤µ à¤¯à¤°
Ġà¤Ĩà¤ı à¤¯à¤¤
Ġl ong
ic i
Ġà¤¢à¤ķ à¤¬à¤¹
Ġp i
ĠC all
à¥ĭâĢĻ âĢĻ
Ġa v
à¥§à¥¨ à¥¬
Ġc are
em or
ag er
Ġb ec
Ġà¥©à¥¯ à¥¯
Ġà¥ªà¥© à¥¨
Ġà¥ªà¥¯ à¥§
Ġà¤ľà¤¯ à¤Ĺà¤¢
Ġg reat
âĢ¦âĢ¦ ..
ug g
Ã¬ à¤µ
Ġà¤ħà¤¹à¤® à¤¦à¤ķ
Ġcom e
ire d
Ø± Ø¯
Ġà¤§à¤°à¤ªà¤ķ à¤¡à¤ķ
FA Q
rig ation
Ġpr int
yt ics
ĠRob ot
ĠEngine ering
ikt el
; à¥¤
D ec
M an
N ote
m ar
Ð ĳ
Ð Ķ
æ Ļ
Ġ ÑĪ
à¤ķ à¤Ĩà¤°
à¥ģ âĢĺ
à¥ģ Â·
à¤¸ à¤Łà¤ª
à¤ª à¤µà¤°
à¤ª à¤ķà¤®à¤§
à¤¦ à¤ķà¤®à¤§
à¤Ĺ à¤¡à¤ķ
Ġà¤° à¤¨à¤¬
à¤ı à¤¹
à¤· à¤¸à¤¤
à¤§ à¤¤à¤²
Ġà¤¦ à¤°à¤¸à¤¨
à¤¥ à¤²à¤¨
à¤ģ à¥Īà¤Ĥ
à¤Ń à¤²à¤¤
à¤ĸ à¤¡à¤ķ
à¤ĸ à¤²à¤¨à¤®
à¤ī à¤Ĺà¤°
Ġà¤¸à¤® à¤¯à¤¨
à¤°à¤® à¤ľà¤¸
Ġà¤ļ à¤®à¤°
à¤« à¤²à¤¬
Ġà¤¥ à¤Ł
Ġà¤ı à¤¹à¤¸
à¤ł à¤ķà¤ª
Ġà¤ħà¤¨ à¤°à¤¸
à¥ĥ à¥¤
Ġà¤®à¤¹ à¤²à¤²
Ġà¤ıà¤ķ à¤ªà¤Ł
à¤¤à¤° à¤²à¤Ĺ
Ġ( (
à¥§ à¥§à¥¦
à¤¸à¤¨ à¤¤
à¤¤à¤® à¤¦
Ġà¤¸à¤° à¤¯
à¤¨à¤¨ à¤¦
Ġà¥ª à¥§à¥¬
Ġ? âĢĿ,
à¤ħà¤¨ à¤°
à¤Ĺà¤® à¤Ĺà¤¢
Ġà¤ĺà¤° à¤ªà¤Ľ
à¤Łà¤² à¤Ĺà¤¤
à¤¹à¤¨ à¤¶
Ġà¥¯ à¥¨à¥¯
Ġà¥§à¥« à¥¦à¥¦à¥¦
à¤Ĺà¤¢ à¤¹à¤°
Ġà¥¨à¥ª à¥¦à¥¦
Ġà¤ĸà¤¬à¤° à¤ħà¤¨
Ġm o
ĠS anchar
Ġt u
ĠP et
ou p
ĠC A
Ġf am
ur ance
am i
oo se
Ġà¤ªà¤ļ à¤Ń
Ġin dust
ĠG TA
ãģ Ķ
ch i
Ġh ard
à¥¨à¥¬ à¥«
ri al
ĠW ar
ber g
ĠJ im
Ġà¥¯à¥¯ à¥¬
áĥ ĵ
Ġk b
iv ely
à¨ ²
Ø§Ø ¨
Ġà¤ħà¤®à¤¨ à¤ļà¤¯
olog ical
Ġà¤Ĩà¤ĩà¤ĵ à¤ıà¤®à¤®
ĠBh att
à¤ĸà¤¬à¤°à¤ķ à¤°
ĠWh ite
Ġbel ow
Ð°ÐµÑĤ ÑģÑı
âĪ Ļ
éģ ĵ
vo ices
à¤Ķà¤· à¤§à¤®
Fl ash
vir on
Go al
global voices
F or
m orang
Ú º
à¤¾ à¤¾à¤ģ
à¤¨ à¤ĵà¤ķ
à¤¨ à¤ĺà¤£
à¤¸ à¤ľà¤°
à¤¹ à¤«
Ġà¤¬ à¤¡à¤²
à¤¬ à¤ļà¤¨
à¤§ à¤¸à¤Ļ
à¤ļ à¤°à¤ª
à¤Ī à¤ĵà¤²
à¤ĩ à¤¯à¤ķ
Ġà¤ļ à¤¹à¤°
Ġà¤¥ à¤¹
à¤ľà¤¨ à¤®à¤§
à¤ľà¤¨ à¤Ĺà¤£à¤¨
à¥§ à¥§à¥«
à¤²à¤¨ à¤¹
à¤¸à¤¨ à¤ªà¤Ł
à¤Łà¤¨ à¤¸à¤®
Ġà¤Ĩà¤° à¤ıà¤®à¤¸
Ġà¥¬ à¥¨à¥«
à¤§à¤¨ à¤Ĺà¤°à¤ķ
à¤ĵ à¤¸à¤®
à¤Łà¤² à¤Ńà¤¨
Ġà¤īà¤® à¤Ł
Ġ: (
Ġà¤ıà¤¸ à¤ı
Ġà¥§à¥¯ à¥¨à¥¬
à¤®à¤¹ à¤¸
Ġà¤ķà¤ª à¤¬
à¤¯à¤£ à¤¤
à¤¨à¤¦ à¤£
om a
à¤ıà¤² à¤ĩà¤¡
Ġà¤Ĺà¤² à¤¤à¤²
à¤¾à¥¤ "
à¤¾à¥¤ à¥¤
Ġm ul
à¤§à¤µ à¤¬
ĠS ecurity
Ġà¥©à¥« à¥®
à¥Ńà¥« à¥Ń
à¤Ĺà¤ľ à¤°à¤¹
is ions
à¤µà¤¯à¤® à¤ª
Ġà¥«à¥« à¥®
ĠâĢ¦ âĢ¦.
ĠB y
Ġd etail
à¤ĸà¤¤ à¤Ń
à¤¾âĢ¦ ..
Ġà¤¡à¤² à¤°à¤¦
el low
ĠR FP
Ġà¥ªà¥ª à¥¯
à¤ªà¤¨à¤® à¤§
Ġà¥©à¥Ń à¥§
à¤¦à¤¬ à¤Ļ
Ġo d
Ġà¥ªà¥© à¥®
ĠH ang
Ġà¥«à¥® à¥ª
Ġà¥¬à¥© à¥©
Â« à¤¾
à¤Ńà¤ļ à¤·
du ce
ĠCh inese
à¤ľà¤¡ à¤Łà¤ķà¤®à¤²
ĠÃ ¤
au cha
Ġà¤¸à¤¨à¤ķ à¤ķ
ddc morang
vent ion
à¤²à¤°à¤¸ à¤¨à¤²
Ġà¤Ĺà¤Ĺ à¤¨à¤¸
Ġhere in
Ġbel ie
Ġprov id
Wh ite
Ġoak ley
tain ment
empor ary
Ġà¤¥à¤Ļ à¤¥à¤°
C opyright
H appy
f irm
m argin
r ay
s l
Ï Ĥ
à¤° à¤Ĺà¤²
à¤¨ à¤ĸà¤°
à¤¨ à¤Īà¤ķ
à¤² à¤¦à¤°
à¤® à¤Ĩà¤²
à¤¤ ÅĴà¤µ
Ġà¤¸ à¤ľà¤ķà¤¤
à¤¹ à¤¦à¤°
à¤¦ à¤Ļà¤µ
à¤µ à¤Ĩà¤ĩà¤ľ
Ġà¤ķ à¤°à¤²à¤Ĺ
à¤Ĺ à¤¶à¤¤
Ġà¤Ĺ à¤ľà¤¨
à¤ľ à¤¯à¤¤
Ġà¤² à¤¸à¤ª
à¤Ń à¤ĩà¤°à¤¹
à¤ĸ à¤°à¤µ
à¤ĩ à¤µà¤¸
à¤ĩ à¤¸à¤¬
à¤ĩ à¤Ļà¤®
Ġà¤ı à¤¡à¤ķ
Ġà¤ıà¤ķ à¤Ĩ
Ġà¤ľà¤¨ à¤¸à¤¹à¤¯
Ġà¤®à¤¨ à¤ľ
Ġà¤¬à¤¢ à¤ķ
à¤ķà¤² à¤ª
Ġà¤²à¤Ĺ à¤²à¤Ĺ
à¥ģà¤ģ à¥¤âĢĿ
Ġ( #
à¤Ĺà¤¤ à¤¤
à¤·à¤£ à¤ªà¤¶
à¥ĭà¥¤ âĢľ
à¤¤à¤® à¤µ
Ġà¥« à¥§à¥«
à¤·à¤ķ à¤¶
Ġà¥ª à¥¦à¥¨
Ġ? &
à¤ĵ à¤¦
à¤Ĺà¤® à¤°
à¤²à¤Ĺ à¤£
Ġà¤ıà¤¸ à¤µ
à¤Īà¤ķ à¤Łà¤¹à¤°
Ġà¤¬à¤ļ à¤¨à¤²
Ġà¤Ĩà¤Ī à¤Ń
Ġà¤Ĩà¤Ī à¤¸à¤²
à¤ĸà¤² à¤Ļ
à¥ĩà¤Ĥ à¤ģ,
Ġà¤Ĺà¤ł à¤¨à¤²à¤Ĺ
à¥ĩà¤ģ à¥¤'
Ġà¤ķà¤Ł à¤¨à¤ķ
à¤¯à¤¯ à¤¨à¤®à¤¨
à¤ıà¤² à¤ıà¤ķ
ad os
Ġm ill
Ġt alk
Ġp as
Ġp Ã¥
ĠM O
ĠM ov
Ġà¥Ńà¥« à¥§
à¤®à¤°à¤£ à¤°à¤¹
is ing
ĠI d
à¤¦à¤¯ à¤ļà¤¨
Ġf ore
Ġd ating
Ġd aily
ĠR SS
Ġà¤®à¤ľ à¤Ń
Ġà¥«à¥¬ à¥ª
Ġà¥ªà¥© à¥§
à¥įà¤¾ à¥ĭ
th ers
Ġà¤®à¤Ŀ à¤§
à¤µà¤Ĺ à¤£à¤ķ
ip l
Ġy ang
Ġà¤¨à¤°à¤® à¤ªà¤¨
Â» .
Ġ9 1
Ġà¤ıà¤ħ à¤°à¤¬
ä¸ ĭ
à¥¯à¥¯ à¥¯
Ġà¤ķà¤¨à¤ķ à¤®
Ġex p
ÐµÐ» Ñı
à¤¹à¤ļ à¤°à¤£à¤ķ
Ð¶ Ðµ
çĶ »
de fault
ïĢ ¼
ãģ§ ãģĻ
ä½ ł
we en
ĠSem ily
éĿ ¢
ĠSER P
Ġupd ated
viron ment
K rishna
O ne
b ucks
l t
p ang
u v
Ð Ĺ
ä ¾
å ī
æ ĭ
à¤¨ à¤°à¤¦
à¤ķ à¤Ľà¤¨
à¥ĩ à¥ĩ,
à¤¤ à¤Ļ
à¤¸ à¤ªà¤ķ
Ġà¥ Ľ
à¤Ĺ à¤ļà¤¨
Ġà¤¨ à¤Łà¤°
à¤ı à¤¡à¤®
Ġà¥¤ --
Ġà¤® à¤«à¤²
Ġà¤¤ à¤µà¤²
à¥Ĥ ),
Ġà¤ļ à¤°à¤®à¤®
à¤¾à¤ģ ?
à¤ł à¤ĸ
à¤°à¤£ à¤ªà¤Ľ
à¤°à¤£ à¤ķà¤°
Ġà¤¬à¤¨ à¤¬à¤¸
Ġà¤ľà¤¨ à¤¦à¤µ
Ġà¤¯à¤¸ à¤ħà¤µà¤§
à¥« à¥¨à¥¦à¥ª
à¤Ĺà¤¤ à¤¸à¤¹
à¤·à¤£ à¤¤à¤°
à¤¸à¤² à¤¤
à¥ĩ, âĢĵ
à¤§à¤¨ à¤¯
à¤ıà¤¨ à¤Ń
à¤µà¤¤ à¤¨à¤²
Ġà¥§à¥¦ à¥¦à¥¦à¥¦
à¤ľà¤® à¤ľ
à¤¤à¤ª à¤¶
Ġà¤¨à¤Ń à¤ķ
à¤ĩà¤Ł à¤°à¤®
à¤ĩà¤Ł à¤²à¤ķ
à¤ĩà¤ķ à¤Łà¤¹à¤°
à¤¨à¤ª à¤¢
Ġà¤ıà¤¨ à¤ıà¤ļ
à¤ĺà¤Łà¤¨ à¤¸
à¤Īà¤¨ à¤ĸà¤¬à¤°
ar ath
ĠS he
it iz
it ude
Ġl as
ic ation
à¤²à¤¦ à¤Ļ
ĠC ouncil
Ġà¤¨à¤Ĩ à¤ĩà¤¦
Ġà¤¨à¤¸ à¤¡
Ġà¤®à¤¦à¤¨ à¤¦
Ġà¤ĥ -
à¥§à¥© à¥ª
à¥¦à¥« à¥¦
à¤ıà¤ļ à¤ıà¤«
Ġà¥«à¥¨ à¥ª
Ġà¤¨à¤Ĺ à¤ĩà¤ķà¤¨
ĠK ey
Ġh uman
à¥¦à¥ª à¥¦
à¤Ķà¤·à¤§ à¤²
Ġà¤¬à¤¦ à¤²à¤¨
ers hip
Ġe vent
à¤ķà¤Ń à¤°à¤¬
te le
à¤Īà¤ĵ à¤®
ĠÙ Ħ
IN E
ĠÐ´ Ð°Ð½
Ġr un
Ġà¤ıà¤¯à¤°à¤¬ à¤¸à¤²
AT A
fin ed
cap tion
Ġir rigation
Ġresp ons
Ġà¤¦à¤¶à¤²à¤® à¤µ
E ng
F T
N et
b id
c s
d as
d autari
g al
h h
i od
k arn
Â ķ
å ģ
æ Ľ
é ĥ½
Ġ ïģ
Ħ ¢
à¤ķ à¤¸à¤®à¤ķ
à¤² à¤²à¤®
à¤² à¤Ĩà¤¯
à¤® à¤«à¤²
à¤¸ à¤ħà¤ĺ
à¤¸ à¤ªà¤²
à¤¦ à¤°à¤£
Ġà¤° à¤ķà¤¸
à¤Ł à¤µà¤¨
Ġà¤µ à¤ĸ
à¤§ à¤ªà¤¨
à¤§ à¤ħà¤ªà¤°
Ġà¤¯ à¤¯
Ġà¤ı à¤ıà¤Ĩà¤°
à¤¾à¤ģ (
à¤ľà¤¨ à¤Ĺà¤°
à¤²à¤ķ à¤®à¤²
à¤ħ à¤ªà¤¨
à¤ħ à¤°à¤µ
à¤°à¤¸ à¤«
à¤°à¤¸ à¤µà¤ķ
à¤¯à¤¤ à¤¸à¤¹
Ġà¤ªà¤¹ à¤²à¤¸
à¤µà¤° à¤¥
à¤¸à¤¨ à¤¶
à¥ĩ, âĢĵâĢĺ
à¤¤à¤® à¤ľ
Ġà¤Ĩà¤° à¤ıà¤®
Ġà¤¸à¤° à¤°à¤°
Ġà¤¸à¤¨ à¤¬
à¤¶à¤¨ à¤ĸ
Ġà¤ľà¤¸ à¤Ń
à¥® à¥§à¥«
à¤®à¤® à¤®
à¤¿à¤ģ âĢĻ
à¤¸à¤¦ à¤¸à¤¹
Ġà¤ĩà¤¨ à¤¡
Ġà¥® à¥¦à¥¯
à¤µà¤°à¤£ à¤²à¤Ĺ
à¤ªà¤² à¤¤
Ġà¤Ĳ à¤¨à¤ª
à¤°à¤®à¤£ à¤²à¤Ĺà¤¤
à¤¸à¤° à¤ļà¤¨
Ġà¤¸à¤¡à¤ķ à¤µ
Ġà¤ıà¤¨ à¤«
Ġà¥§à¥® à¥©à¥¦
à¤Ĩà¤° à¤ıà¤®à¤¸
Ġà¤ĸà¤¡ à¤Ĺà¤¬à¤¹
Ġà¤¨à¤ķ à¤ļà¤°
Ġà¥¨à¥Ń à¥Ń
Ġà¤Ĺà¤® à¤¬à¤¹
à¤Ĺà¤¨ à¤¸à¤®
à¤ļà¤¯ à¤ªà¤¨
à¤¸à¤¨à¤² à¤¸
Ġm ag
Ġm ass
Ġà¥©à¥« à¥¯
Ġt echnology
ĠD ata
ou ch
à¥ĭâĢĻ à¥¤
Ġà¤Ĺà¤ľ à¤µà¤ķ
le ar
is ed
ĠB ro
ent ry
ĠF OCAL
el ing
Ġà¤Ńà¤ĩ à¤ıà¤¨
Ġà¥ªà¥ª à¥Ń
Ġà¤¹à¤® à¤°à¤ľ
Ġre ally
Ġà¤ħà¤°à¤¬ à¤²à¤Ĺ
à¤¸à¤« à¤°à¤²
Ġà¥«à¥© à¥¨
à¤¾à¤ĥ âĢĵ
ĠSt ates
ĠY our
à¤Īà¤ªà¤Łà¤ķ à¤¸à¤®
ĠNepali Goal
Ġbe fore
Ġà¥§à¥¦à¥® à¥¦
rad er
ïģ Ń
ĠSh iva
NE W
Ð°ÑĢ Ð°ÑĤ
ES T
ä» ĸ
Ð¾Ñģ Ñģ
à© °
ĠMB BS
Ġà¦ ¬
Ø³ Øª
ature d
ĠGu ide
ĠChe ap
Ð°Ñİ Ñī
Ġdiff erent
ĠAnal ytics
Ġcook ies
Ã¸ à¤¯
ĠPH P
Not ice
Ġbet ween
é« ĺ
ĠWebs oft
) âĢĿ
J an
c z
d om
d ash
o bs
p hone
× Ļ×
ç Ł
Ġ Ø§Ù
Ġ Ûģ
à¥į ....
à¤® m
à¤® à¤Ĺà¤²
à¤¤ à¤Łà¤¬à¤¨
à¥ģ à¥ģ,
à¤¸ Facebook
à¤¹ à¤µà¤¸
Ġà¤ķ à¤¹à¤¨
Ġà¤ķ à¤ıà¤²
à¤Ł à¤ļà¤¨à¤ķ
Ġà¤¨ à¤²à¤®
à¤ľ à¤µà¤ķ
à¤¬ à¤¬à¤°
à¤¶ à¤¸à¤¸
à¤¥ à¤°à¤¹à¤°
à¤ģ à¥ĩ,
à¤¡ à¤ľà¤°
à¤Ī à¤ł
Ġà¤² à¤°à¤¤à¤°
à¤ĸ à¤·
à¤Ļ à¤«à¤¸
à¤¸à¤® à¤·
à¤¨à¤® à¤Ĺà¤°à¤ķ
Ġà¤ľà¤¨ à¤ĩà¤ļ
à¤ħ à¤²à¤ªà¤¤
Ġà¥© à¥Ńà¥ª
à¤¤à¤¨ à¤°
à¥Įà¤ģ à¤ģ
Ġà¥¬ à¥§à¥¨
à¤¤à¤² à¤µ
à¤ķà¤°à¤£ à¤ķà¤°
Ġà¤ķà¤² à¤ª
Ġà¥® à¥¦à¥Ń
à¤¹à¤¨ à¤Ĺà¤°à¤®
à¤ķà¤ª à¤°à¤®
à¤°à¤®à¤£ à¤¦
à¤°à¤®à¤£ à¤Ńà¤¤
Ġà¥¤âĢĻ âĢĺ
Ġà¤Ĺà¤łà¤¨ à¤ħà¤ĺ
à¤®à¤ª à¤¸
ad emy
Ġà¤¸à¤¹à¤° à¤Ńà¤°
Ġm ar
ĠS um
ĠS iktel
à¤²à¤ª à¤¶
à¤¶à¤¨à¤² à¤®
ĠP ark
ĠC V
ĠM r
Ġs ocial
Ġà¥Ńà¥« à¥¨
à¥§à¥¨ à¥ªà¥¬
ur ali
Ġà¤ħà¤¸à¤® à¤¨
Ġà¤°à¤Ĺà¤¤ à¤ªà¤ļ
ot ion
à¤Ĩà¤ĩ à¤ıà¤«
ct ure
ĠH A
à¤¹à¤£ à¤ªà¤Ľ
ĠW ater
à¤ıà¤¸à¤¨ à¤¬
à¤¯à¤¨à¤² à¤Ĺ
Ġà¤¸à¤¦à¤¨ à¤¸à¤®
Ġk B
à¥ĩÂ« à¥ĩ
Ð³ ÑĢ
Ġà¤ħà¤Łà¤² à¤µ
Ġà¤ıà¤ķà¤ıà¤ķ à¤µà¤Ł
ĠDe urali
Ġsh ould
ĠAm ended
ĠBo ya
ĠMH P
ĠÚ© ÛĮ
à¤¡à¤°à¤¶ à¤Łà¤®
Ð°ÑĨ Ð¸Ñı
ĠØ¯ Ø±
à¤¶à¤°à¤® à¤¹à¤²
Pin terest
ĠKh ola
ĠIm age
ĠSan pang
jay ang
ĠHel aucha
à¼ ĭ
clus ive
ĠâĪ ķ
ĠHil ebhan
à¥«à¥¨à¥¦à¥§ à¥Ńà¥§
chand mun
Twitter Google
à¥«à¥¨à¥¦à¥¨ à¥ªà¥§
ĠHang lung
à¥«à¥¨à¥¦à¥ª à¥Ńà¥§
arath chandmun
dash arathchandmun
ĠHilebhan jayang
/ )
O M
U L
[ [
p art
r at
Æ °
Ġ Ú¯
à¤° à¤Ĩà¤¬
à¤¨ à¤ī
à¤¨ à¤§à¤°
à¤ķ à¤¶à¤ķ
à¤ķ à¤¸à¤¬
à¤¿ âĢį
à¥ĭ !!
à¤¯ à¤Ńà¤ķ
Ġà¤¸ à¤ĺà¤ķ
à¤ª à¤¥à¤ķ
à¤µ à¤ĩ
à¤Ĺ à¤¸à¤ķ
Ġà¤Ĺ à¤µà¤°
Ġà¤ħ à¤¦à¤²
à¤¬ à¤¶à¤ķ
Ġà¤¤ à¤°à¤£
à¤ĸ à¤¤à¤¹à¤°
âĢ ¬
à¤°à¤ķ à¤¸à¤®
à¤°à¤ķ à¤°à¤£à¤¹à¤°
à¤Ĺà¤° à¤¦
Ġà¤Ł à¤ªà¤Ł
à¤¤à¤° à¤Ĺà¤Ļ
Ġà¤¸à¤¹ à¤ķà¤®
Ġà¤¸à¤¹ à¤¬à¤¦
Ġà¤ħà¤° à¤Ĺà¤°
Ġà¤ķà¤® à¤£
à¤ķà¤² à¤ªà¤¹à¤°
à¤łà¤® à¤¨
Ġà¤ĩ à¤®à¤²
à¤°à¤¬ à¤ļà¤¨
à¥ĭ, ,
Ġà¥ª à¥Ńà¥¬
Ġà¥ª à¥¦à¥®
Ġà¤ªà¤ķ à¤¨
Ġà¥¬ à¥¨à¥¦
Ġà¥¬ à¥§à¥¬
Ġà¥¬ à¥¦à¥©
à¤¯à¤° à¤ªà¤°
Ġà¤ħà¤® à¤°à¤¦
Ġà¤ĸà¤° à¤°
Ġà¥® à¥¨à¥«
à¤Łà¤² à¤¦
Ġà¤¬à¤² à¤¸
Ġà¥¯ à¥Ńà¥©
Ġà¥¯ à¥§à¥¬
Ġà¤ħà¤¤ à¤ıà¤µ
âĢ¦ ,
ĠĠ ĠĠĊ
à¤§à¤ķ à¤¬
Ġà¥§à¥® à¥ªà¥¦
à¥ĩà¤ģ âĢĻ,
à¤ĩà¤¸ à¤Ķ
Ġà¤Ĩà¤ł à¤¸à¤®
Ġà¤ĭà¤£ à¤¸à¤®
à¤¯à¤¸à¤¬ à¤ĸà¤¤à¤ķ
à¤¦à¤¶ à¤°à¤£
ĠD a
Ġp oss
ĠC r
Ġà¥ªà¥« à¥§
Ġa u
le ft
Ġf ix
ĠB ul
ĠB ab
Ġd om
Ġc ould
Ġà¤°à¤Ļ à¤¬
Ġà¤ħà¤¸à¤® à¤®
Ġà¥¬à¥« à¥Ń
Ġà¥ªà¥ª à¥ª
Ġn ous
Ġà¥©à¥® à¥®
ĠE V
à¤Ĩà¤ĩ à¤°à¤¨
ĠG SM
Ġà¥¬à¥® à¥¦
im ate
tt e
Ġe ffect
à¤¾? âĢĿ
Ġà¥®à¥¬ à¥¦
Ġ5 2
Ġg l
Ġ6 5
ap t
Ġ* **
ĠÐ² Ð¾Ð·
ĠØ ¹
ï¼ ģ
ĠÐ½ Ð¾
ĠÃ ¶
à¹ ĥ
Ġi OS
ert ific
ark i
han i
åı ¯
æĹ ¶
à¤ĵà¤ªà¤¨ à¤°
ĠIs lands
ÐµÐ³ Ð¾
Ð°Ñħ Ð°ÑĢ
ãģ£ ãģ¦
Ġà¤ļà¤¹à¤²à¤ªà¤¹ à¤²à¤²
Vi ew
ĠÐ´Ð¸ Ð°Ð±ÐµÑĤ
( '
3 00
C R
H amro
g round
i D
s et
Ġ om
à¤® à¤ħà¤¶
à¤¯ à¤«à¤²
à¤¯ à¤ıà¤¸
à¤¯ à¤ħà¤µà¤¸
à¥Ģ ......
à¤ª à¤Ĺà¤¨
à¤¦ à¤®à¤®
à¤µ à¤µà¤°à¤£
Ġà¤ķ à¤µà¤²
à¤Ĺ à¤«à¤®
Ġà¤° à¤£à¤ķ
Ġà¤¨ à¤¹à¤¨
à¤ı à¤²à¤°
Ġà¤ħ à¤ľà¤¸
Ġà¤¹ à¤®à¤¦
à¤¬ à¤Ĺà¤¡
Ġà¤µ à¤¯à¤ķ
à¤¶ à¤ľà¤²
à¤Ĥ à¤ĥ
à¤Ń à¤Ńà¤¨
à¤ĸ à¤¤à¤²
à¤ĸ à¤¦à¤°
Ġà¤¸à¤® à¤ľ
Ġà¤¸à¤® à¤µà¤¨
Ġà¤¸à¤® à¤¯à¤°
à¥Į à¥ĩ
Ġà¤ı à¤ıà¤®
Ġà¤ıà¤ķ à¤Ł
à¤¯à¤® à¤°à¤¤
à¤ªà¤¨ à¤ħà¤¨
Ġà¤Ł à¤ķà¤Łà¤ķ
à¤ĩà¤¨ à¤ħà¤ª
à¤µà¤° à¤µà¤²
à¤µà¤¨ à¤ļ
à¤²à¤¨ à¤¨
à¤¸à¤¨ à¤ªà¤¦
à¤¯à¤° à¤ľà¤¸
à¤ĸà¤° à¤Ńà¤°
à¤Łà¤® à¤¸à¤ķ
Ġà¤Ķ à¤¶à¤¤
à¤ķà¤¤ à¤¬
à¤¸à¤¦ à¤¨à¤ķ
Ġà¤ĩà¤¨ à¤Łà¤°à¤¨
à¤¶à¤® à¤£
à¤¤à¤°à¤£ à¤¸à¤¹
à¤ªà¤² à¤ª
Ġà¤ħà¤² à¤ĸ
à¤°à¤®à¤£ à¤ªà¤¶
Ġà¤¤à¤¹ à¤¤
Ġà¥§à¥¯ à¥©à¥§
à¤ıà¤¸ à¤ıà¤²à¤ķ
re aking
Ġà¥§à¥® à¥§à¥®
Ġà¥¦ à¥©à¥¦
Ġà¥¦ à¥©à¥¨
at ara
Ġm usic
ĠS o
ĠP rem
à¤ªà¤¨à¤ķ à¤°
Ġs aid
à¤Łà¤µà¤² à¤¦
ew a
à¥§à¥¨ à¥©
ĠB ib
ĠB etter
Ġc am
à¥§à¥® à¥¦
as c
Ġà¥ªà¥® à¥«
Ġb ig
qu ip
ĠG en
à¤ıà¤ļ à¤ı
ãģ ¡
à¥Įà¥¤ '
Ð» Ð°Ð´
Ġà¥Ńà¥© à¥«
ig er
um e
à¤¾? '
Ġà¤ĵà¤Ńà¤° à¤«
Ġà¥¯à¥Ń à¥Ń
à¥Īà¥Ī à¥Ī
Ġà¤µà¤ļà¤¨ à¤µà¤¦
Ġà¤¬à¤¬ à¤£
à¤¦à¤¹ à¤¡à¤¤
?? ?
ard en
Ġ7 2
08 7
Ġ8 00
ek antipur
76 8
Ġout let
ĠRes erved
tr ans
à¤ĵà¤Ń à¤°à¤¸
Ð¾Ð»ÑĮ ÐºÐ¾
Ġvi ew
ĠSm art
$ $
? âĢĻ,
E NT
G u
h ib
p ublic
p atra
æ ´
ç Ń
ì Ĺ
à¤¾ Â»
à¤° à¤ıà¤¨
à¤¯ à¤ħà¤®
Ġà¤¸ à¤£
à¤¹ à¤®à¤¤
Ġà¤° à¤®à¤²
Ġà¤® à¤ĵà¤µ
à¤¶ à¤µà¤®
à¤¶ à¤¯à¤ª
à¤ļ à¤ĺà¤°à¤ķ
à¤¡ à¤°à¤¤
à¤°à¤ķ à¤°à¤®
à¤ĩ à¤µà¤°à¤ķ
à¤« à¤ªà¤¨
Ġà¤ªà¤° à¤µà¤°
Ġà¤ªà¤° à¤µà¤²
à¤°à¤£ à¤ªà¤¨
à¤ĺ à¤¯
Ġà¤ıà¤ķ à¤¦à¤¶
à¤¯à¤® à¤¸à¤¹
Ġà¤¸à¤ķ à¤°à¤ª
à¤ķà¤² à¤¬à¤¹
Ġà¤īà¤¤ à¤ª
Ġà¤Ĩà¤° à¤ıà¤¨
Ġà¤Ĩà¤µ à¤°à¤£à¤²
à¤¨à¤¸ à¤Ł
à¤ĵ à¤ķà¤°
à¤ĵ à¤Ĩà¤ĩà¤ª
à¤Ĺà¤® à¤¦
Ġà¥® à¥¦à¥§
Ġà¤¥à¤ª à¤¥
à¤®à¤¬ à¤¤
Ġà¥§à¥® à¥Ńà¥©
Ġà¥¦ à¥¦à¥¯
an o
Ġà¤Ńà¤µà¤¨ à¤¸à¤¹
Ġà¤¸à¤¹à¤° à¤®à¤§
à¤¤à¤°à¤® à¤¨à¤ķ
à¤°à¤Ĺ à¤Ł
Ġm on
ĠS oftware
à¤Ĭ à¤¬
ĠA BC
Ġa ff
Ġc e
Ġà¤¶à¤°à¤£ à¤°
ĠE nepal
Ġà¤ħà¤¨à¤¶à¤¨ à¤¬
à¤ıà¤ļ à¤Ĩà¤ĩà¤Ń
Ġà¥«à¥ª à¥¬
à¤¸à¤« à¤°à¤¬
ĠK offee
Ġà¥®à¥ª à¥®
ist a
Ðº Ð¾Ð²
ãĤ ·
Ñĭ Ñħ
ĠSt ore
co de
48 00
Ġà¤°à¤£ à¤¦
ĠPost à¤ķ
Ġà¤ľà¤ķ à¤°à¤¬à¤°
ĠSh ri
áŀ Ħ
ĠÑĢ Ð°Ð±Ð¾ÑĤ
Ġà¤ıà¤¨à¤ıà¤¸ à¤¡à¤¬
ild ing
Ġà¤Ĩà¤°à¤ıà¤¸ à¤ıà¤¸
å¤ ļ
ĠÐ¾Ð± ÑĢ
Ð°Ñģ Ñģ
ĠØ§Ø ²
ues day
ĠRob ex
ĠÐ¾Ð±Ð»Ð°ÑģÑĤ ÑĮ
Ġdur ing
Ġ165 30
" .
B e
C lick
H O
g ium
k sh
n ice
u i
Ġ ãĥ
à¤¾ =
à¥į à¥įà¤¾
à¤² à¤ļà¤²
à¤¤ à¤Ĩà¤¤
à¤¸ à¤ĺà¤¨
à¤µ à¤µà¤¸
à¤Ĺ à¤¶à¤®à¤¶
Ġà¤Ĺ à¤ıà¤²à¤Ĺà¤¤
Ġà¤° à¤£à¤®
Ġà¤¨ à¤Łà¤µ
Ġà¤Ĺà¤° à¤¸
Ġà¤Ĩ à¤Ļà¤®
à¤ļ à¤¬à¤²
à¤ļ à¤¡à¤®
à¤Ī à¤ħà¤¡
à¤°à¤® à¤¶à¤¸
à¥Į "
à¤¨à¤ķ à¤Ĩà¤īà¤Ł
à¤¨à¤ķ à¤°à¤£à¤¦
à¤°à¤£ à¤Ń
.. à¥¤
à¤¯à¤¸ à¤°à¤ķ
à¤Ŀ à¤²à¤ķ
à¤ħ à¤¸à¤°
ĠâĢĺ âĢ¦
à¤ķà¤² à¤ľ
Ġà¤ĩ à¤¦à¤Ĺ
à¤Ĩ à¤°à¤§
Ġà¤ĵ à¤¯à¤²
Ġà¤ĵ à¤¬à¤°
Ġà¥¬ à¥¨à¥¬
à¤Ĺà¤® à¤Ń
à¤ľà¤¸ à¤Ń
Ġà¤ıà¤® à¤ıà¤®à¤ıà¤¸
Ġà¤¸à¤Ļ à¤ĺà¤°
à¤¨à¤µ à¤¸à¤®
à¤ªà¤² à¤§
à¤¦à¤² à¤ª
Ġà¤Ńà¤ĩà¤¸à¤ķ à¤ķ
Ġà¥¦ à¥¨à¥¬
Ġà¤Ĭ à¤ĸ
à¥ĢâĢĻ à¥¤
Ġà¤Ĺà¤² à¤ª
Ġà¤¸à¤¹à¤° à¤µ
Ġà¤Ńà¤Ĺ à¤¤à¤ķ
à¤¸à¤¤ à¤¹à¤ķ
Ġà¤ĺà¤¨ à¤¬à¤¹
ĠD own
à¥ĩ... âĢĻ
ĠC are
à¥§à¥¯ à¥¬
à¤¦à¤¯ à¤¶
Ġf acebook
Ġf act
ĠâĢ¦ âĢĿ
Ġd am
Ġc all
Ġà¤ħà¤¸à¤® à¤¯à¤®
ĠF amily
à¤¬à¤¤ à¤¤à¤°
ĠR un
ag bucks
ov ers
à¤ļà¤¨à¤² à¤Ĺ
à¤¼ à¥Ģ,
à¥¦à¥ª à¥§
ol ar
Ġà¥Ńà¥ª à¥«
Ġà¥Ńà¥¬ à¥¬
à¸ ķ
im a
im edia
th m
Ġth ree
à¤¤à¤Ń à¤°à¤£
ab les
Ġk e
Ġà¤°à¤¨à¤° à¤ħà¤ªà¤®
iv en
iv il
Ġde f
Ġà¤ľà¤Ĺà¤® à¤Ĺ
Ġà¤¤à¤²à¤µ à¤Ńà¤¤
Ġà¤¸à¤¨à¤® à¤²
iz ing
ung en
áŀ Ł
AT H
Ġsp ir
Ġsp ec
Ġdis abled
ech an
ĠYou th
port ant
Ġà¤°à¤¹à¤¨à¤¸à¤¹ à¤¨à¤²
Ð¸Ð» ÑĮ
\\ \'
ĠComp uter
DR C
ĠSw agbucks
ĠRel ated
ĠNGO s
mah atara
- ")
A adha
D arpan
E n
F r
M ar
N e
c ial
n o
o in
p ackage
s chool
å §
æ ŀ
é ¡
à¥į à¥įà¥¤
à¤¨ à¤°à¤¨
à¤² à¤¶à¤¨
à¤¸ à¤ĵà¤°
Ġà¤¸ à¤°à¤¹à¤¨
Ġà¤ª à¤«
à¤¹ à¤¬à¤¨
à¤¦ à¤Ĩà¤īà¤Ł
Ġà¤ķ à¤°à¤¸
à¤Ĺ à¤Ĺà¤²
Ġà¤Ĺ à¤Ĺà¤²
à¤Ł à¤ħà¤ªà¤²
Ġà¤Ń à¤ĩà¤ıà¤ķ
à¤¬ à¤ªà¤ķ
à¤¬ à¤Łà¤°à¤«
Ġà¤µ à¤²à¤¤
à¤§ à¤ªà¤¶
à¤¶ à¤®à¤®
à¤¥ à¤¨à¤ª
à¤ļ à¤®à¤¹
à¤¡ à¤¬à¤¹
à¤Ń à¤µà¤¨à¤¸
à¤« à¤¹
à¤« à¤ļ
à¤īà¤¨ à¤ļ
à¤ł à¤µà¤ķ
à¥¦ à¥¦à¥Ń
Ġà¤« à¤µ
Ġà¥§ 0
Ġà¤®à¤¹ à¤·
Ġà¤§ à¤ķà¤²
Ġà¤ľà¤¨ à¤§à¤¨
à¤Ŀ à¤¡
à¤ķà¤² à¤µ
Ġà¤ĩ à¤¸à¤°
... ,
à¤µà¤° à¤¨à¤°à¤¸
à¤¨à¤¨ à¤¸
à¤¯à¤° à¤Ńà¤¨
à¤ĵ à¤ĸà¤°
Ġà¥Ń à¥Ńà¥ª
à¤¦à¤° à¤ļà¤¨
Ġà¥® à¥§à¥«
à¤¶à¤¤ à¤¸
Ġà¥§à¥¯ à¥§à¥¬
à¤®à¤§ à¤°
Ġà¤Ī à¤ĸ
Ġà¤Ī à¤«
Ġà¥§à¥® à¥ªà¥©
Ġà¤°à¤® à¤£à¤ķ
à¤ķà¤Ł à¤¤à¤°
er g
Ġà¥§à¥Ń à¥Ńà¥¯
Ġà¤Ĩà¤Ī à¤ıà¤¸à¤ª
Ġà¥¨à¥§ à¥®à¥®
Ġà¤²à¤¡ à¤¦
Ġà¤ľà¤² à¤ļà¤°à¤¹à¤°
ĠN ow
Ġl os
ĠA ff
ĠÂ Ń
ou rist
à¤µà¤ķà¤ª à¤¸à¤®
Ġs pr
ĠB ob
ĠB udd
ent ity
Ġc ustom
Ġà¤°à¤Ĺà¤¤ à¤¸
Ñģ ÑĮ
Ġw omen
Ġw elcome
à¤Ĩà¤ĩ à¤Łà¤®
ĠL os
Ġà¥«à¥ª à¥«
ĠH B
à¥¦à¥¨ à¥®
Ġà¥ªà¥¯ à¥©
à¤ĸà¤¬ à¤°à¤¸
Ġà¥«à¥© à¥®
Ġà¤¦à¤®à¤ķ à¤¡
à¤ķà¤Ń à¤°à¤®
Ġv ol
Ġà¤®à¤¹ÅĴ à¤µà¤²
ãĤ ¢
Ġà¤Ŀà¤® à¤ķà¤²
à¤Īà¤ĺ à¤£
ĠÑģ Ð»
Ġpost s
ä¸ İ
à¤ľà¤¡ à¤Łà¤ķà¤®
amp le
ĠÐ´ Ð¾
Ġare a
ĠÐ¿ÑĢ Ð¾Ð´
Ġun a
anc es
Ġpl ace
ĠÐ± ÑĥÐ´
itt en
fe ctions
Ġ98 5
à¤®à¤µà¤¤ à¤ĸà¤£
ĠWh iter
air s
ĠÐŁ ÑĢ
Ġ} );
ĠÑį ÑĤÐ¾
igital khabar
ĠPr act
ett ing
(" -")
åĮ ĸ
aur us
ĠExc el
Ġïģ µ
("-") [
I f
O UR
P M
S w
h en
i q
p m
à¤¾ âĢĭ
à¤¨ à¤Īà¤®
à¤ķ à¤£à¤ķ
à¤® à¤ľà¤¤
à¤¤ à¤¡à¤¬
à¤¸ à¤µà¤¤
à¤¸ à¤°à¤²à¤Ĺ
Ġà¤ķ à¤ķà¤¸
à¤Ĺ à¤¦à¤²
à¤Ĺ à¤µà¤¤à¤ķ
Ġà¤° à¤¡à¤¸
à¤ı à¤ĵ
Ġà¤® à¤Ĺà¤²à¤¬
Ġà¤¤ à¤¬à¤¦
à¤¥ à¤µà¤°
Ġà¤ľ à¤°à¤µ
à¤¡ à¤¨à¤¸à¤¹
à¤« à¤ħà¤²
à¤Ļ à¤Łà¤¨à¤ķ
Ġà¤« à¤¤à¤µ
à¤ľà¤¨ à¤ľà¤¸
Ġà¤§ à¤°à¤§à¤°
Ġà¤§ à¤§à¤§
à¤ŀ à¤¸à¤Ń
Ġà¤¸à¤¹ à¤¨à¤²
Ġà¤Ĩà¤¯ à¤¨
à¤µà¤° à¤ļ
à¤Ĩ à¤Ĺà¤®
à¤°à¤µ à¤¶à¤®à¤¶
à¤Łà¤° à¤ħà¤¨
Ġà¤Ĩà¤° à¤¨à¤²
à¤¤à¤¨ à¤ªà¤¶
[...]
