#version: 0.2
à ¤
à ¥
Ġ à¤
à¤ ¾
à¥ į
à¤ °
à¤ ¨
à¤ ķ
à¤ ¿
à¥ ĩ
à¥ ĭ
à¤ ²
à¤ ®
à¤ ¤
à¤ ¯
à¥ ģ
à¥ Ģ
à¤ ¸
Ġà¤ ¸
Ġà¤ ª
à¤ ¹
à¤ ª
à¤ ¦
à¤ µ
Ġ à¥
Ġà¤ ķ
à¤ Ĺ
Ġà¤ Ĺ
Ġà¤ °
à¤ Ł
à¥ Ī
Ġà¤ ¨
Ġà¥ ¤
à¤ ı
Ġà¤ ¬
Ġà¤ ®
Ġà¤ Ń
à¤ ľ
Ġà¤ ħ
Ġà¤ ¹
Ġà¤Ĺ à¤°
à¤ ¬
Ġà¤ µ
à¤ ·
à¤ §
Ġà¤ Ľ
Ġà¤ ¤
à¤ ¶
Ġà¤ ¦
à¤ ¥
à¤ ģ
à¤ı à¤ķ
à¤ Ĥ
Ġà¤ Ĩ
Ġà¤ ľ
à¤ ļ
à¤ ¡
à¤ Ī
Ġà¤ ²
à¤ £
à¤ Ľ
à¥ Ĥ
à¤ Ń
à¤ ĸ
à¤ ī
â Ģ
Ġà¤ ī
à¤¹ à¤°
Ġà¤ ¯
Ġà¤¸ à¤®
à¥ ¤
à¤° à¤ķ
à¤ ĩ
à¤° à¤®
Ġà¤ ļ
Ġà¤Ń à¤¨
à¤ «
à¥ Į
Ġà¤ ¶
à¤¯ à¤ķ
Ġà¤ ĸ
Ġà¤ ¥
Ġà¤ ı
à¤ī à¤¨
à¤ ł
à¤¾ à¤ģ
Ġà¤ª à¤¨
à¤¨ à¤ķ
Ġà¤Ń à¤ıà¤ķ
Ġà¤ª à¤°
Ġà¤ħ à¤¨
à¥ ĥ
à¤° à¤¤
à¥ ¦
à¤ Ļ
à¤° à¤£
Ġà¤ «
à¤¸ à¤ķ
à¤ľ à¤¨
Ġà¥ ¨
à¤ ¢
Ġà¤Ľ à¤¨
à¤¸ à¤®
Ġà¥ §
à¤ª à¤°
à¤ ĺ
Ġà¤° à¤¹
à¤¨ à¤®
. .
à¤µ à¤¸
Ġ âĢ
Ġà¤® à¤¹
Ġà¤ı à¤ķ
à¤² à¤ķ
Ġà¤ ĺ
Ġà¤¬ à¤¨
Ġà¤ §
Ġà¤ľ à¤¨
à¤¯ à¤®
à¤¨ à¤²
Ġà¤¯ à¤¸
à¤ ŀ
à¤Ĺ à¤°
à¤ª à¤¨
Ġà¤¤ à¤¥
Ġà¤ Ł
Ġà¤¸ à¤ķ
à¤° à¤¹
Ġà¤Ĩ à¤«
à¤¯ à¤¸
à¤¤ à¤°
Ġà¤ħ à¤§
âĢ ¯
à¤° à¤²
Ġà¤¸ à¤¹
Ġà¤µ à¤°
âĢ Ļ
à¤² à¤®
Ġà¤ ¡
Ġà¥§ à¥
à¤ Ŀ
à¤ ħ
à¥Į à¤Ĥ
à¤° à¤¸
à¤¯ à¤¤
à¤ª à¤Ľ
Ġà¤ī à¤ª
à¤¾ ,
ĠâĢ ĺ
Ġà¤¤ à¤°
Ġà¤® à¤¨
à¤ı à¤°
à¤° à¤¦
à¤ª à¤¤
à¤Ľ à¤¨
Ġà¤ħ à¤°
Ġà¤¬ à¤¢
à¥¦ à¥
Ġà¤ķ à¤®
Ġà¤¬ à¤¤
à¤ĩ à¤¨
à¤ª à¤®
Ġà¤¸ à¤°à¤ķ
à¤ķ à¤²
Ġà¤ķ à¤°
âĢ ĵ
à¤ł à¤®
Ġà¤ ł
Ġà¤² à¤Ĺ
à¤® à¤ķ
à¤ķ à¤®
à¤° à¤¹à¤°
Ġà¤ ĩ
à¥ģ à¤ģ
à¤ļ à¤¨
à¤¤ à¤ķ
à¤¬ à¤¨
Ġà¤¸ à¤¬
Ġà¤ª à¤¹
à¤Ł à¤ķ
.. .
Ġà¤Ĩ à¤¯
Ġ (
à¤µ à¤°
à¤µ à¤ķ
à¥ «
à¤¯ à¤¨
Ġà¤ħ à¤¸
à¤Ĺ à¤¤
à¤¯ à¤µà¤¸
à¤µ à¤¨
Ġà¤ī à¤¤
Ġà¤ī à¤¨
Ġà¤Ń à¤ı
Ġà¤¬ à¤¸
à¤ Ĩ
à¥ ¨
à¥ §
à¤² à¤¯
à¤² à¤²
à¤¾ à¤Ĥ
à¥Ģ ,
Ġà¥¨ à¥¦à¥
à¤· à¤£
à¤² à¤¨
à¤¸ à¤²
Ġà¤Ĺ à¤¤
Ġà¥ ©
à¥ĩ ,
Ġà¤ī à¤¨à¤²
à¤° à¤µ
à¥į à¥¤
à¤¸ à¤¨
à¥ĭ à¥¤
à¤² à¤¬
à¤° à¤¬
à¤Ł à¤¨
Ġà¤¨ à¤Ĺà¤°
à¤¶ à¤ķ
Ġà¤ħ à¤µà¤¸
Ġà¤ħ à¤Ń
à¤ķ à¤ķ
Ġà¤Ĩ à¤ıà¤ķ
à¤Ł à¤°
à¥ĭ ,
à¤¤ à¤®
Ġà¤¬ à¤ľ
Ġà¤ Ŀ
à¥ ª
Ġà¥ «
Ġà¤Ĩ à¤°
à¤¤ à¤¨
à¥Ī à¤Ĥ
à¤® à¤¨
à¤° à¤§
Ġà¤¹ à¤ľ
à¤® à¤¤
à¥ ©
à¤Ń à¤¨
Ġà¤ī à¤¦
à¤ķ à¤°
à¤· à¤ķ
Ġà¤¸ à¤°
à¥Į à¤ģ
Ġà¤ħ à¤¹
à¤° à¤¯
à¤¯ à¤²
à¥ Ń
Ġà¤¸ à¤¨
à¤¡ à¤ķ
à¤ª à¤ķ
Ġà¤Ĩ à¤µ
Ġà¤¸ à¤ŀ
à¤ľ à¤ķ
à¤¨ à¤¨
Ġà¥ ª
Ġà¤ļ à¤²
à¤¦ à¤¨
à¤ī à¤Ł
à¤¶ à¤¨
Ġà¤ª à¤¤
à¤Ĺ à¤²
Ġà¤¨ à¤¯
à¤¬ à¤°
Ġà¤ ĵ
Ġà¤¸ à¤¦
à¤Ń à¤¯
à¤Ń à¤ıà¤ķ
à¥ ¬
Ġà¤Ĩ à¤§
à¤® à¤²
à¤µ à¤²
à¤°à¤® à¤®
Ġà¤ľ à¤¸
Ġà¤ª à¤ķ
à¤° à¤¶
à¥ ®
à¤Ĺ à¤ķ
Ġà¤¬ à¤°
à¤¿ à¤Ĥ
Ġà¤¹ à¤°
à¤ĩ à¤ıà¤ķ
à¤« à¤²
Ġà¥ ¬
à¤§ à¤¨
à¤¨ à¤¸
à¤¯ à¤°
à¤¨à¤® à¤¨
Ġà¤ı à¤īà¤Ł
à¤ĸ à¤°
Ġà¤ķ à¤¸
Ġà¤ª à¤Ľ
à¥ ¯
à¤¤ à¤²
Ġ |
Ġà¤ ¢
Ġà¤¯ à¤¹
à¤ĩ à¤°à¤¹
Ġà¤ħ à¤®
Ġà¤ī à¤¨à¤ķ
Ġà¤Ń à¤¯
à¤ ĥ
Ġà¤¸ à¤¯
à¤® à¤®
Ġ ?
Ġà¤¸à¤® à¤¯
à¥į ,
Ġà¤ħ à¤Ĺ
à¤ķ à¤°à¤£
Ġà¤¤ à¤ª
Ġà¤¦ à¤°
à¤¿ à¤ģ
Ġà¤Ĩ à¤ľ
à¤ ĵ
à¤¯ à¤¹
Ġà¤ª à¤¦
Ġà¤ķ à¤²
Ġà¤¤ à¤¯
à¤µ à¤®
Ġà¤¨à¤Ĺà¤° à¤ª
à¤° à¤Ń
Ġà¤® à¤§
Ġà¥ Ń
Ġà¤ĸ à¤°
à¤ħ à¤¨
à¤Ł à¤®
Ġà¤ Ķ
Ġà¤¸à¤¹ à¤¯
à¤¹ à¤ķ
à¤Ĺ à¤®
Ġà¤ī à¤¹
Ġà¤ĺ à¤°
à¤² à¤Ĺ
à¤ľ à¤¸
Ġà¤¸à¤® à¤¸
à¤¸ à¤¦
à¤¾ à¥ĩ
à¤ķ à¤¤
Ġà¤ķ à¤¤
Ġà¤ħ à¤¬
Ġà¥¨à¥¦à¥ Ń
à¤¦ à¤°
Ġà¤ľà¤¨ à¤¤
Ġà¤¸à¤¦ à¤¸
à¤· à¤®
Ġà¤ĩ à¤¨
Ġà¤ħ à¤µ
Ġà¤Ĩ à¤īà¤¨
à¤¶ à¤®
Ġà¤® à¤²
Ġà¤ī à¤ķ
âĢ Ŀ
Ġà¤ħ à¤ĺ
Ġà¥ ®
à¤µ à¤¤
Ġà¤ª à¤¢
à¤¾ .
à¤Ł à¤²
à¤¿ ,
Ġà¤¯ à¤¸à¤ķ
à¤µ à¤ľà¤¨
Ġà¤¬ à¤¹
à¤ı à¤¨
Ġà¤Ĩà¤µ à¤¶
à¤£ à¤ķ
Ġà¤¸ à¤Ń
Ġà¥§ à¥¦
à¤¹ à¤¨
Ġà¤¬ à¤²
Ġà¥ ¯
Ġà¤Ĩ à¤Ĺ
Ġà¤ī à¤®
Ġà¤Ĩ à¤®
Ġà¤ħ à¤¤
à¤Ń à¤°
à¤¦ à¤ķ
Ġà¤¶ à¤°
ĠâĢ ľ
Ġà¤ļ à¤°
Ġà¤ħ à¤ª
à¤ľ à¤®
à¤¯ à¤µ
Ġà¤¨ à¤®
Ġà¤Ĺ à¤ıà¤ķ
à¥į âĢ
Ġà¤Ĩ à¤ĩ
à¤ķ à¤ª
à¤ķ à¤¨
Ġà¤« à¤°
à¤ĩ à¤²
Ġà¤ı à¤®
Ġà¤Ĩ à¤¨
Ġà¤¨ à¤¸à¤ķ
Ġà¤ķ à¤¹
Ġà¤ī à¤²
Ġà¤¥ à¤ª
à¤¥ à¤®
à¤ı à¤ªà¤Ľ
Ġà¤ī à¤ļ
à¤¶ à¤¤
à¤¦ à¤Ľ
à¥įâĢ į
Ġà¤Ĩ à¤¦
à¤Ļ à¤ķ
Ġà¤Ń à¤°
Ġà¤® à¤¤
Ġà¤² à¤ķ
à¤° à¤ļ
à¤¬ à¤²
Ġà¤¸ à¤Ļ
à¤ħ à¤ĺ
à¤ļ à¤ķ
Ġà¤ª à¤Łà¤ķ
âĢ ¦
Ġà¤®à¤¹ à¤¤
Ġà¤¦ à¤²
à¤® à¤ļ
à¤µ à¤°à¤£
Ġà¤¸ à¤¤
à¤² à¤¯à¤ķ
Ġà¤¨ à¤¹
à¤° à¤¨
Ġ ,
Ġà¥¨ à¥¦
Ġà¤µ à¤Ł
à¤£ à¤¯
Ġà¤°à¤¹ à¤¨
Ġà¤§ à¤°
à¤¨ à¤µ
Ġà¤¯à¤¸ à¤²
à¤ĵ à¤µ
à¤¤ à¤°à¤£
à¤¡ à¤²
à¤¬ à¤¹
Ġà¤¸à¤¹ à¤Ń
à¤ª à¤²
Ġà¤¨ à¤¦
à¤¯ à¤¸à¤ķ
à¤° à¤ª
Ġà¤¸ à¤«à¤²
à¤¤ à¤µ
Ġà¤µ à¤¡
Ġà¤¹ à¤¤
à¤ł à¤¨
Ġà¤¸ à¤ļ
Ġà¤ĺ à¤Łà¤¨
Ġà¤¤ à¤¤
Ġà¤ Ĳ
à¤« à¤¤
Ġà¤ª à¤¶
à¥ģ ,
à¤¡ à¤®
Ġà¤ħ à¤²
à¤· à¤¤
à¤µ à¤ª
Ġ :
Ġà¤ľ à¤®
Ġà¤Ń à¤ĩà¤°à¤¹
à¤¤ à¤ª
Ġà¤¸à¤® à¤¯à¤®
à¤°à¤® à¤£
à¤ľ à¤²
à¤¸ à¤°
à¤ľ à¤Ĺ
à¤¸ à¤¹
Ġà¥§à¥ «
Ġà¤¸ à¤¡à¤ķ
à¤µ à¤¯
à¤ĩ à¤¸à¤ķ
Ġà¤¸ à¤µ
Ġà¤Ĩ à¤¶
à¤· à¤¯à¤®
Ġ '
à¤² à¤¤
Ġà¤ĵ à¤²
Ġà¤Ń à¤ıà¤°
Ġà¤ħ à¤Ŀ
à¤¸ à¤Ń
à¤¯à¤¤ à¤ķ
Ġà¤¤ à¤¹
Ġà¥§à¥ ¯
Ġà¤ī à¤ł
à¤¾ âĢĵ
à¤° à¤ªà¤¤
Ġà¤ı à¤¸
Ġ ...
Ġà¥§à¥ §
à¤ł à¤ķ
Ġà¥§à¥ ¨
à¤¦ à¤²
à¤¨ à¤¬
Ġà¤ħ à¤¦
à¤§ à¤ķ
Ġà¤Ĩ à¤ī
Ġ !
Ġà¥¤ âĢĻ
Ġà¤¶ à¤ķ
Ġà¤ļà¤² à¤ļ
à¤²à¤¯ à¤²
à¤¤ à¤¬
Ġà¤§ à¤¨
Ġà¤¯ à¤¤
à¤§ à¤®
à¤Ī à¤²
à¤¨ à¤Ĺà¤°
Ġà¤Ĩ à¤ķ
à¤· à¤¦
âĢ ĺ
Ġà¤° à¤ķà¤®
Ġ -
Ġà¤¨ à¤Ń
Ġà¤īà¤ª à¤ļ
Ġà¤® à¤°
à¤· à¤¯
à¤¯ à¤ª
Ġà¤Ĩ à¤¤
à¤® à¤§
Ġà¤īà¤ª à¤²à¤¬
à¤¦ à¤µ
Ġà¥¨à¥¦à¥ §
à¥ĩ à¥¤
à¤¨ à¤°
à¤ı à¤¸
Ġà¤Ľ à¤²
Ġà¤ħ à¤«
à¤° à¤ľ
Ġà¤ľ à¤°
à¤ĩ à¤Ł
à¤ĩ à¤¦
Ġà¤¨ à¤ľ
à¤ĺ à¤ķ
à¤® à¤¹
à¤¿ .
à¥Ī à¤ģ
à¤² à¤¸
ĠâĢ ĵ
Ġà¤¨ à¤Ńà¤ıà¤ķ
Ġà¤ª à¤ł
à¤ª à¤¯
à¤¹ à¤²
Ġà¤¦ à¤¶
à¤® à¤¦
à¤ı à¤®
à¤¨ à¤¤
à¤Ī à¤ķ
Ġà¤ľ à¤Ĺ
Ġà¤¬ à¤ļ
à¤¥ à¤²
à¤ĩ à¤ķ
Ġà¤Ńà¤ı à¤ªà¤Ľ
à¤¨ à¤ª
à¤ļ à¤®
Ġà¤Ĺ à¤£
à¤°à¤¦ à¤°
Ġà¤ı à¤µ
à¤² à¤¨à¤®
Ġà¤¨ à¤ª
à¤¸ à¤¬
à¤ļ à¤²
Ġà¤ Ī
à¥¦à¥ Ń
à¥Įà¤Ĥ ,
à¤¯ à¤¸à¤®
à¤² à¤¯à¤®
à¤® à¤¬
Ġà¥¨ à¥«
à¤¦ à¤®
à¤² à¤µ
Ġà¤¹ à¤¸
Ġà¥« à¥¦
Ġà¤¦ à¤ķ
Ġà¤¸à¤¹ à¤®à¤¤
à¤°à¤¤ à¤ķ
Ġà¤ķà¤¸ à¤°
à¤ī à¤¦
à¤Ń à¤µ
Ġ 2
Ġà¤¨ à¤°
Ġà¤ı à¤¨
à¤¯ à¤¯à¤¨
à¤¯ à¤¹à¤°
à¤Ĥ .
à¤ª à¤¦
à¥ģ à¤Ĥ
Ġà¤ĺ à¤Ł
Ġà¤ķ à¤ª
Ġà¤¸ à¤ľ
à¤¯ à¤Łà¤ķ
à¤® à¤¸
à¤°à¤£ à¤®
à¤Ĺ à¤¦
à¤°à¤® à¤ķ
à¤ĺ à¤Łà¤¨
Ġà¤¸à¤¹ à¤ķ
Ġà¤ħ à¤ªà¤°
à¤® à¤°
à¤¯à¤¸ à¤²
à¤§ à¤¤
à¤¬ à¤¸
à¤ľ à¤¯
à¤ª à¤Łà¤ķ
Ġà¤Ń à¤µ
à¤Ļ à¤²
Ġ| |
à¤¶ à¤²
Ġà¤ĺ à¤°à¤®
r e
à¤ľ à¤§
Ġà¤Ń à¤ĩà¤¸à¤ķ
Ġà¤° à¤ķ
Ġà¤ķ à¤µ
Ġà¤Ń à¤Ł
à¤¸ à¤¹à¤°
Ġà¥¨à¥¦à¥Ń à¥«
Ġ 1
à¤¬ à¤¦
Ġà¥§à¥ ©
Ġà¤ľ à¤¤
Ġà¤Ľà¤² à¤«à¤²
à¤Ń à¤ķ
Ġà¥© à¥¦
à¤ľ à¤¦
à¤¨ à¤¹à¤°
à¤ķ à¤¸
Ġà¤Ń à¤Ī
Ġà¥§à¥ ª
à¤° à¤·
à¤ľ à¤¨à¤ķ
Ġà¤¸à¤¹ à¤ľ
à¤¯ à¤£
Ġà¤ıà¤ķ à¤¤
à¤¯ à¤¦
Ġà¤ª à¤°à¤®
o n
Ġà¤ķ à¤¥
Ġà¤® à¤¸
i n
à¤ĸ à¤ķ
Ġà¤ľ à¤¸à¤²
à¤§ à¤°
Ġà¥§à¥ ¬
Ġà¤¯ à¤¦
Ġà¤¹ à¤Ł
Ġà¤ħà¤µ à¤§
Â ¥
e r
à¤ľ à¤°
âĢ ľ
à¤Ī à¤¨
Ġà¤ ĭ
à¤µ à¤µ
Ġà¥§à¥ ®
à¤ĩ à¤°
à¤µ à¤¦
à¤¨ à¤¸à¤ķ
Ġà¤¸ à¤²
à¤² à¤°
à¤¸ à¤¸
Ġà¤Ń à¤£
Ġà¤° à¤®
à¤¯à¤¸ à¤ªà¤Ľ
Ġà¤īà¤ª à¤¯
à¤ķ à¤Ł
à¤¤ à¤¹à¤°
Ġà¤ľ à¤¹
Ġà¤īà¤ª à¤¸
à¤ķ à¤¹à¤°
à¤ĩ à¤¤
à¤· à¤®à¤¤
à¤¤ à¤¤
à¤ĺ à¤°
à¤¾ )
à¤° à¤ļà¤¨
Ġà¤¶ à¤¬
à¤² à¤¨à¤ķ
à¤· à¤²
à¤Ĩ à¤°
Ġà¤µ à¤¨
à¤¨à¤Ĺà¤° à¤ª
à¤¨ à¤¯
à¤§ à¤¬
Ġà¤Ń à¤¦
Ġà¤Ĺ à¤łà¤¨
Ġà¤ī à¤¡
Ġà¥§à¥ Ń
à¤· à¤§
Ġà¤ĸ à¤¡
Ġà¤« à¤°à¤ķ
âĢ Ĭ
Ġà¤¨ à¤ķ
à¤¹ à¤®
à¤µ à¤¤à¤¨
a l
à¤°à¤£ à¤²
Ġà¥ ¦
Ġà¤¯à¤¸ à¤°
à¤Ļ à¤®
Ġà¤ļ à¤¨
Ġà¤ī à¤¸à¤²
Ġà¤¤ à¤¹à¤ķ
à¤ļ à¤°
à¥Ī ,
à¤ª à¤£
à¤® à¤Ĺ
à¤°à¤ļ à¤£
Ġà¤µ à¤¸
à¥¤ âĢĻ
Ġ2 0
Ġà¤Ĩ à¤ª
à¤¯ à¤¬
Ġà¤ĩ à¤¤
Ġà¤¤ à¤¸
à¤¹ à¤¤
Ġà¤Ŀ à¤¨
a n
à¤ħ à¤°
à¤¯ à¤Łà¤¨
à¤¯à¤ķ à¤¤
Ġà¤¶ à¤¨
ĉ Ċ
Ġà¤¤ à¤²
à¤°à¤£ à¤ķ
Ġà¤Ĩ à¤Ī
à¤¯à¤® à¤¨
a r
à¤¯à¤ķ à¤°
à¤ĸ à¤²
Ġà¤®à¤¤ à¤¦
à¤Ĺ à¤²à¤¬
a t
Ġà¥¨ à¥§
Ġà¤¸ à¤¡
Ġà¤¹ à¤²
à¤¸ à¤ļ
à¤µ à¤¯à¤¨
à¤¯à¤µ à¤¹
à¤¾ âĢĻ
à¤ĩ à¤®
Ġà¥¨ à¥Ń
Ġà¥¨à¥¦à¥Ń à¥ª
à¥ĩ à¤Ĥ
Ġà¤Ń à¤ķ
Ġà¤ Ĭ
Ġà¤¯ à¤¸à¤®
à¤ķà¤² à¤¨
à¥ĩ à¤ģ
Ġà¤Ĺ à¤ł
o m
à¥¦ à¥¦
à¤§ à¤¨à¤ķ
à¤¸ à¤µ
à¤¨ à¤¦
Ġà¤ķà¤® à¤ľ
à¤Ĩ à¤«
Ġà¤ħà¤µà¤¸ à¤°à¤®
Ġà¤ĸ à¤¨
Ġà¤ķ à¤ķ
Ġ [
à¤Ĺ à¤¢
Ġà¤Ĩ à¤²
Ġà¤ħ à¤ķ
à¤¥ à¤ķ
Ġà¥¤ âĢĿ
Ġà¤Ĺ à¤®
à¤ī à¤ķ
à¤£ à¤®
à¤° à¤ĸ
à¥Ģ )
à¤ľ à¤µ
à¤¸ à¤°à¤ķ
à¤ª à¤·
Ġà¤ķ à¤¨
à¤īà¤¨ à¤ķ
Ġà¤Ĩ à¤ľà¤ķ
Ġà¤Ĳ à¤¨
Ġà¤¸à¤® à¤°
Ġà¤ħà¤¨ à¤²
ĠâĢ ¢
Ġà¥¨ à¥ª
à¤¡ à¤°
Ġà¤Ķ à¤·à¤§
à¤Ĺ à¤łà¤¨
à¤¬ à¤°à¤ķ
Ġà¤¦ à¤²à¤ķ
Ġà¤ľ à¤¬
à¥Įà¤ģ ,
Ġà¤ī à¤ľ
Ġà¤ľà¤¨ à¤¸
Ġà¤« à¤²
à¤Ĺ à¤¨
Ġà¤Ĩ à¤ļ
Ġà¥¨ à¥¨
à¤¾ ...
à¤ł à¤ķà¤²
à¥Ģ âĢĻ
à¤ħ à¤§
à¤® à¤ª
à¤ķà¤°à¤£ à¤ķ
à¤ĸ à¤®
à¤° à¤°
Ġà¤Ń à¤¤
Ġà¤ħà¤µà¤¸ à¤°
Ġà¤ľ à¤µ
Ġ "
Ġà¥¨ à¥®
Ġà¤² à¤¡
à¤Ł à¤¬
Ġà¤¸à¤® à¤¨
à¤ĸ à¤¨
Ġà¥¨ à¥¯
Ġà¥¨à¥¦à¥ ¬
à¤ĩ à¤¸
à¤ł à¤²
à¤ī à¤µ
Ġà¤īà¤ª à¤Ń
à¤ĩ à¤¨à¤²
à¤ Ķ
Ġà¤Ĺ à¤¨
à¤°à¤¹ à¤¨
Ġà¤ķ à¤Ł
Ġà¤¬ à¤®
à¤¤ à¤°à¤ķ
à¤¸ à¤ª
Ġà¤ĺ à¤£
Ġà¤Ĩà¤ĩ à¤¤à¤¬
Ġà¤ī à¤¸à¤ķ
Ġà¤ĩ à¤²
, âĢĻ
Ġà¤® à¤¦
à¤£ à¤¸
à¤£ à¤¨
Ġà¤Ĩ à¤ķà¤°
Ġà¤¤ à¤¨
Ġà¤¶ à¤¹à¤°
à¤ķ à¤µ
Ġà¤¬ à¤Ĺ
Ġà¤¸ à¤§
à¤Ĺ à¤®à¤¨
Ġà¥¨ à¥©
à¤īà¤¨ à¤²
Ġà¤ĸ à¤¬à¤°
Ġà¤¤à¤¹ à¤®
à¤° à¤¥à¤®
à¤ļ à¤¨à¤®
Ġà¤ª à¤¸
à¤Ł à¤¬à¤²
à¤¯ à¤¯
à¤Ń à¤®
à¤Ĺ à¤¬
à¤ľ à¤ª
à¤Ĺ à¤ł
Ġà¤ļ à¤¢
Ġà¤¯à¤¸ à¤ħà¤ĺ
à¤ı à¤²
à¤µ à¤Ł
à¤¶ à¤¸
Ġà¤Ĩ à¤ł
à¤ª à¤ļ
a d
Ġà¥ª à¥¦
Ġà¤¸ à¤ªà¤¨
Ġà¤¸ à¤ª
à¤ł à¤ķà¤®
Ġà¤Ń à¤µà¤¨
à¤¨ à¤¸à¤®
à¥Ģ âĢĵ
e n
à¤¦ à¤Ľà¤¨
Ġà¤ľ à¤²
à¤µ à¤¨à¤ķ
Ġà¤ªà¤¦ à¤®
Ġà¥¨ à¥¬
Ġà¤Ń à¤Ĺ
à¤µ à¤§
à¤ĩ à¤¡
Ġà¤¨ à¤µ
à¤° à¤Ĺà¤¤
Ġà¤¨ à¤¤
Ġà¤Ńà¤ı à¤¨
à¤« à¤¬
à¤² à¤¸à¤®
Ġà¤ĭ à¤£
Ã ·
Ġà¤¸ à¤¹à¤°
à¤ĩ à¤ľ
à¤°à¤¬ à¤¹
Ġà¤Ĺ à¤ıà¤°
à¤° à¤µà¤ķ
Ġà¤Ĺ à¤²
à¤¾ à¥¤
Ġà¤ĸ à¤¸
Ġà¤¸ à¤«
à¤Łà¤° à¤¨
Ġà¤ħ à¤¡
Ġà¤ª à¤²
Ġà¤ª à¤ŀ
à¤¬ à¤®
Ġà¤Ĩà¤« à¤¨
s t
Ġà¤ħ à¤ĸ
Ġà¤ĩ à¤®
à¤µ à¤¶
Ġà¤ļ à¤°à¤£à¤®
à¤¡ à¤¨
Ġà¤īà¤ª à¤¤
Ġà¤¦à¤² à¤¹à¤°
à¤® à¤£
à¤ª à¤¹
Ġ[ âĢ¦
à¤° à¤¸à¤®
à¤Ĺ à¤¤à¤ķ
Ġà¤° à¤¸
o r
Ġ[âĢ¦ ]
Ġà¤¨ à¤²
à¤ļ à¤¯
Ġà¤¯à¤¸ à¤¬
à¤Ĩ à¤Ī
à¤ķ à¤¬
Ġ20 1
à¤ª à¤¸
à¥ĭ ...
à¤Ł à¤¹à¤°
Ġà¤¸à¤«à¤² à¤¤
Ġ /
Ġà¤ķ à¤ł
à¤ħ à¤¹
à¤· à¤°
à¤ķ à¤¤à¤¨
à¤Ĺ à¤°à¤®
Ġà¤ľ à¤¸à¤ķ
Ġà¤ı à¤ľ
à¤¾ -
à¤Ŀ à¤¨
à¤ħ à¤¸
à¤¸ à¤¨à¤ķ
Ġà¤ķ à¤¡
à¤¤ à¤°à¤®
t h
à¤¶ à¤¬
à¤¥ à¤µ
à¥ģ à¤ĥ
à¤Ĺ à¤°à¤ķ
à¤°à¤® à¤£à¤ķ
Ġà¤ĸ à¤Ł
à¥Įà¤Ĥ à¥¤
Ġà¤¦ à¤¸
à¤¸ à¤¨à¤²
à¤Ī à¤®
à¤ī à¤®
à¥Ĥ ,
Ġà¤¨ à¤¬
Ġà¥¬ à¥¦
à¤·à¤£ à¤ķ
Ġ m
à¤¬ à¤ķ
à¤Ĩ à¤ľ
à¤Ł à¤µ
à¤°à¤¤ à¤²
Ġà¤ı à¤²
à¤ķà¤® à¤²
) ,
à¤¹à¤° à¤£
Ġà¤Ĺà¤ł à¤¬à¤¨
à¤ĩ à¤¯
Ġà¤Ĩà¤ĩ à¤ª
à¤ļ à¤¨à¤ķ
Ġ S
c om
Ġà¤Ĺ à¤²à¤¤
à¤° à¤Ĺ
à¤¥ à¤¨
à¤¯ à¤°à¤¤
à¤¦ à¤¶
Ġà¤¦ à¤¶à¤ķ
à¤° à¤¥
à¤¯à¤¸ à¤¬
à¤Ĺà¤¤ à¤®
à¤¬ à¤ľ
à¥ģ Â¥
Ġà¤ħà¤¸ à¤°
Ġà¤ľ à¤²à¤µ
Ġà¤Ĳ à¤¤
Ġà¤Ĩ à¤ı
Ġà¤ī à¤°
Ġà¤¸ à¤¸
à¤µ à¤Ń
Ġà¤ľ à¤¨à¤ķ
à¤¡ à¤¬
à¤§ à¤µ
à¤ī à¤¸
i c
Ġà¤¯ à¤¥
Ġà¤ľà¤¨ à¤ľ
Ġà¤® à¤ŀ
Ġ l
à¤ī à¤¤
Ġ N
à¤² à¤ª
Ġà¤ªà¤¦ à¤ķ
à¤Ł à¤ª
Ġà¤¸à¤¦ à¤°à¤®
Ġà¤ĸ à¤£
à¤¤ à¤µà¤¨
Ġà¤¹ à¤ª
Ġà¤² à¤®
i t
Ġà¤¦ à¤¬
à¤ĺ à¤²
à¤ Ĭ
à¤¥ à¤°
âĢĻ ,
Ġà¤¡ à¤Ł
à¤Ł à¤°à¤ķ
à¥¨ à¥¦à¥Ń
Ġà¤ı à¤ª
à¤¨à¤¸ à¤Ń
à¤¶ à¤¸à¤Ń
à¤° à¤ŀ
Ġà¤Ŀ à¤£
à¤¹ à¤¦
à¤Ł à¤°à¤®
à¤ļà¤¨ à¤ª
à¤ı à¤¨à¤¨
Ġà¤Ńà¤ı à¤ªà¤¨
à¤°à¤¤ à¤®
à¥¨ à¥¦à¥
à¤² à¤¦
à¤¶ à¤¹à¤°
à¤ľ à¤¤
Ġ )
ĠâĢ Ķ
Ġ Â
à¤¸ à¤¤
Ġà¤° à¤¨
à¤¶ à¤¨à¤ķ
Ġ A
à¤Ĺ à¤¹à¤°
à¤Ń à¤Ĺ
Ġà¤¹ à¤Ļà¤ķ
à¤¥ à¤²à¤®
Ġà¥© à¥«
à¤ľ à¤¬
Ġà¤¸à¤¡ à¤ķà¤®
à¤¶ à¤¨à¤®
Ġà¤ĸ à¤¤
Ġà¤¹ à¤ķ
Ġà¥© à¥§
Ġà¤¡ à¤²à¤°
Ġà¤ľ à¤¸à¤®
à¤¨ à¤Ńà¤¨
à¤µ à¤¨à¤®
Ġà¤¤ à¤°à¤ķ
à¤ī à¤ª
Ġà¤¸ à¤°à¤¸
Ġà¤¬ à¤¡
Ġà¥¨à¥¦à¥Ń à¥©
Ġà¥¨à¥¦à¥ «
à¤« à¤ķ
Ġà¤ħ à¤¥à¤µ
Ġà¤¨ à¤ªà¤°
Ġà¤® à¤Ĺà¤°
Ġà¤ħ à¤µà¤°
à¤² à¤¹à¤°
Ġà¤ĩ à¤ļ
Ġà¤Ĩ à¤ıà¤°
Ġà¤ī à¤ªà¤°
à¤¦ à¤¨à¤®
à¤¶ à¤¨à¤²
e s
à¤ħ à¤®
Ġà¤ľ à¤¡
à¥Ń à¥«
o re
Ġà¤¢ à¤ķ
à¤µ à¤¹à¤°
à¥ģ à¥ģ
Ġà¤® à¤¨à¤®
Ġà¤ı à¤µà¤®
à¤° à¤«
Ġà¤Ĩ à¤¹
Ġà¤® à¤Ļ
à¤°à¤® à¤²
Ġà¤¨à¤Ń à¤ı
à¤¦ à¤¤
Ġà¤¨à¤Ń à¤Ī
Ġà¤ħ à¤·
Ġà¤ī à¤¸
Ġà¤ļ à¤ķ
Ġà¤¶ à¤¤
Ġà¤ħ à¤¶
Ġ Ð
Ġà¤¸ à¤¶à¤¸
Ġà¤ľà¤¨ à¤ª
Ġà¤ī à¤Ń
à¤Łà¤¨ à¤Ĺà¤°
Ġà¤² à¤²
à¤® à¤¹à¤°
Ġà¤Ĺà¤£ à¤¤à¤¨
Ġà¤®à¤¹ à¤¸
à¥Ĥ à¤ģ
Ġà¥¨à¥¦ à¥¦à¥
Ġà¤ħ à¤Ļ
à¤· à¤¹à¤°
à¤¹ à¤¸
à¥ĭ à¥ĩ
à¤¤ à¤¸
à¥Ģ à¤ģ
Ġ p
à¤² à¤¤à¤²
e p
h a
o u
Ġà¤® à¤£
Ġà¤Ńà¤Ĺ à¤µ
à¤ª à¤¶
Ġà¤ĺ à¤¨
Ġà¤Ĭ à¤°
Ġ D
Ġà¤ļ à¤²à¤¨
Ġà¤ªà¤¹ à¤²
i l
Ġà¤¨ à¤Ĺà¤¦
à¤Ī à¤ıà¤ķ
à¥ģ à¥¤
Ġ C
à¥ĩ .
Ġà¤ħ à¤ªà¤¨
à¤¹ à¤®à¤¨
Ġà¤Ĺ à¤¹
Ġà¤ĸ à¤¤à¤°
Ġà¤¸à¤® à¤Ĺ
à¤¶ à¤µ
Ġ T
Ġà¤Ĺ à¤ı
Ġà¤ķ à¤ŀ
à¤² à¤Ń
à¥ĩ ...
à¤Ł à¤¸
à¤ĩ à¤ķà¤²
à¤°à¤®à¤£ à¤®
à¤« à¤°
à¤Ĺ à¤ľ
Ġ P
à¤§ à¤²
à¤· à¤ħà¤ĺ
Ġà¤Ķ à¤ªà¤ļ
Ġà¤¤ à¤®
Ġà¤ľà¤¨à¤ķ à¤ª
Ġà¤Ĩ à¤¸
Ġà¤® à¤¹à¤°
Ġà¤Ĺ à¤¯
à¤¯ à¤Ł
Ġà¤ī à¤ªà¤¨
Ġà¤ļ à¤°à¤£à¤ķ
à¤®à¤² à¤µ
à¤¡ à¤¸
i on
Ġà¤¦à¤¶ à¤®à¤²à¤µ
à¤£ à¤²
Ġà¤§ à¤®
R e
Ġà¤ĺ à¤°à¤ķ
à¤ªà¤¦ à¤£
Ġà¤ı à¤¶
Ġà¥¨à¥¦à¥Ń à¥¨
Ġà¤µ à¤ķ
à¤£ à¤¤
à¥Ģ .
à¥§ à¥¯
à¤ª à¤¨à¤ķ
à¤² à¤ªà¤¤
à¤Ń à¤²
Ġà¤° à¤µ
à¤µà¤ķ à¤ª
Ġ M
à¤¥ à¤¤à¤¨
Ġà¤ıà¤ķ à¤²
à¤ĸ à¤¦
- -
à¥ĩ âĢĵ
à¥ģ .
à¤² à¤¤à¤®
Ġà¤ıà¤ķ à¤ľà¤¨
à¥ĭ âĢĵ
Ġà¥ª à¥«
Ġà¤ķà¤® à¤²
à¤Ł à¤°à¤¸
Ġà¤ľ à¤¨à¤®
à¤ī à¤°
Ġà¤ħ à¤ŀ
à¤Ĩ à¤®
Ġà¤Ĩ à¤ĩà¤°à¤¹
Ġà¤® à¤ľà¤¦
Ġà¤īà¤ª à¤®à¤¹
à¤¯à¤¸ à¤°
Ġà¥© à¥¨
Ġà¤° à¤ļà¤¨
à¤¤ à¤¹
Ġà¥® à¥¦
à¤°à¤ķ à¤°
Ġ s
à¤ĩ à¤ª
à¤¤ à¤°à¤¤
Ġà¥Ń à¥¦
à¤ª à¤ķà¤®à¤²
à¤¯à¤® à¤¬
à¤· à¤¸à¤®
à¤¿ à¤ĥ
Ð ¾
à¤ī à¤²
w w
à¤· à¤ķà¤ķ
à¥Ģ ...
Ġà¤¬ à¤¦à¤²
à¥ĭ âĢĻ
Ġà¤Ńà¤ı à¤®
à¤® à¤¬à¤¹
Ġ a
âĢ Ķ
à¤ĩà¤¨à¤² à¤®
ĠÂ »
à¤· à¤¯à¤²
à¤¦ à¤µà¤²
à¤ŀ à¤ª
à¤¯à¤¤ à¤²
Ġà¤Ŀ à¤°
Ġà¤ħà¤¸ à¤¨
Ġà¤Ľ à¤°
i s
à¥ĩ )
à¤£ à¤ªà¤¤
à¤ı à¤«
à¤µ à¤°à¤ķ
à¤Ĺ à¤¸
à¤° à¤¬à¤¨
à¥§ à¥¦
à¤ª à¤Ł
à¤¬ à¤°à¤®
Ġà¤¦ à¤®
à¤µ à¤°à¤®
Ġà¤« à¤¸
Ġà¤° à¤£à¤¨
à¤¨à¤¸ à¤°
à¤°à¤® à¤¹à¤°
Ġà¤¨ à¤Ĩ
l e
Ġà¤Ń à¤°à¤¤
Ġà¤¦ à¤°à¤¬
Ġà¥¨à¥¦à¥ ª
à¤ģ ,
Ġà¤¤ à¤²à¤¬
Ġà¤¶ à¤µ
Ġà¤¹ à¤µ
Ġà¤ħà¤¸ à¤«à¤²
à¤¯ à¤°à¤ķ
Ġ .
à¤¸ à¤Ļ
Ġà¤ħ à¤ļ
Ġà¤¨à¤Ń à¤ıà¤°
à¤¨ à¤¤à¤®
à¤ħ à¤¬
Ġà¤Ĺ à¤ľ
Ġà¤īà¤ª à¤ª
à¤¦ à¤¨à¤ķ
Ġà¥Ń à¥«
Ġm ore
Ġà¥¨à¥¦à¥§ à¥®
à¤Ŀ à¤¦
Ġà¤ļ à¤¯à¤¨
Ġà¤¡ à¤°
à¤ķà¤°à¤£ à¤²
Ġ201 8
Ġà¤ľà¤¸ à¤°
Ġà¤ħ à¤²à¤Ĺ
à¤² à¤ĸ
Ġà¥© à¥©
Ġà¤Ĩ à¤ıà¤ªà¤Ľ
à¤Ĺ à¤£
à¤· à¤¯à¤ķ
Ġà¥§à¥¯ à¥¯
Ġà¥¨à¥¦à¥ ¨
à¤Ĩ à¤¯
à¤°à¤µ à¤¦
à¤ª à¤¬
à¤²à¤¯ à¤¹à¤°
à¤® à¤¶
à¤Ł à¤µà¤²
à¤µ à¤¹
à¤ľà¤¨ à¤®
.. ..
à¤µ à¤¡
Ġà¤¸à¤® à¤¯à¤ķ
à¤® à¤°à¤£
à¤°à¤¹ à¤£
à¤Ĺ à¤¶
à¤ī à¤¹
Ġà¤¸à¤®à¤¯ à¤¦
à¤¤ à¤¨à¤ķ
Ġà¤ª à¤¸à¤²
à¤§ à¤¨à¤®
Ġà¤ĩ à¤¸
à¤® à¤¯
Re ad
Ġà¤ľà¤¨ à¤¶à¤ķ
à¥Ń à¥ª
à¤Ń à¤¦
à¤µ à¤°à¤²
Ġà¤Ĩ à¤¨à¤¨
à¤® à¤µ
à¤ı à¤ľ
à¥Į ,
à¥¨ à¥¦
à¥§ à¥«
in g
Ġà¤° à¤¤
Ġà¤¨ à¤°à¤¹
à¤² à¤¤à¤ķ
e d
Ġ f
ep al
à¤²à¤¯ à¤¬
Ġà¤Ľ à¤ł
à¤ħ à¤²
à¤·à¤£ à¤²
Ġà¤ħ à¤Ł
à¤· à¤¬
à¤® à¤ľ
e w
Ġà¤Ń à¤²
à¤§ à¤¨à¤²
Ġà¤ł à¤Ĺ
Ð µ
Ġà¤¸à¤¡ à¤ķà¤ķ
Ð °
à¥© à¥¦
à¤¤à¤°à¤£ à¤ķ
à¤¨ à¤ļ
à¤ħ à¤ª
Ġà¤Ľà¤² à¤«
à¤·à¤£ à¤®
à¤Ĩà¤° à¤ıà¤¨
à¤¸ à¤¨à¤®
Ġà¤ł à¤¹à¤°
Ġ Ċ
Ġà¤ķà¤ª à¤¡
à¤ī à¤£
Ġà¤ªà¤° à¤°
à¤¦ à¤Ĺ
Ġ c
Ġà¤ı à¤«
Ġ d
Ġà¥¯ à¥¦
Ġ I
à¤°à¤® à¤¶
à¤° à¤Ļ
à¤¡ à¤«
à¤Ĺ à¤ķà¤°
à¥§ à¥¨
à¤µ à¤ļ
Ġà¤¨ à¤¸
à¤·à¤ķ à¤¹à¤°
à¤· à¤ªà¤Ľ
Ġà¤ķ à¤¬
Ġà¤ķ à¤¸à¤²
0 0
Ġ t
u r
à¤µà¤¯ à¤¨à¤®
Ġ B
Ġà¤ħà¤¸ à¤¹
Ġà¤¦ à¤²à¤²
Ġà¤Ĩ à¤¦à¤°
à¤®à¤ķ à¤¤
à¤¥ à¤²à¤ķ
à¤· à¤Ń
à¤°à¤¤ à¤¬
à¤µ à¤¯à¤®
Ġà¤ı à¤£
à¤ĺ à¤°à¤®
Ġà¤¨ à¤µà¤²
en t
à¤µ à¤ľ
à¤µ à¤¸à¤ķ
Ġà¤¸à¤°à¤¸ à¤«
à¤· à¤ķà¤²
à¤ķ à¤¦
Ġà¤¬ à¤ķ
à¤£ à¤ª
à¤°à¤ª à¤¶
Ġ th
Ġà¤² à¤ĺ
Ġà¥« à¥«
à¤ī à¤¡
Ġà¤¬à¤¹ à¤¸
à¤¦ à¤¯
Ġà¤Ī à¤¨
à¤² à¤¨à¤²
Ġà¤µ à¤¹
Ġà¤²à¤Ĺ à¤Ńà¤Ĺ
a c
ĠâĢ ¦
à¤¯ à¤§
à¤²à¤ķ à¤²
à¤¨ à¤¥
à¤°à¤ķ à¤Ł
e l
à¤¥ à¤®à¤¨
Ġà¤ıà¤ķ à¤¦à¤®
Ġà¤ª à¤Ł
Ġà¤° à¤Ļ
Ġà¤¸ à¤Ł
à¥ĩ âĢĻ
a s
Ġ F
âĢ Į
Ġà¤Ĩ à¤Ĺà¤²
à¤¯à¤¸ à¤ħà¤ĺ
Ġà¤¨ à¤ĸ
r o
Ġà¤ľ à¤Ł
à¥§ à¥§
à¤¿ ...
à¤Ł à¤ĺ
à¤Ł à¤°à¤²
Ġà¤¢ à¤²
Ð ¸
à¤ĩ à¤Ń
Ġà¤ł à¤ķ
0 7
à¤ĸ à¤£
Ġà¤ļ à¤®
à¤¶ à¤¤à¤²
à¤¬ à¤¤
Ġà¤ħ à¤¸à¤®
âĢĿ ,
à¤Ī à¤Ł
à¤ķ à¤¹
à¤¯à¤® à¤ķ
Ġà¤Ķ à¤¦
à¤ľà¤¨ à¤²
Ġà¤īà¤ª à¤ķà¤°à¤£
Ġ 3
à¤ī à¤Ľ
e t
à¥§ à¥®
Ġà¤¸ à¤ĺ
à¤ĸ à¤¤
à¥Ģ -
à¤ıà¤¸ à¤ª
à¤¸à¤¦ à¤®
à¥Įà¤ģ à¥¤
à¤ĩ à¤¬
à¤· à¤ľ
à¤¦à¤¨ à¤¶
Ġà¤Ĩ à¤ĸ
à¤ª à¤¥
à¤¯à¤¤ à¤®
Ġà¤¸ à¤Ĺà¤°à¤®
à¤Ĺ à¤¡
à¤µà¤¯ à¤¨à¤ķ
à¤ł à¤ķà¤ķ
Ġà¤ħ à¤µà¤²
Ġà¤ĺ à¤°à¤¬
à¤¤ à¤µà¤®
à¤°à¤¶ à¤¸
à¤¯ à¤°à¤²
à¤Ĩ à¤¨
Ġà¤® à¤ķ
à¤¯ à¤¶
à¥Ģ à¤Ĥ
à¤¾ à¥Ī
à¥¦à¥Ń à¥ª
à¤¸à¤¦ à¤¹à¤°
à¤Ĺà¤ł à¤¨à¤ķ
à¤µ à¤¬
Ġà¤ĩ à¤ķ
Ġà¤Ĩ à¤ªà¤¤
Ġà¤° à¤Ĺà¤¤
Ġà¤¨ à¤·
à¤Ī à¤¸
à¤¦ à¤¹à¤°
à¤Ī à¤¦
Ġà¤¯à¤¸ à¤ª
à¤Ī à¤µà¤Ł
à¤ļ à¤¸
Ġà¤ħ à¤ľ
Ġà¤¦ à¤«
à¤¶ à¤Ńà¤°
à¤Ł à¤²à¤²
à¤µà¤ķ à¤°
à¥¦à¥ ¬
Ġà¥© à¥¬
Ñ Ĥ
à¤¨ à¤Ń
à¤¯à¤® à¤²
Ġà¤ħà¤¬ à¤ķ
Ġà¤ı à¤¡
Ġà¤§à¤¨ à¤Ĺà¤¢
à¤¸à¤¦ à¤ķ
à¥ĭ, âĢĻ
à¤¶ à¤Ń
Ġ on
à¤¾ âĢ¦
Ġà¤¨ à¤ļ
à¤¯ à¤ľ
à¤Ĺ à¤£à¤¨
à¤ĸ à¤¹à¤°
a m
à¤¯ à¤¬à¤¸
à¥Ĥ .
à¤¤ à¤¦
à¤ľ à¤¹à¤°
Ġà¤¤à¤¹ à¤²
Ġà¤¸à¤® à¤Ŀà¤¦
à¤ħ à¤Ń
à¤ľà¤ķ à¤¤
Ġà¤¸ à¤°à¤²
Ġ o
à¤Ń à¤µà¤¤
à¤ŀ à¤µ
Ġà¥¨à¥¦à¥ ©
à¤¤à¤° à¤²
Ġà¥¨à¥¦à¥§ à¥Ń
Ġà¤¬à¤ļ à¤¤
ĠâĢ Ļ
à¤Ī à¤¹à¤°
ew s
Ġà¤Ńà¤°à¤¤ à¤ª
Ġà¤¡ à¤²
Ġà¤ĵ à¤°
à¤¤ à¤¡
à¤ģ à¥¤
Ġà¤¤ à¤¬
Ġà¥¬ à¥«
Ġ1 9
e m
Ġà¤¥ à¤°
à¥ĭ à¤Ĥ
à¤¨ à¤¹
à¤Ł à¤²à¤®
o o
_ _
à¤ĩà¤¨ à¤¨
à¤Ĩ à¤µ
à¤ģ à¥ģ
Ġ R
à¥į ...
Ġà¤ĵ à¤Ń
Ġ b
Ġà¤īà¤ª à¤¹
Ġ w
à¤¹ à¤¬
Ð ½
à¤ļ à¤¬
Ġà¤¨à¤µà¤² à¤ªà¤°
à¤²à¤¬ à¤²
Ġ n
Ġà¤ĩ à¤°
à¤° à¤ªà¤Ľ
à¤¶ à¤°
Ġà¤ıà¤¨ à¤Ĩà¤°à¤ıà¤¨
a g
Ġà¥© à¥ª
Ġà¤Ń à¤ĩ
à¤¤ à¤ľ
Ġà¥ª à¥¨
à¤ĺ à¤¨
Ġà¥§à¥¦ à¥¦
Ġà¤ĩ à¤ľ
an d
Ġà¤²à¤Ĺ à¤¤
à¤ŀ à¤¹à¤°
i d
Ġà¤ķ à¤¦à¤®
Ġà¤ľ à¤¬à¤°
à¥§ à¥ª
Ġà¤® à¤¦à¤¨
à¤¾ à¤¾
à¤¤à¤® à¤²
à¤® à¤ļà¤¨
à¤ķà¤°à¤£ à¤®
à¤° à¤µà¤°
à¤®à¤¹ à¤¤
à¤µ à¤¸à¤®
Ġà¤® à¤ķà¤µ
à¤¾ âĢľ
à¥ĭ )
à¥ģ :
Ġà¥ª à¥ª
Ġà¤¨ à¤¨
à¤¯à¤ķ à¤ķ
à¤Ł à¤«
à¤²à¤ķ à¤ķ
Ġ1 1
at ion
Ġà¤Ĺ à¤ĩà¤°à¤¹
u n
à¤°à¤ļ à¤²à¤¨
à¥ĭ âĢ¦
Ġà¤ļ à¤°à¤£
Ġà¤¯à¤¸ à¤ªà¤Łà¤ķ
Ġà¤§ à¤¨à¤ķ
à¤¤à¤µ à¤¨à¤ķ
7 5
Ġà¤Ī à¤¶
Ġà¤ī à¤ĸ
à¤ª à¤¨à¤®
Ġ in
à¤¸ à¤Ĺà¤°
Ġà¤ħà¤¸ à¤²
à¥Ń à¥©
à¤¨à¤µ à¤ħà¤§
Ġà¤ª à¤ļ
à¤Ĺ à¤Ł
Ġà¤¸à¤®à¤¯ à¤¸à¤®
à¤£ à¤°
Ġà¥ª à¥®
Ġà¤ ĥ
à¤¨ à¤ľ
Ġà¤¹ à¤¨
Ġà¤¨ à¤¬à¤¨
à¤°à¤¸ à¤¹
à¤¹à¤¦ à¤°à¤¬
à¤ĩ à¤¨à¤®
à¤¡ à¤ªà¤°
Ġà¤ķ à¤ļ
à¤¯à¤® à¤®
Ġà¤¬ à¤Ł
Ġà¤Ĩ à¤¬à¤¦
Ġà¥¨à¥¦à¥§ à¥¬
Ġà¤¸ à¤¶à¤ķ
Ñ ģ
Ġà¥© à¥Ń
à¤¤à¤ķ à¤ķ
à¤Ĺ à¤²à¤®
à¤° à¤¯à¤¤
Ġà¤® à¤ļ
Ġà¤µ à¤²
Ġà¤Ł à¤¨
à¥Ģ à¥¤
Ñ Ģ
à¤ı à¤īà¤Ł
Ġà¤ ·
at e
à¤¥ à¤Ĺ
Ġà¤«à¤² à¤«
à¥Ń à¥¬
Ġà¥© à¥®
ï ¿
Ġà¤ħ à¤ļà¤®
à¤« à¤®
ï¿ ½
à¤Ī à¤ķà¤²
à¤¾ :
Ġà¤ª à¤µ
Ġà¤¹à¤Ļà¤ķ à¤Ļ
à¤ĵ à¤¸
à¤¸ à¤µà¤ķ
Ġ E
Ġà¤Ĩ à¤¸à¤ª
Ġà¤ı à¤Ł
Ġà¤ĭ à¤·
à¥¨ à¥«
Ġà¤Ł à¤°
à¤¦ à¤¬
à¤¯ à¤°à¤®
Ġà¤¹ à¤ķà¤®
Ġà¤¬ à¤¯
à¤¯à¤Łà¤ķ à¤ķ
à¤Ī à¤¤
à¤¦ à¤¥
à¤ľ à¤¶
à¤¯à¤¯ à¤¨à¤ķ
à¥ĩ -
à¤¿ âĢĵ
à¤¤à¤° à¤¦
à¥ĥ à¤Ĥ
Ġà¤¹ à¤¦
Ġà¥« à¥§
à¤¨à¤µ à¤Ł
Ġ 5
à¤¡ à¤²à¤ķ
à¤ĺ à¤¸
à¥¦à¥ §
Ġà¤¬ à¤Ļ
à¤¯ à¤¥
Ġà¤¹ à¤®
à¤¦ à¤°à¤²
Ð¾ Ð
Ġà¤ľ à¤¯à¤¨
Ġà¤ľà¤¨ à¤¯
Ġ h
Ġà¤Ĺ à¤Ī
Ġà¤¦ à¤°à¤²
Ġà¤¤à¤¨ à¤¹
a il
à¤· à¤ķà¤®
à¤¯à¤¸ à¤Ń
à¥§ à¥©
à¤¸à¤ķ à¤¹à¤°
Ġà¤² à¤¨
Ġà¤¶ à¤°à¤£
à¤ª à¤¹à¤°
à¤Ļ à¤¬
à¥Įà¤ģ âĢĵ
o v
à¤ª à¤ª
à¤¯à¤¨ à¤¸
Ġà¤ıà¤ķ à¤¦
à¤° à¤ľà¤¨
Ġà¤ľà¤¨ à¤µ
Ġà¤Ĺ à¤¹à¤¨
Ġà¤® à¤ľ
à¤¨ à¤ªà¤Ľ
à¥¦à¥ «
à¤® à¤ªà¤¨
Ġth e
à¤¤ à¤¸à¤®
Ġ G
q u
c t
à¤Ĩ à¤ĩ
à¤ľ à¤°à¤ķ
ww w
Ġà¤ı à¤¯à¤°
Ġà¥§à¥¯ à¥®
Ġ re
Ġà¥¨à¥¦à¥¨ à¥¦
Ġà¤ıà¤ķ à¤®
à¤¿ à¥į
Ġ L
à¤µ à¤Ńà¤°
Ġà¤¸à¤® à¤ķ
Ġà¤Ń à¤°à¤®
à¤£ à¤µ
Ġ O
à¤¯ à¤¨à¤ķ
à¤¸ à¤°à¤®
à¤ķ à¤¥
Ġà¤°à¤¹ à¤¸
Ġà¤Ńà¤ı à¤¸
Ġà¤ħà¤« à¤Ĺ
Ġà¤ª à¤£
c h
Ġà¤¬ à¤§
t er
Ġà¤® à¤¨à¤ķ
à¤¸à¤® à¤ķ
à¤ķ à¤¨à¤ķ
à¥ģ âĢĻ
à¤¿ à¥¤
Ġà¤Ľ à¤ķ
à¥ĭ -
Ġà¤¨ à¤Ĺà¤°à¤ķ
à¤¯ à¤ľà¤¨
Ġo f
à¥ĩ à¥į
à¤° à¤Ńà¤¨
Ġà¤ĵ à¤Ŀ
Ġ 4
à¥į âĢĵ
à¤Ĺ à¤®à¤²
à¤ī à¤ľ
Ġà¥© à¥¯
Ġà¤ħà¤¨ à¤¶à¤¨
07 4
à¤°à¤® à¤¨
à¤ĩ à¤¨à¤ķ
Ġà¤Ĩ à¤Ń
Ġà¤¶ à¤¹
à¥¨à¥¦à¥Ń à¥«
Ġà¤ħà¤° à¤¬
Ġà¤° à¤¹à¤°
Ġà¤° à¤ľ
Ġà¤Ń à¤ĩà¤¨
à¤ķ à¤¤à¤®
Ġà¥« à¥¬
à¤ĩ à¤Łà¤®
Ġà¤Ĺ à¤ľà¤²
à¤¦ à¤¸
Ġ? âĢĻ
Ġà¤ħà¤µ à¤¶
Ġà¤Ŀ à¤²
à¤¸à¤¦ à¤²
à¥Įà¤Ĥ âĢĵ
Ġ H
Ġà¤ķ à¤°à¤ķ
! !
.. ...
Ġà¥« à¥¨
à¤²à¤Ĺ à¤ŀ
Ġà¤¤ à¤¸à¤°
Ġà¤§ à¤ķ
à¤Ļ à¤Ĺ
à¤°à¤¤ à¤¸
Ġà¤° à¤¨à¤ķ
Ġà¤ıà¤ķ à¤ªà¤Łà¤ķ
Ġà¤ĸ à¤²
à¤¾ /
Ġà¥ª à¥©
à¤¶ à¤ķà¤²
à¤°à¤§ à¤¨
Ġà¥« à¥ª
Ġà¤Ĩà¤ĩ à¤¸à¤ķ
Ġà¤®à¤¨ à¤¸
Ġà¤ħ à¤µà¤ķ
Ġà¤¨ à¤Ĺ
à¤Ł à¤²à¤ķ
ã ģ
à¤¾ à¥Īà¤Ĥ
Ġà¤ķà¤® à¤°
Ġà¤¹ à¤¡
à¤¥ à¤ª
à¤ĩ à¤«
à¤® à¤¸à¤®
Ġà¤Ĺ à¤ıà¤ªà¤Ľ
à¤¡ à¤¹à¤°
à¤µ à¤ķà¤²
2 0
à¥¨à¥¦à¥ §
à¥§ à¥¬
à¥« à¥¦
à¤ı à¤ļ
à¤Ł à¤µà¤°
Ġà¤Ľ à¤µ
Ġà¤ĵ à¤¸
à¤· à¤¸
à¤Łà¤¬ à¤²à¤ķ
à¤ľà¤¨ à¤¤
à¤¬ à¤Ī
à¤¡ à¤µ
Ġà¤¥ à¤²
à¤ł à¤Ń
Ġà¤ĵ à¤Ł
à¤°à¤ļ à¤²
à¤¾) ,
b s
à¤ı à¤ªà¤¨
à¤¸ à¤«
à¤¡ à¤¯à¤¨
Ġà¤¸à¤¹ à¤¸à¤ļ
à¤ ¼
Ġ K
l o
à¤²à¤¬ à¤¹
Ġà¤µ à¤ľ
à¤² à¤µà¤¸
Ġà¥« à¥®
à¥ĭ ?
à¤°à¤Ń à¤°
Ġà¤ĺ à¤¡
Ġà¤µ à¤¤
à¤¦ à¤¨à¤²
à¥¦à¥ ¨
à¤ķ à¤¡
Ġà¤ĩ à¤Ł
a y
à¤£ à¤¬à¤¹
Ġà¤®à¤¨ à¤ªà¤°
Ġà¤Ĺà¤£ à¤¨
ĠâĢ Ŀ
Ġà¤ĩ à¤ľà¤°
à¤ľ à¤ķà¤²
Ġà¤¦ à¤®à¤ķ
à¤µ à¤²à¤®
à¤Ĩ à¤ıà¤ķ
à¤µ à¤¨à¤²
à¤ĸ à¤¬
Ġà¥ª à¥¯
Ġà¤ķ à¤«
Ġà¥® à¥«
à¤¨ à¤Ńà¤°
Ġà¤¬ à¤²à¤®
Ġà¥¨à¥¦à¥Ń à¥§
à¤Ĺ à¤®à¤ķ
Ġà¤Ĩà¤ª à¤¸
à¤¾ '
Ġà¥¨à¥¦à¥§ à¥ª
Ġà¤¸ à¤°à¤¹
Ġà¥¨à¥¦à¥§ à¥«
à¤· à¤¦à¤ķ
Ġà¤Ĩ à¤°à¤ķ
1 0
Ġà¤ľ à¤Ĺà¤¤
Ġà¤ª à¤¬
à¤¶ à¤¦
à¥Ĥ âĢĵ
Ġà¤¦ à¤£
à¤ļà¤¯ à¤ªà¤¤
Ġà¥¦ à¥¬
Ġà¥ª à¥Ń
Ġà¤ĩ à¤ľà¤²
u s
Ġà¤Ľà¤²à¤« à¤²à¤®
à¤²à¤ķ à¤¹à¤°
Ġà¤¨ à¤µà¤¨
à¤¶ à¤ª
Ġà¤ı à¤°
Ġà¤ħ à¤¯
à¤°à¤¸ à¤°
à¤¹à¤° à¤£à¤ķ
Ġà¤ı à¤ļ
à¤°à¤¹ à¤µ
à¤ļ à¤¨à¤²
Ġà¥ª à¥§
à¤ı à¤Ł
Ġà¤ħ à¤Ľ
Ġà¤ļ à¤°à¤®
Ġà¥« à¥©
a k
à¤²à¤¬ à¤ķ
Ġà¥ª à¥¬
à¤¸à¤ķ à¤²
Ġà¤ľà¤® à¤°
à¤¤ à¤ļ
à¤Ĩ à¤¤
à¤°à¤¸ à¤°à¤ķ
à¤ķ à¤Łà¤ķ
à¤° à¤Ĩà¤µ
à¤ļ à¤²à¤ķ
à¤¨ à¤¡
à¤ĩ à¤°à¤²
à¤£à¤¯ à¤¹à¤°
Ġà¤¡à¤Ł à¤ķà¤®
Ġà¤ķ à¤°à¤£
à¤¦ à¤Ń
Ġà¤¦à¤° à¤¬à¤¨
Ġ &
à¤µ à¤£
Ġà¤µ à¤¸à¤¨
r i
à¤ľ à¤¤à¤¨
n d
Ġà¤¦ à¤¹
Ġà¥¬ à¥©
à¤µà¤¨ à¤¸
à¤¯à¤¤ à¤¯
à¤Ł à¤¸à¤®
Ġà¤Ĩ à¤®à¤¨
à¥¦à¥ ª
Ġà¤Ńà¤° à¤ªà¤°
à¤ĺ à¤®
à¤¡ à¤ª
à¤¿ âĢĻ
à¤² à¤Ļ
Ġà¤ħà¤² à¤ªà¤¤
à¥§ à¥Ń
à¤µà¤ķ à¤ªà¤®
à¥¨ à¥¬
à¤¹ à¤£
à¤® à¤Ĺà¤°
Ġà¤īà¤¦ à¤¯à¤ª
à¤ħ à¤Ĺ
Ġà¤¸à¤¬ à¤Ńà¤¨
Ġà¤ľ à¤Ļ
Ġà¤ıà¤¸ à¤ª
Ġà¤ľ à¤¥
à¤µà¤°à¤£ à¤®
à¤¶à¤ķ à¤ķ
à¥¦à¥ ©
à¤ĩà¤°à¤¹ à¤¨
à¤ª à¤¸à¤®
à¥ģ à¥į
à¤¯à¤Ł à¤ķà¤²
à¥¦à¥ ®
Ġà¤µ à¤¢
Ġà¤¸à¤¹ à¤¨
à¤¾ à¤ĥ
Ġà¤¸ à¤¤à¤°
à¤Ļ à¤¸
Ġà¤¬ à¤¦
à¥¨ à¥®
Ġà¥¬ à¥ª
Ġà¤Ĺ à¤¦
Ġà¤Ńà¤Ī à¤°à¤¹
Ġà¤Ĩ à¤¬
à¤¯à¤ķ à¤®
i r
à¤Ķ à¤·à¤§
Ġà¤ĩ à¤£
à¥¤ âĢĿ
à¤°à¤Ĺ à¤ŀ
à¤Ī à¤ľ
Ġà¤ĵà¤Ń à¤°à¤®
Ġà¤ĩ à¤Łà¤¹à¤°
à¥į, âĢĻ
Ġà¤° à¤¦
Ġà¤ľà¤¨à¤¸ à¤Ļ
à¤ĵ à¤²
à¤£ à¤¬
à¥ģ âĢĵ
m ent
à¥¨ à¥¯
, âĢĿ
Ġà¤¹ à¤²à¤®
à¤¹ à¤µ
o l
à¤¨ à¤ħà¤¨
Ġà¤Ń à¤¬
Ġà¤īà¤ª à¤ķ
Ġà¥¤ à¥¤
à¤ı à¤²à¤¸
Ġà¤²à¤® à¤ľ
à¤¦ à¤£
à¤µà¤¸ à¤¨
Ġà¤Ĩ à¤°à¤®
Ġà¤ł à¤®
à¥įâĢ Į
Ġà¤¦ à¤µ
à¤¥ à¤¸
Ġà¥¨à¥¦à¥Ń à¥¦
à¤µà¤ķ à¤ªà¤ķ
Ġà¤Ĩ à¤īà¤Ł
à¤¤à¤° à¤Ĺà¤¤
à¥¨ à¥Ń
h e
à¤·à¤¯ à¤¹à¤°
Ġà¤¹à¤Ļà¤ķ à¤Ļà¤®
à¤¯ à¤²à¤ķ
à¤· à¤Ĺà¤°
Ġà¤ĩ à¤ŀ
à¤¤ à¤ķà¤²
Ġà¥¤ ...
à¤Ĺ à¤²à¤ķ
à¤¨à¤ķ à¤°
à¥Ī ...
Ġà¤¸ à¤Ĺ
Ġà¤¨ à¤µà¤°
à¤¯à¤® à¤¹à¤°
Ġà¤¶à¤¹à¤° à¤®
Ġà¤ĵ à¤²à¤®
Ġà¤ħà¤ª à¤¹à¤°à¤£
Ġà¤ķ à¤¦
Ġà¤¶ à¤²
à¤² à¤ļ
Ġà¤ĵ à¤®
à¥¦à¥¦ à¥¦
à¤ĸà¤² à¤¢
à¤µ à¤¤à¤ķ
à¤° à¤Ĺà¤¨
à¥¦à¥Ń à¥«
ha b
Ġà¥Ń à¥¨
Ġ 6
Ġà¤ľà¤¨ à¤ļ
Ġà¤Ĺ à¤«
Ġà¥« à¥Ń
à¤¦ à¤¶à¤¨
à¤¯ à¤Ń
Ġà¤Ĳ à¤¨à¤ķ
Ġà¤ľà¤¨ à¤µà¤°
Ġà¤ıà¤® à¤¬
Ġ W
Ġà¤ı à¤¯à¤°à¤²
à¤ķ à¤¶
Ġà¤Ĩà¤µ à¤¦
à¤°à¤£ à¤¸à¤Ń
Ġà¥¨à¥¦ à¥¦
à¤² à¤¬à¤¨
Ġà¤®à¤¤ à¤Ĺà¤£à¤¨
à¤¯à¤ķ à¤²
Ġà¤¡ à¤°à¤²
à¤¹ à¤ķà¤²
Ġà¤ļ à¤Ł
à¤Ĺ à¤µ
à¤¶à¤ķ à¤¹à¤°
à¤° à¤Ļà¤ķ
à¥Į à¥¤
à¤® à¤¤à¤ķ
à¤¨ à¤Ĺà¤°à¤ķ
à¤¹à¤ķ à¤¹à¤°
Ġt o
à¤ī à¤Ľà¤¨
à¥ĩà¤ģ ,
à¤¶ à¤¤à¤ķ
m ail
à¥¨ à¥¨
à¤Ĩ à¤īà¤Ł
Ġà¥¯ à¥«
Ġà¤ĸ à¤¬
e b
hab ar
Ġà¥¨à¥¦à¥§ à¥©
Ġà¥¯ à¥®
Ġà¥« à¥¯
Ġà¤¯ à¤ľ
Ġà¥¦ à¥Ń
Ġà¤ı à¤¨à¤¸
Ġà¤Ĩà¤ľ à¤¦
Ġà¤Ńà¤Ĺ à¤µà¤¤
à¥¨ à¥§
Ġà¤ªà¤¹ à¤²à¤®
Ġà¤¨ à¤Ľ
Ġà¥«à¥¦ à¥¦
à¤ľ à¤°à¤²
à¤īà¤¨ à¤®
à¤ı à¤Ľ
Ġà¤ħ à¤£
Ġà¥Ń à¥ª
Ġà¤¦ à¤¶à¤®
à¤Ĺà¤® à¤¨à¤ķ
Ġ and
Ġà¤ħà¤¬ à¤¸
Ġà¤¥ à¤ķ
Ġ11 5
à¤ª à¤ªà¤Ľ
à¤Łà¤° à¤«
Ġà¤¢ à¤Ļ
Ġà¤² à¤¤
à¥ģ -
Ġà¤ħà¤® à¤°
à¥Ĥ -
Ġà¤Ĩà¤Ī à¤ª
à¤§ à¤¸
à¤· à¤¯à¤µà¤¸
qu o
u l
Ġà¤¨à¤Ń à¤ıà¤ªà¤Ľ
à¤·à¤¯ à¤Ĺà¤¤
Ġà¤ĺà¤° à¤ªà¤°
à¤¨ à¤ħà¤ĺ
Ġà¤ª à¤ª
à¤°à¤® à¤¬
à¤¸à¤ķ à¤ķ
à¤¿ :
Ġà¤ħà¤µ à¤²à¤®
Ġà¤ıà¤ķ à¤¸
Ġà¤Ĩà¤ĩ à¤¸
à¤Ń à¤°à¤¤
à¤Ł à¤°à¤¹à¤°
Ġà¤ĺ à¤²
Ġà¤Ŀ à¤Ĺà¤¡
Ġà¤ķ à¤²à¤®
Ġà¤ķ à¤·
Ġà¤ħ à¤ªà¤®
à¤µà¤¨ à¤¶
Ġà¥¬ à¥¨
Ġà¤¹ à¤ķà¤ª
Ġà¤ľà¤¨ à¤Ĩà¤¨
ĠN epal
à¤¸ à¤µà¤®
à¤¤à¤° à¤µ
à¤®à¤¦ à¤¤
b er
Ġà¤® à¤¨à¤²
à¥¨à¥¦à¥Ń à¥ª
à¤Ĩ à¤Ĺ
à¤°à¤¨ à¤Ĺà¤°
à¥į âĢĻ
Ġà¤¡ à¤ķ
Ġà¤ľ à¤¯
Ġà¤¨ à¤Ńà¤¨
Ġà¥Ń à¥Ń
âĢ į
ĠD ate
Ġà¤ıà¤¸ à¤ıà¤²à¤¸
à¤ĺ à¤Ł
Ġà¤Ńà¤µ à¤¨à¤®
o t
à¤¨ à¤Ĺ
à¤¦ à¤ª
à¤ĵ à¤¬
Ð »
à¤¤ à¤¨à¤²
à¤ľ à¤¹
s quo
à¤ª à¤°à¤ķ
Ġà¤Ķ à¤ļ
Ġ ]
à¤§ à¤ª
à¥¨ à¥©
à¤ª à¤¯à¤²
à¤°à¤¸ à¤Ļ
Ġ J
à¤²à¤Ĺ à¤¨
Ġà¤Ī à¤®
Ġà¥Ń à¥©
n bs
Ġà¤ľà¤¨ à¤¸à¤®
Ġà¤Ķ à¤¸à¤¤
Ġà¤Ńà¤µ à¤¨à¤ķ
à¤Ĺà¤ł à¤¨à¤²
à¥Ģ '
à¥Įà¤Ĥ, âĢĻ
à¤² à¤¹
Ġà¤®à¤¹ à¤¶
à¥ĩ ?
à¤° à¤«à¤²
à¤¦ à¤¦
à¤ĩ à¤¹à¤°
re s
à¤ī à¤¥
Ġà¤¡ à¤¡
à¤¯à¤Łà¤ķ à¤¹à¤°
à¤ī à¤ļ
à¤Ĩ à¤ľà¤ķ
Ġà¤¯ à¤®
à¤¬ à¤ľà¤¨
à¤² à¤Ł
à¤¯à¤¯à¤¨ à¤°à¤¤
Ġà¤ĸ à¤ªà¤¤
à¤¨ à¤ľà¤¨
à¥¦à¥ ¯
Ġà¥¬ à¥¬
Ġà¤ª à¤łà¤¨
i m
Ġà¤ħ à¤¸à¤ķ
à¤ľà¤¨à¤ķ à¤ª
à¤Ī à¤°à¤¹
à¤ı à¤Ī
Ġ www
à¤ī à¤¤à¤²
à¤¿ )
à¤ı à¤¸à¤¨
à¤¸ à¤Ł
Ġà¤¬à¤¸ à¤¨
Ġà¥¬ à¥®
à¤¤à¤° à¤°
à¤Ĩ à¤§
nbs p
i g
à¤¹à¤² à¤ª
à¤« à¤°à¤ķ
Ġà¤Ĺ à¤ļ
Ġà¥Ń à¥¬
à¤¸ à¤¤à¤®
Ġà¥¨à¥¦à¥¬ à¥ª
Ġà¤ħà¤¨ à¤®
in e
o w
à¤Ł à¤°à¤¬
à¤¤à¤ķ à¤¹à¤°
à¤£ à¤¹à¤°
Ġà¤¦ à¤¯
Ġà¤² à¤£
à¤¿ -
à¤ı à¤£
à¤ľ à¤¯à¤ķ
à¤¯à¤¨ à¤ľà¤°
v e
à¤Ī à¤ª
Ġà¤¶ à¤Ļ
à¤¯à¤¸ à¤¹
à ¸
Ġà¤®à¤Ĺà¤° à¤²
à¤¨ à¤¬à¤¹
à¤ªà¤° à¤¬
à¤ļ à¤¤
à¤° à¤¸à¤ķ
à¤¾à¤ģ à¥Ī
à¤¾à¤ģ ,
à¤¹ à¤ľ
Ġà¤ĸ à¤Ĺ
Ġà¤Ĩà¤ķ à¤¸
Ġà¤Ńà¤ı à¤¤
Ġà¤¸à¤¡à¤ķ à¤ĸà¤£
à¤² à¤Ĺà¤¤
Ġà¤īà¤ª à¤¸à¤Ń
Ġà¥¯ à¥¯
à¤µà¤ķ à¤ķ
1 8
à¤¤ à¤Ĺà¤¤
à¤ķ à¤ŀ
Ġà¤¹ à¤®à¤²
Ġà¤Ĺ à¤¡à¤¬
Ġà¤¸ à¤²à¤®
o st
à¤łà¤ķ à¤¹à¤°
à¤Ĺà¤² à¤µ
à¤ľ à¤ķà¤ķ
à¤¨à¤¸ à¤¹
à¤¶à¤Ń à¤°à¤ķ
à¤Ĺ à¤¬à¤¹
Ġà¤® à¤ľà¤¬
à¤ª à¤ŀ
à¤ª à¤ķà¤²
à¤ľ à¤Ń
à¤¡ à¤¤
Ġà¤īà¤ª à¤¸à¤®
Ġà¤Ĩà¤¯ à¤²
Ġà¤Ĩà¤ª à¤¸à¤®
Ġ U
à¤°à¤µ à¤Ł
à¤¸ à¤ŀ
à¤ĩ à¤µ
Ġà¤¹à¤¦ à¤¸à¤®
à¥ĩ, âĢĺ
i a
à¤Ī à¤¬
Ġà¥¨à¥¦à¥§ à¥§
Ġà¥® à¥ª
à¤Łà¤ª à¤Ł
i st
Ġà¤Ĩà¤ľ à¤¸à¤®
à¤¦ à¤µà¤ķ
à¤Ł à¤¨à¤ķ
Ġà¥¬ à¥Ń
à¤°à¤¹ à¤ķ
Ġà¥® à¥®
Ġà¤Ľ à¤¤
Ġà¤ªà¤¸ à¤²à¤®
Ġà¤īà¤ª à¤µ
Ġà¤ıà¤ķ à¤ħà¤°
Ġà¤¸à¤¹à¤° à¤®
er s
à¤¨ à¤Ľ
à¤¤ à¤ķà¤®
à¤¯à¤¯ à¤¨à¤²
à¤ľà¤Ĺ à¤¢
Ġà¤¡à¤² à¤°à¤ķ
à¤¤ à¤ľà¤¨
Ġà¤² à¤¹à¤°
à¤£ à¤¯à¤²
Ġà¤ĵ à¤ĸà¤²à¤¢
Ġà¤« à¤¡
à¤ĩà¤Ł à¤¹à¤°
Ġ V
à¤ķ à¤°à¤²
à¤¦ à¤°à¤¤
Ġà¤ªà¤Łà¤ķ à¤ķ
Ġà¥Ń à¥®
à¤Ĩ à¤¬
Ġ e
à¤¾ âĢĿ
à¤Ł à¤¤
Ġà¤ĩ à¤¶
Ġà¤ļà¤² à¤ĸ
à¥¨ à¥ª
à¥¦à¥Ń à¥©
Ġà¥¨à¥¦à¥§ à¥¨
Ġà¤ħà¤Ĺ à¤¸
Ġà¤īà¤ª à¤¶
à¤¹ à¤ª
Ġà¥¬ à¥§
à¤¡ à¤¦
à¤ĩ à¤ı
Ġà¤ľà¤¬ à¤ķ
à¤² à¤§
Ġà¤ĺ à¤°à¤¦
à¤Ŀ à¤®
Ġà¤Ĩà¤Ĺ à¤®à¤¨
à¤¨ à¤¶
Ġà¤µ à¤¨à¤¸
Ġà¤² à¤¸
à¤ĸ à¤¸à¤®
Ġà¤¤ à¤°à¤²
Ġà¤ª à¤®
Ġà¥¤ '
à¤¨ à¤¯à¤¨
Ġà¥® à¥©
à¤ıà¤¨ à¤ı
Ġà¤ļ à¤ª
Ġà¤ı à¤Ńà¤°
à¤¯à¤£ à¤Ĺà¤¢
t t
Ġà¥¨à¥¦ à¥¦à¥Ń
Ġ 9
à¥Ģ /
Ġà¥§à¥¯ à¥¬
à¤°à¤£ à¤¹à¤°
à¥į -
à¤ļà¤² à¤ļ
Ġ 0
Ġà¤ĩ à¤Ń
à¥¦à¥Ń à¥¬
Ġà¤ªà¤Łà¤ķ à¤ªà¤Łà¤ķ
à¥į )
à¤¤à¤° à¤¬
Ġà¤ľ à¤²à¤¸
Ġà¤īà¤ª à¤®
Ġà¤°à¤ķ à¤®à¤ķ
Ġà¤ĸ à¤ª
à¤Ł à¤¯
à¤°à¤®à¤£ à¤²
à¤¯à¤Ł à¤¨à¤ķ
Ġà¤ķ à¤¯
Ġà¥¨à¥¦à¥¬ à¥®
u m
à¤¸ à¤¸à¤®
à¥¨à¥¦à¥ ¬
à¤¥ à¤¤
Ġà¥Ń à¥§
g mail
à¤°à¤ķ à¤²
Ġà¥¬ à¥¯
à¤² à¤¡
Ġà¤¨à¤Ĩ à¤ıà¤ķ
1 1
à¤ª à¤¡
à¤¤ à¤¹à¤¤
à¤ª à¤µ
à¤£ à¤¯à¤ķ
__ __
à¤¬ à¤¢
à¤¥à¤² à¤Ĺà¤¤
à¤ľ à¤¦à¤°
o p
Ġà¤Ĩà¤ī à¤¦
Ġà¤īà¤ª à¤¦
Â «
Ġà¤ĺ à¤°à¤¹à¤°
Ġà¤ĵ à¤Ĺà¤Ł
à¤² à¤¶
Ġà¤« à¤¨
Ġà¤¶à¤¹à¤° à¤ķ
à¤Ī à¤ľà¤¨
Ġà¤¨ à¤¹à¤°
à¤Ľ à¤¦
Ġà¤¸à¤¬ à¤²
Ġf or
à¤ı à¤¸à¤®
Ġà¤Ĳ à¤¨à¤®
à¤² à¤¯à¤¨
1 9
Ġ1 0
Ġà¤ķ à¤£
Ġ 7
Ġà¤¦à¤¶à¤ķ à¤¦
à¤ĩ à¤¬à¤°
à¤Ī à¤¡
Ġà¤ī à¤¬
Ġà¤Ĩà¤ľ à¤Ń
Å Ĵ
u t
à¤¦à¤° à¤Ĺ
Ġà¥¨à¥¦à¥¬ à¥¯
à¤¾ (
à¤¯ à¤Ļ
? âĢĻ
à¤ķ à¤Łà¤®
à¤Ĺ à¤ıà¤ķ
Ġà¤² à¤ľ
ĠI n
à¤¤à¤ķ à¤°
à¤· à¤Ńà¤¨
à¤ĸ à¤¨à¤¨
à¤°à¤¤ à¤°
à¤Ĺ à¤ª
à¤ĩ à¤²à¤®
à¤¸ à¤²à¤®
Ġà¥¨à¥¦à¥¦à¥ ®
Ġà¤· à¤¡
à¤² à¤ħà¤§
à¤¡ à¤²à¤®
oo k
Ġà¤Ĩ à¤µà¤ķ
Ġà¤Ĩà¤ĩ à¤¤à¤µ
à¤ĺ à¤°à¤ķ
Ġà¤¹à¤Ļà¤ķ à¤Ļà¤ķ
à¤« à¤¦
à¤¶ à¤¯
p p
Ġà¤ı à¤¯à¤°à¤ķ
Ġà¥¨à¥¦à¥§ à¥¦
à¤ı à¤ª
à¤¹à¤¨ à¤¤
Ġà¤ł à¤ª
à¤ª à¤¨à¤²
Ġà¤ħ à¤ł
Ġ20 0
Ġà¤¤ à¤Ł
à¤¸ à¤¡à¤ķ
à¤¥ à¤²à¤¬
à¤Ĺ à¤®à¤¤
Ġà¤¬ à¤Ŀ
Ġà¤ħà¤µ à¤¤à¤°à¤£
à¤¯ à¤£à¤ķ
à¤§ à¤¹à¤°
à¤ķ à¤¸à¤®
à¤ķ à¤¬à¤¹
à¤Ĥ ,
Ġà¤ªà¤¦ à¤¯
à¤Ń à¤¤
Ġà¤¬à¤¸ à¤ª
à¤¶ à¤Ńà¤ķ
à¤¹ à¤¹à¤°
Ġà¤¶ à¤®
à¤ª à¤ķà¤°
à¤Łà¤¬ à¤²à¤®
à¤°à¤² à¤Ĺ
à¤ħ à¤ķ
Ġà¤ĺ à¤°à¤§
Ġà¤Ī à¤²
Ġà¥® à¥Ń
r a
ĠN ews
à¤¿ à¤¾
à¤¤ à¤®à¤ķ
Ġre ad
à¤¾ ?
à¤¡ à¤¨à¤ķ
à¤¤ à¤¯
Ġà¤Ľà¤²à¤« à¤²à¤ķ
à¤¡ à¤Ńà¤¨
à¤ĵ à¤ķ
à¤¶à¤¤ à¤Ńà¤¨
-- --
Ġ1 8
/ /
Ġà¤Ĩà¤Ī à¤¤à¤¬
Ġà¤ľà¤¨à¤® à¤¤
Ġà¤¬ à¤ŀ
à¥¤ ...
Ġà¥® à¥¬
à¤· à¤°à¤¤
à¤¥ à¤¹à¤°
à¤ķ à¤Ń
à¤²à¤® à¤²
Ġà¤Ĺ à¤Ńà¤°
Ġà¤¨à¤Ńà¤ı à¤¸à¤®
à¤² à¤ľ
Ġà¥¦ à¥Ńà¥ª
à¤Ļ à¤¦
Ġà¤ľà¤¨ à¤Ĺà¤£à¤¨
Ġà¤īà¤ª à¤²à¤ķ
Ġà¤¨ à¤¬à¤¸
Ñ ĥ
ou t
à¤°à¤¸ à¤ŀ
à¥į à¤¾
à¤Ĥ à¤ģ
à¤°à¤ķ à¤°à¤£à¤®
Ġ1 2
Ð º
à¤ Ĳ
à¤¥ à¤¶
à¥ª à¥«
à¤Ī à¤°
Ġà¤Ķ à¤²
Ġà¤² à¤¯
à¥ĭ .
à¤¦à¤¨ à¤¹à¤°
Ġà¤¤à¤¹ à¤¬
à¤¯ à¤¨à¤²
Ġ201 7
à¤² à¤¯à¤¸
Ġà¤® à¤®
tt p
o s
à¤¡ à¤¨à¤®
Ġ 8
Ġà¤¨à¤ľ à¤°
à¤°à¤£ à¤¬
Ġ g
à¤¶ à¤¤à¤®
à¤Ń à¤ıà¤¨
Ġà¥® à¥¨
à¤Ĩà¤Ī à¤ľ
Ġà¤ķ à¤¸à¤ķ
: //
Ġà¤ħà¤« à¤°
à¤§à¤¨ à¤Ĺà¤¢
Ġà¤¯ à¤ķ
Ġà¥§à¥¯à¥¯ à¥¦
Ġà¤° à¤¬
à¥ģ )
à¤¡ à¤²à¤²
à¤¯à¤ķ à¤µ
Ġà¥¨à¥¦à¥ª à¥¬
Ġà¥¨à¥¦à¥¬ à¥©
à¥į à¥ģ
Ġ v
Ġà¤ĸà¤¤à¤° à¤¨
Ġà¤ıà¤¸ à¤ıà¤¸à¤ª
Ġà¤ħà¤ĸ à¤£
Ġà¤ī à¤§
à¤ĩ à¤ļ
à¤Ĺ à¤²à¤²
à¤£ à¤¯à¤®
à¤Łà¤¨ à¤Ĺà¤°à¤®
à¤Ŀ à¤ķ
i k
à¤¸ à¤¯
à¤Ĺ à¤ħà¤¨
Ġà¤¨à¤Ĩ à¤īà¤¨
Ġà¤² à¤¹
à¤Ĺ à¤¸à¤®
à¥ª à¥¦
Ġà¤°à¤¹ à¤¦
à¤°à¤¹ à¤®
Ġà¤®à¤¤ à¤ªà¤¤
à¤°à¤®à¤£ à¤¬
Ġà¥§à¥§ à¥©
Ġà¤¶ à¤°à¤¦
à¤®à¤ľ à¤¯à¤¨
à¥į à¥į
à¤¤à¤¹ à¤Ł
Ġà¤ħà¤¸à¤¹ à¤®à¤¤
à¤¯ à¤¬à¤¹
ment s
à¤® à¤ĺ
Ġà¥¯ à¥Ń
à¤¶à¤¨ à¤¬
Ġà¤® à¤Ŀ
o c
Ġà¤ĺ à¤°à¤Ń
Ġà¤Ĺ à¤¢
Ġà¤® à¤¡
Ġà¤ªà¤° à¤¦
Ġà¤ĩ à¤Ļ
Ġà¤¸à¤¹à¤° à¤ķ
à¤ľ à¤Ļ
Ġà¤¸à¤¹à¤ľ à¤¤
Ġà¤Ĩ à¤Ĩà¤«
à¤· à¤ª
Ġà¤Ĩà¤ĩ à¤«
à¤¨ à¤µà¤²
th er
à¥ĩ âĢ¦
à¤¶à¤¤ à¤¸à¤®
à¤µà¤°à¤£ à¤ķ
em ber
à¤¬ à¤²à¤ķ
Ġà¤¶ à¤¶
Ġà¥¨à¥¦à¥© à¥¦
Ġà¤¡ à¤®
à¤ļ à¤¥
à¤ķ à¤°à¤ķ
à¤ĸ à¤Ńà¤¨
Ġà¤° à¤¨à¤®
Ġà¥Ń à¥¯
Ġà¤° à¤ļ
à¤ķ à¤®à¤ķ
Ġà¤¸ à¤ĸ
Ġà¤Ĩà¤Ī à¤¸
à¤¯à¤¦ à¤²à¤²
á ĥ
Ġà¤¤à¤ª à¤¸
Ġà¤ľà¤¬à¤° à¤ľà¤¸
Ġà¤ķ à¤¦à¤°
à¥Įà¤Ĥ -
Ġà¥¯ à¥©
Ġà¤ħà¤¸à¤¹ à¤ľ
à¤²à¤² à¤Ĺ
à¥ĩà¤Ĥ ,
Ġà¤¸à¤®à¤¯ à¤ªà¤Ľ
à¤°à¤¬ à¤°
Ġà¤¸à¤® à¤¯à¤¸
à¤¦ à¤²à¤ķ
Â ¸
âĢ ¢
Ġ! !
à¤· à¤¯à¤¤
à¤ħ à¤¤
à¥Ģ) ,
Ġà¥¨à¥¦à¥¬ à¥«
Ġ Read
' ,
à¤Ĺ à¤°à¤£
Ġà¤ľà¤¸à¤® à¤§
Ġà¤Ńà¤ĩà¤°à¤¹ à¤¨
à¥¤ '
Ġà¤¦à¤° à¤ĸ
Ġà¤Ł à¤ķ
Ġà¤Ī à¤¸
Ġà¤ļ à¤¤
Ġà¤¶ à¤ªà¤¥
Ġà¤ıà¤ķ à¤Ľ
à¤Ń à¤ªà¤¤
Ġà¤īà¤ª à¤²à¤µ
Ġà¥¯ à¥¬
à¤¸à¤® à¤®
Ġà¤ª à¤ĸ
à¤Ł à¤¦
à¤¹ à¤ķà¤ķ
Ġà¤µ à¤ŀ
1 2
i p
Ġà¤¸à¤® à¤¯à¤²
Ġà¤® à¤Ĺ
à¤Ĺà¤łà¤¨ à¤¹à¤°
à¤¸ à¤ħà¤¨
Ġà¤ī à¤Ĺ
Ġà¤¬ à¤ĸà¤¤
à¥ĭà¥¤ âĢĻ
Ġà¤¯ à¤¨
à¤ħ à¤«
à¤ī à¤¬
Ġà¤Ĩ à¤Ļ
Ġà¤¥ à¤¨
Ġà¤¸à¤¯ à¤Ńà¤¨
à¤ª à¤°à¤®
à¤µ à¤Ĺ
Ġà¤° à¤ľà¤¤
Ġà¤ªà¤¦ à¤¬
Ġà¤° à¤ĺ
Ġà¤ĵ à¤Ńà¤°
Ġà¤ħà¤Ĺ à¤·
à¤°à¤® à¤¸
Ġ y
Ġà¤¦à¤¶ à¤ķà¤®
Ġà¤®à¤¹ ÅĴ
Ġà¤¨ à¤²à¤Ĺ
w it
à¥ĩà¤ģ à¥¤
à¤Ń à¤¸
Ġà¥® à¥§
à¤¤à¤¹ à¤¤à¤ķ
Ġà¤Ĳ à¤¨à¤²
o k
à¤Ļ à¤Ł
Ġà¥¯ à¥ª
à¤¯ à¤¦à¤²
à¤ª à¤¸à¤ķ
à¥Ģ âĢĿ
à¥ģà¤ģ ,
Ġà¤ª à¤¡
Ġà¤ķà¤® à¤¨
Ġà¤§ à¤°à¤¹à¤°
Ġà¤ĭ à¤¤
1 7
à¤ħ à¤¸à¤ķ
Ġà¤ķà¤® à¤ķ
à¤ıà¤® à¤Ī
à¤ª à¤¢
Ġà¤ħà¤¨ à¤¸à¤¨
Ġà¤ıà¤ķ à¤ķ
Ġà¤ªà¤łà¤¨ à¤ª
à¥¨à¥¦à¥Ń à¥©
ou r
à¤Ļ à¤¹à¤°
om e
Ġà¤ħà¤¨ à¤¨
Ġà¤Ĩ à¤¸à¤¨
Ġà¤Ĺ à¤Ĺà¤¨
Ġà¤Ľ à¤Łà¤ªà¤Ł
Ġà¤Ĩà¤µ à¤®
Ġà¥¯ à¥§
à¤ĸ à¤¸
à¤ĩ à¤ľà¤°
Ġà¤ħà¤µà¤¸ à¤°à¤ķ
Ġà¤² à¤ĸ
Ġà¤Ł à¤ª
Ġà¤« à¤ķ
Ġà¥® à¥¯
m à¤¨
Ġà¤Ńà¤Ī à¤¸à¤ķ
ĠC om
wit ter
Ġà¤Ĺà¤ľ à¤²à¤ķ
Ġ? âĢĿ
it y
à¤ªà¤¨ à¤ªà¤¤
Ġà¤µà¤° à¤ªà¤°
à¤Łà¤ķ à¤ķ
à¤¯à¤¸ à¤¤
Ġà¤ĵ à¤ª
à¤ķ à¤ħà¤ª
à¤§à¤¨ à¤¬
à¤¯à¤¸à¤® à¤§
à¤ı à¤¡
à¤¶ à¤®à¤¨
Ġh ttp
Ġà¤īà¤ªà¤¸ à¤ļ
à¤ķ à¤¤à¤°
Ġà¤° à¤ŀ
Ġà¤ķ à¤²à¤ķ
l ine
Ġà¤¬ à¤¦à¤¨
Ġà¤ľà¤¨ à¤°à¤²
à¤ļ à¤¥à¤°
Ġà¥¦ à¥«
Ġà¤ĸ à¤®
Ġà¥§à¥¯ à¥«
à¤ķ à¤Ńà¤°
à¤²à¤¨ à¤¬
Ġà¥¯ à¥¨
Ġà¤Ĩ à¤ªà¤°
à¥ĭ âĢĿ
à¤ĸ à¤ķà¤²
à¤ª à¤ĸ
à¤¯à¤® à¤¯
à¥Ī à¥¤
Ġà¤¨ à¤ļà¤²
à¤Ľ à¤¡
à¤ĩ à¤²à¤ķ
Ġà¤¸à¤ª à¤¥
à¤¨ à¤°à¤®
Ġà¥§à¥¯ à¥Ń
Ġà¤¤à¤¹ à¤¸à¤®
à¤ļ à¤²à¤®
à¤ı à¤¤
N epal
à¤Ĩ à¤¦
an g
Ġà¤ħà¤ª à¤¡
Ġà¤ľà¤¸ à¤¬
à¤Ĩ à¤¶
Ġà¤¦ à¤¨
à¤ķ à¤ħà¤¨
Ġà¤¨ à¤Ł
Ġà¤¨à¤¬ à¤¢
c e
à¤ŀ à¤ķ
à¤ķ à¤ľ
n epal
à¤²à¤ķ à¤£
à¤µà¤ķ à¤¹à¤°
t e
à¤°à¤¸ à¤¨
à¤¬ à¤¹à¤°
Ñ ı
eb ook
à¤¤à¤µ à¤¨à¤®
à¤ħ à¤ªà¤°
Ġà¥¨à¥¦à¥§ à¥¯
à ¦
à¤ľ à¤¸à¤®
à¤°à¤ľà¤¨ à¤¨
à¤²à¤¤ à¤¬
Ġà¤® à¤¤à¤²
à¤¡ à¤ªà¤®
or t
à¤°à¤« à¤²à¤®
à¤ķà¤² à¤¨à¤ķ
Ġà¤ħ à¤¥
> >
a b
à¥ĭ '
Ġà¤µ à¤¨à¤ķ
. ),
à¤Ĩ à¤ł
à¤¤ à¤Ńà¤°
à¤¤à¤°à¤£ à¤®
Ġà¤¸à¤¯ à¤ªà¤¤
a p
Ġà¤¦ à¤®à¤¨
à¤² à¤Ĺà¤°
Ġà¤ĸ à¤¬à¤°à¤ķ
à¤¤à¤° à¤ª
Ġà¤Ńà¤ı à¤Ľ
à¤ĩ à¤ıà¤¨
à¤Ŀ à¤Ł
à¤ĩ à¤¹
à¤¤ à¤¬à¤¹
Ġà¤Ĳ à¤¶
Ġà¤°à¤® à¤£
à¤¬ à¤¡
à¤¨à¤² à¤®
Ġà¥©à¥¦ à¥¦
à¥ĩà¤Ĥ à¥¤
à¤ī à¤¡à¤®
à¤§ à¤°à¤²
à¤Ī à¤¯
Ġà¤Ĩà¤Ĺ à¤ľà¤¨
o ther
Ġà¤Ĺà¤ł à¤¨à¤ķ
u b
, ,
à¤¾ à¥į
à¤¥ à¤¯
à¤¶ à¤¶
ac ebook
à¤Ī à¤Ń
à¤ħ à¤·
à¤Ńà¤² à¤ªà¤®
à¤¨à¤² à¤Ĺ
Ġà¤¸à¤¤ à¤¹
Ġà¥¨à¥¦à¥¬ à¥¨
à¤¯ à¤ªà¤¤
à¤° à¤µà¤¨
ou s
à¤ ĭ
Ġà¤ħà¤ª à¤²
Ġà¥¨à¥¦à¥« à¥ª
à¤® à¤°à¤¤
Ġà¤Ĩà¤µ à¤¤à¤ľ
à¤¯à¤¯ à¤¨à¤®
ã Ĥ
Ġà¤¬à¤² à¤°
à¤®à¤ķ à¤µ
3 0
ĠT he
à¤ıà¤¨ à¤Ĩà¤°à¤ıà¤¨
Ġà¤¤à¤¹ à¤¹à¤°
Ġà¤¸ à¤¦à¤¨
Ġà¤ĵ à¤ªà¤¨
à¤Łà¤ķ à¤°
à¤łà¤ķ à¤¬
Ġà¤ª à¤¥
Ø §
Ġà¤īà¤¦ à¤¯
Ġà¥¨à¥¦à¥¦à¥ ¯
Ġà¤Ńà¤ĩ à¤¹
Ġà¤® à¤¸à¤²
à¤¾à¤Ĥ à¥Ī
à¤² à¤¸à¤¹
à¤¯à¤ª à¤¹
à¤²à¤¬ à¤®
à¤¤ à¤Ń
à¤¯à¤ķ à¤¹à¤°
à¤® à¤Ń
Ġà¤µà¤° à¤ªà¤°à¤ķ
Ġà¤¨ à¤¶
à¤Łà¤µ à¤²à¤®
Ġà¤¸à¤¹ à¤ķà¤°
Ġà¤¤à¤°à¤² à¤¤
Ġà¤Ĩà¤¤ à¤Ļ
Ġà¤Ŀ à¤°à¤¨
Ġà¤® à¤Ĺà¤°à¤ķ
Ġà¤ĺà¤° à¤ĺà¤°à¤®
à¤¨ à¤ĸ
à¤ī à¤¡à¤ķ
Ġà¤¨ à¤°à¤®
Ġà¤ıà¤ķ à¤ľ
Ġà¥¦ à¥Ńà¥©
âĢ¦ âĢ¦
Ġà¤¬ à¤¸à¤®
à¤Ľ à¤ķ
Ð° Ð
à¤¨ à¤ªà¤°
Ġà¤Ĩ à¤ıà¤¨
à¤¯ à¤°à¤§à¤¨
f f
l y
Ñ ĭ
Ġà¤¦ à¤°à¤®
Ġà¥ Ĳ
Ġà¥¤ "
à¤¯ à¤¨à¤®
à¥ģ ...
à¥¬ à¥©
à¤µà¤° à¤¬
Ġà¥§à¥« à¥¦
Ġà¤¡ à¤¢
Ġà¤ı à¤ªà¤ķ
à¤¬ à¤°à¤£
à¥¬ à¥¦
à¤ħ à¤¦
à¤Ĺ à¤ļ
Ġà¤¬ à¤¸à¤ķ
Ġà¤Ĺ à¤Ļ
à¤Ł à¤¨à¤®
es s
ak habar
à¥Ģ âĢ¦
à¤ĩà¤¨ à¤¬
ĠN ov
à¤Ĩà¤ĩ à¤¤à¤¬
à¤Łà¤µ à¤²à¤ķ
Ġà¤ıà¤¨à¤Ĩà¤°à¤ıà¤¨ à¤ı
Ġà¤° à¤¶
Ġà¥¨à¥¦à¥ª à¥¯
à¤¥ à¤¬
à¤Ĺ à¤¨à¤®
Ġà¤¬ à¤¦à¤°
à¤ªà¤¤ à¤ķ
Ġà¤Ĩà¤ī à¤²
à¥Ģ à¥ĩ
Ġà¤¸à¤Ł à¤¹
Ġà¤µ à¤ļà¤¨
Ġà¤®à¤¹ à¤¤à¤²
Ġà¤ĺà¤° à¤ľà¤Ĺ
à¤° à¤ħà¤¨
à¤°à¤ª à¤¸
Ġà¤ī à¤Ľ
à¤µà¤¸ à¤°
à¤¾ à¥Īà¤ģ
à¤¸à¤® à¤¨
Ġà¤¦à¤¶à¤® à¤²à¤¬
à¤ľ à¤ªà¤¤
à¤ģ à¤Ĥ
Ġà¤¦ à¤¤
Ġà¤®à¤¨ à¤Ĺ
à¤¯à¤¤ à¤¨
à¤ĸ à¤¬à¤°
à¤²à¤® à¤ľ
à¤µ à¤²à¤²
Ġà¤¸à¤®à¤¯ à¤ħà¤ĺ
Ġà¤®à¤¤ à¤²à¤¬
à¤ĩà¤ķ à¤²à¤®
à¤§ à¤µà¤ķ
Ġà¤Ń à¤ľà¤¨
Ġà¤Ĩà¤ľ à¤¬
à¤¹ à¤Ł
à¥Ī à¥Ī
à¤¯à¤¸ à¤¨
à¤¸ à¤¡
à¤Ĺ à¤Ń
1 6
Ġà¤ıà¤¯à¤° à¤ª
Ġà¤ĩà¤¨ à¤°
l squo
à¤¯ à¤°à¤¬
e c
ã Ģ
Ġà¤¡ à¤¬
Ġà¤Ĩ à¤ĩà¤¨
1 4
à¤· à¤Ńà¤°
à¤ļ à¤µ
à¤ķ à¤Ĺ
Ġà¤ĵ à¤¢
à¤® à¤²à¤ķ
) :
Ġà¤Ń à¤¡
Ġà¤² à¤°
à¥ģ âĢľ
Ġà¤® à¤ĸ
Ġà¤² à¤Ń
à¤ĩà¤² à¤Ł
Ġà¤®à¤¤ à¤Ń
Ġà¤Ĩ à¤¡à¤®
à¤ī à¤ªà¤°
Ġà¤ªà¤° à¤¨
à¤¡ à¤²à¤Ĺ
à¤ĩ à¤°à¤¸
à¤® à¤ĸ
à¤ľà¤Ń à¤£
à¤Łà¤¨ à¤Ĺà¤°à¤ķ
Ġà¤Ł à¤¸
à¥Ģ (
Ġà¤ıà¤ķ à¤ªà¤Ľ
Ġ k
à¤ŀ à¤¤
à¤ĸ à¤¨à¤ķ
à¥į à¥ĩ
Ġà¤¬ à¤¬
Ġà¤« à¤²à¤¸
Ġà¤¨à¤® à¤¸
ĠA nd
à¤¤à¤¹ à¤Łà¤ķ
à¤¥ à¤¨à¤®
à¤Ľ à¤°
Ġà¤Ĺà¤¡à¤¬ à¤¢
à¤Ń à¤ķà¤°
à¤ļ à¤ª
à¤Ń à¤Ł
Ġà¤¦à¤° à¤Ń
à¥¨à¥¦à¥Ń à¥¨
à¤Ĺà¤® à¤¨à¤®
à¤¡ à¤Ń
Ġ Re
à¤Ĩ à¤ĩà¤ľ
à¤¾ "
à¥ĭ âĢĻ,
à¤¤à¤µ à¤Ł
à¥¨à¥¦à¥ «
à¤¥à¤² à¤¹à¤°
à¤° à¤ľà¤¸
à¤µ à¤¤à¤®
à¥ ī
à¤·à¤£ à¤¹à¤°
à¤°à¤® à¤§
à¥ĩ /
à¤ı à¤Īà¤ķ
Ġà¤Ľ à¤ª
ct ion
Ġà¤ħà¤ª à¤µ
Ġà¥¦ à¥ª
à¤ıà¤« à¤¸
à¤· à¤§à¤°
à¤Łà¤° à¤ª
Ġà¤ĵ à¤¬
Ġà¤¤ à¤²à¤ķ
Ġà¤Ł à¤¹à¤°
à¤®à¤¤ à¤²
à¤§à¤¨ à¤¹à¤°
à¤Ĺ à¤¬à¤¨
à¤ª à¤²à¤ķ
à¥¨à¥¦à¥ ¨
an t
en d
i v
Ġà¥¨à¥¦à¥¦à¥ ¬
Ġà¤Ĩ à¤ĩà¤ıà¤ķ
à¤°à¤ķ à¤°à¤£
à¤ĸ à¤°à¤®
on t
à¤¨à¤Ĺà¤° à¤²
à¥© à¥§
à¤Ī à¤ĵ
Ġà¤ĵ à¤¹
Ġ1 5
Ġà¤ľà¤¨ à¤¨
à¤² à¤ªà¤Ľ
à¤ĩ à¤Ļ
à¤ķ à¤°à¤®
Ġà¤ī à¤·
Ġà¤ª à¤¹à¤°
à¤ļà¤¥ à¤°à¤ķ
u g
à¤Ĩà¤Ī à¤¸
Ðµ Ð
à¤ªà¤° à¤µ
à¤ĸ à¤ķà¤ķ
à¤® à¤«
Ġà¤ħà¤¸à¤«à¤² à¤¤
à¤Ń à¤ļ
à¤· à¤¤à¤°
à¤µ à¤²à¤ķ
à¤ī à¤ł
à¤° à¤ĺ
à¤ľà¤¨ à¤¬
Ġà¤ıà¤ķ à¤ªà¤²
Ġà¤¸à¤¡ à¤ķà¤²
à¥¨à¥¦à¥§ à¥®
Ġà¥¨à¥¦à¥« à¥©
ĠF acebook
à¤¿ âĢ¦
Ġà¤¸ à¤°à¤¦
ur y
Ã ¬
à¤°à¤ķ à¤®
à¤« à¤¸
à¤ķà¤°à¤£ à¤¬
à¤¤ à¤¨à¤®
Ġà¤ľà¤¨ à¤¹
Ġà¤Ĺ à¤¥
Ġà¤Ĺ à¤ĩà¤¸à¤ķ
à¤ī à¤ªà¤¤
Ġà¤¨à¤Ĺà¤° à¤¸à¤Ń
à¤ı à¤¶
à¤Ĥ à¥Ī
Ġà¥¦à¥Ń à¥¨
à¤¸ à¤Ĺ
à¥© à¥«
à¤¤ à¤¥
à¤¯à¤® à¤¶
à¥į :
Ġà¤®à¤¨ à¤¨
Ġà¤¨ à¤°à¤¹à¤¨
à¤Ńà¤ªà¤¤ à¤¨
à¤¯ à¤²à¤¯
à¥Ī âĢĵ
à¤ļ à¤¹à¤°
à¥Ĥ âĢĻ
Ġà¤Ńà¤ı à¤¨à¤¨
à¤°à¤¬ à¤¦
Ġ st
à¤ħ à¤µ
Ġà¤Ŀ à¤²à¤¨
Ġà¤Ŀ à¤Ł
Ġà¤Ĩà¤Ī à¤°à¤¹
à¤¤à¤µ à¤¨à¤²
n p
à¤°à¤® à¤ľ
Ġà¤ľ à¤ª
à¥ĩ à¤¾
Ġà¤¶ à¤®à¤¶
à¤¡ à¤¸à¤®
a st
à¤ıà¤® à¤ıà¤¸
à¤ķ à¤°à¤¹à¤°
Ġà¤Ĩ à¤£à¤µ
Ġà¤¨à¤Ń à¤ĩ
ĠÐ ¿
à¤ı à¤ľà¤¸
v i
Ġà¤ı à¤¬
à¤ı à¤¤à¤ķ
à¤²à¤Ĺ à¤¢
à¤¨ à¤µà¤¤
ar m
à¥Ģ :
à¤Ńà¤µ à¤¬
ag e
à¤ľà¤¨ à¤¶
à¤Ĺ à¤¦à¤°
Ġà¤Ĩ à¤µà¤¸
Ġà¤® à¤Ł
Ġà¤ħà¤µ à¤¤
à¤® à¤Ļ
à¤² à¤Ĺà¤ķ
Ġ ..
Ġà¤¹ à¤ķà¤ķ
Ġà¤Ńà¤° à¤ª
à¤ĸ à¤¨à¤®
à¤¸à¤® à¤¯
à¤® à¤¥
Ġà¤ıà¤ķ à¤°
à¤ı à¤¸à¤ķ
ĠM ore
Ġà¤§ à¤®à¤²
on g
à¤ķ à¤°à¤¬
à¤¡ à¤¡
à¤¶à¤® à¤¶
Ġà¤Ľ à¤łà¤ķ
Ġà¤Ĩà¤ĩ à¤²
Ġà¤ı à¤ĺ
Ġà¤Ĩ à¤²à¤®
Ġà¤° à¤£à¤µ
ro id
Ġà¤ª à¤µà¤¨
à¤¯à¤ª à¤¶
à¤¤ à¤°à¤¹
à¤ĩ à¤Łà¤ķ
à¤²à¤ĸ à¤£
Ġ Â¥
Ġ! !!
Ġà¤¦ à¤²à¤¬
Ġà¤¸à¤¦ à¤¨à¤®
Ġà¤ıà¤ª à¤¬
Ñģ ÑĤ
à¤¹ à¤¯
à¤¯ à¤¡
âĢ ĭ
à¤¯ à¤ļ
Ġà¤Ĩà¤ĩ à¤ªà¤°
ĠAnd roid
Ġà¤Ĺ à¤¸
Ġà¤° à¤¨à¤°
à¤ļ à¤µà¤Ł
Ġ1 4
à¤°à¤ķ à¤ķ
or d
Ġà¤® à¤®à¤¤
à¤Ń à¤¬
Ġà¤ªà¤¦ à¤¹à¤°
à¤¯à¤¸ à¤¤à¤°
ation al
à¤Łà¤° à¤Ł
à¤ģ âĢĵ
Ġà¤° à¤Ĺà¤¤à¤ķ
Ġà¤¸à¤® à¤¤
Ġà¤Ŀ à¤®
Ġp ro
Ñ Į
à¤Ł à¤¨à¤²
Ġà¤® à¤¤à¤ķ
re d
ar t
Ġc h
Ġà¥§à¥¯ à¥ª
Ġd e
à¤ļ à¤Ĺ
à¤ıà¤® à¤¬
ury akhabar
Ġà¤ĵ à¤Ľ
à¤ıà¤« à¤ª
Â »
Ġà¤Ķ à¤ľ
it e
Ġà¤ļ à¤¹
Ġà¤ľà¤Ĺ à¤¦
à¤² à¤ľà¤¸
à¤¹à¤° à¤²
Ġà¤ĩ à¤ª
i f
à¤² à¤µà¤ķ
à¤¤ à¤ľà¤¸
à¤¹à¤° à¤ķ
à¤² à¤«
à¤µ à¤®à¤¨
Ġ1 6
Ġ #
à¤Ĺà¤¬ à¤ľ
à¤Ī à¤¸à¤ķ
ï¿½ ...
à¥ĩ '
Ġà¤¸ à¤ľà¤Ĺ
à¤°à¤® à¤ħà¤¨
Ġà¤Ī à¤¤
à¤µà¤°à¤£ à¤²
à¤ľà¤¨ à¤Ńà¤¨
Ġ is
à¤Ł à¤ķà¤®
à¤¨ à¤Ł
Ġà¤ı à¤Ń
Ġà¤ħà¤ĸ à¤¬
ĠS t
Ġà¤ĩ à¤®à¤°
à¤ľ à¤¸à¤²
à¤ī à¤¸à¤²
à¤¸à¤¨ à¤¬
b out
f o
Ġà¤° à¤¨à¤²
à¤¯ à¤²à¤®
à¤¯à¤¸ à¤ļ
à¤¨à¤¨ à¤Ĺà¤°
à¤°à¤µ à¤¹à¤¨
à¤Ń à¤°à¤ķ
ĠT witter
Ġà¤¦ à¤°à¤ķ
à¤Ĥ à¤Ĥ
à¤² à¤£
à¤Ļ à¤ľ
à¥¨à¥¦à¥ ª
Ġà¤¯à¤¸ à¤µà¤°
Ġà¤µ à¤¨à¤®
Ġà¤¦ à¤°à¤µ
Ġà¤¦à¤° à¤°
Ġà¤ļ à¤®à¤¤
Ġà¥§à¥¬ à¥«
Ġà¤¡ à¤¬à¤²
Ġà¤®à¤¹ à¤¨
à¤Ĩà¤° à¤ı
h t
à¤Ľ à¤µ
Ġà¤¯ à¤¶
à¤ī à¤¸à¤ķ
ĠNov ember
à¤Ĺ à¤«
Ġà¤¦à¤¶à¤ķ à¤Ńà¤¨
Ġà¤Ŀ à¤¡à¤ª
à¥Īà¤Ĥ ,
1 5
Ġà¤Ĩà¤ļ à¤°à¤£
ã ĥ
à¤Ļ à¤µ
ĠâĢĺ âĢĺ
Ġà¤¸ à¤¯à¤ķ
à¤ħ à¤Ŀ
à¤² à¤°à¤ķ
Ġà¤ķà¤¹ à¤²
à¥© à¥©
à¤Ł à¤ļ
à¤ĩ à¤Łà¤²
à¤¸à¤¦ à¤¬
à¤° à¤Ĩà¤®
Ġ- -
o d
à¤¨ à¤¤à¤°
à¤¯à¤¸ à¤ª
à¤¸à¤® à¤¸
à¥įà¥¤ âĢĻ
à¤Łà¤° à¤¸à¤®
ĠT V
à¤µà¤¸ à¤¹
à¤¦ à¤ķà¤¤
à¤ħ à¤Ļ
à¤¹ à¤Ļà¤ķ
à¤Ń à¤µà¤²
à¤ł à¤¸
Ġ2 4
Ġà¥¦ à¥Ńà¥«
à¤Ĩ à¤ķ
Ġà¥ª à¥¦à¥¦
à¤ķ à¤¸à¤¹
à¥į .
r squo
à¤° à¤ĸà¤°
as h
ow n
à¤¸ à¤°à¤²
à¤¸ à¤¹à¤ķ
Ġà¤¤à¤° à¤Ļ
S uryakhabar
à¤Ĩ à¤ĩà¤¸
) à¥¤
H ome
à¤µ à¤²à¤¨
Ġà¥¨à¥¦à¥« à¥®
à¤ıà¤² à¤Ĺà¤¤
at ha
Ġà¤īà¤ªà¤ķà¤°à¤£ à¤¹à¤°
Ġà¤ħ à¤²à¤®à¤²
à¤¦ à¤¹
à¤· à¤¦à¤²
Ġà¤ħ à¤ľà¤¯
Ġà¥¨à¥¦à¥¬ à¥Ń
à¥© à¥¨
Ġà¤ĭ à¤£à¤ķ
u p
à¤®à¤ķ à¤°
à¤ģ à¥Ī
à¤¸ à¤ľ
à¤¡ à¤°à¤ķ
Ġà¤¤ à¤µà¤°à¤²
Ġà¤ľ à¤Ĺà¤¤à¤®
à¥ĩ à¥ĩ
Ġà¤ĺà¤¨ à¤¶
à¤¤à¤¹ à¤¤à¤®
à¤¤à¤° à¤¸à¤®
à¥Ń à¥¨
à¤Ńà¤° à¤ª
an s
à¤« à¤¨
u d
Ġà¤ħ à¤¢
à¥ĩ Â«
à¤² à¤µà¤²
à¤ĩ à¤Ĺ
à¤ĵ à¤®
à¥į ?
Ġà¤¯ à¤®à¤ª
Ġà¤Ĺà¤¤ à¤µà¤°
à¥© à¥ª
Ġà¤¸à¤® à¤ķà¤ķ
à¤¡à¤ķ à¤ª
à¤ļà¤¨ à¤ªà¤Ľ
à¤¨ à¤µà¤ķ
à¥§à¥¯ à¥§à¥®
à¤ĩ à¤ªà¤²
Ġà¤¸à¤¡à¤ķ à¤¬
à¤°à¤¸ à¤²
Ġà¤īà¤ª à¤§
à¤¸ à¤«à¤°
à¤¯ à¤Ńà¤¨
Ġà¤ħ à¤®à¤²
à¤Ĭ à¤¨
à¥« à¥§
à¤ļà¤¨ à¤¬
e a
Ġà¤¨à¤ľ à¤°à¤®
Ġà¤ķ à¤°à¤¦
à¥§à¥¯ à¥§à¥«
à¥ĭ à¤ģ
.... ....
à¤¯à¤¨ à¤¹à¤°
à¤¯ à¤²à¤²
g le
à¤¯à¤¸ à¤µ
Ġà¥¨à¥¦à¥¬ à¥¬
Ġà¤¯à¤¸ à¤ªà¤Ľ
à¤ªà¤° à¤Ń
i es
al l
à¤µ à¤ĺ
à¤µ à¤°à¤¸
e x
à¤¨ à¤Ĺà¤°à¤®
Ġà¤īà¤ª à¤²
Ġà¤Ń à¤ĩà¤¦
Ġhttp s
Ġà¤ħ à¤¶à¤ķ
4 8
à¤µ à¤°à¤¹à¤°
c o
à¤¡ à¤¹
à¤ĩ à¤Ńà¤°
à¥Įà¤Ĥ âĢĻ
Ġà¤¹à¤ķ à¤¹
Ġà¤° à¤¥
Ġà¤īà¤ª à¤ľ
à¤¯ à¤°à¤¹à¤°
à¤ĩà¤¨ à¤°
à¤¯à¤¦ à¤²à¤ķ
à¤ĩ à¤ıà¤ªà¤Ľ
à¤Łà¤² à¤¹à¤°
Ġà¤¬à¤¹ à¤¨
i e
lo ad
Ġà¤² à¤ļ
res s
Ġà¤¥à¤ª à¤²
a j
m à¤²
à¤¬ à¤Īà¤®
à¤ł à¤¤
à¤ľà¤ķ à¤¹à¤°
Ġà¤ĸ à¤ľ
à¤ķà¤ª à¤¡
n ews
oo gle
u e
à¤ł à¤¹à¤°
à¤°à¤¬ à¤²
à¤·à¤£ à¤¬
à¤¨ à¤¢
Ġà¤®à¤¹ Ã¬
à¤ī à¤¸à¤®
à¤¦à¤¯ à¤ĺ
Ġà¤ĸà¤¬ à¤°à¤²
Ð ²
Ġà¤Ĩà¤µ à¤§
à¤¨à¤¬ à¤®
à¤ļ à¤¦
à¤¬ à¤¬
à¤¦ à¤¦à¤°
à¤²à¤¨ à¤°à¤¤
Ġà¥§à¥¯à¥® à¥¯
à¤¦ à¤¶à¤®
Ġà¤Ĩà¤ĩ à¤ľ
à¤ķ à¤Łà¤²
à¤¥ à¤ķà¤¤
à¤ı à¤Īà¤®
Ġà¤Ĩ à¤¬à¤¸
Ġà¤Ĩà¤ĩ à¤¡à¤²
à¤¸ à¤µà¤°
à¤¨ à¤§
Ġà¤°à¤ķà¤® à¤²
Ġà¤ķ à¤Ńà¤°
à¤· à¤ľà¤¨à¤ķ
à¤® à¤¨à¤ķ
Ġà¤¯à¤®à¤ª à¤ŀ
Ġà¤ĸ à¤¡à¤ķ
à¤Ĺà¤ł à¤¨à¤®
Ġ Ġ
Ġà¤¯ à¤®à¤°
Ġà¥¨à¥¦à¥« à¥¦
Ġà¤Ĺ à¤¡
Ġà¤Ĩà¤Ĺ à¤¨
Ġà¤īà¤ªà¤¦ à¤«
Ġà¥¨à¥¦à¥¦à¥ ª
r ic
à¤ħ à¤ĸ
à¤¬ à¤°à¤²
à¤ļ à¤°à¤£
Ġà¤¬ à¤ļà¤¨
ĠC h
à¤¬ à¤²à¤®
à¥® à¥®
Ġà¤ľ à¤²à¤®
Ġà¤ķ à¤ªà¤ķ
Ġà¤Ĩà¤ī à¤Ľ
Ġà¤ľà¤¬ à¤¸à¤®
à¤¯ à¤Ĺ
à¤¯à¤£ à¤¹
Ġà¤« à¤£
Ġà¤Ł à¤®
à¤ªà¤° à¤¸
Ġà¤¸à¤¹ à¤ª
à¤°à¤¸ à¤¸
? ?
Ġà¤īà¤¦ à¤ĺ
Ġà¥¨à¥¦à¥ª à¥®
à¤ıà¤¸ à¤¬
à¤¦à¤ķ à¤¹à¤°
Ġà¤ħà¤ª à¤¹à¤°à¤£à¤ķ
Ġà¤ĵ à¤¡
ar d
à¤ļ à¤°à¤²
00 0
à¤¨ à¤ľà¤¸
à¤¯à¤¤ à¤¬
Ġà¤¯à¤¸ à¤¸
à¤®à¤¸ à¤¤
à¤ķ à¤²à¤ķ
â Ĩ
Ġà¤ıà¤¸ à¤Ī
Ġ1 7
à¤¯à¤¸ à¤¯à¤¤
, '
à¤ª à¤²à¤²
à¤ľ à¤ķà¤®
Ġà¤¬ à¤ĸ
Ġà¤¶à¤¹à¤° à¤¹à¤°
a h
à¤¦ à¤ķà¤ķ
Ġà¤§à¤¨ à¤°
à¤µ à¤¯à¤ķ
1 3
à¤§ à¤°à¤ķ
à¤² à¤¤à¤°
à¤µà¤¨ à¤¯
Ġ +
à¤µà¤¸ à¤¬
à¤Ī à¤«
à¤¯ à¤ľà¤¸
à¤°à¤¹ à¤²
à¤ķà¤® à¤ľ
Ġà¤ħà¤¹ à¤®
à¤¨à¤µà¤² à¤ªà¤°
Ġà¤¤ à¤¦à¤°
Ġà¤ıà¤« à¤ı
Ġà¤¨à¤µà¤² à¤ª
Ġà¤¨à¤µ à¤ľ
ĠA n
à¤ī à¤ĸ
Ġà¤ĩ à¤·
à¤¹ à¤¤à¤ķ
à¤¥ à¤²à¤²
à¤Ń à¤µà¤ķ
Ġà¤Ĳ à¤°
ha m
à¤Ī à¤ĺ
à¤Ń à¤µà¤¨
à¤Ĩ à¤¦à¤°
Ġà¤² à¤ĸà¤¨
à¤¦ à¤ķà¤²
ĠCom ments
à¤ª à¤¸à¤²
Ġà¤¬ à¤²à¤ķ
Ġà¤¬ à¤¹à¤°
Ġà¥§à¥¯ à¥«à¥¦
à¤Ī à¤¸à¤®
Ġà¤¡ à¤¨
Ġà¤Ĩà¤ĩ à¤ıà¤®à¤Ī
à¤Ł à¤ªà¤Ľ
à¤µà¤Ń à¤°à¤ķ
à¤ķ à¤¨à¤®
à¥Ģ à¤ĥ
à¤¹à¤²à¤ª à¤¹à¤²
Ġà¥§à¥¯à¥¯ à¥®
à¤ľ à¤¸à¤ķ
à¤¬ à¤§
à¤®à¤ķ à¤¥
à¤ı à¤²à¤ķ
à¤°à¤µ à¤²
à¤ľà¤¨ à¤¸
à¤ľà¤® à¤£
à¤¡ à¤°à¤®
Ġà¤ļ à¤¹à¤²à¤ªà¤¹à¤²
p an
Ġà¥§à¥Ń à¥©
à¤µ à¤¤à¤²
d u
à¥ģ, âĢĻ
à¤¤ à¤ªà¤¤
Ġà¥¨à¥¦ à¥¦à¥¦
à¤¸ à¤¸à¤¹
à¤¢ à¤¤
Ġà¤¹à¤Ļà¤ķ à¤Ļà¤²
Ġà¤¦à¤¶ à¤°à¤¥
Ġ19 9
Ġà¤² à¤¬
à¤ķà¤® à¤°
à¤°à¤ļ à¤²à¤¨à¤®
2 4
à¤¯ à¤µà¤°
à¤°à¤¤ à¤µ
à¥Įà¤Ĥ :
Ġ3 0
âĢį .
à¤¦ à¤®à¤ķ
Ġà¤¤à¤Ł à¤¬à¤¨
Ġà¤ıà¤¸ à¤ıà¤®à¤ıà¤¸
ag arm
à¤ħ à¤¨à¤²
Ġb e
à¥Ī âĢĻ
à¥Ĥ )
Ġà¤¨à¤Ĺà¤° à¤µ
Ġà¤Ĩà¤ĩ à¤¡
à¤¸ à¤¶à¤¸
Ġà¤Ń à¤¯à¤ķ
à¤¤à¤¨ à¤ªà¤Ľ
à¤ĸ à¤¡
agarm atha
à¤¸ à¤°à¤¸
Ġà¤¸à¤¡à¤ķ à¤¹à¤°
âĢĮ à¤Ĥ
à¤² à¤Ńà¤°
à¤ŀ à¤²
à¤¤à¤ľà¤¨ à¤¹à¤°
à¤®à¤Ĺà¤° à¤²
Ġà¤®à¤¨ à¤¹à¤°
Ġà¤Ī à¤ļ
à¤ı à¤¬
O R
à¤ĩ à¤ķà¤°
Ġà¤ļ à¤®à¤ķ
Ġà¤ī à¤¨à¤®
à¤®à¤¶ à¤°à¤£
à¤® à¤ŀ
ic e
à¤¯à¤£ à¤ª
à ¨
à¤Ĺà¤° à¤²
à¤µ à¤ħà¤§
Ġà¤Ĩà¤® à¤ľà¤¨à¤¤
à¤µà¤¨ à¤Ńà¤°
à¥§à¥¯ à¥¯
own load
Ġà¤ĺ à¤°à¤²
Ġà¤¸à¤¦ à¤°
Ã ©
Ñ ĩ
Ġà¤¨ à¤īà¤ł
à¤¬ à¤ļ
Ðµ Ð½
à¤ĺ à¤£
Ġà¤°à¤ķà¤® à¤®
Ġà¤Ĩà¤¯ à¤Ĩà¤°
Ġà¤· à¤¡à¤¯à¤¨
i th
Ġà¤¨ à¤ĩ
Ġà¤ĸà¤¬ à¤°à¤¦
à¤ª à¤ķà¤ķ
il l
2 1
à¤¤ à¤Ĺ
à¤¦ à¤²à¤²
à¤°à¤ļ à¤¢
Ġà¤ªà¤¦ à¤ª
Ġà¤ı à¤ħ
Ġà¥¨à¥¦à¥« à¥¨
Ġ Y
à¤²à¤¬ à¤°
Ġà¤ªà¤ķ à¤¡
Ġà¤Ĺà¤¡à¤¬ à¤¡
à¤° à¤ħ
Ġà¤Ĩ à¤ıà¤®
Ġà¤ħà¤µà¤¸ à¤°à¤¹à¤°
Ġ Ñģ
Ġa pp
à¤Ĩà¤Ī à¤ª
Ġ1 3
Ġ ad
à¤¦ à¤ĺ
Ġà¤ıà¤¨ à¤Ĩà¤°à¤ı
à¤ĩà¤ķ à¤²à¤ķ
Ġà¤¸ à¤¶
Ġà¥¨à¥¦à¥¦à¥ «
à¥Įà¤Ĥ à¥¤âĢĻ
à¤ħ à¤²à¤Ĺ
Ġà¤¸à¤¤ à¤¹à¤¬
à¤ľà¤¦ à¤°à¤®
2 8
ĠO n
Ġà¤ł à¤Ł
Ġà¤¸ à¤°à¤¦à¤°
à¤· à¤µ
Ġà¤¦ à¤²à¤®
Ġà¥¨à¥« à¥¦
Ġà¤¸à¤¤ à¤¹à¤®
à¤Ī à¤ļ
Ġ *
Ġà¤ħ à¤¬à¤°
à¥Ń à¥¦
à¤Ĺ à¤¯
à¤Ł à¤Ń
Ġp ost
à¤¯à¤¸ à¤Ńà¤¨
Ġà¤ľ à¤¯à¤ª
à¤¹ à¤ľà¤¨à¤ķ
à¤ĵ à¤Ł
Ġà¤ıà¤« à¤ıà¤®
Ġà¤ķà¤¸ à¤°à¤¤
Ġà¤Ĩà¤ĩà¤°à¤¹ à¤¨
ac k
à¥© à¥¬
Ġà¤¤ à¤²à¤®
Ġà¤ıà¤ķ à¤¤à¤°
Ġà¤Ĩà¤¬ à¤¶
à¤¦ à¤¬à¤¹
à¤¹ à¤¨à¤ķ
Ġà¤« à¤¤
à¤¤à¤¨ à¤ª
à¤¥ à¤ķà¤¹à¤°
à¤ł à¤¶
à¤¡ à¤°à¤²
à¤¨ à¤ªà¤¤
à¤ķ à¤«
Ġà¤¶ à¤¤à¤ª
à¤¾à¤ģ âĢĵ
à¤Ĩ à¤ĩà¤ª
à¤īà¤ª à¤ª
à¤²à¤¬ à¤¸
à¤ıà¤¨à¤Ĩà¤°à¤ıà¤¨ à¤ı
a in
à¥ĭ âĢĿ,
Ġà¤¸à¤® à¤²
à¤Ĩ à¤²
Ð¾Ð ²
à¥¤ à¥¤
r t
Ġà¤¨ à¤°à¤¸
Ġà¤¨à¤ª à¤¢
Ġà¥¦ à¥§
à¤¨ à¤µà¤°
à¤²à¤¨ à¤ªà¤Ľ
Ġà¤° à¤£
0 8
Ġà¤® à¤²à¤ķ
à¤°à¤ª à¤¥
Ġà¤ļà¤²à¤¨ à¤ļà¤²
l ic
Ġà¤¬à¤¢ à¤¨
Ġà¥§à¥§ à¥¦
Ġà¤ıà¤¨ à¤ľ
Ġà¤® à¤²à¤®
à¤¬ à¤¤à¤ķ
à¤ļ à¤ĸ
u st
ĠÐ ²
n t
Ġà¤ª à¤¤à¤¨
à¤Ĩ à¤ĩà¤Ń
à¤¯ à¤ħà¤¨
Ġà¤¯à¤¸à¤ªà¤Łà¤ķ à¤ķ
à¤ķ à¤£
à¤ı à¤Ľà¤¨
Ġà¤ł à¤¡
à¤ªà¤° à¤²
Ġà¤®à¤¦ à¤¤
à¥« à¥«
Ġà¤Ńà¤ı à¤¦
à¤Ŀ à¤£
Ġà¤ī à¤«
Ġà¤¬ à¤²à¤²
à¤ľà¤¸ à¤°
Ġà¤ħà¤µ à¤Ĺà¤¤
à¤Ńà¤°à¤¤ à¤ª
à¤ª à¤Łà¤ª
Ġà¤¨ à¤Ĺà¤°à¤®
Ġà¤ļ à¤£
à¥® à¥¦
Ġà¤Ĩà¤® à¤°à¤£
à¤°à¤® à¤¦
à¤£à¤¯ à¤¬
____ ____
Ġà¤Ŀ à¤¸
Ġn ews
à¤¨ à¤¯à¤®
à¤¿ ?
à¤®à¤ķ à¤°à¤£
4 6
Ġà¤¨ à¤«
Ð ¼
Ġà¤ľ à¤ĺà¤¨
à¤Ĺà¤® à¤¨à¤²
Ġà¤Ĩà¤Ī à¤ľ
0 9
à¤ª m
à¤¸ à¤¸à¤ķ
Ġ com
à¥ģ à¤¾
à¤Ī à¤¶
à¤¸à¤® à¤¯à¤®
Nepal M
Ġà¤°à¤ķà¤® à¤¬
Ġà¤Ī à¤ľ
Ġà¤¬à¤¹ à¤¸à¤ķ
à¤Ī à¤¨à¤²
i z
Ġà¤ľ à¤Ĺà¤®
à¥Ń à¥¯
Ġà¤Ĩà¤ĩ à¤Ł
à¤°à¤¤ à¤¤
Ġà¤®à¤¹ÅĴ à¤µà¤ª
Ġà¤ ¿
à¤Ĺ à¤ªà¤¤
à¤Ĺ à¤ľà¤®
Ġà¤ı à¤Ĺ
NepalM other
Ġà¤Ĺà¤° à¤ķ
à¤· à¤¨
ter n
i al
Ġà¤Ńà¤ı à¤ľà¤¸
à¤Ī à¤Łà¤®
à¤Ĺà¤ľ à¤ªà¤¤
Ġà¤¤ à¤²à¤µ
Ġà¤ı à¤ļà¤ķ
Ġà¤¹à¤¡ à¤¤
à¤¶ à¤ļà¤¨
à¥ĭ |
y a
Ġà¤µ à¤¯à¤¸
à¤µ à¤ªà¤Ľ
Ġà¤¨à¤¹ à¤Ł
à¤ľ à¤¬à¤¹
à¥Ń à¥§
à¤ ½
Ġà¤¯à¤¸ à¤¤à¤°
Ġ Ø
à¤µà¤¨ à¤¬
à¤¿ /
Ġà¤¸ à¤¨à¤®
Ġà¤Ĩà¤ı à¤ªà¤¨
à¤¾âĢĻ ,
r y
Ġà¤¹ à¤µà¤²
Ġà¤¤ à¤¦
Ġà¤° à¤Ĺà¤¤à¤®
à¤ı à¤ħà¤¨
à¤¡ à¤¯
Ġà¥¨à¥¦à¥ª à¥Ń
A R
à¤ļ à¤¶
à¤¹ à¤²à¤®
à¥ĭ, âĢĿ
à¤ļ à¤²à¤¨
Ġà¤¨à¤ķ à¤Ĩà¤īà¤Ł
à¥ĭ !
Ġà¤« à¤Ł
Ġà¤¦à¤¶à¤ķ à¤ķ
Ġà¤ªà¤¸à¤² à¤¹à¤°
2 5
Ġà¤ĸ à¤ļ
à¤ªà¤° à¤°
Ġà¤Ł à¤²
à¤¶ à¤ķà¤®
à¤ķà¤Ł à¤¤
ĠÂ «
à¤° à¤¡
à¤¤à¤° à¤Ļ
Ġà¤ľà¤¸ à¤ħà¤¨
Ñ ħ
Ġ j
Ġà¤®à¤¹ à¤²
à¤ľà¤Ĺ à¤ŀ
Ġà¤§à¤¨ à¤¬à¤¹
à¤ļ à¤ķà¤ķ
à¤Ł à¤®à¤ķ
à¤ļ à¤¤à¤®
Ġà¤ħà¤¨ à¤Ĺ
à¥į à¥Ĥ
r om
Ġà¤ı à¤ıà¤«à¤¸
Ġà¤ĵ à¤®à¤ª
ĠO ff
ï ¼
à¤Ł à¤¸à¤²
à¤ı à¤¨à¤¸
Ġin fo
Ġà¤¸à¤¦ à¤Ń
Ġà¤ħà¤¬ à¤¸à¤°à¤®
Ġà¤¸à¤¹ à¤ļ
à¥į à¤¾à¤¾
à¤¤à¤° à¤¸
à¤ķ à¤²à¤®
Ġà¤¬à¤¢ à¤¦
à¤¸à¤¹ à¤Ń
as s
à¤°à¤¸ à¤°à¤¤
Ġà¤ıà¤ļ à¤Ĩà¤ĩà¤Ń
à¤ħ à¤µà¤¸
à¤¨ à¤°à¤²
à¥ĭ Â¥
à¤ıà¤® à¤¸
à¤Ĺ à¤ŀ
à¤¸à¤¹ à¤¯
à¤¯ à¤ªà¤°
Ġà¤¦à¤® à¤ķà¤²
20 18
à¤§ à¤¯
à¥¯ à¥®
à¥ĩ, âĢĻ
à¤Ĺà¤²à¤® à¤¯
Ġà¤ħ à¤ķà¤²
Ġa s
Ġà¤¨à¤Ĩ à¤ī
à¤¦ à¤°à¤¬
à¤²à¤ķ à¤®
à¤¨ à¤ľà¤¨à¤ķ
à¤ıà¤ķ à¤¤
à¤¡ à¤ķà¤²
Ġà¤ı à¤¬à¤®
Ġà¤Ķ à¤§
Ġà¤Ĳ à¤ķ
or m
Ġà¤ħ à¤²à¤®
Ġà¤¹ à¤ļ
à¤¥ à¤Ĺà¤¨
à¤Ī à¤ªà¤Łà¤ķ
Ġà¤¹ à¤¨à¤¨
Ġà¤Ľ à¤¦
Ġà¤ª à¤Ļ
Ġà¤¥ à¤®
à¤² à¤Ńà¤¨
Ġ2 5
à¤ľ à¤¯à¤¨
Ġà¤¸à¤® à¤µ
à¤Ĺ à¤µà¤¤
Ġà¥¤ )
Ġà¤ķà¤¥ à¤¨
à¤¯ à¤ľà¤¨à¤ķ
à¤Ĩà¤Ī à¤¬
Ġà¤Ĩ à¤·
Ġà¤ªà¤°à¤® à¤ª
à¤²à¤¬ à¤ļ
à¤® à¤¥à¤²
Ġà¤īà¤ª à¤ķà¤°à¤£à¤ķ
à¤¤à¤¨ à¤Ĺà¤°
e ar
Ġà¤®à¤ĸ à¤®à¤²
Ġà¥¨à¥¦à¥« à¥¯
ir st
à¤ļà¤ķ à¤¹à¤°
à¤ıà¤® à¤ı
à¤ļ à¤°à¤ķ
Ġà¤Ĩà¤ľ à¤ķà¤²
Ġà¤ıà¤ķ à¤ļ
Ġà¤ķà¤ł à¤ĺà¤°
e st
à¤°à¤µ à¤ļà¤¨
.... ..
Ġ or
à¤ī à¤¹à¤°
à¤¨à¤® à¤§
Ġà¤¬à¤¸ à¤²
à¤²à¤¯ à¤ħà¤¨
à¤ıà¤¸ à¤ľ
à¤® à¤Ŀ
Ġà¤¬à¤¹ à¤¸à¤®
Ġà¤Ĺà¤£ à¤¤
à¤°à¤ª à¤Ł
Ġ! âĢĻ
à¤Ŀ à¤¬
à¤łà¤® à¤£
à¤Ĺ à¤¹à¤¨
ĠÂ ·
à¥¨à¥¦à¥¨ à¥§
Ġà¤¸à¤ķ à¤¸
à¤¸ à¤¸à¤²
à¤µ à¤¦à¤¨
à¤¦ à¤°à¤®
à¤¨ à¤µà¤®
ic le
ä ¸
à¤Ľ à¤¤
à¤² à¤ĺ
à¤µ à¤°à¤¤
à¤ħ à¤¶
Ġà¤²à¤Ĺ à¤¨à¤¶
Ġà¤¨à¤Ńà¤ı à¤ªà¤¨
Ġà¤ªà¤¹ à¤²à¤ķ
à¤¶ à¤²à¤¤
à¥Ī -
Ġà¤«à¤² à¤¦
Ġà¥¨à¥¦à¥¬ à¥¦
Ġà¤Ĺ à¤ĩà¤¨
ĠOn line
Ġà¤§ à¤¨à¤®
Ġà¥¨à¥¦à¥« à¥¬
à¤¶ à¤°à¤£
ĠS ep
à¤ĩà¤¨ à¤²à¤ķ
Ġà¤ªà¤Łà¤ķ à¤¸à¤®
à¤¡ à¤ħà¤¨
à¥ģ âĢĿ
Ġà¤¹ à¤Ĺ
ĠÐ ¸
i ve
à¤¬ à¤¨à¤®
à¤¸ à¤µà¤²
lo g
à¥¤ "
Ġà¤¤à¤¬ à¤¸à¤®
à¤ıà¤¸ à¤¨à¤ķ
Ġa bout
Ġà¤ı à¤Łà¤²
Ġ un
à¤¹ à¤£à¤ķ
Ġ! âĢĿ
2 9
à¤¨ à¤«
Ġà¤ª à¤Łà¤¨
à¤Ĺà¤¤ à¤²
à¤¯à¤ľ à¤Ĺà¤¤
ĠG oogle
0 5
Ġà¥¬ à¥¦à¥¦
Ġà¤ħà¤° à¤¨
à¤¦ à¤°à¤ķ
à¤¤ à¤²à¤®
Ġà¤¸à¤¹ à¤¸
Ġà¤Ľ à¤¡
à¥Ģ "
à¤ľ à¤¡
Ġà¤ķà¤²à¤ķ à¤¤
Ġà¤² à¤ł
Ġà¥¨à¥¦à¥¦à¥ ©
Ġ201 6
Ġà¥¨à¥¦à¥¦à¥ ¨
à¤¾ à¤¿
à¤¾à¥ĩ à¥¤
Ġà¤° à¤«
Ġà¤Ĩà¤¯ à¤°à¤²
à¤§ à¤°à¤£
Ġà¤ıà¤¸à¤Ī à¤Ī
à¥į âĢĿ
Ġà¤Ĺà¤ľ à¤²à¤®
ar th
à¤ķ à¤ľà¤¸
à¤¯ à¤¤à¤°
Ġà¤° à¤ľà¤¨
à¤Ĺà¤® à¤ŀ
Ġà¤¦à¤² à¤¸
Ġà¤ı à¤¨à¤ª
Ġà¤ķà¤° à¤¬
ĠNepal i
à¥ĭ âĢĶ
à¤µà¤ª à¤¶
à¥ĩ âĢĿ
à¤µà¤¸ à¤¤
à¤¸ à¤°à¤¬
à¤µ à¤¦à¤²
à¤Ĺ à¤¨à¤ķ
à¥ĩâĢĵ âĢĺ
à¤°à¤¸ à¤ĺ
ac h
à¥Ĥ à¥¤
Ġà¤ªà¤¦ à¤¸
Ġà¤Ľ à¤Ł
Ġà¤®à¤¤ à¤ª
à¤£ à¤Ĺ
i b
à¤² à¤ħà¤¨
à¤Ĺ à¤¤à¤°
Ġà¤¨à¤Ń à¤ıà¤®
à¤ķà¤Ł à¤¤à¤®
à¤ĸà¤ķ à¤¹à¤°
id e
Ġà¤Ī à¤ķ
à¥ĭ à¤ĥ
à¤¤ à¤ľà¤¨à¤ķ
à¥© à¥®
à¤§à¤¨ à¤Ĺà¤°
Ġà¤ķ à¤°à¤®
à¤¡ à¤ľ
er ic
Ġà¤µ à¤§
8 1
Ġ >>
à¤Ł à¤¬à¤¨
à¤Ń à¤ı
à¤ī à¤ªà¤¯
à¤ıà¤ļ à¤¡
à¤·à¤¦ à¤®
à¤°à¤¬ à¤¦à¤²
Ġà¤ħà¤ª à¤Ń
Ġà¥¤ âĢ¦
à¤īà¤¨ à¤¦
à¤¤à¤¨ à¤¹à¤°
à¤¸à¤¦ à¤¸
Ġà¥¤ ,
Ġà¤² à¤µ
* *
Ġà¤¸à¤ķ à¤°
Ġà¤Ĩà¤ī à¤ľ
à¤¸ à¤¶
à¥« à¥¬
Ġà¤¡à¤² à¤°à¤®
Ġà¤ĵ à¤ĩà¤°
à¥ĭ .....
à¥Ī )
Ġà¤ªà¤° à¤¶
à¤Ĩ à¤°à¤ķ
Ġà¤ħà¤¸à¤¹ à¤¯
Ġà¤¬à¤ľ à¤Ĺ
Ġà¤¯ à¤°
Ġà¥¨à¥¦à¥¬ à¥§
Ġà¤¹ à¤Ļ
à¤¾ !
Ġà¤ľà¤® à¤ĺà¤Ł
Ġà¤¸à¤ĺ à¤¨
Ġà¤Ĩà¤¶ à¤Ļ
Ġà¤ķ à¤Ļ
Ġà¤ĺ à¤°à¤§à¤¨
à¤²à¤¯ à¤¦
E R
à¤Ĺà¤² à¤¸
à¤¾ Ã·
ĠÐ ½
à¥© à¥¯
à¤īà¤¦ à¤¯à¤ª
is h
Ġà¤ Ļ
à¤¨ à¤°à¤ķ
Ġ20 7
Ġy ou
à¤® à¤¦à¤¨
Ġà¤ªà¤° à¤¸
ĠD ownload
un g
p r
Ġà¤Ĩ à¤¯à¤ķ
Ġà¤ħà¤ª à¤¹à¤°
Ġà¤ķà¤² à¤°
Ð ´
à¤Ł à¤¡
Ġà¤ļ à¤ķà¤²
à¤¶à¤¨ à¤ªà¤Ľ
à¤¸ à¤ªà¤Ľ
à¤ıà¤¨ à¤ľ
Ġà¥§ à¥¦à¥§
à¤Ĩà¤Ī à¤ıà¤ļ
à¤®à¤Ĺ à¤ł
at h
Ġ =
à¤ĵ à¤°
Ġà¤Ńà¤µà¤¨ à¤¹à¤°
-- -
Ġà¤° à¤Ļà¤ķ
à¤ī à¤¤à¤ķ
Ġà¤¦à¤¶à¤ķ à¤ħà¤ĺ
Ġf irst
à¤² à¤°à¤®
Ġà¤ķ à¤¶
à¤¯à¤¸ à¤¸
Ġà¤ĸ à¤¶
à¤¯à¤µ à¤¶
Ġà¤® à¤ł
Ġà¤® à¤¦à¤°
Ġà¤µà¤° à¤¦
à¤Ĺà¤¤ à¤¦
à¤ªà¤ķ à¤¹à¤°
Ġ20 6
g ov
2 3
Ġà¤ľ à¤«à¤¤
à¤ł à¤Ĺ
à¤¥ à¤ķà¤°
Ġà¤¸à¤®à¤¯ à¤ħà¤¨
Ġà¤¨ à¤Ļ
à¤°à¤µ à¤£
Â ·
à¤¨à¤ķ à¤²
à¤Ń à¤ħà¤Ļ
Ġà¤ĺà¤Ł à¤¸
Ġà¤Ĺà¤° à¤Ĺà¤¹à¤¨
ĠP l
à¤¿ '
à¤· à¤¯à¤°
à¤¯à¤¤ à¤ª
à¤®à¤¸à¤® à¤°
à¤¤ à¤¤à¤°
à¤Ńà¤µ à¤¹à¤°
à¤®à¤¤ à¤¦
Ġà¤Ń à¤ŀ
à¤ħ à¤Ľ
Ġà¤ķà¤® à¤¸
à¤Ļ à¤²à¤Ĺ
à¤¯à¤® à¤¨à¤ķ
Ġà¤Ĺà¤Ī à¤°à¤¹
Ġà¤¦ à¤¯à¤¨
Ġà¤ª à¤Ĺ
à¥¨à¥¦à¥§ à¥Ń
à¤ī à¤Ĺ
Ġà¤¡ à¤¸
à¤¾à¤ģ ...
à¤ŀ à¤°
à¤ļ à¤ľà¤¨
à¤¸ à¤°à¤¹
Ġà¥¤ [
Ġà¤Ńà¤ı à¤²à¤Ĺà¤¤
à¤ł à¤ª
à¥¬ à¥§
à¥ģà¤ģ à¥¤
à¥ ľ
Ġà¤Ĩà¤ªà¤¤ à¤ķ
| |
Ġà¤¬ à¤®à¤ķ
l d
ĠN E
à¤ĺ à¤¬
à¤¬ à¤Ĺà¤°
à¤²à¤¨ à¤ª
à¤¹à¤¦ à¤°à¤µ
à¥Ī ;
f t
à¤¬ à¤Ńà¤¨
Ġà¥¨à¥¦à¥« à¥§
à¤¯à¤¤ à¤¸
v er
à¤°à¤£ à¤µ
ĠÐ ¾
à¤¡ à¤§
à¤ĩ à¤¡à¤ķ
Ġà¤® à¤¨à¤®à¤¨
à¤ľà¤¨ à¤ª
e e
i an
à¤¤ à¤¶
Ġà¥¤ âĢĺ
à¤Ń à¤°à¤®
p l
Ġà¤¸à¤®à¤¯ à¤Ń
à¤² à¤°à¤²
Ġà¤¸à¤® à¤¥à¤°
à¤ļ à¤¯à¤ķ
Ġà¤ħà¤¸à¤® à¤Ŀà¤¦
à¤Ĥ à¥¤
Ġà¥¤ &
Ġw ith
Ġà¤ħ à¤ķà¤¸
Ġà¤¡ à¤£
s h
à¤¨ à¤¯à¤ķ
à¥¬ à¥¯
Ġ>> >
Ġà¤ª à¤¥à¤°
à¤ľ à¤°à¤®
à¤ĩ à¤ľà¤ķ
à¤Ĩ à¤¸
à¤Ŀ à¤²
à¤µà¤° à¤ª
à¤¨à¤² à¤²
e re
à¥ĩ âĢĮ
Ġà¤ľà¤Ĺ à¤¤à¤ķ
: -
à¤· à¤¦à¤°
Ġ .....
Ġà¤ĸ à¤µà¤°
Ġà¤Ĩà¤¶ à¤¯
à¤¹ à¤¸à¤®
2 2
Ġà¤¸ à¤¯à¤®
à¤ľ à¤¯à¤ª
Ġà¤¡à¤Łà¤ķà¤® à¤®
à¥į à¥Ģ
à¤¦ à¤¯à¤ķ
à¤¯à¤¤ à¤¥
à¥¬ à¥®
Ġà¤µ à¤¯
al u
Ġ ha
Ġà¤¨ à¤µà¤¦
à¤ĩ à¤¸à¤®
à¤¯ à¤¡à¤Ńà¤¨
Ġà¤¤ à¤ķ
à¤°à¤¶ à¤®à¤¶
à¤® à¤¤à¤°
à¤Ł à¤¸à¤¹
d c
à¤°à¤¤ à¤¤à¤°
Ġà¤¨ à¤¸à¤°
à¤£ à¤ªà¤¨
à¤²à¤¨ à¤¸
à¤Ĺà¤« à¤Ĺ
à¤²à¤ķ à¤°
à¤Ļ à¤¸à¤®
à¥Įà¤Ĥ âĢĶ
à¤¾ ..
à¤ı à¤Łà¤°
on e
~ ~
à¤¦ à¤²à¤¯
à¤¤à¤® à¤§
Ġà¤Ĩà¤® à¤¸à¤ŀ
à¤Ńà¤° à¤Ļ
: :
D F
à¤Ł à¤¹
Ġà¤¬ à¤Ĺà¤°
Ġà¤ľ à¤¯à¤°
à¤ī à¤¡à¤°
à¥¯ à¥¦
à¤ĩà¤² à¤¹à¤°
à¤ĩ à¤ĵ
Ġà¤ħà¤¦ à¤Ń
Ġà¤Ĩ à¤®à¤®
à¤łà¤ķ à¤ªà¤Ľ
à¤Ļ à¤ª
Ġà¤¨ à¤°à¤¬à¤¹
à¤Ļ à¤¯
Ġà¤² à¤¥
Ġà¤ĺ à¤ļ
à¥ĭà¥¤ âĢĿ
à¥¬ à¥Ń
à¤Ĺ à¤¹
à¤ĸ à¤§à¤°
à¤¨ à¤²à¤ķ
Ġà¤ı à¤¡à¤®
el l
à¤Ĩ à¤ªà¤¸à¤®
ar y
Û Į
Ġà¤ĵ à¤ł
u re
à¤¤à¤¨ à¤¶
or g
Ġà¤ħà¤ªà¤¨ à¤¤
Ġ Ù
à¥¬ à¥«
à¤¨à¤® à¤¸
i re
à¤Ĺ à¤¸à¤¹
Ġà¤Ĳà¤¨ à¤ħà¤¨
à¤ķ à¤Ľ
à¤¯à¤® à¤¸
à¤¶ à¤ľ
à¤¸ à¤ĸ
Ġà¥§ à¥¦à¥®
Ġà¤ĭ à¤£à¤®
à¥« à¥©
à¤Ĩ à¤ĩà¤¬
Ġà¤¨à¤ª à¤ł
Ġà¤®à¤¦ à¤¨à¤ķ
y s
à¤Ĩ à¤µà¤¶
ð Ł
à¥įâĢ Ķ
Ġà¤Ľà¤²à¤«à¤² à¤ªà¤Ľ
à¤Ĺ à¤Łà¤¨
à¤¨ à¤¯à¤¤
à¤¯à¤¸ à¤ħà¤¨
à¤ķà¤² à¤¨à¤®
à¤¿. ),
ig ht
h et
Ġà¤ıà¤¨ à¤Ł
i o
Ġ an
à¤°à¤ķ à¤°à¤£à¤ķ
à¤²à¤ķ à¤¬
à¥į à¤ģ
Ġà¤ķ à¤ªà¤®
à¤® à¤ħà¤¨
Ġà¤¨ à¤«à¤°
Ġ: -
âĨ Ĵ
2 6
Ġà¤µ à¤¨à¤¬
à¥įâĢĮ à¥¤
Ġà¤¹ à¤ł
à¥Ń à¥Ń
à¤¶à¤¨ à¤¹à¤°
ea red
Ø ±
Ġà¥¨à¥ª à¥¦
à¤ĭ à¤·
Ġà¤ı à¤¤
à¤§à¤¨ à¤¸
r ad
0 4
Ġà¤Ŀ à¤ķ
à¤§ à¤ªà¤Ľ
à¤ıà¤¸ à¤ıà¤®
Ġà¤ĵ à¤ĸ
à¤° à¤Ļà¤®
à¤°à¤¹ à¤¦
Ġà¤¹à¤ķ à¤¸à¤®
Ġapp eared
âĢ¢ âĢ¢
à¤Ł à¤Ł
Ġà¤Ŀ à¤²à¤ķ
à¤ĩà¤ķà¤² à¤²
à¤®à¤Ĺà¤ł à¤¬à¤¨
Ġà¥¦ à¥¯
à¤Ĺà¤£ à¤¤à¤¨
à¤¦ à¤¸à¤®
à¤ĩ à¤ıà¤®
à¥Ī à¥į
Ġà¤¬ à¤Łà¤¨
à¤ī à¤ªà¤®
ĠS agarmatha
à¤¬ à¤ĸ
Ġà¤¸à¤¨ à¤°
à¤¯à¤£ à¤²
Ë Ĩ
à¤ıà¤« à¤ı
à¤° à¤¶à¤¨
Ġà¤® à¤¯
à¤®à¤¨ à¤Ĺà¤°
Ġà¤ľà¤² à¤ľà¤²
à¤¤ à¤ļà¤°
à¤§ à¤¶
Ġà¤ľ à¤µà¤°
Ġà¤®à¤¹ à¤Ļ
Ġà¤Ĩà¤ĩ à¤¸à¤²
à¤ª à¤£à¤ķ
Ġà¤ļ à¤¸
Ġà¤ħà¤µ à¤¹
Ð° Ð½
à¤¤à¤¨ à¤¹
à¤Ł à¤«à¤°
Ġà¤µ à¤®
à¤Ī à¤¨à¤²à¤®
à¤¯à¤² à¤Ĺ
à¥ª à¥¬
à¥¦à¥Ń à¥¨
2 7
à¤ĸ à¤ª
in d
0 6
Ġà¤ħà¤° à¤¬à¤ķ
Ġà¥¨à¥¦à¥¦à¥ §
Ġà¤ıà¤ķ à¤¥à¤°
Ġà¥¨à¥¦à¥¨ à¥¨
ĠR ok
Ġà¤« à¤Ľ
Ġà¤ħà¤µà¤¸ à¤°à¤²
à¤µà¤ª à¤Ł
à¤¤ à¤¸à¤¹
à¥ĭ :
am p
Ġà¤ıà¤ķà¤¸ à¤¯
à¤¸à¤¨ à¤¸
à¤¤à¤® à¤¬
à¤¯à¤¸ à¤¦
Ġà¤Ŀ à¤¡à¤ªà¤®
Ø§ Ù
à¤ľ à¤¤à¤²
à¤ī à¤ªà¤ļ
à¤µ à¤Łà¤ķ
à¤¡ à¤°à¤¸
Ġà¤¨à¤Ĺ à¤ıà¤ķ
à¤¦ à¤²à¤®
à¤Ń à¤¨à¤®
à¤¸à¤² à¤Ĺ
à¤°à¤¨ à¤Ĺà¤°à¤®
à¤īà¤ª à¤Ń
Ġà¤ļà¤°à¤£ à¤¬
à¥¯ à¥¯
à¤² à¤Ĺà¤®
à¤Ł à¤²à¤Ĺ
Ġà¤ļ à¤Ļ
Ġa re
à¤² à¤Ŀ
es in
à¤¸ à¤§
" ,
Ġà¤¬ à¤¦à¤®
à¤ħ à¤¬à¤ķ
Ġà¤² à¤¯à¤®
Ġ r
à¤ĩ à¤ķà¤¨
Ġà¤¹ à¤¬
Ġà¤ĺ à¤Łà¤ķ
à¤ķà¤² à¤Ĺ
à¤ķà¤¡ à¤Ń
het ri
à¤° à¤Ł
à¤ĺ à¤ļ
à¥ª à¥§
Ġà¤ħà¤¨ à¤Ń
eric a
Ġà¤Ĩà¤¦ à¤°à¤£
c k
Ġà¤®à¤¤ à¤ªà¤°
à¤ıà¤¸ à¤¸
Ġà¤ªà¤¸ à¤²à¤ķ
à¤¯ à¤Ĺà¤¤
res ham
à¥Įà¤ģ -
!! !
ĠRok a
l alu
Ġà¤¨ à¤ķà¤°
à¤Ī à¤µ
Ġà¥® à¥¦à¥¦
à¤ģ âĢĻ
Y esin
à¥« à¥®
Ġch hetri
à¤¸à¤¦ à¤°à¤®
à¤£ à¤¤à¤°
à¤£ à¤¸à¤®
Ġà¤ĵ à¤ĸà¤°
Ġà¤§ à¤¸
Ġà¤ĵ à¤ķ
Ġà¤Ĩ à¤¯à¤¸
à¥į âĢĻ,
ĠP ost
Ġà¤ĩ à¤¬
Ġà¤¦ à¤ĸ
à¤® à¤µà¤°à¤£
Ðµ ÑĤ
ast er
A N
Ġà¤®à¤¹ÅĴ à¤µ
à¤¶ à¤¬à¤¹
à¤Ł à¤Ńà¤¨
à¤ļ à¤¸à¤®
à¤Ĺ à¤ľà¤ķ
à¤¶ à¤¸à¤®
a w
à¥ģ '
Ġà¤ĸ à¤¬à¤°à¤®
ĠS h
à¤¤ à¤ĸ
Ġà¤¨à¤Ĺà¤° à¤¬
Ġà¤Ńà¤¯ à¤µ
à¥ĭ /
Ġ ï¿½
à¤ı à¤ıà¤«à¤ª
à¤Ł à¤®à¤®
à¤µà¤°à¤£ à¤¹à¤°
à¥¬ à¥¬
g e
Ġà¤ľ à¤²à¤¯
à¤° à¤°à¤¤
à¤® à¤°à¤ķ
à¤īà¤¨ à¤¸à¤®
à¤²à¤¯ à¤¸à¤®
à¤¯à¤£ à¤Ĺ
Ġ11 48
à¤īà¤¨ à¤¸à¤ķ
à¤¨ à¤¤à¤²
à¤ľ à¤¯à¤²
à¥Ĥ à¥Ĥ
à¤ķà¤® à¤§
à¤ľà¤² à¤µ
s s
Ġ Ã
à¤² à¤¢
à¤· à¤¸à¤¹
Ġà¤ħà¤¨ à¤°
Ġà¤ķà¤¦ à¤®à¤²
à¤£ à¤¦
Ġà¥¨à¥¦à¥« à¥«
Ġw h
Ġà¤® à¤·
a z
Ġà¤¬à¤² à¤¤
Ġb y
à¤° à¤Ĺà¤¢
à¤° à¤¨à¤®
à¥ĭ âĢĮ
Ġà¤ħà¤²à¤® à¤²à¤®
à¤® à¤µà¤°
Ġà¤¸à¤¹à¤° à¤¹à¤°
à¥Ī à¤ĥ
Ġà¤°à¤¹ à¤ķ
à¤°à¤¤à¤ķ à¤¥
Ġà¤µ à¤ľà¤¨
à¤Ļ à¤Łà¤¨
à¤¯à¤ª à¤¦
à¤ł à¤¬
ar pan
à¤¬ à¤¨à¤ķ
Ġà¥§ à¥¦à¥«
Ðµ ÑĢ
à¤ĩ à¤¡à¤®
à¥ģ à¥¤âĢĻ
à¤µ à¤¤à¤°
à¤ı à¤«à¤ķ
Ġà¤Ń à¤ĩà¤°
à¤¸ à¤Ĺà¤°à¤®
Ġà¤ħà¤¨ à¤ª
à¤µà¤¸ à¤Ń
à¥ª à¥®
Ġà¤ĵ à¤¶
ï ģ
Ġà¤Ĩà¤ľ à¤Ńà¤¨
ĠN ational
à¤µ à¤¶à¤ķ
à¤Ĺà¤® à¤¸
à¤Ĺà¤¬ à¤£
Ġà¤Ĩ à¤ķà¤²à¤¨
Ð ¿
Ġ @
à¤µà¤¸ à¤²
à¤¶ à¤ªà¤Ľ
à¤ī à¤Ń
ĠP ro
à¤¸ à¤¤à¤ķ
à¤®à¤£ à¤²
nd ash
Ġ à¥ģ
Ġà¤µ à¤·
à¥ĢâĢĻ ,
Ġ al
Ġ at
Ġà¤¨ à¤¥
à¤· à¤¶
ĠP DF
Ġ5 0
à¤ĩ à¤¬à¤²
Ġà¤®à¤¹Ã¬ à¤µà¤ª
ËĨ à¤¨
Ġà¤ħ à¤µà¤®
Ġà¤ĸ à¤µ
Ġà¥§à¥¯à¥¯ à¥Ń
Ġà¤Ĩ à¤°à¤¤
à¥ ħ
à¤¯ à¤ĺ
Ġà¤ķà¤® à¤®
à¥© à¥Ń
I N
Ġà¤ ¾
Ġà¤Ĩ à¤ıà¤¸
Ġà¤Ŀ à¤¡
à¤¤à¤°à¤¤ à¤°
Ġà¤ıà¤¨ à¤ıà¤®à¤¬
à¤īà¤ª à¤¡
à¤® à¤¦à¤°
Ġà¤¤à¤¹ à¤¸
à¤Ńà¤Ĺ à¤µ
ac t
à¥ģ âĢ¦
à¤¾à¤Ĥ à¤ģ
Ġà¤¸à¤¯ à¤¦
e bs
I T
à¤¹ à¤¡
ĠD is
à¤Ł à¤ħà¤¨
Ġà¤µ à¤¨à¤²
à¤Ĩ à¤ī
à¤§ à¤ľà¤¨
Ġà¤§ à¤ª
Ġà¥Ń à¥¦à¥¦
à¤¿ à¥ĩ
à¤ı à¤Ŀ
Ġà¤ľ à¤ķ
Ġà¤ļ à¤¯à¤¨à¤ķ
à¤²à¤¬ à¤ľ
à¥ª à¥¨
N ov
Ġà¤Ĺà¤ł à¤µà¤¨
Ġ19 8
Ġà¤ª à¤°à¤ķ
à¤¡ à¤Ĺ
Ġà¥§à¥§à¥© à¥¯
à¤¶ à¤Ļ
à¤¯à¤ķ à¤°à¤£
à¤¹à¤Ļà¤ķ à¤Ļ
e ct
à¤® à¤ªà¤¤
ĠÐ º
l l
à¤® à¤¨à¤²
à¤°à¤ľ à¤¹
à¤°à¤« à¤²à¤ķ
Ġà¤ħà¤¬ à¤¦
à¤¬ à¤Īà¤ķ
à¤¬ à¤®à¤ķ
Ġà¤ħà¤¨à¤¶à¤¨ à¤°à¤¤
Ġà¥§à¥¨ à¥¦
ĠÐ ´
à¤¾ Â¥
Ġà¤¦ à¤Ļ
à¤Ń à¤ŀ
à¤¡à¤ķ à¤ªà¤ķ
à¤¼ à¤¾
Ġà¤¸à¤¨ à¤¸à¤¨
à¤¯ à¤¬à¤¦
Ġà¤ķ à¤¸à¤®
Ġà¤ľà¤¨ à¤ħà¤§
à¤Ĩ à¤ĸ
Ġà¤¦à¤¶à¤ķ à¤¸à¤®
Ġà¤Ľà¤ł à¤ªà¤°
à¤« à¤¸à¤²à¤®
à¤¯à¤¸ à¤ªà¤Łà¤ķ
à¤°à¤ľ à¤¹à¤°
à¤¨ à¤ļà¤°
à¤Ī à¤Ĺ
à¥į !
à¤ĸ à¤²à¤¨
Ġà¤¨à¤Ĺà¤° à¤²
Ġà¥§à¥¦ à¥¦à¥¦
à¤« à¤Ł
ur b
à¤Ĺ à¤£à¤®
à¤ĵ à¤ĸà¤²à¤¢
à¤ĩ à¤Ĺà¤°
Ġn ar
en s
Ġà¤ħà¤ªà¤¹à¤° à¤£à¤®
à¤ı à¤ĩà¤ķ
à¤¸ à¤Ĺà¤¢
à¤Ł à¤ķà¤²
à¤¯à¤Ł à¤¨à¤®
à¤¬ à¤¦à¤¨
à¤ħ à¤Ł
Ġà¤Ŀ à¤²à¤ķà¤¹à¤°
à¤®à¤¨ à¤¸
Ġà¤ĸ à¤°à¤²
à¤ł à¤°
à¥ĩ âĢĶ
Ġà¤¨ à¤®à¤¨
Ð¾ ÑĢ
Ġà¤¸à¤® à¤·
A L
il e
ĠM ar
à¤¨ à¤Ńà¤ıà¤ķ
Ġà¤Ĩ à¤ĺ
à¤Ĩà¤Ī à¤Ń
à¤¦à¤¨ à¤ħà¤¨
Ġà¤ķ à¤¨à¤ķ
à¤Ĩ à¤ª
Ġà¤ıà¤¨à¤Ĩà¤°à¤ı à¤¨à¤ķ
Ġf rom
Ġà¤« à¤°à¤µ
Ġth is
Ġà¤ħà¤ª à¤¹
à¤ļ à¤²à¤²
à¤®à¤Ĺ à¤°à¤ķ
Ġ201 5
à ¹
Ġà¤ĺ à¤®à¤£
à¤§à¤¨ à¤µ
à¥ī à¤Ĥ
à¤¤ à¤Ĺà¤°
id arpan
Ġnar idarpan
f orm
à¤ķ à¤Ńà¤¨
Ġà¤Ĩ à¤¡
à¤²à¤¨ à¤¹à¤°
à¤¯à¤² à¤¯à¤®
à¤£à¤¤ à¤¯
a i
Ġà¤§ à¤µà¤²
Ġà¤Ĩà¤Ī à¤¤à¤µ
ar i
? )
Ġà¤¸ à¤µà¤²
à¤ľà¤¨ à¤¯
à¤°à¤¬ à¤ķ
à¤·à¤£ à¤¸à¤®
Ġà¤ıà¤® à¤ı
Ġà¤ıà¤« à¤ª
Ġà¤² à¤®à¤¹
Ġà¤ı à¤¥
ag s
à¤¤ à¤ªà¤Ľ
Ġ201 4
à¤Ĺ à¤®à¤®
Ġà¤ĩ à¤Łà¤²
Ġà¤«à¤°à¤ķ à¤«à¤°à¤ķ
ab le
à¤Ľ à¤²
à¤£à¤¯ à¤ħà¤¨
Ġà¤Ľ à¤¨à¤ķ
Ġà¤ĩ à¤«
à¥ª à¥ª
à¤ĩ à¤ıà¤²
Ġà¤ªà¤Łà¤ķ à¤¥
Ġth at
à¤« à¤ª
à¥® à¥©
à¤²à¤Ĺ à¤¬
Ġà¤ħà¤¸à¤® à¤°
a v
à¤ı à¤¶à¤¨
in k
à¤¬ à¤ĸà¤¤
à¤®à¤¤ à¤¸à¤®
à¤·à¤¦ à¤¬
Ġ $
à¤¸ à¤¢
à¤ª à¤¯à¤ķ
Ġà¤Ĺ à¤²à¤ķ
Ġà¤ħà¤µà¤¸ à¤°à¤µ
Ġà¤¸à¤¦ à¤¨à¤ķ
à¤¸à¤® à¤Ĺ
Â °
ĠâĢ ł
Ġà¤¬ à¤¬à¤Ī
Ġà¤ı à¤¯à¤°à¤¬
y m
à¤¸ à¤°à¤£
à¤ĩ à¤£
à¥¨à¥¦à¥ ©
à¤® à¤Ł
Ġà¤µ à¤¹à¤¨
à¤¶ à¤ħà¤¨
o b
à¤£ à¤§
à¤£ à¤ļà¤¨
or k
à¤¹ à¤ªà¤Ľ
à¤Ĩ à¤°à¤¸
à¤§à¤¨ à¤ªà¤Ľ
Ġad d
Ġà¤² à¤Ł
à¤¾. ),
à¤ķ à¤ļ
Ġc on
Ġà¤¨ à¤°à¤¹à¤°
Ġl e
Ġà¤¤ à¤Łà¤¸
à¤§à¤ķ à¤¹à¤°
à¤¦ à¤°à¤¹à¤°
Ġà¤ı à¤¯
Ġà¤ıà¤ķ à¤Ĩà¤ªà¤¸à¤®
Ġà¤ħà¤¸ à¤ľ
à¤¸ à¤°à¤¤
à¤Łà¤¨ à¤°
Ġà¤Ĳ à¤²
à¤ľ à¤«
Ġà¤ķà¤® à¤²à¤ª
ĠA ug
à¤ħà¤« à¤Ĺ
à¤·à¤£ à¤µ
à¤¸à¤¹ à¤®à¤¤
à¤¹à¤°à¤£ à¤¹à¤°
Ġà¥§à¥¬ à¥¯
Ġà¤ħà¤¬ à¤§
k habar
à¤¢ à¤ķ
à¤Ĺ à¤§à¤¨
Ġà¤Ĩ ËĨà¤¨
à¤¤à¤° à¤¨
à¤°à¤® à¤ª
Ġà¤ļ à¤¡
à¤¯à¤Ł à¤¨à¤²
, ...
à¤° à¤Ľ
à¥ª à¥Ń
Ġ2 9
à¤ķ à¤¸à¤Ń
à¥Įà¤ģ âĢĻ
rt icle
à¤¤à¤¨ à¤¸
Ġ2 8
ĠV i
c c
à¤² à¤ł
Ġà¤¶ à¤¸à¤ķ
à¥ĭà¥¤ '
r u
Ġà¤ľ à¤²à¤¬
Ġ20 5
Ġ it
à¤¥ à¤¨à¤ķ
Ġ2 3
Ġà¤Ĺ à¤Ľ
à¤ļ à¤¯à¤ķà¤°
Ġà¤ıà¤ķ à¤¨
Ġà¤ľà¤¨ à¤ĺ
à¥į, '
Ġà¥§à¥¨ à¥®
Ġà¤Ī à¤¯
à¤Ĩà¤° à¤Ĩà¤Ī
à¤¥ à¤ķà¤²
Ġà¤Ń à¤Ļ
à¤ĺ à¤°à¤¬
á ŀ
à¤Ľ à¤¸
à¤Ļ à¤¤à¤°
Ġà¤Ĩà¤µ à¤°à¤£à¤®
ĠK habar
Ġà¥¨à¥¦à¥« à¥Ń
Ð° ÑĤ
à¤¸ à¤ªà¤¨
à¤Ļ à¤ļ
à¤ĺ à¤¦
à¥įâĢ ¦
Ġà¤°à¤¹à¤° à¤²
Ġà¤Ł à¤¯
Ġà¤ķà¤Ł à¤¹à¤°
Ġà¤ķà¤¦ à¤®à¤ķ
Ð ±
Ġà¤ıà¤¨ à¤Ĩà¤Īà¤¸
Ġà¤ľà¤² à¤ª
à¤ı à¤Īà¤²
Ġà¥§à¥¬ à¥¦
Ġe x
à¤²à¤® à¤£
à¥ª à¥©
à¤§ à¤¸à¤®
à¤Łà¤° à¤Ńà¤¨
Ġà¤¸à¤¤ à¤¹à¤¦
ont in
h ar
Ġà¤¯à¤¸ à¤¸à¤®
Ġà¥§à¥© à¥¨
Ġà¥¤ -
Ġà¤ªà¤¦ à¤Ń
Ġà¤ľà¤Ĺ à¤¨
Ġs p
à¤Ń à¤ıà¤Ľ
Ġà¤Ķ à¤°
ĠS am
à¤¾ âĢĶ
à¤ı à¤ĩ
Ġà¤īà¤ª à¤Ĺ
à¤§ à¤µà¤ª
Ġ2 7
à¤ļ à¤ķà¤¨
à¤ĩà¤¨ à¤¸
à¤¨à¤¬ à¤¤
à¤£à¤¯ à¤ª
à¤Ĩà¤« à¤¨
Ġà¥§à¥ª à¥¦
à¤Ĭ à¤°
m other
Ġà¤° à¤¡
ebs ite
à¤«à¤¸ à¤²à¤ķ
b r
à¤¸ à¤Ńà¤¨
à¤Ł à¤®à¤²
a re
à¤°à¤¦ à¤¤
à¤¦ à¤ķà¤°
à¤°à¤Ń à¤ķ
A T
à¤§ à¤ķà¤°
à¥ª à¥¯
à¥į, âĢĿ
à¤ıà¤¸ à¤ı
Ġà¤¸à¤¹à¤¨ à¤¶
à¤µà¤¨ à¤¦
Ġ i
à¤¸à¤® à¤µ
à¤ħ à¤¡
ic al
is k
à¤· à¤§à¤ķ
à¥įà¥¤ âĢĿ
un d
Ġà¤Ĺ à¤ıà¤®
à¥į à¤ĥ
à¤ľà¤¨ à¤¹à¤°
Ġ2 6
à¤ľà¤¤ à¤ªà¤¤
à¤¬ à¤°à¤¬
à¤¶à¤¨ à¤¸à¤®
Ġà¤Ľà¤²à¤« à¤²à¤²
Ġà¤ĵà¤Ń à¤°à¤ķ
Ġ2 1
à¤ľà¤Ĺ à¤¨
Ð¾Ð ¼
an k
Ġà¤¬ à¤«
à¤¾à¤ģ )
à¤ľà¤® à¤°
Ġà¤ĭà¤£ à¤ªà¤¤
Ġà¤¨ à¤Ŀ
à¤£à¤ķ à¤¦à¤ķ
à¤¯à¤µ à¤§
ex t
Ġà¤ĩ à¤¥
âĢ¦ .
à¤¾ à¥ĩ,
Ġà¤ľà¤¨ à¤§à¤¨à¤ķ
Ġ âĨĴ
Ġà¤ıà¤ļ à¤Ĩà¤Īà¤Ń
Ġ en
à¤¸ à¤ľà¤¸
à¤Ī à¤¨à¤®
à¤Ĺà¤² à¤Ĺ
nepal mother
3 1
à¤¯à¤® à¤£
à¤²à¤® à¤¨
à¤Ļ à¤ĸ
Ñ İ
Ġà¤ľà¤¨ à¤¶
à¤ķà¤°à¤£ à¤¸
à¤Łà¤¨à¤Ĺà¤° à¤²
Ġà¤¨à¤Ĩ à¤ıà¤ªà¤Ľ
Ð½ Ñĭ
Ġà¤¸à¤® à¤Ŀ
Ġà¤¸à¤° à¤¸à¤®
Ġà¥¦à¥Ń à¥¦
Ġà¤ı à¤Ĩà¤Īà¤ľ
à¤°à¤¹ à¤£à¤ķ
à¤ª à¤¬à¤¹
Ð¾Ð »
ĠIn tern
Ġà¤ħ à¤¥à¤ķ
Ġp ric
à¤¶ à¤¹
Ġà¤® à¤łà¤®
Ġà¤µ à¤Ĺ
Ġà¤ĸ à¤ķ
à¤°à¤®à¤£ à¤ªà¤Ľ
à¥į |
à¤Ī à¤¬à¤°
Ġà¤Ĩà¤µ à¤¤
à¤ªà¤¨ à¤¬
Ġà¤Ĩà¤ĩ à¤ıà¤®
Ġà¤Ńà¤ı à¤ħà¤¨
à¤°à¤ķ à¤¹à¤°
Ġà¤ħà¤¸ à¤¤
Ġà¥§ à¥¦à¥ª
Ġà¤ĩ à¤¯
à¤°à¤£ à¤®à¤§
à¥¬ à¥¨
à¤ķà¤° à¤¶
ĠÐ¿ ÑĢ
à¤ļ à¤µà¤°
el ist
à¤Ŀ à¤Ĺà¤¡
re vi
à¤ı à¤Łà¤°à¤®
Ġà¥§à¥¯à¥¯ à¥¬
à¤ħ à¤ļ
à¥į, âĢĺ
Ġà¤ªà¤Ł à¤ķà¤®
à¤° à¤¡à¤ķ
à¤¹ à¤²à¤¤
Ġà¤ªà¤¹à¤²à¤ķ à¤¦à¤®
p d
à¥ĭ ..
à¤¤ à¤Ĺà¤¤à¤ķ
Ġà¤¯à¤¸à¤® à¤§
Ġà¤ħà¤¸ à¤°à¤²
à¤ķà¤° à¤ª
Ġà¤ħà¤° à¤¬à¤®
à¤ĩ à¤Łà¤°
Ġà¤ľà¤¨ à¤Ĺ
à¤²à¤¬ à¤¹à¤°
Ġà¥§à¥¨ à¥«
à¥į '
à¤ķ à¤ł
à¤² à¤°à¤¹
Ð¾Ð ´
Ġà¤¦à¤®à¤ķ à¤®
à¤¸ à¤ªà¤°
Ġà¤Ńà¤ı à¤¸à¤®
Ġà¥§à¥¯à¥® à¥¦
à¤ı à¤Ń
Ġà¤¦ à¤Ĺ
à¥¬ à¥ª
Ġà¤¨ à¤µà¤®
Ġà¤Ľ à¤¥à¤°
Ġà¤Ĩà¤° à¤ľ
ul t
à¤īà¤ªà¤® à¤¹
at or
? âĢĿ
Ġà¤¨ à¤¯à¤¨
à¤ĸ à¤ļ
Ġà¥§à¥¯à¥¯ à¥¯
Ġà¤ı à¤²à¤°
Ġà¥§à¥¯à¥¯ à¥ª
ĠO ct
Ġà¤¹ à¤ķà¤²
à¤ģ ,âĢĻ
Ġà¤Ī à¤ª
à¤Ī à¤°à¤¹à¤¨
Ġ2 2
Ġà¤ĭ à¤ļ
à¤°à¤ķ à¤µ
à¤Ļ à¤¹
du ction
ï¼ Į
à¤§ à¤ķà¤ķ
à¤¾à¤ģ à¤Ĥ
à¤Łà¤ķ à¤®à¤ķ
Ġ Q
à¥ĭ "
à¥Ī /
Ġà¤¨ à¤µà¤¯
Ñ Ĩ
à¤Ĺ à¤Ļ
Ġ' '
5 0
Ġà¤¯à¤¸ à¤Ńà¤¨
Ġà¤ĺà¤° à¤ª
Ġà¤Ĩà¤ł à¤µà¤Ł
à¥į âĢĿ,
à¤Ł à¤ªà¤Łà¤ķ
Ġà¤Ĩ à¤¯à¤®
Ġà¤² à¤Ļ
Ġà¤ľà¤¨à¤ĺ à¤¨à¤¤
à¤¢ à¤²
revi ous
p t
à¤ı à¤²à¤®
Ġà¤Ĩà¤ĩ à¤°
Ġà¤Ĺà¤£ à¤ªà¤¤
Ġpric elist
Ð ³
à¤ī à¤¦à¤²
à¤¹à¤° à¤®
à¤ĩ à¤µà¤Ł
à¤ī à¤ªà¤¨
Ġà¥§ à¥¦à¥©
Ġà¤¨ à¤¸à¤®
Ġà¤¶ à¤¸à¤¸
à¤¤à¤µà¤¨ à¤¬
N o
Ġà¤ĺ à¤°à¤µ
à¤¯à¤® à¤µ
ort al
à¤½ à¤½
à¤ļà¤¨ à¤¸à¤®
à¤ľà¤² à¤¸
ĠT r
à¥ĩ !
Ġà¤Ĩ à¤¯à¤ķà¤°
à¥« à¥Ń
à¥ĭ, ...
à¤µà¤¦ à¤¹
à¥Įà¤ģ, âĢĻ
à¤īà¤¨ à¤¬
à¤¦à¤¨ à¤ª
Ġà¤Ĩà¤ĩ à¤¡à¤²à¤ķ
---- ----
Ġà¤ĺ à¤®
à¤¸à¤¨ à¤°
à¤¬ à¤®à¤®
Ġà¤Ń à¤Łà¤®
ac e
Ġà¤¤ à¤µà¤°à¤¬
Ġà¤ħà¤° à¤µ
el i
à¤¯à¤² à¤¯à¤ķ
Ġà¤ķà¤² à¤¶
Ð ¹
Ġà¤Ķ à¤¸à¤¤à¤®
à¤°à¤£ à¤¤à¤¯
à¥Įà¤Ĥ âĢĻ,
à¥§ à¥¦à¥®
à¤ĵ à¤ª
à¤Ĩ à¤īà¤¨
Ġà¥¤âĢĻ âĢĻ
à¤¯à¤Ł à¤¨à¤®à¤¨
Ġà¥¦à¥Ń à¥§
à¤¾ ]
Ġà¤ħ à¤Łà¤²
Ġà¤ħà¤¬ à¤¸à¤°
à¤ªà¤² à¤Ł
an c
ontin ue
à¤ĺ à¤¬à¤¹
à¤°à¤µ à¤¤
Ġà¤² à¤ª
à¤¨à¤¸ à¤¹à¤¨
à¤Łà¤¨à¤Ĺà¤° à¤¬
à¤ľ à¤¬à¤ķ
à¤¬à¤° à¤¸à¤®
on d
Ġà¤¦à¤¶à¤ķ à¤ªà¤Ľ
Ñģ Ðº
à¤· à¤°à¤®
Ġà¤ħà¤¨ à¤µà¤°à¤¤
Ġà¤ħà¤Ń à¤¦
à¤¦ à¤¯à¤®
à¤ľà¤¨ à¤ľ
à¤·à¤ķ à¤¬
a ve
à¤¸ à¤¤à¤°
à¤Ļ à¤°
à¤Ń à¤²à¤ķ
Ġà¤Ķ à¤·à¤¤
à¥¦à¥¬ à¥©
à¤ıà¤ķ à¤ľà¤¨
Ġà¤¦ à¤¸à¤®
Ġà¤§ à¤¡
à¤®à¤² à¤Ł
Ġà¤ī à¤ĺ
à¤¡à¤² à¤¹à¤°
Ġ ....
Ġà¤Ĩ à¤Ĭ
à¥¨à¥¦à¥Ń à¥§
à¤¯ à¤¶à¤ķ
Ġà¤µ à¤¹à¤¸
Ġ1 00
à¤īà¤ª à¤Ĺ
à¤® à¤Ńà¤¨
Ġà¤ĩ à¤¡
er t
à¤°à¤µ à¤¹
à¤¿à¤Ĥ à¤ģ
ĠR isk
à¤Ĺ à¤¨à¤²
à¤¬ à¤¸à¤®
à¤ĩ à¤®à¤°
à¤ĩ à¤«à¤²
Ġà¤ķà¤® à¤¸à¤²
à¤² à¤¥
ĠDis aster
v el
à¤ķ à¤§
Ġà¤ī à¤¸à¤®
à¤Ł à¤²à¤¬
à¤® à¤²à¤²
Ġà¤ħà¤¹ à¤®à¤¦
Ġà¤¥ à¤°à¤ķ
à¤ıà¤¸ à¤Ł
à¤² à¤µà¤¨
Ġà¥¦ à¥¨
à¤¤ à¤Ńà¤¨
à¤¤à¤² à¤Ĺ
Ġà¤ķ à¤Ľ
à¤ıà¤¸ à¤¨à¤²
Ġ us
à¤ģ '
Ġ( ?)
Ġà¤Ĩà¤Ĺà¤®à¤¨ à¤¸
à¥į à¤¿
à¥ĩ "
Ġà¤ľà¤² à¤¶
ĠE mail
à¤ľ à¤ªà¤°
à¤¦à¤¨ à¤¬
Ġà¤ľà¤¯à¤¨ à¤Ĺà¤°
à¤¤ à¤«
à¤ĸ à¤Ĺ
Ġà¤¨à¤Ĺà¤¦ à¤¸à¤¹
à¤° à¤ªà¤°
à¤¶ à¤¯à¤¯
Ġà¤ı à¤ħà¤°
Ð» Ð¸
à¤¬ à¤ªà¤¤
à¤Ĩà¤° à¤ıà¤²
Ġà¥§à¥¯à¥¯ à¥«
à¥Ī âĢ¦
Ġà¤® à¤ľà¤ª
Ġà¤° à¤£à¤¬à¤¹
Ġà¥¦à¥ª à¥¬
U S
ĠE x
ĠU S
. )
Ġà¤¸à¤® à¤¶
Ġs end
à¤¿ âĢĿ
Ġà¤¡ à¤Łà¤ķà¤®à¤ķ
Ġà¤¸à¤°à¤¹ à¤ķ
ĠRe duction
à¤Ŀ à¤¸à¤®
Ġà¥§à¥¯à¥¯ à¥©
Ġà¤ħà¤ĸ à¤¡
Ġà¤ıà¤¡ à¤Ń
Ġà¤ĸ à¤¹à¤°
à¤¼ à¥į
Ġà¤¯ à¤®à¤¨
' s
à¤ķ à¤ķà¤²
Ġà¤ªà¤¢ à¤¨
Ġadd ress
à¤ķ à¤¸à¤²
Ġà¤°à¤¹ à¤¨à¤¸à¤¹à¤¨
ok ar
à¤ı à¤²à¤²
at ed
à¥« à¥ª
Ġp l
Ġà¤ªà¤¸à¤² à¤¬
Ġread ing
O N
Ġ201 1
Ġ ;
Ġà¥§à¥¯à¥Ń à¥¦
à¤Ļ à¤¤
à¥Īà¤ģ ,
Ġà¤¸à¤¹à¤ľ à¤°
T ags
Ġà¤ĵ à¤¨à¤¸à¤°
à¤µ à¤ħà¤¨
à¤ªà¤° à¤¹
Ġà¤Ľà¤° à¤Ľ
à¤® à¤°à¤®
à¤ľà¤¨ à¤²à¤Ĺ
à¤ĺ à¤¨à¤ķ
Ġà¤Ĩà¤ĩ à¤°à¤¨
Ġà¤Ī à¤Ł
Ġ X
à¤® à¤¨à¤®
à¥ģ /
Ġ201 3
Ġ up
Ġà¤µ à¤ļ
à¤ĸ à¤ľ
à¤ĩà¤¨ à¤¹à¤°
à¤Ĩ à¤Īà¤ķ
Ġà¤ıà¤ķ à¤®à¤¤
à¤® à¤¤à¤®
Ġà¥¦à¥¬ à¥¨
Ġà¤® à¤¥
à¤²à¤¬ à¤¬
Ġà¤¬ à¤²à¤¬à¤¹
à¤¡ à¤¨à¤¸
Ġ19 7
à §
Ġà¤®à¤² à¤ľà¤²
à¤°à¤ļ à¤¨à¤ķ
ĠU n
à¤® à¤ªà¤Ľ
à¤¡ à¤ªà¤¤
vi ews
u al
à¥¤ âĢĵ
à¤ĺ à¤¹à¤°
ip ur
à¥ĩ :
à¤°à¤£ à¤¯
Ġà¥¨à¥¨ à¥¦
à¤¤ à¤²à¤ķ
à¤§ à¤ĸ
à¤¶à¤¤ à¤¬
à¤ħ à¤ľ
... ]
à¤¨à¤¯ à¤¨à¤®
à¤ĸ à¤°à¤ķ
Ġà¤ĵà¤ªà¤¨ à¤°
Ġà¤Ľ à¤¬
o h
à¤¯à¤® à¤§
à¤¸ à¤ĺ
à¤¨à¤² à¤¹à¤°
Ġà¤¨à¤Ĺà¤° à¤ªà¤°
à¤Łà¤¬à¤² à¤°
à¤® à¤Ľ
à¤ı à¤®à¤ķ
à¤° à¤Ĺà¤°
à¤ª à¤ľ
on ym
c on
à¤Ł à¤ľà¤°à¤²
à¤°à¤Ń à¤°à¤ķ
ĠPl an
Ġy our
à¤« à¤µ
à¤Ĳ à¤¤
à¤ĩ à¤ľà¤¨
à¤¯à¤® à¤¦
à¤¨à¤² à¤¬
Ġà¤ħà¤® à¤°à¤¸
à¤Ī à¤ªà¤ķ
ĠÐ ¼
Ð¸ ÑĤ
à¤Ł à¤ħà¤ª
à¤¦à¤¨ à¤¸
à¤ı à¤«à¤²
Ġà¤ħà¤µ à¤ľ
ub e
à¤ķ à¤¸à¤°
Ġà¤° à¤£à¤¬
à¥Ģ Ã·
à¤ĩ à¤¡à¤²
Ġà¤¶ à¤¯
à¤Ĺà¤¤ à¤µà¤°
à¤¯à¤¯à¤¨ à¤¬
Ġà¤Ľà¤²à¤« à¤²à¤¬
o ft
Ġà¤°à¤¹ à¤¯
Ġà¤ĩ à¤Ļà¤²
Ġà¤Ĩà¤¯ à¤¤à¤°
Ġà¤Ĩà¤Ī à¤Ł
Ġà¥§à¥® à¥¦
Ġà¥§à¥¯à¥¬ à¥¬
onym ous
à¤ĩ à¤²à¤¬
Ġà¤¸à¤¬ à¤¸
Ġà¤¹ à¤²à¤ķ
Ġà¤ıà¤ħ à¤°à¤ª
à¤ķ à¤ķà¤®
à¤·à¤£ à¤ªà¤Ľ
à¤¬ à¤Ĺ
ĠP ol
à¤¤ à¤¸à¤°
Ġà¤Ĩà¤® à¤¸à¤Ń
Ġà¤² à¤«
à¤°à¤® à¤°
à¤¸à¤¨ à¤µ
à¥į ;
Ġà¤ķ à¤°à¤²
Ġà¤° à¤ľà¤¸
à¤¨à¤µ à¤¶
t ember
à ´
Ġà¤ıà¤² à¤ª
. ,
Ġà¤Ĩà¤ł à¤¬
à¤¤ à¤ľà¤¨à¤²
à¤Łà¤® à¤§
à¤ı à¤Ĺ
Ġà¤¹ à¤¯
à¤ĩà¤¨à¤² à¤¸à¤®
à¤¯ à¤·
Ġà¤®à¤łà¤® à¤¨
à¤¸à¤® à¤²
âĢĻ âĢĻ
à¥« à¥¦à¥¦
Ġà¤¬à¤Ĺ à¤°à¤®
T he
à¤Ł à¤°à¤¦
Ġà¤Ĩà¤ĩ à¤®
à¤¯ à¤¯à¤ķ
à¤ĩ à¤Ľ
Ġà¥§ à¥¦à¥¯
Ġ %
Ð¾Ð ³
à¤ķ à¤¨à¤²
à¤ıà¤¸ à¤ıà¤²
re e
Ġ ÑĤ
Ġà¤ħà¤¨ à¤¶à¤¨à¤®
à¤¤à¤¨ à¤¬
à¥ģ âĢĮ
à¤Ł à¤¸à¤ķ
Ġà¤« à¤Ĺà¤¤
à¤¨à¤µ à¤ľ
à¤¸à¤® à¤°
Ġà¤Ī à¤°
à¤¯à¤£ à¤®
A rticle
Ġà¤ļ à¤Łà¤ķ
à¤ıà¤¨ à¤¡
Ġ qu
Ġà¥§ à¥¦à¥¨
er v
à¤¾à¤ģ à¤ģ
à¤¨à¤ª à¤Łà¤ķ
3 9
s e
Ø§ Ø
Ġà¤¦à¤¸à¤® à¤²à¤µ
à¤Ń à¤£
Ġà¤ķà¤® à¤²à¤°
ĠAn onymous
E E
à¤® à¤¬à¤²
Ġà¤ªà¤° à¤µ
Ġà¤ĩ à¤¯à¤°
ĠP urb
I n
Ġ ðŁ
à¥ĩ à¤ĥ
Ġà¤¬ à¤®à¤²
à¤²à¤¨ à¤¸à¤®
Ġà¤¦à¤® à¤¨à¤ķ
ia f
ĠPurb eli
m à¤¯
Ġà¤ħà¤² à¤µ
Ġà¤Ĩà¤Ī à¤ıà¤®à¤Ī
à¤¤à¤° à¤Ĺà¤¤à¤ķ
Ġà¥¯à¥® à¥«à¥§
Ð ·
Ġà¤¨ à¤ľà¤¨
à¤ĩ à¤¤à¤®
com ments
Ġà¥¨à¥¦à¥© à¥«
em ail
s p
à¥į à¤Ĥ
à¤° à¤ªà¤¨
à¤°à¤¨ à¤Ĺà¤°à¤ķ
Ġà¥¨à¥¦à¥¨ à¥®
Ġà¥¨à¥¦à¥© à¥¬
Ġà¤¡à¤Ł à¤ķà¤®à¤²
æ ľ
Ġà¤ĺà¤° à¤¸à¤®
Ġà¤¨à¤Ĩ à¤ı
Ġà¤¦à¤®à¤ķ à¤ķ
à¤ŀ à¤®
à¤Łà¤² à¤°
Ġà¤Ń à¤·
Ġà¥¤à¥¤ à¥¤
n g
Ġà¤ķà¤¦à¤® à¤¹à¤°
n a
Ġà¤ĸ à¤Ĺà¤°
Ġà¤¹à¤² à¤¹à¤°
o g
à¤¶à¤Ń à¤°à¤¬
à¥Įà¤Ĥ ...
à¥® à¥«
al k
à¤¯à¤¯ à¤¤à¤°
Ġà¤ıà¤« à¤¥
à¤¶à¤¶ à¤°à¤£
à¤¯à¤® à¤¤
Ġà¥¯ à¥¦à¥¦
Ġà¤® à¤°à¤£
Ġà¤® à¤ľà¤¸
à¥¤ [
Ġà¤ı à¤ªà¤®
Ġà¤ľà¤Ĺ à¤¦à¤®
ĠâĢĵ âĢĺ
Ġà¤®à¤Ļ à¤ª
Ġ arth
Ġà¤¤ à¤®à¤²
à¤Ī à¤Ńà¤¨
à¤·à¤¯ à¤¬
Ġà¤Ĺ à¤®à¤²
Ġà¤° à¤ĸ
à¤¬ à¤Ŀ
Ġ? ,
Ġà¤ľà¤µà¤° à¤ľà¤¸
à¤łà¤ķ à¤¸à¤®à¤ķ
Ã ¡
à¥į &
à¤¯ à¤°à¤¸
Ġà¤ıà¤¸ à¤ıà¤¸à¤¬
à¤ķà¤Ń à¤°à¤ķ
à¤· à¤¯à¤¸
à¤¡ à¤¨à¤²
à¤¦ à¤¨à¤¨
as ar
à¤ªà¤ķ à¤¤
Ġà¤¹à¤ķ à¤¦
à¤µ à¤¯à¤²
Ġà¤¹à¤² à¤ļà¤²
Ġà¤ħ à¤ļà¤²
an ce
à¤Ĳ à¤¨
N E
Ġà¤¸ à¤·
Ġà¤® à¤ª
à¥« à¥¯
Ġà¥§à¥¯à¥¬ à¥¦
à¤¿ "
Ġ[ ...]
Ġa g
5 3
P revious
à¥§ à¥¦à¥¦
Ġà¥¨à¥¦à¥© à¥ª
Ġà¤¨ à¤Ĺà¤¨
Ġà¤® à¤¶
à¤Ń à¤¹à¤°
à¤¨ à¤µà¤¨
ct ed
à¥® à¥¯
Ñ į
Ġ ÑĢ
el d
Ġà¤ħ à¤ªà¤¤
, âĢ¦
Ġà¥¤ .
Ġà¤ħà¤¨ à¤§
Ġà¤®à¤¹ à¤²à¤ķ
Ġs u
à¤ª à¤°à¤¤
à¤Ĩ à¤°à¤ª
Ð½ Ð¾
à¤· à¤°à¤ķ
à¤¨ à¤ªà¤¨
Ġà¤ľà¤¨ à¤¸à¤¹à¤Ń
0 3
5 8
à¤Ł à¤Ĺ
à¤ļ à¤°à¤®
à¤Ń à¤ıà¤ªà¤Ľ
Ġà¥§à¥¯à¥® à¥¬
oo d
à¤¨ à¤ĩ
à¤®à¤² à¤Ĺ
à¤°à¤¦ à¤²
à¤§à¤¨ à¤ª
à¤µà¤°à¤£ à¤ħà¤¨
à¤§ à¤Ń
à¥« à¥§à¥¯à¥¯
Ġ200 1
à¥Ńà¥¯ à¥§à¥ª
Ġà¥¯à¥®à¥«à¥§ à¥¦à¥§
6 8
à¤ıà¤ķ à¤²
Ġà¤ı à¤¥à¤²
à¤µà¤¤ à¤¯
Ġà¤¸à¤¹à¤ľ à¤ķà¤°
Ġà¥§à¥¯à¥¯ à¥§
Ġd is
Ġà¤ī à¤µ
à¤°à¤® à¤¸à¤®
Ġà¤« à¤¹à¤°
Ġà¤Ĩà¤ĩ à¤¹
asar okar
à¥«à¥§à¥¯à¥¯ à¥§à¥¦à¥®
Ġà¥¯à¥®à¥«à¥§à¥¦à¥§ à¥Ńà¥¯à¥§à¥ª
; &
Ġà¤¬à¤¹ à¤®
Ġà¤ĸà¤¬ à¤°à¤¹à¤°
ĠSep tember
Ù Ī
Ġà¤° à¤¤à¤¨
à¤¶ à¤µà¤°
am erica
Ġarth asarokar
Ġarthasarokar news
Ġà¤¤à¤¹ à¤®à¤§
m un
n e
à¤ģ -
à¤°à¤¦ à¤®
Ġà¤Ĺà¤ł à¤¨à¤®
Ðµ Ð»
à¥Ģ ?
à¤¦ à¤¤à¤²
Ġà¤¤ à¤¦à¤¨
à¤£ à¤ªà¤Ľ
à¤¹à¤¨ à¤¬à¤¹
à¤¸à¤¡ à¤ķà¤ķ
à¥Ī à¤¾
à¤ı à¤¸à¤²
à¤ł à¤¨à¤®
iaf america
à¤ıà¤ķ à¤ªà¤Łà¤ķ
à¤ĩ à¤²à¤²
r am
à¤ī à¤ľà¤°
à¤¹ à¤Ĺà¤¤
Ġà¤ıà¤ķ à¤ª
Ġà¤ķ à¤ľ
D P
à¤¿ âĢľ
Ġà¤µ à¤¨à¤µ
à¤§ à¤¶à¤¤à¤ķ
à¤ĩ à¤¡à¤°
à¤µà¤¨ à¤ª
ar k
âĢĮ à¤Ĥ.
à¤¡ à¤°à¤¹à¤°
à¤µà¤® à¤¹
à¤¹ à¤®à¤¦
à¥Įà¤ģ âĢĿ,
à¤ıà¤¨ à¤ª
Ġà¤Ĺà¤¹ à¤¤à¤°
Ġ3 1
à¤¿ !
à¥ĭ ;
Ġà¤Ĺ à¤ıà¤¨
à¤ı à¤ļà¤ķ
à¤£ à¤¯à¤¸
Ġà¤®à¤¹ à¤®
% ,
à¤µ à¤µà¤°
F A
Ġà¤Ł à¤¡
Ġà¥¨à¥¦à¥ª à¥«
Ġà¤ħ à¤¦à¤ķ
Ġà¥¦ à¥©
ate g
Ġà¤¤à¤¹ à¤¦
Ġà¥¦à¥¬ à¥«
Ġà¤Ĺ à¤§
Ġà¤Ĩ à¤Ĺà¤®
Ġà¤ī à¤¥à¤²
Ġà¤¶ à¤°à¤£à¤®
à¤¯à¤¸à¤² à¤Ĺà¤¤
Ġà¤Ńà¤ĩà¤¨ à¤¸à¤ķ
p e
à¤ĩà¤¨ à¤ĸà¤¬
Ġà¤Ĩà¤īà¤¨ à¤¸à¤ķ
ä º
à¤· à¤ħà¤Ĺ
à¤Łà¤¨ à¤¸
Ġà¤ıà¤® à¤¸
à¥¨ à¥¦à¥¦
à¤§ à¤ķà¤²
à¤¯ à¤ªà¤Ľ
Ġà¤ľà¤¨ à¤ħà¤ª
à¤Ĩà¤° à¤Ł
Ġà¤µà¤¨ à¤Ń
r ou
ic h
à¤Īà¤ľ à¤¹
pr il
à¤® à¤¸à¤¹
à¤£ à¤¸à¤Ń
Ġà¤¸à¤ķ à¤Ńà¤°
Ġà¤¤à¤° à¤ªà¤¨
Ġà¤¨ à¤µà¤ª
Ġà¤¶ à¤¤à¤ķ
à¤µà¤ķ à¤¤
Ġà¤Ńà¤ı à¤¯à¤¤
Ġà¤Ĭ à¤¸
à¤¬ à¤¤à¤®
Ġà¤ľà¤® à¤ĺ
pd f
Ġà¤ħ à¤ķà¤°
à¤°à¤ķ à¤°à¤£à¤²
à¥Į à¤¾
à¤ķ à¤Ļ
Ġà¤Ľ à¤¤à¤®
à¥ĥ .
à¤ķà¤Ł à¤¹à¤°à¤²
à¤Ķà¤·à¤§ à¤¸à¤¹
Ġà¤¬à¤¸ à¤¹à¤°
Ġà¤¤à¤¹ à¤¸à¤¨
à¤¸à¤¡ à¤ķà¤®
à¥¨à¥¦à¥Ń à¥¦
Ġà¤® à¤Ľ
Ġà¤¯ à¤ļ
Ġà¤Ńà¤Ī à¤¨
ĠT h
à¤¾à¥Īà¤Ĥ ,
Ġà¤Ĺ à¤«à¤ķ
m in
Ñ Ī
Ġà¤¤ à¤Ļ
Ġà¤§ à¤¨à¤²
à¥Įà¤Ĥ à¤ĥ
Ġà¥§à¥¯à¥¯ à¥¨
ĠF or
Ġpro te
à¥į ..
à¤² à¤ļà¤¨
à¤Ĺ à¤ľà¤¸
à¤£ à¤ªà¤ķ
à¤Ĩ à¤ļ
Ġà¤ıà¤« à¤¸
à¤ķ à¤¦à¤°
Ġà¤ħ à¤®à¤¨
à¤¡ à¤¨à¤¬
Ġ? "
à¤¿à¤ģ à¤Ĥ
or y
ãĢ Ģ
à¤Ŀ à¤ªà¤ĸ
à¤Ĺà¤¤ à¤¤à¤°
à¤Ĩ à¤¹
à¥§ à¥Ńà¥©
Ġà¤¨à¤¹à¤° à¤®
à¥Į âĢĻ
Ġn epal
ig n
Ġà¤¤à¤¹à¤¸à¤¨ à¤¹à¤¸
à¤¤à¤° à¤Ĩà¤§
Ġà¥§à¥© à¥¦
à¤ĩà¤Ń à¤°à¤²
à¤µ à¤ªà¤ķ
à¤ľà¤¦ à¤°à¤¬
p le
à¤¾ à¥Ģ
à¤ļ à¤¡
à¤®à¤ļ à¤²
à¤Ł à¤Ĩà¤īà¤Ł
à¤Ī à¤®à¤¤
Ġà¤¸à¤®à¤¯ à¤Ńà¤¨
Ġà¤Ĺà¤ľ à¤¬à¤ķ
à¥¯ à¥«
Ġ20 75
I V
Ġà¤¶ à¤µà¤²
à¤ĩà¤° à¤¸à¤ķ
9 7
à¤Ń à¤°à¤£
à¥Ń à¥®
à¤§ à¤Ńà¤¤
à¤ĺ à¤¡
à¤Ĩ à¤ĩà¤¡
à¤° à¤Ļà¤²
à¥« à¥¨
Ġà¤Ĩà¤ı à¤¨à¤¨
Ġà¤Ĺà¤ľà¤² à¤¹à¤°
ĠJ ul
à¤¦à¤² à¤¹à¤°
à¤Łà¤¬ à¤ľ
à¤ĩ à¤®à¤¨
Ġà¤ľà¤¨ à¤ªà¤ķ
Ġà¤Ł à¤ķà¤°
à¤¨ à¤Ľà¤¨
à¤¹ à¤ķà¤®
à¤Ń à¤²à¤®
Ġà¤ĵ à¤ľ
à¤« à¤¹à¤°
Ġà¤ľà¤Ĺ à¤ľ
Ġ? ?
à¤® à¤®à¤¨
Ġà¤ħà¤µ à¤¤à¤°à¤£à¤ķ
à¤°à¤¸à¤® à¤ķ
Ġà¤° à¤¨à¤µ
à¤Ī à¤µà¤°
Ġà¤ľà¤Ĺà¤¤ à¤²
à¤Ľ à¤²à¤«
à¤¯à¤ķ à¤¬
à¤®à¤¤ à¤¬
à¤Ĺ à¤Ĺ
Ġà¤Ĺ à¤ĩ
Ġà¤¸à¤¹ à¤ħà¤§
Ġà¤¬à¤¹ à¤¸à¤²
ĠÂ ©
à¤¯ à¤Łà¤°
w e
à¤£ à¤¸à¤¹
âĢ¦âĢ¦ âĢ¦âĢ¦
Ġà¤ıà¤² à¤ľ
Ġà¤¤ à¤¡
à¤Ī à¤ķà¤¨
à¤µà¤¯ à¤¨à¤²
Ġà¤¯à¤¸ à¤µ
Ġà¥Ńà¥« à¥¦
à¤¯ à¤¶à¤¨
à¤ľ à¤¬à¤°
Ġà¤Ł à¤Ł
à¤²à¤¯ à¤Ń
Ġ à¥ĩ
Ġà¥§à¥§ à¥§
à¥Ĥ à¤Ĥ
Ġp ic
à¥ģ âĢĻ,
à¤«à¤² à¤¤
à¤¸à¤ķ à¤¸
âĢĵ âĢĺ
Ġà¥¨à¥¦à¥¨ à¥§
I S
] [
m s
à¤Ł à¤Ńà¤Ł
Ġ â
Ġà¤ĩ à¤¦
Ġà¤§à¤¨ à¤§
Ġà¥¨à¥¦à¥¨ à¥«
à¤¤ à¤ħà¤¨
à¤¯ à¤ªà¤ķ
Ġà¤§à¤° à¤ªà¤ķ
à¥ģ ?
à¤¹ à¤²à¤ķ
à¤ĩ à¤µà¤°
Ġà¤« à¤·
Ġà¤°à¤¹ à¤²
Ġà¤« à¤²à¤ķ
à¤¶à¤¨ à¤ħà¤¨
Ġà¤Ķ à¤ªà¤¨
Ð° ÑĢ
à¤ķà¤¨à¤ķ à¤°
à¥¨à¥¦à¥ª à¥¬
à¤® à¤¯à¤ķ
à¤ĩ à¤¬à¤¹
à¤°à¤ļ à¤¨à¤²
Ġà¤ıà¤ļ à¤¡
à¤ ±
à¤£ à¤µà¤¤
Ġà¤¶à¤¹à¤° à¤²
Ġà¤ıà¤ķ à¤ıà¤ķ
à¤ķ à¤ħ
à¥ĩ ),
à¤ļ à¤ķà¤®
à¥įâĢĵ âĢĺ
/ -
Ġà¤ĸ à¤°à¤¬
Ġà¤ĵà¤Ń à¤°à¤¸
Ġà¤Ĩà¤¹ à¤µ
Ġà¤Ń à¤ĩà¤¯
Ġà¤Ł à¤Ļ
à¤°à¤¹ à¤¹à¤°
à¤ªà¤¦ à¤¸
à¤¯à¤°à¤¬ à¤ľ
à¥ĩ (
à¤¯à¤® à¤ħà¤¨
Ġà¤Ķ à¤°à¤¹
à¤²à¤® à¤§
ĠA d
Ð¾ Ð½
à¤ł à¤¦
= =
Ġ im
à¤¬ à¤Ł
à¤®à¤ķ à¤¹
Ġà¤Ĩà¤ĩ à¤Łà¤®
Ġ19 6
en g
ou nt
Ġs h
ãĢ ģ
8 8
Â ´
it ion
Ð¸ Ñı
N A
Ġà¤ķà¤¬ à¤¡
à¤ķ à¤·
à¤ª à¤¦à¤®
Ġà¤ĸ à¤²à¤²
à¤ķà¤² à¤²
ed ia
e ch
à¤¶ à¤µà¤ķ
à¤¯à¤¯à¤¨ à¤ħà¤¨
à¤Ķ à¤·à¤§à¤ķ
Ġà¥¨à¥¦à¥ª à¥¦
à¤Ĩà¤Īà¤ıà¤ļ à¤ıà¤²
à¤Ĩà¤Īà¤ıà¤ļ à¤Ĩà¤°à¤ıà¤²
Ġà¤° à¤Ł
Ġà¥¨à¥« à¥¬
à¤¬ à¤°à¤¦
Ġà¤Ĩà¤² à¤Ł
à¤¡ à¤·
à¤ķà¤°à¤£ à¤¸à¤®
ãģ ®
Ġprote cted
O S
ĠA pp
Ġà¥©à¥« à¥¦
Ġà¤¬ à¤¬à¤°à¤®
Ġà¤°à¤¹ à¤®
Ġà¤ĭ à¤Ĺ
ĠD ec
Ã ¤
Ġà¤¸à¤®à¤¯ à¤¯à¤¤
Ġà¤ıà¤¯ à¤°à¤µ
à¤ªà¤¤ à¤®
Ġà¤Ĺà¤¢ à¤µ
o x
à¤¶ à¤¸à¤¹
0 1
Ġà¤¸à¤¹ à¤µ
n c
Ġà¤¶ à¤¸
à¤ı à¤Ńà¤°
à¤¸à¤ķ à¤¦
à¤Ŀ à¤ľà¤¸
à¤ıà¤¨ à¤ıà¤¸
Ġà¥¦ à¥®
à¤¸à¤¨ à¤¹à¤°
Ġà¥¨à¥¦à¥© à¥©
Ġà¤¸à¤¹ à¤®à¤¹
Ġà¤ħà¤®à¤° à¤Ĺà¤¢
à¤ī à¤¦à¤Ľ
à¥ģ à¥ĥ
à¤¶ à¤ľà¤ķ
à¤Ĺà¤ļ à¤²à¤¨
ç ļ
à¤¦ à¤µà¤¸
à¤Ń à¤§
Ġà¤ļ à¤ŀ
à¤¬à¤Ī à¤¬
) .
à¥ĭ, '
t witter
à¤° m
à¤° à¤¨à¤ķ
à¤¨à¤¯ à¤¨à¤ķ
Ġà¤¨à¤ľà¤° à¤ħà¤¨
Ġ z
Ġà¤µ à¤¶
Ġà¤Ľ à¤¹à¤°
à¤°à¤¤ à¤¬à¤¨
im e
Ġà¤¯à¤¸ à¤ħà¤¨
Ġà¤¸à¤¬ à¤ķ
Ġà¤ľà¤¨à¤ķ à¤²
à¥į ]
à¤¬ à¤¸à¤¨
Ġà¤ħà¤² à¤Ĩà¤īà¤Ł
Ġà¥¤ (
à¤¯à¤¸ à¤¸à¤®
Ġà¥¨à¥¦à¥Ń à¥¬
à¥ĩà¤ģ, ...
Ġà¤ £
Ġà¤īà¤ª à¤¬
à¤¤à¤® à¤¸
Ġà¥§à¥§ à¥ª
Ġà¤«à¤°à¤ķ à¤ªà¤¨
Ġà¤¸à¤® à¤ª
à¤°à¤£ à¤¸à¤®
à¤Ĩ à¤Ĺà¤²
Ġà¤¶ à¤µà¤ķ
à¤¤à¤® à¤¨
Ġà¤Ĩà¤ĩ à¤ķ
Ġ201 2
m a
à¤Ĩ à¤Īà¤²
Ġà¤° à¤¯
à¤ķà¤Ł à¤¬
4 7
à¤¨ à¤°à¤¸
Ġà¤ĵ à¤łà¤®
à¤·à¤¯ à¤¬à¤¸
Ġà¤¨à¤Ł à¤Ĩà¤īà¤Ł
Ġà¤¯à¤¸ à¤ªà¤²
Ġà¤®à¤¨ à¤Ń
Ġà¤Ńà¤ı à¤ªà¤¶
C C
à¤¨ à¤Ĺà¤¢
es e
à¤ľà¤¨ à¤µ
Ġà¤Ł à¤¨à¤ķ
à¤¶à¤¨ à¤¸
à¤Łà¤¬ à¤²à¤²
Ġà¤°à¤Ĺà¤¤ à¤²
à¤ª à¤ļà¤¨
à¤¶ à¤¯à¤®
Ġà¤¥ à¤µ
Ġà¤ĩ à¤Ĺ
à¤ª à¤Ĺ
à¤¥ à¤°à¤ķ
à¤ļà¤¨ à¤ľ
c al
à¤ļ à¤ªà¤¦à¤¸
on s
ĠD e
Ġ Ã·
Ġà¤®à¤¹ à¤²à¤®
Ġà¤ľà¤¨ à¤¸à¤Ń
Ġà¤²à¤ļ à¤ķà¤¤
c ri
à¥Ī à¥ĩ
Ġà¤¨ à¤ªà¤¤
Ġà¤¦ à¤®à¤¦
Ġà¤Ĩ à¤łà¤®
à¤¡ à¤®à¤ķ
Ġà¤ħà¤¬ à¤²à¤®
Ġà¤ľà¤²à¤® à¤Ĺ
Ġà¤¥ à¤ªà¤ķ
à¥Įà¤Ĥ à¤ģ
3 5
a u
an n
Ġ: :
à¤Ĩà¤Ī à¤¡
Ġà¤¤à¤²à¤¬ à¤®
à¤° à¤¨à¤²
à¥® à¥§
Ġà¤ķà¤Ł à¤µ
is s
ro s
0 2
à¤¾ .....
Ġà¤¨ à¤ĺà¤Ł
âĢĿ âĢĵ
à¤°à¤ª à¤ŀ
Ġà¤¸à¤¦ à¤¨à¤²
à¤ĵ à¤¯
Ġà¤ħà¤ķ à¤¬à¤°
Ġà¤¬à¤² à¤¦
à¤¯à¤¯à¤¨ à¤ªà¤Ľ
Å ĵ
Ġà¤¦ à¤²à¤¬à¤¹
Ġà¤ıà¤® à¤¡
çļ Ħ
z w
Ù Ĩ
à¤¦à¤ķ à¤ª
Ġà¤Ĩà¤Ī à¤¸à¤ķ
à¥Į âĢĵ
à¤¤à¤¸ à¤ŀ
Ð¾ ÑĤ
Ġà¤ľà¤¨ à¤¸à¤°
à¤¿. ,
in t
E S
Ġà¤ı à¤Ļ
à¤Łà¤µ à¤²à¤¬
à¤µ à¤£à¤ķ
à¤§ à¤ļ
Ġ Z
à¤¨ à¤µà¤¸
à¤²à¤ķ à¤¤
Ġà¤Ĩà¤µ à¤°à¤£
à¤¤à¤¬ à¤®
à¤ĸ à¤Ń
Ġà¤¦à¤¶ à¤Ĺà¤ľ
as e
Ġà¤¨à¤¹à¤° à¤ķ
Ġ à¦
à¤° à¤ľà¤ķ
à¤¤ à¤²à¤¨
Ġà¤¨ à¤°à¤ķ
à¤ıà¤ķ à¤¦
Ġà¤² à¤ŀ
Ġà¤ıà¤¸ à¤ĩ
ĠĠ ĠĠ
à¤ļ à¤°à¤¹à¤°
Ġà¥§ à¥¦à¥¬
à¥¦à¥Ń à¥§
à¤¯ à¤Ĺà¤°
à¤¤à¤² à¤¹à¤°
à¤¤à¤°à¤£ à¤²
Ġà¤ľà¤¨à¤® à¤¤à¤ķ
Ġ4 0
Ġà¤ķà¤² à¤Ļ
at i
y st
Ġ <
Ġà¤¨à¤® à¤°
Ġà¥§à¥§ à¥«
er y
ĠA s
5 5
à¤Ĩ à¤ĩà¤Ł
ĠPol ic
u k
à¤¶à¤¨ à¤¶
ĠY ou
2 00
Ġà¤Ĺ à¤£à¤ķ
à¤ļà¤¨ à¤°
à¤¸ à¤ļà¤¨
à¤ı à¤¨à¤ķ
à¤« à¤²à¤ķ
à¥¯ à¥¨
Ġà¤¸à¤¹à¤° à¤²
à¤¹ à¤ļ
à¤µ à¤¬à¤¹
à¤ĩ à¤ªà¤Ľ
à¤° à¤ľà¤¨à¤²
Ġà¤ľ à¤¯à¤ķ
al o
Ġà¤¸à¤°à¤¸ à¤²
Ġà¥§à¥¬à¥« à¥©à¥¦
à¤ĵ à¤¤
Ġà¤Ĩà¤ĩ à¤ıà¤¸
ĠJ an
Ġà¤²à¤« à¤¡
à¤¯ à¤ŀ
à¤Ĺ à¤°à¤£à¤ķ
à¤· à¤°à¤²
Ġà¤Ĩ à¤¶à¤®
Ġà¤« à¤²à¤¤
Ġà¤Ń à¤Ĺà¤¤
Ġà¤¹ à¤²à¤¬
à¤ģ à¥ĩ
Ġà¤ļ à¤Łà¤ªà¤Ł
Ġà¥§à¥§à¥© à¥®
Ġà¤¹ à¤°à¤£
Ġà¤Ĩ à¤Ł
à¤ªà¤¨ à¤¹à¤°
à¤°à¤¸ à¤¬
à¥įà¥¤ '
à¤¯à¤µ à¤¦
\ '
à¤ĩ à¤°à¤¨
à¤°à¤® à¤®à¤¨
Ġ? '
Ġ- --
lo w
Åĵ à¤¯
à¤ħ à¤µà¤§
Ġà¥§à¥¯ à¥Ńà¥«
à¤ı à¤µ
Ġà¤« à¤ľ
Ġà¤ĵ à¤¤
à¤¾ âĢĺ
à¤¯ à¤µà¤¤
à¤¸ à¤¬à¤°
à¤Ĺ à¤Ńà¤¨
Ġà¤¬ à¤°à¤¦
Ġà¤Ĩ à¤°à¤¸
à¤ĩ à¤ķà¤®
s ha
à¤¾ Â¸
à¤§ à¤ªà¤¤
Ġà¤§ à¤°à¤¤
ãĢ Ĥ
à¤ľà¤¨ à¤®à¤¤
à¤¯à¤¨ à¤°à¤¤
Ġà¤§ à¤ľ
Ġà¤¦à¤² à¤Ĺà¤¤
Ġà¤°à¤¨à¤° à¤ħà¤ª
à¤¤à¤¨à¤Ĺà¤° à¤ª
à¤ķ à¤°à¤¦
Ġà¤¬à¤¸ à¤¬
Ġà¤ıà¤¨à¤Ĩà¤°à¤ıà¤¨ à¤ıà¤ķ
m ore
Ġà¤ĸ à¤²à¤¬à¤²
à¤µà¤ķ à¤¸
at us
à¤Łà¤¨à¤Ĺà¤° à¤¸
à¤¤à¤¹ à¤Łà¤®
Ġà¤¸ à¤ªà¤°
à¤¨ à¤¯à¤²
à¥Ī .
à¤¨à¤¸ à¤ªà¤Ł
Ġà¤Ī à¤Ń
Ġ ~~
Ġà¤¸à¤® à¤¬à¤¨
Ġà¤§à¤¨ à¤ľà¤¨à¤ķ
Ġà¤ıà¤«à¤ı à¤®à¤®
Ġà¤Ľ à¤µà¤Ł
à¤ļ à¤ķà¤²
Ġà¤ħà¤¨ à¤¶à¤¨à¤ķ
à¤°à¤¹ à¤¤
à¤¨à¤Ĺà¤° à¤¬
ri g
Ġà¤īà¤® à¤Ļ
à¤ªm à¤¤
à¤°à¤¹ à¤¬
Ġà¥¨à¥¦à¥ ®
at a
à¤¹ à¤¸à¤ļ
à¤ľ à¤ľ
à¤¸à¤ķ à¤°
Ġà¤¤à¤° à¤ĸà¤°à¤®
à¥¨à¥¦à¥¬ à¥®
Ø ¯
Ġà¤ıà¤ķ à¤Ńà¤¨
à¤·à¤£ à¤¸
it t
à¤ľà¤Ĺà¤¢ à¤®
Ġà¤ªà¤° à¤ª
à¤ĩà¤² à¤Łà¤²
Ġà¤ıà¤¸ à¤Īà¤ĵ
à¥ Ĭ
Ġà¤ľ à¤¯à¤µ
ĠÐ ±
à¤¼ à¥Ģ
à¤ª à¤§
à¤¦ à¤¯à¤²
à¤µ à¤¥
Ġà¤Ĺ à¤ľà¤®
à¤ħ à¤¸à¤²
ĠA m
Ġà¤Ĩ à¤ĵà¤¸
h an
j ya
à¤¬ à¤ª
Ġà¤ı à¤Ĩà¤ĩà¤ľ
à¤Ĺà¤łà¤¨ à¤Ń
4 4
Ġà¤® à¤ķà¤°
Ġà¤²à¤Ĺ à¤¨à¤ĸ
à¤¸ à¤¸à¤¹à¤°
à¤µà¤° à¤°
à¤¶à¤¨ à¤°
Ġà¤Ńà¤µ à¤¨à¤²
Ġà¤¨à¤ľ à¤°à¤²
al ity
ĠC o
Ġà¤Ĺ à¤Ĺà¤¨à¤ķ
Ġà¤¹ à¤¸à¤¨
ĠM ay
à¤ķ à¤¯
à¤¿ à¥ĭ
à¥ĩ âĢĻ,
à¤Ľ à¤¯
à¥ĥ à¥ĥ
Ġà¤ĸà¤° à¤¨
Ġà¤ıà¤¨ à¤Ĩà¤ĩà¤¸
à¤Ĳ à¤¶
à¥ģ "
à¤¦ à¤¤à¤°
Ġà¤Ĩà¤ĩ à¤ĵ
à¤¸ à¤¨à¤®à¤¨
Ġà¤¤ à¤µ
Ġà¤ĸ à¤²à¤¨
Ġà¤¦à¤² à¤Ń
ar g
oo l
ic k
4 5
à¤Ĺ à¤¸à¤¬
à¤ĩ à¤ľà¤®
à¤ľà¤¨ à¤µà¤°
Ġà¤ıà¤ķ à¤ªà¤ķ
âĢĻ -
IV E
à¤ī à¤ľà¤¨
Ġon line
Ġl a
Ġà¤®à¤Ĺà¤° à¤¹à¤°
A M
à¥¤ -
à¤¸à¤² à¤Ł
à¤¯à¤¯à¤¨ à¤¹à¤°
Ġ201 0
ha re
Ð° Ð»
à¤¡à¤¯ à¤¨à¤®à¤¨
Ġà¤ļ à¤¶
Ġà¤®à¤¨ à¤¬à¤¹
ĠR o
Ġà¥¦à¥¬ à¥¯
ĠTV S
Ġà¤īà¤¥à¤² à¤ª
Ġà¤¤ à¤Łà¤®
à¤Ļ à¤ķà¤¨
Ġà¤¬à¤¨ à¤¸
à¤ĩà¤¡ à¤¬à¤¡
à¤Ń à¤µà¤®
e k
p h
à¤Ĺ à¤ľà¤²
à¤¡ à¤¸à¤¹
à¤ĺ à¤°à¤²
Ġà¤Ĩà¤ī à¤Ľà¤¨
à¤ķà¤Ł à¤¸
à¤Łà¤µ à¤²à¤²
Ġà¥¦à¥¬ à¥©
jya alo
à¤¯à¤® à¤µà¤°
à¤¸à¤¨ à¤²à¤ķ
ac ha
op le
à¤ľà¤¨ à¤¸à¤¹
Ġ à¨
à¤ķ à¤Łà¤¨
à¤°à¤£ à¤¸
Ġà¥§à¥® à¥¯
in a
Ġha ve
à¤¡ à¤°à¤ª
in ess
Ġc ont
Ġà¤ı à¤ıà¤«à¤ª
à¤ľà¤¸ à¤¹
à¤°à¤ĸ à¤ª
ĠI nd
Ġà¥¨à¥¦à¥© à¥¨
Ġà¤ľà¤¯ à¤¬à¤¹
à¤Ļ à¤¸à¤¹
Ġà¤ľà¤¨ à¤Ń
à¤Ĺà¤° à¤ª
Ġà¤®à¤¤à¤² à¤µ
Ġà¤¸ à¤Łà¤°
Ġà¤Ĳ à¤¸
à¤ªà¤¸ à¤Ļ
Ġà¥¦à¥¬ à¥ª
Ġà¤ļ à¤¤à¤°
à¤Ļ à¤«
à¤Ĺà¤® à¤§
ĠTVS agarmatha
Ġà¤ĺ à¤¸
Ġà¥¨à¥¦à¥ª à¥¨
i en
à¤ļà¤² à¤°
Ġà¤Ī à¤·
à¤µ à¤Łà¤²
Ġà¤ħà¤µà¤¸ à¤°à¤¬
Ġà¤ıà¤ķà¤Ľ à¤¤
Ã ¼
Ġà¤Ĩ à¤¥
Ġà¤ıà¤® à¤ª
Ġà¥Ńà¥« à¥©
Ġà¤ª à¤°à¤ķà¤®
Ġà¤¯ à¤®à¤²
à¤µà¤¨ à¤°à¤ķ
Ġ... |
ĠS ave
ĠC ontinue
3 3
e le
Ġ art
Ġà¤¯ à¤®à¤¦
Ġà¤ªà¤¦ à¤ķà¤ķ
ĠU jyaalo
ĠSam acha
ĠSamacha ar
à¥ĩ Ã·
à¤ª à¤ħà¤¨
à¤ī à¤ªà¤ķ
à¤· à¤°à¤¹à¤°
Ġà¤Ĩ à¤²à¤¸
Ġà¤ļ à¤¹à¤²
Ġà¤®à¤¹ à¤¤à¤ķ
Ġà¤®à¤¨ à¤Ńà¤°
à¤° à¤²à¤ķ
Ġà¤¦ à¤§
âĢ¦ )
Ġ20 07
Ġà¤ıà¤«à¤ı à¤®à¤ķ
à¤Łà¤Ĩà¤īà¤Ł à¤®
à¤µ à¤ļà¤¨
à¥¨à¥¦à¥¬ à¥¨
à¤¤à¤° à¤ªà¤¶
Ġà¤Ĩà¤Ī à¤¡à¤²
à¥ĭ (
Ġ! "
à¤° à¤°à¤¹
à¤· à¤Ĺ
Ġm e
Ġà¤®à¤¹Ã¬ à¤µ
9 8
Ġà¤ıà¤ķ à¤µà¤°
Ð¾Ð ¹
à¤¸à¤¨à¤² à¤²
Ġà¤® à¤¬
à¤ł à¤¯
Ġà¤¯à¤¸ à¤Ń
à¥® à¥ª
à¤ķ à¤¸à¤ķ
à¤¬ à¤¸à¤ķ
Ġà¤ħà¤¸ à¤°à¤ķ
à¤°à¤µ à¤¶
à¤ĵ à¤Ńà¤°
Ġà¤¶à¤¹à¤° à¤¬
Ġà¥§à¥¯à¥® à¥ª
ist s
I A
à¤¹ à¤¨à¤²
Ġà¤¬ à¤¥
Ġà¤¹ à¤°à¤ķ
à¤ªà¤¨ à¤¸à¤®
Ġà¤Ĩà¤ı à¤Ľ
ĠF OR
à¤¿ à¥Ģ
Ġà¤¤ à¤Ĺ
à¤ĵ à¤¨
Ġà¤¸à¤¹à¤° à¤¬à¤ľ
Ġà¥©à¥© à¥¦
à¤Ļ à¤Ĺà¤¤
à¤ĩà¤¨ à¤Ń
à¤Ĺà¤¤ à¤°à¤¤
à¤¸ à¤²à¤²
à¤µ à¤µà¤¤
Ġà¤¨à¤ĸ à¤¸
à¤Ł à¤¤à¤¨
Ġà¤ĵ à¤¤à¤ª
à¥® à¥¬
Ġà¤Ń à¤°à¤ķ
à¤ķà¤² à¤¬
Ġà¤Ĩà¤Ī à¤¡
Ġ ........
à¤ķ à¤·à¤ķ
à¤¡ à¤ªà¤ķ
Ġà¤Ĺà¤ı à¤ªà¤¨
U R
à¤® à¤ľà¤¸
à¥Ģ Â¸
à¥Ī !
à¤µà¤¨ à¤°
Ġà¤ħà¤² à¤°
ĠS p
à¤¥ à¤¸à¤®
à¤¡ à¤¬à¤²
à¤·à¤£ à¤¯
Ġà¤Ĩà¤Ī à¤ıà¤¸
à¤£ à¤¯à¤µ
à¤£ à¤¨à¤Ĺà¤°
à¤¸à¤¨ à¤¸à¤®
à¤°à¤®à¤£ à¤¹à¤°
à¤² à¤¯à¤¤
Ġà¤¸ à¤Ī
à¤¥à¤² à¤¸à¤®
c l
i eld
à¤¦ à¤ªà¤Ľ
à¤ķà¤°à¤£ à¤ªà¤Ľ
Ġà¤Ĩà¤Ī à¤«
Ġà¤ħà¤¨à¤¸à¤¨ à¤°à¤¤
Ġ ent
Ġn ot
à¤¨à¤¸à¤ªà¤Ł à¤²à¤®
Ġà¤ĵ à¤¹à¤¦
à¥¦à¥Ń à¥¯
Ġà¤Ĩà¤īà¤Ł à¤²
à¤ª à¤Łà¤¨
à¤¦ à¤®à¤¨
à¤ħ à¤¯
à¤Łà¤¨ à¤¹
Ã Ń
à¤ķ à¤¢
Ġà¤ĺà¤Ł à¤¬à¤¢
à¤¯à¤¦ à¤²à¤®
Ġ200 9
à¤ľà¤¦ à¤°à¤ķ
or ld
Ġà¥ªà¥« à¥¦
dc nepal
Ġà¥«à¥« à¥¦
o log
à¤® à¤Ńà¤ķ
à¤µ à¤°à¤¹
à¤ľ à¤²à¤Ĺ
at ing
Ġà¥¨à¥¦à¥© à¥¯
4 0
à¤° à¤µà¤¸
Ġà¤Ńà¤ı à¤¬
Ġà¤¦à¤¶à¤ķ à¤¯à¤¤
ant ipur
w ord
à¥ĩ âĢį.
Ġà¤¨ à¤ħ
à¤¬ à¤²à¤²
à¤¶ à¤¯à¤ķ
Ġà¤Ĩà¤ł à¤°
à¥ĩ- âĢĺ
Ä ±
à¤¸ à¤°à¤¹à¤°
à¤¬ à¤Ļ
Ġà¤Ńà¤¨ à¤¸
à¤¤à¤° à¤ľ
âĢĺ âĢĺ
p er
à¤¾ âĢį.
Ġà¤Ĩà¤ĩ à¤¦
it ies
us iness
Ġ200 8
Â º
à¤¹ à¤¹
Ġà¤Ńà¤° à¤ĸà¤°
à¤¡à¤² à¤¸
re st
à¥ Ŀ
Ġà¤¸ à¤¶à¤°
ha k
I D
à¤ľ à¤°à¤Ń
à¤¡ à¤¶
Ġà¤¡ à¤Ĺ
at ch
à¤§ à¤¦
à¤ĩ à¤Łà¤¨
à¤ĩ à¤Ńà¤¨
zw j
T W
à¤ĸ à¤µ
Ġw as
Ġà¥¦à¥¬ à¥®
ĠIntern ational
à¤² à¤ļà¤ķ
T C
Ġà¤ľ à¤²à¤ķ
à¤Ĺà¤® à¤ª
à¤¶à¤® à¤§
Ġà¥§à¥« à¥¦à¥¦
à¤¬à¤¦ à¤¬
à¤ĩà¤ľ à¤¹
Ġà¤ª à¤¥à¤®
à¤ľà¤¨ à¤°
Ġà¤ħà¤« à¤µ
Ġ ~
ÐµÐ ¼
lic k
4 2
Ñ ī
Ġà¤Ń à¤ľ
à¤ħ à¤µà¤°
à¤¦ à¤¬à¤²
Ġà¤² à¤Ńà¤¸
is m
à¤¦à¤°à¤¬ à¤ľ
à¤ķ à¤ĺ
à¤® à¤¸à¤¨
à¤¯ à¤²à¤¯à¤²
à¤Ł à¤ľà¤¸
ĠA r
Ġd o
à¤Ī à¤¨à¤ķ
Ġà¤¤à¤° à¤¬
Ġà¤ĵ à¤®à¤¨
Ġà¤ªà¤¦ à¤ļ
à¤® à¤®à¤¤
à¥Ģ .....
am e
Ġà¤¹à¤¡ à¤ª
à¤¯ à¤ļà¤ķ
à¤ł à¤¨à¤ķ
à¤Ĺà¤¤ à¤¯
à¤¨à¤¨ à¤°à¤¸
à¥Įà¤Ĥ, âĢĿ
ĠF eb
Ð½ Ð¸
ug u
Ġà¤¦ à¤¬à¤¦à¤¬
à¤Ī à¤²à¤Ĺ
à¤Ī à¤Łà¤¹à¤°
à¤¯à¤£ à¤ĺ
à¤® à¤°à¤£à¤®
à¤ı à¤Łà¤¹à¤°
ĠâĢ Į
Ġ115 20
Ġ115 18
Ġ115 19
à¦ ¾
OR K
a x
Ġà¤Ńà¤¯ à¤°à¤¹
à¤®à¤Ĺ à¤¢
Ġà¤¤à¤²à¤¬ à¤Ńà¤¤
à¤« à¤ķà¤¨
Ġà¤²à¤Ĺ à¤¨
à¤¾) Â¸
à¤ĸ à¤¸à¤¹
à¤Łà¤ķ à¤¹à¤°
à¥Īà¤Ĥ à¤ģ
à¤²à¤µ à¤¦
Ù ħ
Ġà¤Ĺà¤° à¤¯
Ġà¥§à¥© à¥¦à¥Ńà¥¯
Ġ115 21
oc k
à¤µ à¤ķà¤®
à¥Ī âĢĮ
Ġà¤« à¤Ĺ
à¤ĵ à¤Ī
à¤ķà¤Ł à¤¹à¤°
Ġ115 17
Ġ {
Ġà¤ľà¤¨à¤® à¤¤à¤¸
Ġà¤¤à¤²à¤¬ à¤ķ
à¤µà¤¯à¤¨ à¤¸
à¥¨à¥¦à¥¬ à¥©
h ttp
à¤² à¤ªà¤ķ
à¤ı à¤¦
à¤ľà¤¨ à¤¸à¤®
à¤Ĩà¤° à¤ıà¤¸
à¤°à¤ĸ à¤¨
ĠA rt
ov e
Ġà¤ħ à¤ľà¤®
ĠâĢ ĭ
à¤Ķ à¤¦
ou nd
à¤·à¤ķ à¤¤
à¤ľà¤Ĺ à¤¦
Ġp ass
à¤ı à¤¯à¤°
Ġà¤Ĩ à¤Ĺà¤®à¤¨à¤²
à¤¡ à¤ļ
à¤¤à¤° à¤Ĺ
à¤¯à¤¨ à¤¬
er n
es h
ans ar
Ġà¤ª à¤Ĺà¤°
Ġà¤ĵà¤Ń à¤°à¤¹
à¤µ à¤Ī
à¤ĩ à¤ªà¤°
at t
Ġà¤ļà¤°à¤£ à¤¬à¤¦
Ġ à¥į
Ġà¤Ł à¤ļ
à¤ļà¤¨ à¤¹à¤°
à¤°à¤¬ à¤ľ
Ġà¥§à¥¯à¥® à¥«
à¥¨à¥¦à¥§ à¥¬
à¤Ī à¤¹
ÐµÐ ´
E C
à¤°à¤¦ à¤¶
Ġà¤Ł à¤ªà¤°
à¥Įà¤ģ à¥¤âĢĻ
ep cal
Ø ª
à¤¯ à¤ĸ
Ġà¤° à¤¥à¤¯
à¤Ł à¤°à¤µ
à¤« à¤°à¤²
à¤¤à¤° à¤ĺ
Ġà¤¤ à¤¡à¤ķ
ĠNE TW
ĠNETW ORK
à¤¬ à¤¶
à¤µà¤¸ à¤ļ
à¤ķ à¤·à¤£
Ġà¤µ à¤ļà¤¤
em ent
ĠJ un
Ø§Ù Ħ
à¥Ģ. ,
Ġc an
Ġà¤§à¤°à¤ªà¤ķ à¤¡
à¤ģ à¤ģ
Ġà¤Ī à¤Łà¤¹à¤°
à¤¾à¥Ī âĢĮ
à¤ħà¤µà¤¸ à¤°à¤®
Ġà¤ıà¤¯à¤°à¤¬ à¤¸
à¤§ à¤ĺ
Ġà¤¯ à¤²
Ġà¤ł à¤£
Ġà¥§à¥¨ à¥¦à¥¦
Ġà¤Ĭ à¤¨
Ġm in
od e
à¤¿ à¥ģ
Ġà¤ħà¤¸ à¤°à¤¬
Ġ115 16
à¥¨à¥¦à¥Ń à¥¬
u ck
à¤¨ à¤¬à¤°
à¤ł à¤¸à¤®
à¤ħ à¤°à¤¬
à¤¯à¤¨ à¤¶
Ġà¤ķà¤² à¤¹
Ġà¥¨à¥¦à¥ª à¥©
Ġà¤¡ à¤®à¤°
Ġà¤Ĺà¤£ à¤°
5 4
P AL
à¤Ł à¤¤à¤°
à¤ªà¤¨ à¤¸
à¤²à¤ļ à¤²à¤¨
C L
Ġà¤Ĩ à¤¯à¤¤
à¤ħ à¤Ĺà¤¸
Ġà¤ķà¤° à¤¨
à¤Ńà¤¨ à¤°
3 6
er m
à¤¡à¤° à¤Ĺ
Ġà¤¸à¤°à¤² à¤¤
ion s
Ġs e
Ġà¤¸à¤¹ à¤ħà¤¸
alk ot
% )
à¤¨ à¤¸à¤²
à¤¹ à¤ħà¤¨
à¤¬ à¤°à¤¬à¤¹
à¤¥ à¤¹
à¤¤à¤¨ à¤µ
Ġà¤ĵ à¤ĸà¤¤
Ġà¤Ī à¤£
Ġà¤§à¤¨ à¤ª
Ġà¥§à¥© à¥§
à¤¨ à¤¨à¤²
à¤¥ à¤ķà¤ķ
Ġà¤ħà¤Ļ à¤Ĺ
Ġn e
) -
à¤¤ à¤¥à¤²
ĠG alkot
Ù Ħ
à¤Ł à¤Ĺà¤¤
Ġà¤¨ à¤ł
à¤ĩ à¤ªà¤ķ
Ġà¤ĺ à¤°à¤¤
à¤ªà¤® à¤¤à¤®
ĠM in
à¤ı à¤Ńà¤¨
à¤Łà¤¨ à¤¬
à¤ĵ à¤²à¤®
à¤ĸ à¤¨à¤²
Ġà¤ªà¤¦ à¤²
Ã ¶
à¤µ à¤ıà¤®
à¤Ī à¤Łà¤²
à¤Ī à¤®à¤§
à¤¾, âĢĻ
ic ip
t s
Ġà¤¬ à¤¹à¤ķ
à¤ªà¤Łà¤ķ à¤ķ
3 7
d ay
à¤¨ à¤ĺ
à¤¡ à¤²à¤¬
Ġà¤ļà¤² à¤¨à¤²
il d
ord in
à¤¹à¤Ļà¤ķ à¤Ļà¤®
à¤ķ à¤¤à¤²
à¤ĸ à¤°à¤²
Ġà¤¨à¤Ĺà¤° à¤Ń
à¤°à¤ª à¤¥à¤®
Ġà¤¨à¤µ à¤Ĺà¤ł
Ġà¤ıà¤¨à¤Ĩà¤°à¤ı à¤¨à¤²
à¤® à¤ľà¤¦
à¤¤ à¤²à¤¬
Ġà¤¬ à¤¨à¤ķ
Ġà¤®à¤¨ à¤¤
Ġà¤ķà¤° à¤µ
à¥® à¥Ń
Ġà¤Ĩà¤¶ à¤¯à¤ķ
Ġà¤¤à¤¹ à¤Ĺà¤¤
ers on
Ð°Ð ¼
ĠSt r
R A
Ú ©
Ġà¤ĩ à¤µ
à¥¨à¥¦à¥¬ à¥ª
ĠVi ew
à¤Ĺ à¤ıà¤°
Ġà¤®à¤¹ à¤ķ
âĢĻ âĢĵ
Ġà¤¨à¤Ĩ à¤ĵà¤¸
à¥¤ .
à¤µà¤°à¤£ à¤®à¤¨
à¤Ĩà¤Ī à¤ı
6 9
à¤ª à¤¸à¤¬
Ġà¤¨ à¤°à¤¦
Ġà¤Ľ à¤¹
Ġà¤¶ à¤ª
Ġà¤ħà¤¨ à¤¸à¤¨à¤®
Ġà¤ħà¤ª à¤¦à¤¸
à¤® à¤£à¤ķ
à¤ļ à¤Ńà¤¨
Ġà¤¸à¤¹ à¤¦
ĠI D
Ġà¤ħà¤¸à¤¹ à¤ľà¤¤
ir l
Ġà¤¨à¤¯à¤¨ à¤°
) )
Ġ Ñĥ
à¤·à¤® à¤£
à¤¬à¤¹ à¤¸
à¤Īà¤¸ à¤¯
Ġà¥§à¥¯à¥Ń à¥¯
Ġà¥§à¥¯à¥ª à¥Ń
T M
à¥Ģ ..
Ġ9 8
à¤µà¤¯à¤® à¤¸
Ġà¤ķ à¤ķà¤¨
Ġà¤Ĩ à¤Īà¤ķ
à¤¯à¤¯ à¤Ń
ation s
Ġà¤ļà¤°à¤£ à¤ħà¤¨
à¤Ľà¤²à¤« à¤²à¤®
Ġà¤ıà¤¸ à¤¡
à¤¾ &
à¤¡ à¤ªà¤Ľ
âĢ ķ
Ġà¥§à¥§ à¥Ń
à¤Ĩà¤ľ à¤Ń
? '
à¤ľ à¤ķà¤°
à¤· à¤¤à¤µ
yst em
Ġà¥ Ĥ
ĠâĢ į
à¤ŀ à¤¸
à¥Įà¤Ĥ à¤Ĥ
à¤Ĩà¤Ī à¤ıà¤¸
ha p
à¤° à¤ł
à¤µ à¤ħà¤°
Ġà¥§à¥© à¥ª
ic s
à¥ ŀ
à¤Ī à¤°à¤²
Ġà¤¸à¤¯ à¤¸à¤®
ĠL e
Ð°Ð ·
P h
à¤¤ à¤£
à¤ı à¤®à¤²
à¤ĩà¤Ł à¤¬
à¤°à¤® à¤Ń
Ġà¤ķà¤® à¤²à¤ķ
à¤ıà¤¸ à¤ıà¤¸à¤¬
at er
à¤® à¤¡
Ġà¥¨à¥¬ à¥¦
ay s
oc u
à¥¯ à¥ª
à¤Ĺà¤łà¤¨ à¤¬
ĠS EE
à¤ª à¤¦à¤ķ
à¤¸à¤¨ à¤ª
à¤ħ à¤°à¤ķ
f e
à¥Ī :
à¥® à¥¨
Ġà¤¹à¤ķ à¤ħà¤§
Ġà¥§à¥¯à¥¬ à¥¨
Ġà¤° à¤¬à¤°
à¤§ à¤§à¤°
Ġà¤ªà¤¸ à¤²à¤²
à¤Ń à¤Ī
à¤¾à¤ģ -
Ġà¤¡ à¤ķà¤°
à¤µà¤° à¤¸à¤®
Ġà¥¨à¥¦à¥ª à¥§
im al
Ġun d
à¤¹ à¤²à¤Ĺ
à¤¥ à¤¸à¤ļ
à¤ĸ à¤Ĺà¤ŀ
à¤ĺ à¤·
Ġà¤Ł à¤£
à¤ĩà¤¨ à¤ĸà¤¬à¤°
Ġà¤®à¤² à¤ĸ
ic ros
ĠN A
Ð° Ðº
Ġà¥§à¥¯à¥® à¥¨
à¤£ à¤ľ
à¤¯à¤¸ à¤¨à¤ķ
à¤ļà¤¨ à¤¸
à¤¯à¤£ à¤¸
ar a
à¤Ĩà¤Ī à¤Ł
Ġà¤Ĺà¤° à¤®
à¤ĩ à¤¤à¤²
Ġà¤ħà¤Ń à¤¯
Ġà¤µà¤¨ à¤ľ
ro w
à¥ģ à¥Įà¤ģ
à¤Ī à¤µà¤¸
à¤ĩ à¤ķà¤ķ
à¥¯ à¥§
Ġà¤¬à¤² à¤ª
Ġà¤ı à¤²à¤¬
Ġà¤¡ à¤Ļ
à¤¶à¤ķ à¤¸
à¤®à¤¹ à¤²
.... ...
Ġà¤ħà¤« à¤¨
Ġà¤¨à¤Ĺ à¤Ī
our ce
Ù ĩ
à¤¸à¤® à¤¯à¤ķ
Ġà¤®à¤² à¤¦
out ube
à¤¬à¤ĸ à¤¤à¤®
Ġ our
à¤¾ à¥ģ
à¤¤ à¤Ľ
Ġà¤ħ à¤¨à¤ķ
Ġà¤ľ à¤®à¤²
à¤ļ à¤¤à¤°
à¤ĸ à¤¬à¤¹
Ġà¤ķà¤® à¤¬
Ġà¤¬à¤² à¤µ
Ġc l
3 4
à¤¬ à¤¦à¤²
ĠD ur
Ġa cc
ĠB l
I C
à¥ĭ à¥į
à¥Ģ âĢĶ
à¤· à¤ĺ
Ġà¤¶ à¤µà¤¯
Ġà¤ĵ à¤®à¤ķ
à¤ıà¤¨ à¤ıà¤¨
à¤Īà¤ĵ à¤Ł
à¤Ļ à¤ĸà¤²
Ġà¤ĸà¤¬à¤° à¤ªà¤¤
à¥¦à¥¬ à¥¨
b e
à¤ĸ à¤ªà¤¢
Ġà¤ªà¤° à¤ľ
Ð¸ Ðµ
à¤ª à¤¸à¤¹
à¤Ļ à¤Ń
à¤µà¤¨ à¤ļà¤°
à¤Ĺà¤² à¤¤
à¤ıà¤« à¤ıà¤ķ
Ġà¤ª à¤²à¤²
Ġà¤Ń à¤®
al e
Ġw ill
Ġà¥§à¥§ à¥¨
à¥¨à¥¦ à¥¦à¥Ń
Ġw e
Ġà¥§à¥¯à¥« à¥®
à¤µ à¤ľà¤¸
Ġà¤¬à¤¨ à¤Ń
à¥Įà¤Ĥ âĢĿ
... âĢĻ
à¥¯ à¥¬
à¤ĸà¤® à¤¯
icros oft
à¤®à¤¨ à¤°
Ġà¤ĵ à¤ķà¤²
Ġà¤¸à¤² à¤¹
à¤Ĩà¤ľ à¤ķà¤²
Ġà¤¦à¤¶à¤°à¤¥ à¤ļà¤¨
9 9
Â ©
à ©
à¤² à¤¸à¤²
à¤¯ à¤ªà¤¨
à¤ĩà¤ķ à¤¬
Ñ Ħ
à¤¹ à¤µà¤°à¤®
Ġà¤µ à¤«
Ġà¤ļà¤° à¤¨
3 2
ä »
å ħ
à¤® à¤¢
Ġà¤ľà¤¨ à¤¬
à¤¯à¤° à¤¡
ĠA ction
à¤¶à¤¨à¤² à¤²
Ġà¤· à¤·
à¤¹à¤¨ à¤¤à¤ķ
ĠÐ ·
form ation
à¤Ĺ à¤µà¤£
Ġà¤ªà¤¦ à¤µ
Ġà¤ªà¤¦ à¤®à¤ª
Ġà¤ħà¤« à¤¸
ï¿½ "
3 8
S t
Ġ áĥ
à¤¦ à¤ľ
à¤ķà¤® à¤¨
Ġà¤ľà¤¨à¤® à¤ŀ
Ġà¤¦à¤° à¤µà¤¨
Ġà¥§à¥§ à¥¦à¥¨
à¤¯à¤¸à¤¬ à¤ĸà¤¤
ĠN ot
à¤ļ à¤²à¤¬
Ġà¤ī à¤łà¤¨
m and
à¤Ļ à¤¨
à¤ļà¤¸ à¤¯
________ ________
ide o
à¤Ĺ à¤ı
Ġà¤ĵ à¤ĩà¤²
ĠP h
Ð¾ Ñģ
à¤¿ (
à¤¸ à¤²à¤ķ
Ġà¤Ĩ à¤µà¤°
à¤ĩ à¤¶
à¤¯à¤² à¤¸
à¥Įà¤ģ, âĢĿ
Ġ ï¿½...
Ġà¤Ĩ à¤²à¤®à¤²
Ġà¤² à¤Ľ
à¤µà¤°à¤£ à¤¬
Ġà¤ıà¤ħ à¤°à¤²
ĠÐ½ Ð°
con om
à¤¸à¤¨ à¤¦
à¤®à¤¨ à¤ª
Ġà¤® à¤¤à¤®
Ġà¤ľ à¤ľ
à¤Ī à¤ı
à¤ĩ à¤¤à¤¬
Ġà¤Ŀ à¤¯
Ġà¤Ŀ à¤®à¤ķ
6 6
Ð ¶
à¤® à¤ķà¤²
Ġà¤ĺ à¤¨à¤¤
à¤¯à¤¸ à¤ŀ
ĠÐ ³
k ed
l and
à¤µ à¤Ļ
à¥Įà¤Ĥ /
à¤¶à¤¨ à¤²à¤ķ
à¤¸à¤¦ à¤µ
à¤ıà¤® à¤Ł
à¤¸à¤µ à¤¹à¤°
Ġp e
ĠPolic y
à¤ı à¤¤à¤²
à¤Ĩ à¤°à¤®
Ġ- ---
Ġà¥§à¥¯à¥® à¥®
4 9
à¤Ń à¤ª
Ġà¤ľà¤¨à¤ķ à¤°
T op
à¤· à¤ªà¤¹
à¤ªà¤¨ à¤¦
Ġà¤Ĩà¤¯ à¤µ
Ġà¤¤à¤ª à¤¶
Ġ, ,
à¤¸à¤¬ à¤ķ
Ġà¤ıà¤¨ à¤ıà¤¸
ĠP ortal
Ġà¥¨à¥¦à¥¨ à¥ª
n y
à¥ĩ ..
à¤§ à¤°à¤£à¤²
à¥ĥ âĢĻ
à¤Ĩ à¤°à¤²
in s
ĠN ew
à¤£ à¤Ńà¤ķ
Ġà¤Ĩà¤° à¤ıà¤¸
Ġà¤ħà¤²à¤Ĺ à¤ħà¤²à¤Ĺ
Ġà¥¨à¥¦à¥© à¥§
à¤¸ à¤¥
Ġà¥§ à¥¦à¥Ń
à¤ıà¤¸ à¤ıà¤²à¤¸
Ġd es
à¤¥à¤ª à¤°à¤ķ
M S
à¤£ à¤²à¤Ĺ
à¤« à¤°à¤®
Ġ all
Ġà¤Ĺ à¤µ
Ġà¤īà¤ªà¤ķà¤°à¤£ à¤®
à¤° à¤ªà¤²
à¤¦à¤¨ à¤¸à¤®
à¤µà¤² à¤Ĺ
Ġà¤ķà¤² à¤¸
à¤Ī à¤ıà¤«à¤ı
à¤ĵ à¤ıà¤¸
à¤µà¤¤ à¤¸
Ġ- "
Ġt r
Ġà¥¨à¥¦à¥© à¥Ń
Ġà¥¨à¥¦à¥© à¥®
Ġà¤Ĺà¤ł à¤¨à¤¸
Ð¸ Ð½
du c
Ġà¤ ĳ
à¤¸ à¤ľà¤¨
Ġà¤ª à¤¯
à¤Ńà¤Ĺ à¤µà¤¤
à¤¶ à¤Ńà¤¨
Ġà¤Ĩ à¤Ĺà¤®à¤¨à¤ķ
à¥¤ &
à¤¶à¤¤ à¤µ
à¤¸à¤¸ à¤¸
ing s
Ġà¥§à¥¯à¥® à¥§
Ġà¤Ĺ à¤®à¤Ĺà¤¢
Ġà¤īà¤ª à¤ľà¤ķ
Ġà¤¸à¤¡à¤ķ à¤ª
Ġà¥§à¥© à¥¬
Ġà¤Ńà¤µà¤¨ à¤¬
l ish
à¤¢ à¤Ĺ
à¤ĺ à¤¸à¤¸
à¤¨à¤² à¤Ļ
Ġà¤ķ à¤µà¤°
Ġà¤ķ à¤¹à¤°à¤ķ
Ġw ebsite
' '
à¤¨ à¤ĵà¤Ł
à¤ķ à¤Ĺà¤¢
à¤ı à¤¥
Ġà¤¬ à¤²à¤¬
à¤°à¤® à¤¸à¤¹
à¤°à¤® à¤¬à¤¦
Ġà¤ĸ à¤¦
on line
Ġà¥¨à¥¦à¥ª à¥ª
à¤®à¤ļ à¤°
Ġà¤®à¤¦ à¤¦
Ġà¤¶à¤ªà¤¥ à¤Ĺ
ĠFor um
à¤² à¤¸à¤ķ
Ġà¤¤ à¤µà¤°à¤®
Ġà¤Ĩ à¤°à¤¬
Ġà¤ľà¤¨ à¤°
à¤¯à¤¤ à¤µ
à¤ľà¤¯ à¤ªà¤Ľ
20 30
Ġst atus
P ost
à¤¹ à¤¬à¤°à¤®
à¤·à¤ķ à¤¸
å ¹
à¥Ģ !
à¤Ī à¤¨à¤¨
at s
ĠA ll
ĠâĢ¦ .
un icip
à¥ģ (
à¤°à¤¤ à¤²à¤Ĺ
ĠA D
ig h
Ġà¥§à¥¯à¥« à¥©
Ġ 00
à¤¡ à¤¤à¤°
à¤°à¤µ à¤ª
Ġp r
Ġ6 0
à¤¹à¤Ļà¤ķ à¤Ļà¤ķ
Ġle ad
à¤¿ à¤¿
Ġà¤¨ à¤¡à¤°
Ġà¤ľ à¤²à¤¨
à¤¨à¤ķ à¤¤
Ġà¤ĺà¤° à¤ĺà¤°
Ġà¥§à¥¬ à¥®
Ġà¥¦à¥¬ à¥Ń
à¥®à¥® à¥§
à¤® à¤µà¤¤
Ġà¤Ń à¤¯à¤²
Ġà¤ħà¤¸ à¤Ī
Ġà¤Ĩà¤¶ à¤¯à¤ªà¤¤
Ġà¤ĸà¤Ł à¤ªà¤Ł
Ð°Ð ²
å ı
à¤² à¤ľà¤¯
à¤ª à¤²à¤®
Ġà¤ı à¤ªà¤²
ĠC l
Ġd i
m e
r it
à¥į à¥ĭ
à¤² à¤µà¤®
à¤Ł à¤ªà¤¤
à¤¡ à¤µà¤¹à¤°
à¤¹ à¤¤à¤®
à¥Į âĢĿ
Ġà¥§à¥¯ à¥Ńà¥¬
ĠN o
ĠH e
ĠW ebsite
Ġà¤¸ à¤µà¤¸
Ġà¤¦ à¤¹à¤¨
à¤°à¤¦ à¤ķ
Ġà¤«à¤°à¤ķ à¤®
at es
Ġà¥§à¥¯à¥® à¥Ń
à¤µ à¤ĸ
à¤ı à¤¶à¤¨à¤ķ
à¤ł à¤²à¤Ĺ
Ġà¤¬à¤ļ à¤¤à¤ķà¤°
Ñģ Ñı
ateg ic
) ;
N T
à¤² à¤¯à¤¸à¤¹
Ġà¤¤à¤° à¤µ
à¤§à¤¨ à¤¸à¤®
Ġà¤ĺà¤° à¤¨à¤ķ
Ġà¤ħà¤¬ à¤²
à¤ıà¤® à¤ľ
à¤§ à¤ķà¤®
à¤°à¤® à¤¶à¤ķ
à¥Įà¤ģ âĢĻ,
à¤Ĺà¤® à¤Ĺ
Ġf in
ib le
à¤¾ ;
à¤¦ à¤¤à¤®
à¤Ł à¤Ľ
Ġà¤µ à¤¨à¤ª
à¤µ à¤°à¤¦
Ġà¤Ĩà¤ī à¤¥
ol d
Ġpass word
à¤Ŀ à¤ª
à¤ħ à¤®à¤°
à¤ķà¤° à¤Ń
Ġà¤ĭà¤£ à¤¬
à¤¬ à¤¤à¤¸
Ġà¤Ĩà¤ł à¤ľà¤¨
ÑģÑĤ Ð²
å ®
à¤Ī à¤¤à¤°
à¤Ĩ à¤¨à¤¨
al i
à¤²à¤ĸ à¤¬à¤°
4 1
Ġ 75
à¥Ĥ '
Ġà¤¨à¤Ĺà¤° à¤¸
à¤ķà¤°à¤£ à¤¤à¤°
ad io
ess age
ĠStr ategic
i x
à¤µ à¤¹à¤¨
à¤ıà¤¨ à¤ıà¤ķ
Ġà¥§à¥§ à¥¬
à¤ªà¤Ł à¤ķà¤®
ur k
Ġà¤ľà¤Ĺà¤¤ à¤¬à¤¹
à¤¥ à¤¨à¤Ĺà¤°
à¤ĩ à¤²à¤Ĺ
à¤ķà¤² à¤¸
Ġm an
Ġà¤Ŀà¤¡ à¤ªà¤ķ
Ġà¤® à¤°à¤®
Ġà¤ī à¤¤à¤°
Ġà¤ĸ à¤Ľ
à¤Łà¤¨ à¤°à¤ķ
à¤ļà¤° à¤Ļ
à¤¦ à¤¬à¤¦
Ġà¤Ľ à¤®
à¤²à¤® à¤ķ
Ġà¤ªà¤¤ à¤ŀ
Ġà¤Ĩà¤ļ à¤°à¤£à¤ķ
Ġà¤Ńà¤°à¤¤ à¤°
à¤²à¤ķ à¤¸à¤¹
à¤²à¤Ĺ à¤Ńà¤Ĺ
ak e
** **
à¤¯ à¤²à¤¬
à¤£ à¤Ń
à¤ĩ à¤ıà¤«à¤ı
Ġà¤ħà¤µ à¤¯à¤µ
Ġà¥§à¥ª à¥®à¥®à¥§
ĠS c
it al
Ġs ms
à¥§à¥ª à¥®à¥®
à¤¦ à¤¸à¤¤
Ġà¤¦ à¤¸à¤ķ
Ġà¤ļ à¤¯à¤¨à¤®
à¤°à¤£ à¤µà¤¶
Ġà¤¹à¤° à¤«
Ġà¤ħà¤ª à¤ļ
Ġà¥¨à¥¦à¥¨ à¥¬
nepal news
à¤ķ à¤°à¤¸
à¤ª à¤ķà¤®
à¤µà¤° à¤µ
à¤£à¤¯ à¤¸à¤®
à¤Ķ à¤ªà¤ļ
à¤¶à¤¹à¤° à¤®
Ġà¤ĵà¤Ńà¤° à¤Ł
à¤® à¤ł
à¤µ à¤¥à¤¯
à¤Ĺ à¤«à¤²
Ġà¤§ à¤®à¤¨
à¤ħ à¤¸à¤¨
Ġà¤ıà¤¸ à¤¬
ãģ Ĺ
à¤¤ à¤ªà¤°
à¤¸ à¤¹à¤¨
Ġà¤ĺ à¤¨à¤®
à¥Įà¤Ĥ ||
à¤Ĺà¤ķ à¤Ļ
à¥ģà¥¤ âĢĿ
ĠK oh
ordin ator
à¤¬ à¤¤à¤¬
Ġà¤Ľ à¤ªà¤ķ
à¤·à¤£ à¤ķà¤°
à¤²à¤¨ à¤ļ
à¤ĥ âĢĵ
à¤ªà¤£ à¤®
5 6
Ġà¤¹à¤° à¤ªà¤²
Ġà¤¸à¤¯ à¤µà¤Ł
à¤¬à¤² à¤Ł
Ġà¤Łà¤¨à¤ķ à¤ª
á »
Ġà¥¦à¥¬ à¥§
L S
ģ Ħ
à¤Łà¤¨ à¤°à¤¸
ç Ķ
à¥¯ à¥Ń
à¤ĩà¤¨à¤² à¤¬
à¤¦à¤¶ à¤¨à¤®
à¤¨à¤Ń à¤°à¤ķ
ĠDur ation
à¤® à¤·
Ġà¤Ľ à¤ļà¤²
à¤ĸ à¤µà¤°
Ġà¤ı à¤²à¤¸
à¤¤à¤° à¤µà¤¸
Ġà¥§à¥© à¥®
ïģ ¶
Top nepalnews
S E
Ġà¥©à¥¬ à¥«
Ġà¤ľ à¤¯à¤¸
Ġà¤² à¤ļà¤ķ
âĢ¦ ..
et ail
à¤ĺà¤Ł à¤¨à¤ķ
G C
à¥ģ !
Ġà¤¬à¤² à¤Ńà¤¦
à¤ķà¤Ł à¤ª
T E
ï Ģ
à¤² à¤ħà¤ĺ
Ġà¥¤ âĢľ
Ġà¤°à¤ķà¤® à¤®à¤§
b le
à¤° à¤ªà¤ķ
à¤¦ à¤°à¤¹
Ġà¤¨ à¤ķà¤®
Ġà¤ıà¤ķ à¤¦à¤²
or s
ĠM icrosoft
iv ers
à¤¶ à¤µà¤ª
à¤¨à¤® à¤°
Ġ0 9
à¤ĩ à¤ĸ
à¤Ŀ à¤°
à¤¶à¤¨ à¤¦
à¥® à¥¦à¥¦
or n
Ġas ked
unicip ality
L D
à¤¤ à¤ĸà¤¤
à¤ª à¤²à¤Ĺ
Ġà¤§ à¤¬
Ġà¤ĵ à¤¨
à¥¯ à¥©
Ġh el
l es
à¤² à¤Ī
à¤¥ à¤¡
Ġà¤Ĳ à¤¨à¤¹à¤°
Ġà¤Ĩà¤ķ à¤·
Ð¾Ð ±
Ġà¥§à¥¯à¥« à¥¯
ĠðŁ Ļ
à¤·à¤§ à¤°à¤¹à¤°
à¤° à¤ľà¤²
à¤® à¤²à¤®
à¤®à¤¨ à¤¦
à¤°à¤ª à¤¥à¤ķ
ic es
ro p
à¤ı à¤ĩà¤®
Ġà¤Ń à¤°à¤¤à¤ķ
à¤Ĺà¤Ń à¤Ļ
cri pt
, âĢĺ
à¤ļ à¤Ļ
Ġà¤Ĳ à¤ļ
à¤®à¤¬ à¤ľ
ĠM B
Ġin t
áĥ Ĳ
Ġà¥§à¥¯à¥Ń à¥§
Ġà¤Ĩ à¤¦à¤¨à¤ª
à¤ī à¤§
Ġà¥¨à¥¬ à¥Ń
Ġà¤Ĺà¤ľ à¤²à¤²
ub lic
Ġà¤¨à¤ħ à¤ªà¤¨
Ġà¤¬ à¤¬à¤¨
à¤·à¤£ à¤ªà¤¤
à¤¸à¤¹ à¤ľ
âĨ Ĳ
à¤® à¤°à¤¸
à¤¹ à¤Ļ
Ġà¤ľ à¤¯à¤¶
Ġ? ??
re n
m er
à¤¦ à¤¶à¤ķ
à¤§ à¤µà¤²
à¤¹à¤¨ à¤µ
7 6
Ġà¤° à¤¸à¤®
Ġà¤ħ à¤²à¤ķ
à¥Įà¤ģ à¤Ĥ
à¤®à¤® à¤§
à¤¬à¤² à¤¸à¤®
à¤¨à¤Ĺà¤° à¤¸
Ġà¤¬à¤ļ à¤¤à¤®
à¤Ĭ à¤®
ore a
Ð¸ Ð¹
r al
à¤µ à¤Ńà¤¨
à¤¶ à¤²à¤ķ
ĠB h
Ġà¥¦à¥¬ à¥¬
S S
Ġà¤¤ à¤®à¤¸
à¤²à¤Ĺ à¤¹à¤°
ou nc
Ġà¤ļà¤°à¤£ à¤¹à¤°
à¤Ł à¤ĸ
à¤ļ à¤Ń
à¤²à¤ķ à¤¸
Ġà¤Ĩà¤¯ à¤¶
à¥ĭà¥¤ "
Ġà¤Ŀ à¤ª
à¤Ĩà¤¦ à¤°à¤£
à¤¨ à¤¸à¤¨
à¤µ à¤¬à¤ľ
à¤Łà¤° à¤Ń
à¤²à¤¡ à¤®à¤¨
Ġà¤®à¤Ĺ à¤ľà¤ķ
à¤ĭ à¤£
F ield
w an
à¤¸ à¤£
Ġà¤¸ à¤¥à¤ª
Ġà¤Ĩà¤ı à¤ľà¤¸
à¤ľà¤Ń à¤¤
Ġha s
Ð¾Ð³ Ð¾
âĢĻ âĢĶ
Ġà¤¨à¤µ à¤īà¤¦
à¥Įà¤Ĥà¥¤ âĢĿ
it ed
Ġe le
à¤Ńà¤ªà¤¤ à¤¨à¤ķ
j ect
à¤ķ à¤°à¤¬à¤°
à¤Ĥ ...
à¤ĩ à¤¤à¤ķ
à¤¾à¤ģ âĢĻ
L E
à¤ªà¤° à¤ľ
à¥ĭà¥¤ [
Ġà¤ªà¤¦à¤® à¤¬à¤¹
à¤¯ à¤¯à¤®
à¤¸ à¤ıà¤ķ
Ġà¤ª à¤¥à¤ª
à¥Ĥ à¥į
à¤ĩ à¤®à¤²
à¤°à¤® à¤ªà¤Ľ
Ġà¤¸à¤ľ à¤Ĺà¤¤
à¤°à¤¥ à¤°
Ġà¤ĸà¤² à¤Ļ
i ed
p ort
à¤§ à¤Ńà¤°
à¤ł à¤¤à¤®
à¤¸à¤² à¤°
Ġà¤Ńà¤µà¤¨ à¤Ń
u res
Ġà¤¤ à¤²à¤¤
à¤°à¤¹ à¤¸à¤®
Ġà¤¸à¤¬ à¤¥
Ġà¤¸à¤®à¤¯ à¤¬
Ġà¥§à¥Ń à¥¬
ar ch
Ġà¤¸à¤¹à¤° à¤¬
à¤µ à¤Łà¤®
Ġà¤² à¤¹à¤²
Ġà¤¸à¤® à¤¤à¤²
Ġà¥§à¥© à¥«
Ġà¥§à¥¬ à¥¬
à¤¯à¤ľà¤¨ à¤¬
rig ht
l ig
Ġà¤ħà¤¨ à¤¸
à¤²à¤ķ à¤¦
Ġà¤Ŀ à¤Ŀà¤²
à¤®à¤¬ à¤¦
Ġà¤ıà¤« à¤ıà¤®à¤¬
ĠÙ ħ
à¤¿ Ã·
à¤¹ à¤Ĺ
à¤ī à¤¦à¤ķ
à¤®à¤® à¤£
Ġà¥§à¥¨ à¥¯
Ġà¥§à¥Ń à¥¦
ĠC ha
ĠM unicipality
à¤¾ ï¿½
Ġb usiness
,, ,
IN G
à¤ı à¤Īà¤¸
à¤¤à¤ķ à¤¬
à¤Ĩ à¤ĩà¤ķ
Ġà¥§à¥§ à¥®
ĠTr ans
à¤µ à¤£à¤²
à¤ĩ à¤ħà¤ķ
à¤¤à¤¨ à¤§
Ġ0 6
å ¤
à¤« à¤²à¤®
à¥Įà¤ģ âĢĿ
Ġà¥¨à¥Ń à¥«
Ġà¤Ĺà¤ĩà¤°à¤¹ à¤¨
Ġart icle
à¤§à¤¨ à¤¸à¤¹
Ġ200 6
Ġy ear
à¤ı à¤Łà¤°à¤ķ
à¤Ń à¤¡
Ġà¥¨à¥¦à¥¨ à¥©
Ġ4 5
ul s
if ic
à¥ĭ ',
à¤£ à¤ĸ
à¤¯à¤ķ à¤¸
Ġà¤¬à¤¸ à¤°
à¤¦à¤° à¤ª
Ġà¤ħà¤ª à¤Ĺ
à¤® à¤¬à¤°
à¥ģ âĢĿ,
ĠM an
conom ic
å Ĳ
à¤¹ à¤£à¤®
âĢĻ à¥¤
à¤¤à¤ķ à¤¤
à¤Ĩ à¤®à¤®
à¤¨à¤¨ à¤¸à¤ķ
Ġà¤ľà¤¸ à¤¸
Ġà¤Ĩà¤ĩ à¤ıà¤¨à¤ľ
Ġ- ----
Ġà¤ľà¤¨à¤¸ à¤ĸ
tern ational
à¥į.. !!
à¤¨ à¤°à¤¤
Ġà¤° à¤Ĺ
Ġà¤ļ à¤ĸ
Ġà¤¢à¤ķ à¤®à¤ķ
Ġà¥¦à¥ª à¥®
a f
m ugu
à¤® à¤§à¤¨
Ġà¤Ĩ à¤¶à¤ķ
à¤Ń à¤ľà¤¨
à¤¯à¤¸ à¤ªà¤¶
Ġà¤ħà¤§ à¤ķ
à¤ħ à¤ªà¤®
à¤²à¤¯ à¤µ
à¤Īà¤ķ à¤²à¤®
ĠN ext
ãģ Ł
Ġà¤¬à¤¸ à¤¸
à¤§à¤¨ à¤Ĺ
Ð° Ñı
Ġà¤ľà¤®à¤ĺ à¤Łà¤®
g h
à¤¹à¤¨ à¤ª
Ġà¤¬à¤² à¤ľà¤«
à¤ĩà¤² à¤Łà¤ķ
Ġà¤¥à¤ª à¤ĺà¤Ł
Ġà¤¨à¤Ĩ à¤ıà¤¸à¤®
à¥¨à¥¦à¥¬ à¥¯
A pril
C O
a pp
Ù Ĭ
à¤° à¤ıà¤ķ
à¤² à¤µà¤°
à¤Ĺ à¤ªà¤ŀ
à¤§ à¤¸à¤Ń
à¤¹à¤° à¤ª
à¥ĭâĢĵ âĢĺ
ĠÐ¾ Ð±
i um
à¥į à¥Ī
à¥Ĥ :
à¥Į ?
à¤ª à¤Ń
à¤£à¤¯ à¤ªà¤Ľ
à¤®à¤£ à¤¹à¤°
Ġà¥§à¥¬à¥« à¥©à¥ª
Ġ `
à¤¤ à¤¡à¤®
Ġà¤¸ à¤¨à¤ķ
Ġà¤Ĩ à¤¸à¤®
à¤¹à¤ķ à¤¸
an a
Ġà¤Ĩà¤Ī à¤¡à¤²à¤ķ
I ON
à¤Ī à¤Ī
Ġà¤ħà¤§ à¤°
Ġh e
Ġà¤¶à¤°à¤¦ à¤ķ
à¤¶ à¤¤à¤°
à¤ī à¤·
à¤°à¤¹ à¤¥à¤µ
à¤ħ à¤µà¤¸à¤°
à¤¸à¤¨ à¤¹
ĠB o
oc al
Ġà¥§à¥¯ à¥§à¥¦
Ġà¥§à¥Ń à¥«
Ġà¥¨à¥® à¥¦
Ġ0 1
à¤ı à¤¨à¤²
à¤« à¤¸à¤²
à¤¯à¤® à¤ªà¤ŀ
Ġà¤¤à¤² à¤¸à¤®
ĠC ent
à¤¼ ,
p os
à¤° à¤ħà¤°
Ġà¤Ń à¤°à¤£
Ġà¤Ĺà¤° à¤¨
à¤¸à¤® à¤§
à¤ıà¤¸ à¤ıà¤¸à¤ª
ĠÐ °
ur a
Ġà¤¹à¤¦ à¤¬à¤¨
Ġà¤ ŀ
à¤ª à¤¸à¤¹à¤°
Ġà¤¨ à¤¤à¤®à¤¸
Ġà¤¬ à¤¶
à¤ĸ à¤ªà¤¤
à¤ħ à¤¨à¤®
à¤°à¤¸ à¤¯
Ġà¥§à¥¨ à¥¬
à¥Įà¤Ĥà¥¤ '
ĠR ong
C H
Ġà¤¨ à¤µà¤¸
à¤ľ à¤ħà¤¨
à¥Į -
à¤ŀ à¤¬à¤¹
à¤ıà¤¨ à¤ıà¤®
ĠâĢĵ âĢľ
Ġ8 0
d e
Ã ³
à¤¤ à¤ĭà¤·
à¤¤à¤² à¤¤
Ġà¤ĸà¤¸ à¤ĸà¤¸
GC DP
à¤¬ à¤°à¤¤
Ġà¤Ńà¤¯ à¤Ń
Ġà¤ıà¤® à¤ıà¤¸
Ġà¥§à¥¯ à¥Ńà¥ª
à¤¨à¤Ĺà¤° à¤Ń
Ġà¤²à¤¹à¤² à¤¹
à¤ļ à¤¢
à¤ĸ à¤¨à¤¬
Ġà¤« à¤°à¤®
Ġà¤®à¤¨ à¤¬
Ġà¤ĺà¤° à¤ľà¤®
à¤°à¤ª à¤Łà¤ķ
Ġà¤¨à¤ļ à¤¢
à¤² à¤°à¤¹à¤°
à¥Ģ &
Ġà¤ª à¤§
à¤¦ à¤¯à¤¦
à¤ľ à¤µà¤²
à¤ĩ à¤ľà¤²
à¤ħ à¤£
Ġà¤īà¤ª à¤ķà¤°à¤£à¤²
Ġà¤Ńà¤ı à¤Ŀ
Ġà¤¸à¤¡à¤ķ à¤¸à¤®
ĠAug ust
d dc
â ģĦ
à¤® à¤ªà¤°
à¤¹ à¤ľà¤¸
à¤°à¤ļ à¤²à¤¨à¤²
Ġ20 00
07 5
à¤²à¤Ĺà¤° à¤¹à¤°
à¥ Ľ
Ġà¤ľ à¤ķà¤¡
à¥Ĥ ...
à¤ľà¤® à¤¸
à¤µà¤¯à¤® à¤²
ĠW h
à¤¿ ),
Ġà¤® à¤Ńà¤¨
Ġà¤µ à¤·à¤°
Ġà¤¦à¤² à¤¦à¤²à¤®
à¤µà¤Ń à¤°à¤¬
Ġà¥©à¥¨ à¥¦
à¤®à¤¯ à¤¦à¤°
à¤ļà¤¥ à¤°à¤®
à¤¦ à¤īà¤¨
Ġà¤¯à¤¸ à¤ħà¤°
Ġà¤ĺà¤° à¤ĸà¤°
à¥ĩà¥¤ âĢĻ
7 7
Ġ ro
à¤ı à¤Ĩà¤°
Ġà¤Ĩ à¤Ĺà¤®à¤¨à¤®
Ġà¤ħà¤¨ à¤¸à¤¨à¤ķ
ĠP AR
à¤Łà¤°à¤¸ à¤¹
Ġà¥¨à¥¦à¥¨ à¥Ń
à¥¨à¥¦à¥§ à¥«
à¤µà¤¸à¤¹ à¤®à¤¤
ĠÂ« Â»
Ġ1148 6
Ġmin ut
à¤µ à¤ħà¤ĺ
à¤ľ à¤¯à¤°
à¤· à¤¬à¤¹
à¥Ĥà¤ģ ,
Ġ1148 5
Ġà¤° à¤®à¤¨
à¤¬ à¤ĺ
à¤Ī à¤ĸ
à¤ĩ à¤Ńà¤®
Ġà¤ıà¤² à¤Īà¤¡
Ġof f
ech n
à¤¡ à¤Ł
Ġà¤®à¤¹à¤° à¤²
Ġà¤ªà¤¥ à¤Ń
o f
à¤¦ à¤°à¤¦
à¥Ī à¥Īà¤Ĥ
à¤ªà¤° à¤¦
à¤ªà¤® à¤¤à¤ķ
à¤²à¤¬ à¤¦
Ġà¤Ĩà¤ĩ à¤ķà¤¨
Ġà¥¨à¥¦à¥¨ à¥¯
Ð¸ Ð¼
Ġ7 8
Nepal i
J U
Ġà¤Ĩà¤īà¤¨ à¤ķ
à¤°à¤Ļ à¤¬
à¤Ĩà¤ĩ à¤ıà¤¸
ch ool
Ġà¥§à¥¯à¥Ń à¥®
à¤ľà¤¯à¤¨ à¤Ĺà¤°
ĠArt ists
à¤ĩ à¤®à¤®
à¤« à¤¯
à¤Ļ à¤¡
à¤Ĩ à¤¤à¤®
Ġà¥§à¥© à¥©
à§ ĩ
à¤Ĺ à¤ĸ
à¥¤ âĢ¦
Ġà¤§à¤¨ à¤¸à¤®
à¤¸à¤¹à¤° à¤ķ
ul l
ik news
if e
Ġ1148 7
à¤ļ à¤Ł
à¤Ń à¤²à¤²
Ġà¤ļ à¤ķà¤¨
Ġà¤°à¤ķà¤® à¤¸à¤¹
à¤®à¤¸ à¤Ļ
Ġà¤¯à¤® à¤¨à¤®
Ġà¥¦à¥« à¥®
Ġà¤® à¤Ń
Ġà¤ľ à¤ļ
à¤¡ à¤°à¤¬
à¤¨à¤® à¤£
Ġà¤ħà¤¸ à¤°à¤¹à¤°
à¤°à¤ļ à¤²à¤¨à¤ķ
Ġà¥§à¥¨ à¥©
ĠC on
T A
à¤Ł à¤Ļ
Ġà¤Ķ à¤ķ
Ġà¤Ī à¤ŀ
Ġ206 8
à ½
à¥ĩ Â¥
à¤® à¤¦à¤²
à¤¬ à¤Ĺà¤°à¤®
Ġà¤īà¤¡ à¤¨
et s
ec ond
Ġà¥§à¥¯à¥ª à¥®
à¤¨ à¤Łà¤®
Ġà¤īà¤ª à¤ķà¤ª
Ġà¤ªà¤¹ à¤²à¤²
Ġà¤ħà¤¹ à¤µ
Ġà¤ĺà¤° à¤Ńà¤¨
à¤°à¤ľ à¤¨à¤ķ
Ġre s
à¤ĭ à¤¤
Ġ 07
à¤¯ à¤°à¤¶
à¤¬ à¤°à¤¹à¤°
à¤¡ à¤°à¤µ
Ġà¤ªà¤² à¤¹à¤°
Ð¸ Ð¸
ĠE ng
ÅĴ à¤µ
Ġcom mun
mand u
R NA
à¤¿ à¥ĥ
à¤Ľ à¤ł
à¤¯à¤¤ à¤¹à¤°
Ġà¤ħà¤¸ à¤Ń
Ġà¤īà¤¨ à¤¬
ight s
8 6
S h
Ġà¤Ĺ à¤ıà¤¸
Ġà¤Ľ à¤°à¤ªà¤¸
à¤¥ à¤Ńà¤¨
à¤£ à¤¶à¤®à¤¶
à¤Ĭ à¤¦
m m
à¥ ¥
Ġà¤¦ à¤ĸà¤²
à¤ĺ à¤¤
Ġà¤ľà¤¨ à¤ªà¤°
à¤°à¤¹ à¤ª
Ġà¤¯à¤¸ à¤¬à¤°
à¤²à¤Ĺ à¤ĩà¤¨
Ġà¥¨à¥© à¥¦
Ġà¤¨à¤Ĺ à¤¦à¤®
ĠNE PAL
à¤° à¤ħà¤ĺ
à¥ĭ ),
Ġà¤ħà¤¨ à¤µ
Ġà¤ĸà¤ªà¤¤ à¤ķ
à¤Łà¤¦ à¤¹
, "
5 9
o ber
Ø ³
Ġ ed
Ġà¤ª à¤·
à¤Ĺ à¤ªà¤Ľ
Ġà¤¹ à¤ķà¤µ
à¤¸à¤¦ à¤¦
à¤°à¤¥ à¤®à¤¤
Ġ3 6
4 3
y l
æ Ĺ
à¤¸ à¤ħà¤«
à¤Ń à¤ıà¤®
Ġà¤¸à¤¯ à¤ľà¤¨
Ġà¥¨à¥¨ à¥¦à¥¦
ĠE duc
we et
R O
w ard
à¤§ à¤Ĺà¤¯
à¤£ à¤¯à¤¨
à¤Ń à¤°à¤²
Ġà¤¡ à¤°à¤ķ
Ġà¤®à¤¨ à¤¶
à¤²à¤¯ à¤ª
an ch
Ġà¤ħà¤ªà¤¹à¤°à¤£ à¤ªà¤Ľ
anc ial
Ph one
å Ĩ
Ġà¤¹ à¤°à¤¦à¤®
à¤ĩ à¤¤à¤°
à¤°à¤¹ à¤¯
Ġn ew
à¥ģà¤ģ âĢĻ
à¤ķ à¤µà¤°
à¤µ à¤Īà¤®
Ġà¥ ¥
Ġà¤Ń à¤¸
à¤¥ à¤¨à¤²
Ġà¤¸à¤® à¤§
Ġà¤ıà¤ķ à¤¢
à¤ĵ à¤¹
Ġà¤¹à¤Ļà¤ķà¤Ļ à¤¸
à¤Ĺ à¤µà¤¨
à¥Ī '
à¤ľ à¤¯à¤®
à¤ĩ à¤ħà¤¨
à¤¸à¤® à¤¤
à¤²à¤¨ à¤¦
Ġà¤ķà¤ł à¤ª
ĠE n
Ġ207 4
à¤Ľà¤² à¤«à¤²
M P
Ġ ),
Ġà¤¹ à¤Łà¤²
à¤¬ à¤ĩ
Ġà¤®à¤¨ à¤°
Ġà¥§à¥¨ à¥¨
Ġà¤°à¤ķà¤® à¤¸à¤®
ou ld
Ġ5 7
à¥¨à¥¦à¥§ à¥ª
Ð» Ñı
Ġ out
à¤° à¤Ŀ
à¤µ à¤¶à¤¤
à¤¨à¤¸ à¤¯
Ġà¤Ĩà¤ľ à¤®
Ġà¤°à¤® à¤Ŀà¤®
à¤ĩà¤¬ à¤²à¤ķ
Ġ0 8
U TC
à¤§ à¤Ĺ
à¤¡ à¤ķà¤°
à¤¹à¤¨ à¤¤à¤²
Ġà¤¨à¤ľ à¤°à¤¬
Ġà¤µà¤¨ à¤ľà¤Ļ
Ġag o
à¤² à¤ªà¤®
Ġà¤Ĺ à¤ľà¤¬
à¤ľ à¤Ńà¤¨
à¥ĥ à¥į
à¤¸à¤² à¤§
ĠA l
E X
b o
i er
Ġà¤Ĺ à¤ıà¤¨à¤¨
à¤¶ à¤¬à¤¨
à¤®à¤¨ à¤Ĺà¤°à¤®
Ġà¤ľà¤¨à¤® à¤¤à¤²
Ġà¥©à¥¨ à¥«
Ġ3 5
Ġà¤¸ à¤¯à¤²
Ġà¤ľà¤¨ à¤¤à¤¨
Ġà¤¸à¤°à¤¸ à¤°
Ð¸ ÑĢ
Ġ5 8
oc ation
Ġlead ing
à¤¾à¤ģ à¥¤
Ġà¤ıà¤ķ à¤¹à¤ľ
à¤®à¤¨ à¤¹à¤°
à¤µà¤® à¤§
à¤¦à¤¶ à¤¨à¤ķ
ĠA arth
Ġà¤¤à¤²à¤¬ à¤¬
Ġn o
ãģ §
ra in
Ġà¤²à¤ĸà¤¨ à¤ī
g ram
à¤¸ à¤ł
Ġà¤¬ à¤µ
à¤¶ à¤£
à¤ļ à¤¯à¤¨
à¤¸à¤® à¤Ŀà¤¦
Ġà¤§ à¤¨à¤µ
Ġà¤¹à¤° à¤¸à¤®
Ġ200 5
ik e
à¤¾ âĢį
Ġà¤° à¤¶à¤®
à¤¡ à¤ľà¤¸
à¤¸à¤¨ à¤¸à¤¤
Ġpe ople
" à¥¤
ä ½
à¤ľà¤¨ à¤¦
à¤ĵ à¤¹à¤°
ĠF M
Ġà¤¨à¤Ńà¤ĩ à¤ķà¤¨
à¤Ī à¤²à¤®
Ġà¤ī à¤¸à¤¬
Ġà¤§ à¤¤
à¤ĩà¤¨ à¤¦
Ġà¤Ĺà¤¤ à¤¸
Ġà¤°à¤£ à¤ľ
ĠApp le
à¤® à¤ĺà¤°
à¤¦ à¤«
Ġà¤¨ à¤¸à¤ļ
à¥Į âĢľ
Ġà¤ıà¤ķ à¤¡
Ġà¤ıà¤® à¤Ł
Ġn epcal
ĠEduc ation
m it
Ġ u
à¤ķ à¤¥à¤°
Ġà¤ľ à¤¶
Ġà¤ħà¤° à¤¬à¤²
à¤ķà¤ķ à¤¥
à¤ªà¤£ à¤²
Ġà¤¨à¤¬ à¤¤
ãģ Ħ
à¤¾ !!!
à¤· à¤ľà¤¸
à¤Ĥ à¤Ĥ.
à¤łà¤ķ à¤¸à¤®
Ġà¥§à¥© à¥Ń
à¥Įà¤ģ à¤ĥ
ĠB I
à¤¼ à¤¿
à¤Ł à¤§
Ġà¤Ĩ à¤ıà¤²à¤Ĺà¤¤
à¤°à¤¤ à¤µà¤°
à¤°à¤¸ à¤µ
Ġà¤Ńà¤ı à¤Ľà¤¨
Ġà¤¢ à¤°
à¤ķà¤ª à¤¥
Ġà¤īà¤¡ à¤¡
à¥ĭâĢĵ âĢľ
ãģ «
y pe
Ġà¤Ĩ à¤¹à¤¤
Ġà¤ªà¤° à¤²
Ġà¥§à¥¨ à¥§
Ġà¤Ī à¤Ļà¤Ĺ
ÐµÐ ¹
Ġà¤ĸà¤µ à¤°à¤¦
m erica
à¤¨ à¤¨à¤ķ
Ġà¤® à¤Ĺà¤¨
Ġà¤¹ à¤¦à¤®
à¤¬ à¤¨à¤²
à¤ī à¤ŀ
Ġà¤°à¤¹ à¤¨à¤ķ
Ġà¤¨à¤ľ à¤°à¤¬à¤¨
à¤ĩà¤¤ à¤Ńà¤¨
Ġà¤Ŀà¤® à¤Ŀà¤®
k a
v is
à¤¨ à¤°à¤µà¤²
Ġà¤Ĺ à¤¹à¤ķ
à¤ı à¤®à¤®
âĢ ļ
Ġà¤¸à¤® à¤ļ
à¤¶à¤ķ à¤¦
à¤ĩà¤Ł à¤¹
Ġà¤®à¤¨à¤® à¤¸
Ġp re
Ð¾ ÑģÑĤ
ĠðŁĻ ģ
n et
à¤¤ à¤ħà¤²
à¤ļà¤¨ à¤ľà¤Ļ
Ġà¤¸à¤Ļ à¤ĸ
ĠâĢ¢ âĢ¢âĢ¢
ĠF S
Ġ4 8
ri v
à¤ĩà¤¨à¤ĸà¤¬ à¤°à¤¸
t ion
Ø ¨
à¤Ī à¤¬à¤¸
Ġà¤¥ à¤°à¤¥à¤°
et ter
à¥į ï¿½
à¤¸ à¤°à¤Ń
Ġà¤¹ à¤µà¤¨
à¤¶ à¤Ĺà¤°
à¤Ī à¤¤à¤²
à¤ĸ à¤¬à¤°à¤ķ
Ġà¤ĺ à¤¤
Ġà¤¸à¤ķ à¤²
Ġà¤īà¤¦ à¤¯à¤°
Ġà¥§à¥¬ à¥§
ĠP age
Ġà¤¬à¤§ à¤¶
a us
à¤¨ à¤¬à¤¨
à¤Ĺà¤² à¤ª
à¤ļà¤² à¤¨à¤ķ
I P
à¤Ļ à¤ľà¤¸
à¤°à¤Ń à¤²
à¤µà¤ķà¤ª à¤¬
áĥ ĺ
5 1
L C
T h
Ġà¤ Ĥ
Ġà¤¸ à¤¤à¤²
à¤¶ à¤¯à¤²
à¤Ń à¤¡à¤ķ
Ġà¤¨à¤Ĺà¤°à¤ª à¤²
à¤ıà¤¨ à¤Ł
à¤Ĺà¤ł à¤¬à¤¨
Ġà¤¹ à¤¥
âĢ ²
à¤ļà¤¨ à¤ħà¤ĺ
à¤¤à¤ķ à¤¸à¤®
à¤Łà¤¨ à¤°à¤²
Ġà¥§à¥¯ à¥ªà¥«
Ġà¥¨à¥¨ à¥«
en er
Ġà¤ĭà¤£ à¤¦
le ase
à¥ Ĳ
à¤¤à¤¨ à¤¦
Ġà¤®à¤¤ à¤¸à¤¹
Ġà¤¸à¤®à¤¯à¤¸à¤® à¤¯à¤®
ĠW e
ĠAarth iknews
K D
N ext
u f
à¤¬ à¤¤à¤²
à¤ĩ à¤¸à¤°
à¤¾à¤ģ à¥Ī,
Ġà¤ķà¤® à¤²à¤®à¤£
Ġà¤²à¤Ĺ à¤¹à¤°
Ġà¤Ĩà¤® à¤ļ
Ġà¤Ĳ à¤°à¤²
Ġà¤¡à¤²à¤° à¤Ńà¤¨
,, ,,
o y
å Ī
Ġ \
à¤¬ à¤°à¤¸
à¤£ à¤ķà¤°
Ġ3 2
à¤®à¤Ľ à¤®
olog y
h y
Ġà¤ı à¤¸à¤ķ
à¤ħ à¤ļà¤²
Ġà¤¡à¤²à¤° à¤¸à¤®
le d
à¥įâĢĮ ,
à¤µ à¤ªà¤°
Ġà¤¸à¤® à¤ªà¤¨
Ġà¤°à¤¹ à¤¨à¤¸à¤¹
en c
Ð¾Ð º
à¥į- âĢĺ
Ġà¥§à¥¯à¥Ń à¥Ń
FA merica
h C
à¤¹ à¤¸à¤ķ
à¤ĩ à¤ªà¤®
Ġà¤ı à¤¨à¤¬
à¤ľà¤¨ à¤¨
Ġà¤Ĩà¤° à¤§à¤¨
à¤¦à¤¨ à¤¸à¤¹
à¤ĵ à¤ªà¤¨
à¤ľà¤¯ à¤¦à¤¶à¤®
20 17
ãĤ Ĵ
lic ation
ĠIntern et
e y
à¥ģ à¥ģà¤ģ
à¤¹ à¤¨à¤®
à¤§ à¤¯à¤®
à¤ģ )
Ġà¤¥ à¤®à¤®
Ġà¤¢ à¤²à¤ķ
Ġà¥§à¥ª à¥¨à¥¦à¥«
am s
Ġà¤Ĺà¤« à¤Ĺ
IA FAmerica
n ar
Ġ _
à¤Ī à¤Łà¤ķ
à¥¤ )
Ġà¤Ĩà¤Ī à¤ıà¤¨à¤ľ
ĠM H
Ġà¤¨à¤Ĩ à¤īà¤²
ag es
ol le
Ġe conomic
å¹ ´
Ġà¤® à¤ĸà¤¨
à¤ļ à¤ĺà¤°à¤®
à¤ŀ à¤¨
Ġà¤ĺà¤° à¤Ĩ
Ġà¤Ĩà¤ı à¤¦
ri st
ow er
Ġà¥§à¥¯à¥Ń à¥¨
Ġminut es
r on
Ġ Ñĩ
Ġà¤¸ à¤¯à¤°
Ġà¤ª à¤¥à¤²
Ġà¤¹ à¤¤à¤ķ
à¤ĩ à¤Ńà¤ķ
à¤¶à¤ķ à¤¬
à¥ĭ, âĢĺ
à¤ķà¤¨ à¤¹à¤°
à¤²à¤¤ à¤¸à¤®
Ġà¥§à¥¬ à¥Ń
al th
Ġ5 00
Ġv ar
A C
Ġà¤¨ à¤°à¤¨
al d
ĠS u
ic o
à¥ģà¥¤ '
Ðµ Ðº
C om
g an
Ġà¤° à¤Ļà¤®
à¤ħ à¤ªà¤ķ
Ġà¤ħà¤ª à¤ļà¤²à¤¨
? "
a ir
o ice
à¤ķ à¤¸à¤¨
à¤ľ à¤²à¤ķ
à¤ľ à¤¯à¤¸
à¤ĸ à¤°à¤¬
à¤¤à¤° à¤¹à¤°
Ġà¤ł à¤¨
Ġà¥§à¥ª à¥«
on th
Ð° Ñģ
Ġt e
à¥¨à¥¦à¥« à¥®
2 074
à¤°à¤£ à¤¦
à¤Ĺà¤° à¤¬
à¤ħ à¤®à¤²
Ġà¤Ŀ à¤²à¤®à¤²
Ġà¤ħà¤ª à¤ľà¤¸
à¤ķà¤¸ à¤ª
à¤Ĩà¤° à¤Ĩà¤°
Ġp ortal
à¤Ĩà¤ĩ à¤¤à¤µ
b KD
m l
à¤¤ à¤²à¤²
à¤¹à¤° à¤¸
à¤°à¤® à¤¯
Ġà¤ĩ à¤¨à¤ķ
à¤Ĩ à¤ķà¤°
Ġà¥©à¥¦ à¥¦à¥¦
à¤°à¤ĸ à¤£
Ġà¤ķà¤²à¤® à¤ķ
Ġ9 0
Ġà¤ıà¤«à¤ı à¤®à¤²
ath mandu
à¤¨ à¤°à¤¹à¤°
à¤¹ à¤¨à¤¸
Ġà¥§à¥« à¥§
à¤®à¤ª à¤¹
ay a
rou p
c ent
à¥į (
à¤Ī à¤²à¤ķ
Ġà¤¡ à¤ļ
Ġà¤ıà¤® à¤ıà¤®
à¤²à¤µ à¤¹
à¤ĩà¤« à¤¸
à¸ ²
Ġ }
à¤¸ à¤°à¤¹à¤ķ
Ġà¤¨à¤Ĩ à¤¤
ĠØ ¨
v ent
Ġà¤¨ à¤Ĺà¤£
Ġà¤Ńà¤ı à¤Ńà¤°à¤ķ
Ġà¤ħà¤Ĺ à¤®
Ġà¥§à¥ª à¥ª
à¤¯à¤Łà¤¨ à¤¸
el y
Ġà¤¹à¤Ļà¤ķà¤Ļ à¤¬
qu e
à¤ľà¤Ĺà¤¢ à¤ķ
Ġà¤¬à¤ĸ à¤¤à¤ķ
u c
Ġ et
Ġ Ø§ÙĦ
à¤ķ à¤ªà¤¨
à¤ª à¤Ńà¤¨
à¤ĩà¤² à¤°
Ġà¥§à¥« à¥«
Ġà¥¨à¥§ à¥¦
Ġà¥ªà¥« à¥¬
ĠE th
ers ion
áĥĲ áĥ
à¥ĩ ;
Ġà¤® à¤°à¤¹
Ġà¤Ĺà¤¤ à¤¬à¤°
à¥Īà¤Ĥ âĢĵ
Ġm y
ĠA pril
ĠI t
Ã ¥
Ġà¤¬ à¤ķà¤°
Ġà¤ĵ à¤ļ
à¤¬à¤² à¤¤
Ġà¤¨à¤Ń à¤ĩà¤¸à¤ķ
à¤®à¤£ à¤ª
Ġà¤ıà¤² à¤ĩà¤¡
Ġà¥¦à¥« à¥¬
Ġà¤ħà¤®à¤² à¤¦
à¤ķà¤ħ à¤ªà¤ķ
online khabar
à¤¯ à¤¬à¤°
Ġà¤¹ à¤¦à¤ķ
à¤ĩ à¤¥
à¤« à¤°à¤ª
à¤Ĺà¤¤ à¤¬
Ġ? !
Ġà¤¸à¤¤ à¤ª
ĠR ep
à¤¨à¤Ĺ à¤ĩà¤°à¤¹
E D
o int
æ ĸ
ï ĥ
Ġà¤° à¤£à¤¸
à¥ĩ, âĢľ
Ġà¤¸à¤° à¤ª
Ġà¤Ĩà¤µ à¤¹
Ġà¥§à¥Ń à¥¨
à¤ĩ à¤«à¤ķ
Ġà¤ĸ à¤°à¤ķ
Ġà¤Ĩà¤Ī à¤ıà¤®
Ġ3 7
à¥¨à¥¦à¥ª à¥®
Ġà¤¸ à¤ľà¤ķ
Ġà¤ª à¤ľ
à¤ĺ à¤¸à¤®
Ġà¤Ĩà¤ľ à¤ªà¤¨
à¤¶à¤¬ à¤£
à¤¾ à¥ĭ
à¥į /
à¤° à¤¯à¤¸
à¤Ī à¤¸à¤°
à¤¹à¤° à¤¹à¤°
Ġà¤¸à¤¹ à¤Ĩà¤¯
Ġà¤¸à¤¨ à¤¸
Ġà¤ķà¤² à¤µ
Ġà¤Ĭ à¤ªà¤¸
Ġà¤¬à¤® à¤¬à¤¹
Ġc he
áĥ Ķ
; ,
à¤¾ ....
à¤·à¤£ à¤ħà¤¨
er ing
à¤ĩà¤ķà¤² à¤¬
ocu ments
v en
à¥ °
Ġà¤ª à¤µà¤¨à¤ķ
à¤¹ à¤²à¤¯
Ġà¤¸à¤® à¤¦
à¤ĩ à¤®à¤ķ
à¤ŀ à¤¦
à¤²à¤® à¤®
à¤®à¤¨ à¤µà¤®
Ġà¤ħà¤¬ à¤¶
à¤ķà¤¨ à¤¬
Ġà¤Ĩà¤¦ à¤¤
Ġà¤Ĩà¤ł à¤ªà¤¹à¤°
Ġm essage
it es
um p
à¥¨à¥¦à¥¬ à¥«
ĠOct ober
Ġnepal i
Ġà¤ ģ
Ġà¤Ń à¤ľà¤¨à¤ķ
à¤ıà¤ķ à¤¦à¤®
à¤·à¤§ à¤°à¤¤
à¥¦à¥® à¥¨
t aj
à¤¾ à¥ĥ
à¤¹ à¤¤à¤°
à¥¤ âĢĺ
à¤ĩ à¤«à¤®
à¤ħ à¤°à¤®
à¤Łà¤ķ à¤¹
Ġà¤ĵ à¤ıà¤¸
à¥Īà¤ģ à¤Ĥ
à¤¦à¤¶ à¤°à¤¥
ĠÐ Ł
etail s
à¤Ļ à¤Ľ
à¤·à¤ķ à¤¦
Ġà¤ıà¤® à¤ĵà¤¯
à¥ĩà¤Ĥ à¤ģ
Ġà¤«à¤² à¤¹à¤°
Ġà¤ļà¤ķ à¤ļà¤ķ
à¥Ģ. )
ac y
Ġà¤Ńà¤ĩ à¤ªà¤°
à¥įà¥Ģ à¥Ģ
R T
Ġà¤Ĺ à¤«à¤®
à¤ľ à¤¤à¤ķ
à¤¨à¤® à¤²
à¤ŀ à¤¬
Ġà¥§à¥« à¥¬
ĠS et
à¤ĩà¤¨à¤ĸà¤¬ à¤°à¤²
à µ
Ġà¤Ĺ à¤¨à¤°
à¤Ī à¤ıà¤¨
à¤Ĩ à¤¸à¤¨
à¤®à¤¤ à¤ª
Ġà¥§à¥§ à¥¯
Ġp er
Ġà¥¦à¥« à¥§
Ð°Ð ±
sh i
à¤µ à¤ªà¤¤
Ġà¤¸à¤¦ à¤¶
Ġà¥¨à¥Ń à¥¦
Ġs o
ĠB e
oc i
end ra
Ġà¥§à¥¯à¥ª à¥¯
Ġfin ancial
5 7
b log
Ġà¤¬ à¤£
Ġà¤µ à¤¦
à¤· à¤¤à¤®
Ġà¤ªà¤° à¤¬
Ġà¤ķà¤° à¤¸à¤®
à¤ħà¤¨ à¤¶à¤¨
Ġà¤īà¤ł à¤¬à¤¸
ĠÐ Ĵ
ĠVi ews
ĠNot ice
} }
à¤ª à¤ľà¤¸
Ġà¤ħ à¤¥à¤°
Ġà¤¹ à¤¬à¤²
à¥Į :
à¤Ĩ à¤ĵ
Ġà¤®à¤¦ à¤°à¤¸
Ġà¤Ĩà¤ł à¤µ
il y
Ġà¤ıà¤« à¤¡
à¥¨à¥¦à¥§ à¥¦
rad i
l i
Â ¨
à¥ģ à¥Ĥ
à¤¹ à¤Ń
Ġà¤° à¤°
Ġà¤¨ à¤Ĩà¤Ī
Ġà¤¬ à¤Ĺà¤²
à¤µà¤ķ à¤¬
à¤°à¤µ à¤®à¤¯
à¤¶à¤ķ à¤°
it s
nepal ik
à¤¯à¤¸à¤ªà¤Łà¤ķ à¤ķ
vel op
ĠUS B
Ġ Î
à¤µ à¤¢
5 2
L I
à¤¸ à¤¡à¤°
à¤ľ à¤²à¤®
à¤ľ à¤®à¤ķ
à¤ģ à¥¤âĢĻ
à¤ĵ à¤Ĩà¤°
Ġà¤Ĩà¤¸ à¤¨à¤®
um i
Ġà¤¸ à¤Ĺà¤°
à¤Ī à¤ªà¤²
à¤ī à¤ªà¤²
Ġà¤¯ à¤²à¤®
à¤µà¤¨ à¤µ
Ġp h
Ġa m
à¤®à¤°à¤£ à¤¶à¤ķ
Ġà¤¥à¤² à¤Ļ
vi ew
nepalik orea
S hare
à¤ľ à¤ĺ
Ġà¤Ľ à¤²à¤ķ
Ġà¤¸à¤® à¤¯à¤¤
à¤°à¤² à¤¯
à¤²à¤¨ à¤Ĺà¤°
Ġ201 9
Ġp art
ãģ ¦
Ġ200 4
à¤¡à¤¹ à¤²à¤®
Ġà¤ĸ à¤Łà¤¨
à¤²à¤® à¤¤
à¤ĵ à¤¡
id ent
ãĥ ¼
Ð°ÑĤ ÑĮ
C l
b l
Ġà¤° à¤¸à¤²
à¤ĩ à¤ŀ
Ġà¤¬à¤ļ à¤¤à¤ķ
Ġà¥¦à¥¬ à¥¦
T ube
u z
à¥ĩ |
à¤Ī à¤¸à¤¹
à¤Ĺà¤¤ à¤Ńà¤¨
Ġà¤Ĩà¤ĩ à¤¡à¤²à¤®
ĠÐ »
à¤ĩà¤¬ à¤²à¤®
à¤¾: -
ĠE taj
Ġà¤ĵà¤Ńà¤° à¤¡
ĠEtaj akhabar
à¤ķ à¤Ĺà¤£
à¤²à¤¯ à¤²à¤Ĺ
Ġà¤¨à¤¬ à¤ľ
à¤Ĩà¤®à¤® à¤¹
d o
à¤¸ à¤Łà¤°
à¤Ĥ âĢĵ
Ġà¤ľ à¤¯à¤¦
Ġà¤ıà¤ķ à¤ĸ
à¤·à¤£ à¤Ńà¤°à¤®
à¤·à¤¦ à¤¹à¤°
Ð¾Ð ¶
A S
à¥į "
Ġà¤Ľ à¤¯
à¤Ĩ à¤°à¤¬
à¤²à¤¨ à¤¤
à¥ĩ, '
Ġà¤ıà¤® à¤Ĩà¤°à¤ª
à¤²à¤¯à¤® à¤§
ad a
Ġ/ /
Ġà¤²à¤ĸà¤¨ à¤īà¤®
à¤¤ à¤¹à¤ķ
à¥Ĥ (
à¥« à¥ªà¥¦
Ġà¤ķà¤¸ à¤°à¤¤à¤®
à¤µà¤°à¤£ à¤¸à¤¹
à¤¡à¤® à¤Ľ
à¤ĩà¤ª à¤¬
ap os
In ternational
à¤® à¤°à¤²
à¤¦ à¤¯à¤°
à¤Ĺ à¤µà¤¶
à¤°à¤® à¤µ
à¤Łà¤¬ à¤²à¤¬
ãģ ª
à¤ħ à¤µà¤¤
à¤°à¤µ à¤£à¤ķ
Ġà¤¸à¤° à¤°
Ġà¤¬à¤° à¤«
ĠI S
us s
Ġà¤²à¤¹à¤° à¤®
Ġà¤ĺà¤ļ à¤ĺà¤ļ
aw az
y outube
Â ¬
Ġ ar
Ġà¤¨ à¤µà¤µ
Ġà¤Ľ à¤®à¤Ľà¤®
Ġà¤ı à¤ŀ
Ġà¤¯à¤¸ à¤¦
à¤ıà¤® à¤¡
Ġà¤ķà¤ª à¤Ł
il ity
à¤Ńà¤² à¤ªà¤°
à¤ªà¤¥ à¤¸
Ġà¥¦à¥« à¥¨
Â Ń
Ġà¤ķ à¤ļà¤¨à¤ķ
Ġà¤¨ à¤¥à¤ª
à¤ĺ à¤Ń
à¥ģà¤ģ ,âĢĻ
à¤µà¤ķ à¤ªà¤²
à¤¨à¤¨ à¤Ĺà¤°à¤®
à¤ľà¤² à¤¸à¤®
Ġà¤ıà¤¸ à¤¯
at ure
Ġà¤ľà¤¨à¤¸ à¤¤
ur n
Ġà¥§à¥¯à¥¬ à¥§
Ġà¤¨ à¤°à¤ª
à¤ľ à¤ľà¤¸
Ġà¤¶ à¤¤à¤µ
Ġà¤ľà¤¨ à¤¸à¤°à¤ķ
à¤ħ à¤ŀ
Ġà¥¬ à¥¦à¥§
Ġpro v
u ch
» ¿
Ġà¤¨ à¤Ńà¤°
à¤¬ à¤ªà¤Ľ
à¤£ à¤ªà¤¶
âĢĶ âĢĶ
à¤Ĩà¤ĩ à¤ı
Ġà¤ĸ à¤°à¤¸
à¤Ļ à¤µà¤°à¤ķ
à¤ķà¤® à¤®
à¤¦à¤¨ à¤Ĺà¤°
Ġà¥¦à¥« à¥¯
Ġà¤¬ à¤¥à¤¨
Ġà¤Ń à¤¡à¤ķ
à¥¦ à¥¦à¥¨
Ġà¤« à¤¯
Ġà¤Ĩà¤® à¤°
Ġà¤Ī à¤ľà¤°
ur g
Ġà¤®à¤¹ÅĴ à¤µà¤ķ
Ø§Ù Ĩ
B S
N ew
à¤Ĺ à¤Ĺà¤°
à¤īà¤¨ à¤¤à¤°
à¤¨à¤µ à¤¹
à¤¨à¤ª à¤ŀ
or p
Ġà¥©à¥¬ à¥¦
Ġà¥Ńà¥ª à¥ª
à¤°à¤¨à¤Ĺà¤° à¤¬
pp ort
Ġ207 2
Ġà¤° à¤ļà¤¯
Ġà¤® à¤ľà¤µ
à¤ľà¤¨ à¤ªà¤Ľ
Ġà¤Ĩà¤ĩ à¤¯
Ġà¥§à¥¯ à¥ªà¥¦
Ġà¤Ī à¤¬
Ġà¤Ī à¤Ļ
Ġs ite
ra vel
à¤¾à¥Īà¤ģ ,
Ġà¥¦à¥ª à¥Ń
G B
Ġà¤ķ à¤ªà¤¨
à¤Ĺ à¤Ńà¤°
Ġà¤¯à¤¸ à¤ĸ
à¤¦à¤ķ à¤ªà¤¦
Ġà¤Ĩà¤ļ à¤°à¤£à¤®
Ġ4 9
Ġà¥§à¥¯à¥¬ à¥Ń
ĠNA B
k aj
à¤ı à¤¬à¤®
à¤°à¤¤ à¤ª
à¤°à¤£ à¤¨
à¤¡à¤ķ à¤ªà¤®
à¤µà¤² à¤ª
en ce
Ġà¤ĸà¤¬ à¤°à¤¬
Ġ0 2
Ġi Phone
à¥«à¥ªà¥¦ à¥¦à¥®à¥¨
à¤¾ à¥¤âĢĻ
à¤¦ à¤Ńà¤®
Ġà¤¹ à¤£
à¤¬ à¤ľà¤¸
à¤ĺ à¤Łà¤°
Ġà¤§à¤¨ à¤ŀ
Ġà¤¦à¤¶ à¤µà¤°
Ġà¤ıà¤ļ à¤ª
ï »¿
à¤Ł à¤Ńà¤°
à¤¤à¤® à¤¯
à¤Łà¤² à¤°à¤ķ
à¤Łà¤°à¤ķ à¤¨
Ġa f
ÐµÐ» ÑĮ
http s
Ġà¤¤à¤¡à¤ķ à¤Ńà¤¡à¤ķ
u x
à¤ķ à¤ªà¤Ľ
à¤ª à¤¯à¤®
Ġà¤® à¤Ī
Ġà¤Ń à¤°à¤¤à¤®
à¥Į |
à¤¨à¤® à¤ķ
à¥Įà¤Ĥ '
Ġà¥§à¥¯à¥® à¥©
Ġent ry
Ġ Ñį
à¤· à¤²à¤Ĺ
Ġà¤ľ à¤¯à¤¬
Ġà¤« à¤®
Ġà¤ĺ à¤°à¤¸
Ġà¤Ĩà¤Ī à¤ªà¤°
à¤ıà¤² à¤ľ
à¤ĩà¤°à¤¸ à¤²
pan kaj
sha shi
pankaj shashi
o j
à¤ı à¤°à¤®
à¤ĵ à¤¨à¤²
Ġà¥§à¥« à¥Ń
ĠM b
Ġan y
à¤· à¤°à¤¶
à¤¸à¤¬ à¤®
à¤¸à¤µ à¤Ł
à¤¹à¤°à¤£ à¤²
le t
Ð¸ Ð»
Ġà¥¦à¥« à¥ª
æ ĺ
à¤¸ à¤«à¤²
à¤ľà¤¨ à¤Ĩà¤¨
Ġà¤ħà¤§ à¤¬
Ġà¥« à¥§à¥¨
Ġà¤ĵ à¤®à¤¬à¤¹
à¤ĵ à¤ıà¤®
Ġà¤Ĩà¤¶ à¤²
Ġà¥§à¥¨ à¥Ń
Ġl ist
is e
Ġw ork
Ġad min
Ġà¤ıà¤¸à¤ĩ à¤Ī
) âĢĻ
c ed
à¤° à¤ĸà¤ķ
à¤¥ à¤¦
à¤¯à¤¸ à¤µà¤°
à¤¦à¤¨ à¤¹
Ġà¤ªà¤¢ à¤¦
à¥ģà¤Ĥ à¤ģ
Ġà¥§à¥® à¥§à¥¬
Ðµ Ñģ
ol l
! âĢĿ
à¤ĸ à¤®à¤§
Ġà¤¸à¤® à¤¬
à¤ĩ à¤ıà¤ªà¤¨
à¥ģà¤ģ à¤Ĥ
à¤µà¤° à¤¨
Ġ5 1
Ġà¤ħà¤µà¤¶ à¤°à¤®
NE T
à¤¨ à¤ľà¤°
à¤® à¤¸à¤°
à¤ª à¤¥à¤°
à¤¦ à¤ļ
à¤łà¤ķ à¤¸
à¤ıà¤® à¤¡à¤¬
à¤ıà¤² à¤ıà¤¨
w ork
Ġ à¥Ģ
à¤¦ à¤ħà¤¨
à¤ľ à¤ªà¤Ľ
Ġà¤Ĩ à¤¯à¤¤à¤¨
Ġà¤¶ à¤µà¤¦
à¤īà¤¨ à¤¤
à¤Ĩ à¤īà¤¦
à¤¹à¤¨ à¤°
Ġà¥§à¥¬ à¥¨
à¤ľà¤¬ à¤¸à¤®
Ġs c
à¤¾' ,
Ġà¥§à¥¯à¥« à¥«
ĠÐ¿ Ð¾
n b
à¤° à¤¯à¤ķ
Ġà¤Ĺ à¤ĩà¤¹
à¤°à¤¤ à¤¸à¤®
Ġà¤ľà¤¨ à¤Ĩà¤ķ
à¤¯à¤¤ à¤µà¤¶
Ġà¤ªà¤¤ à¤¨à¤ķ
Ġà¤¸à¤¡à¤ķ à¤¸
à¤ķà¤Ł à¤Ĺ
at ive
à¤ıà¤² à¤ĵ
Ġon e
Ġthe ir
Ġà¥§à¥¯à¥¬ à¥«
ĠYou Tube
A W
T weet
b ox
s o
à¤µ à¤īà¤ª
Ġà¤¢ à¤²à¤®
à¥ĩà¤Ĥ ,âĢĻ
ĠF ire
ĠH ack
Ġbe st
à¤Łà¤® à¤¬
à¤¥à¤² à¤¤à¤°
à¤§à¤¨à¤² à¤Ĺ
ot e
à¥¨à¥¦à¥¬ à¥¬
à¤°m à¤®
à¤² à¤īà¤ªà¤°
Ġà¤ľà¤¨ à¤Ĺà¤£à¤¤à¤¨
à¤¯à¤® à¤Ĺà¤°
Ġà¤®à¤¨ à¤ª
at ur
Ġs ource
har a
CL US
Ã ŀ
à¤¤ à¤ļà¤¨
à¤ı à¤²à¤¬
Ġà¤Ń à¤°à¤¤à¤²
Ġà¤µ à¤¦à¤²
à¤ĩ à¤ĵà¤ķ
à¤ĺ à¤°à¤¤
Ġà¤ľà¤¨ à¤īà¤¤
à¤¯à¤¤ à¤¤
à¤¨à¤Ĺà¤° à¤µ
Ġà¥«à¥¦ à¥¦à¥¦
Ġà¤¸à¤ª à¤¥à¤Ĺ
Ġt Ã©
Ġele ction
t ed
Ġ er
à¤¨ à¤Ī
à¤Ī à¤Łà¤°
Ġà¤Ĺà¤łà¤¨ à¤ªà¤Ľ
à¤¨à¤¦ à¤¹
Ġà¤Ĩà¤ªà¤¤ à¤µ
Ġ0 4
ĠÐ¾ ÑĤ
Ġà¤ĺà¤Łà¤ķ à¤¹à¤°
ĠUS A
CLUS IVE
C M
n ic
Ġà¤¸ à¤¸à¤®
Ġà¤Ľ à¤łà¤²
Ġà¤¶ à¤¶à¤ķ
à¤ĺ à¤µ
ĠA ct
à¤Ĺà¤¸ à¤Ļ
Ġà¤¹à¤Ļà¤ķà¤Ļ à¤µ
ãģ Į
Ġà¤ķ à¤Łà¤ķ
à¤ļ à¤°à¤£à¤ķ
à¤¤à¤° à¤¯
à¤ķà¤°à¤£ à¤¹à¤°
Ġà¤®à¤¦à¤¨ à¤ª
Ġre g
Ġ em
Ġ if
à¤¦ à¤°à¤µ
à¤¬ à¤¸à¤²
Ġà¤®à¤¨ à¤¦
Ġà¤ķà¤¸ à¤ľ
à¤·à¤® à¤§
à¤īà¤ª à¤²à¤¬
Ð¸ Ð²
à¤¶à¤Ń à¤°à¤®
ĠR es
c ha
n ow
à¤¿ âĢĻ,
à¥ĩ âĢľ
Ġà¤¸ à¤²à¤²
à¤ľà¤¦ à¤°à¤²
........ ........
à¤¨ à¤Ŀ
à¤¤ à¤µà¤²
Ġà¤ķ à¤°à¤£à¤²
Ġà¤¬ à¤Ĺà¤¨
à¥Ĥ /
à¤ĩ à¤¸à¤²
à¤¾à¤Ĥ à¥Ī,
ĠS ystem
ec ial
ear ch
pl ore
å ľ
à¥į à¥Į
Ġà¤° à¤¸à¤ķ
à¤ı à¤ıà¤«à¤¸
Ġà¤¬ à¤°à¤¬
à¤Ī à¤Łà¤¸
à¤Ľ à¤®
à¤°à¤£ à¤¸à¤¹
à¤¸à¤ķ à¤®
Ġà¤¸à¤° à¤Ĺà¤°
Ġà¤ĵ à¤µ
à¤µà¤¯à¤¨ à¤¬
Ġà¤¯à¤® à¤¨à¤ķ
t r
à¤¹ à¤¡à¤¤
Ġà¤ľ à¤ľà¤ķ
Ġà¤ľà¤¨ à¤ħà¤¨
à¥Įà¤Ĥ ?
Ġà¤ıà¤® à¤ľ
Ġà¥§à¥¯ à¥¦
à¤·à¤§ à¤°à¤²
ĠG u
áĥĶ áĥ
Ġà¤ĸ à¤¸à¤¹à¤°
Ġà¤ļà¤² à¤¨à¤ķ
à¤¥à¤² à¤¦
Ġà¥§à¥¬ à¥©
Ġà¤Ĺà¤łà¤¨ à¤¸à¤®
à¥ĩ. )
im es
Ġ199 0
ĠRo ad
ĠInd ia
) âĢĵ
E M
à¤¾ !!
à¤§ à¤µà¤°
à¤¥ à¤²à¤¸
Ġà¤ľ à¤ľà¤²
à¤ĸ à¤¯
Ġà¤ıà¤ķ à¤¬
à¤°à¤¦ à¤¹
Ġà¤¸à¤¤ à¤¹à¤ķ
Ġà¥¨à¥§ à¥Ń
Ð° ÑģÑĤ
Ġ5 2
Ġà¤ķ à¤£à¤¹à¤°
à¤ľ à¤Ĺà¤¤
à¤§ à¤°à¤£à¤ķ
à¤ł à¤¸à¤¹
Ġà¤Ł à¤ªà¤ķ
à¤µà¤°à¤£ à¤¸à¤®
Ġà¥§à¥« à¥©
Ġà¤°à¤® à¤ľ
à¤Ĺà¤²à¤¬ à¤ľ
Ġà¤Ĩà¤¸ à¤¯
Ġà¤¬à¤ķ à¤ªà¤¤
à¥¦à¥© à¥©
EX CLUSIVE
Y A
Ġà¤° à¤¥à¤ķ
Ġà¤¤ à¤¬à¤®
Ġà¤ıà¤ķ à¤¸à¤°
Ġà¤Ĩà¤° à¤ª
à¤ķà¤° à¤°
à¤ıà¤¨ à¤ıà¤«
âĢ¦ ]
Ġà¤ħà¤ľ à¤¯à¤ķ
ãģ Ļ
Ðº Ð¸
u w
à¤Ń à¤ħà¤µà¤¸à¤°à¤®
à¤ħ à¤µà¤¶
Ġà¤Ķ à¤·à¤§à¤ķ
à¤Łà¤² à¤¸à¤®
Ġà¥§à¥¯ à¥Ńà¥©
Ġà¤ĭà¤£ à¤²
ĠS e
Ġà¤ļà¤°à¤£ à¤¸à¤®
Share Tweet
Ġà¤ĸ à¤ŀ
à¤²à¤® à¤ĸ
Ġà¤¹à¤° à¤«à¤¹à¤°
à¥ģ, âĢĿ
à¤ıà¤¸ à¤¡
or ities
à¤ħà¤ª à¤¡
lig umi
ĠtÃ© ligumi
à¤° à¤¡à¤®
à¥ĩ à¤¿
à¤µ à¤ľà¤ķ
à¤¶ à¤°à¤¦
à¤ĸ à¤Ł
à¥ģà¥ģ à¥ģ
ĠÐ ¡
à¥¦à¥§ à¥ª
Ġ207 3
ĠJun e
C h
Ë Ī
à¤¯ à¤¬à¤²
à¥ģ ..
à¤· à¤ªà¤¨
à¤¡ à¤ķà¤ķ
à¤ļà¤¨ à¤¤
Ġà¤Ĩà¤ĩ à¤¤
Ġà¤Ľà¤²à¤«à¤² à¤¹à¤°
ĠP ay
ĠR adio
à¥¨à¥¦à¥§ à¥¯
ĠK athmandu
ook s
hap a
' à¥¤
Ġ Ú©
à¤ķà¤¸ à¤¤
à¤Ĺà¤¬ à¤¤
ĠR ights
ul ar
bout à¤®
ach ar
ĠÙ Ī
à¥ĭ à¥ĩ,
à¤²à¤ķ à¤¥
à¤¬à¤¨ à¤¡
Ġà¤ħà¤ª à¤¶à¤¬
à¤¨à¤µ à¤¹à¤°
Ġà¥§à¥¯ à¥©à¥¦
Ġà¥¦ à¥¦à¥Ń
à¤īà¤¸ à¤«
Ġ3 8
Ġà¤¡à¤² à¤°à¤¬à¤°
AN D
à¤¾ ......
Ġà¤¨ à¤§
Ġà¤¤ à¤£
à¤ļ à¤£
à¤Ī à¤ªà¤Ľ
à¤Ī à¤Ńà¤°
Ġà¤¸à¤® à¤¦à¤°
à¤¸à¤ķ à¤¬
Ġà¤ħà¤¹ à¤Ļ
Ġà¤¦à¤¶ à¤°
Ġà¥§à¥ª à¥©
-------- --------
Ġà¤¬ à¤°à¤¹à¤¥à¤µ
à¥Į à¥Īà¤Ĥ
Ġà¤ı à¤®à¤ķ
à¤ĺ à¤Łà¤¸
Ġà¤ķà¤² à¤°à¤ķ
Ġà¥¨à¥¬ à¥«
ĠA ss
Ã §
à¤ı à¤ļà¤¸
Ġà¤¤ à¤¬à¤²
Ġà¤¤ à¤ķà¤¸
Ġà¤¤ à¤ľà¤¬
à¤°à¤¹ à¤¸à¤¨
à¤¤à¤¨ à¤¸à¤®
Ġà¥§à¥ª à¥®
Ġà¤ĭ à¤¦
Ġà¤¢à¤ķ à¤¢à¤ķ
Ġà¥§à¥§à¥¦à¥¨ à¥¨
Ñ ĸ
á Ł
Ġ es
Ġà¤¯ à¤®à¤¬à¤¹
à¥Į à¥Ī
à¤Ĺà¤² à¤¹à¤°
Ġà¤ĺà¤° à¤Ĺ
à¤¯à¤ª à¤°à¤ķ
à¤¤à¤°à¤ķ à¤ķ
æľ Ī
à¥Ģ âĢľ
à¤¦ à¤ľà¤¨
à¤Ł à¤ľ
à¤· à¤ªà¤¤
à¤°à¤¤ à¤¦
Ġà¤ıà¤ķ à¤ł
à¥Įà¤Ĥ âĢĿ,
Ġà¤Ķ à¤ł
Ġà¤¨à¤Ń à¤¤
Ġf un
Ġb ut
ah il
ĠMin orities
à¸² à¸
M arch
O D
m d
à¤¨ à¤¥à¤²
à¤¹ à¤Łà¤®
Ġà¤ķ à¤ªà¤²
Ġà¤² à¤Łà¤ķ
à¤¯à¤® à¤°
à¤¸à¤¦ à¤Ń
Ġà¤ıà¤¨ à¤ıà¤®
à¥¦à¥¦ à¥¦à¥¦
ĠS erv
à¦ °
à¥ģ âĢĶ
à¤¸ à¤ħà¤°
Ġà¤° à¤¤à¤¨à¤ª
à¤¬ à¤ĩà¤®
à¤¡ à¤°à¤¶
à¤£ à¤ķà¤²
à¤Ĩ à¤Ļ
à¤¦à¤¨ à¤ªà¤¤
Ġà¤ĵ à¤¯
Ġà¤Ńà¤° à¤¸à¤ķ
Ġà¤¦à¤¶ à¤µà¤Ł
Ġà¤Ĺà¤£ à¤¬
ĠA pr
Ġ3 3
à¥¦à¥¯ à¥¬
fo x
7 3
à¤° à¤¢
Ġà¤¬ à¤¯à¤¸
à¤§ à¤°à¤¹à¤°
à¤§ à¤¶à¤®à¤¶
à¤¶à¤ķ à¤¶
à¤µà¤°à¤£ à¤µ
à¥Įà¤Ĥ, '
Ġà¤¨à¤² à¤¡
ĠC ity
à¤ĺà¤¨ à¤¶
à¥¨à¥¦à¥¬ à¥Ń
Ġà¤¬ à¤ª
à¤§ à¤¡
Ġà¤Ľ à¤¸
à¤ļ à¤ķà¤¤
à¤°à¤® à¤¤
à¥įà¥¤ "
à¤¬à¤° à¤ª
Ġà¥® à¥«à¥¦
à¤ªà¤¦ à¤¯
Ġà¤īà¤ªà¤° à¤¥
Ġà¤¨à¤Ńà¤Ī à¤ķà¤¨
ĠP r
ers e
Ġà¤²à¤¹ à¤¡
Ġà¤ħà¤¹à¤® à¤¦à¤²
uls ipur
Ġà¤Ĩ à¤Ļà¤¦
à¤¯à¤° à¤¸à¤®
à¤ıà¤¨ à¤¬
Ġà¤Ĩà¤Ĺ à¤¨à¤®
à¥ĩà¤Ĥ âĢĻ
st ru
ãģ ¨
ãģ ¾
Ġà¤ľà¤¨à¤¸à¤® à¤°
G O
S p
\ \
à¤¨ à¤¤à¤ķ
à¤· à¤ľà¤¤
à¤ĩà¤² à¤¨à¤®
à¤ĩà¤² à¤Łà¤¹à¤°
à¤¡à¤® à¤§
Ġà¤Ńà¤ĩà¤°à¤¹ à¤ķ
à¤£à¤ª à¤¦à¤ķ
et t
à¤ıà¤¨à¤ı à¤¨à¤²
l ung
æ Ī
Ġ ì
à¤¨ à¤ħ
à¤¯ à¤¦à¤°
Ġà¤ıà¤¸ à¤ıà¤®
ĠT hapa
à¥¨à¥¦à¥« à¥Ń
ĠPro f
áĥĺ áĥ
plore r
O W
à¤°à¤¸ à¤¤
Ġà¤ĩ à¤¨à¤²
à¥ĩà¤ģ âĢĵ
Ġt ime
Ġà¤Ŀà¤ķ à¤Ŀà¤ķ
Ġà¤Ĩà¤ĩà¤ıà¤® à¤ĩ
6 0
à¥ĭ Ã·
Ġà¤¨ à¤¡
à¤¯à¤® à¤¹
à¤ĩà¤¨ à¤¸à¤ķ
Ġà¤ĩ à¤¤à¤°
à¤®à¤¤ à¤¸à¤¹
Ġà¤¸à¤¡à¤ķ à¤ħà¤¨
à¤ıà¤¸ à¤ĩ
à¤°à¤ľ à¤ª
ag ar
Ġà¥§à¥¯à¥¬ à¥®
Ð°Ð ¹
7 4
J A
N RNA
b al
n er
à¤ķ à¤ľà¤¨
Ġà¤µ à¤¶à¤®
Ġà¤ł à¤¹
à¤¹à¤ķ à¤µà¤°
à¤²à¤µ à¤¹à¤°
ic t
Ġà¤Ĺà¤¹à¤¨ à¤¤
ĠH D
ut ari
k t
Ġà¤¸ à¤ĸà¤°
Ġà¤Ĺ à¤Ĺ
à¤¶ à¤²à¤²
à¤ļ à¤°à¤¨
Ġà¤ī à¤Ł
à¤¹à¤° à¤°
à¤¯à¤ķ à¤¦
à¤¨à¤ķ à¤ķ
à¤ĺ à¤ĸ
à¤ķà¤® à¤£
Ġà¤¸à¤¬ à¤®
à¤¸à¤¨ à¤ªà¤Ľ
Ġà¥§à¥« à¥®
Ġà¤¡à¤² à¤°à¤²
Ġà¤ıà¤¨à¤Ĩà¤°à¤ıà¤¨ à¤ıà¤²
ee k
à¤² à¤Ĺà¤²
à¤¯ à¤°à¤µ
à¤ģ /
Ġà¤Ĩ à¤Īà¤²
Ġà¤¥ à¤¬
Ġà¤ı à¤Ĩà¤Ī
à¤ªà¤® à¤¤
Ġà¤Ńà¤ı à¤¬à¤®
à¥ĭà¥¤ ...
Ġà¤ħà¤® à¤°à¤ķ
ĠÐ ļ
ĠC lick
Ġs k
is p
Ġd el
ĠL ink
à¤¯à¤£à¤Ĺà¤¢ à¤¬
?? ??
à¤¿ ..
à¤¡ à¤ĸ
à¤īà¤¨ à¤¸
Ġà¤¦à¤®à¤ķ à¤²à¤ķ
ig ital
à¤ıà¤¨à¤ı à¤¨à¤ķ
ĠOff ic
ĠMar ch
M ah
d ing
à¤® à¤¸à¤ķ
à¥ģ ),
à¥Īà¤Ĥ à¤Ĥ
âĢ¦ âĢĻ
à¤°à¤¨ à¤ľ
Ġf e
07 3
à¥¨à¥¦à¥§ à¥©
à¤ıà¤Ī à¤¬
op y
ÐµÐ ²
à¤® à¤¸à¤²
Ġà¤ķ à¤Ń
à¥Ī (
à¤¸à¤² à¤µ
Ġà¤¦à¤² à¤¸à¤®
Ġ7 0
Ġà¥§à¥¯à¥« à¥¨
ĠEx plorer
Ġ ......
à¥ĩ à¥Ī
à¤ĺ à¤²à¤Ĺ
Ġà¥¨à¥§ à¥ª
ĠA P
ien ce
E O
i j
t d
Ġà¤° à¤¥à¤²
Ġà¤µ à¤£
à¤Ŀ à¤Łà¤¬
Ġà¥§à¥¯ à¥©à¥¯
à¤Ĺà¤¬ à¤®
id s
à¥¨à¥¬ à¥§
ĠQ NET
N S
k et
à¤¸ à¤µà¤¸
à¤µ à¤¯à¤¸
Ġà¤¹ à¤ķà¤¹à¤°
à¤ĸ à¤¨à¤µ
à¤ĩ à¤Ńà¤²
à¥Įà¤Ĥ )
à¤¿, âĢĻ
à¤¯à¤Łà¤¨ à¤¸à¤®
à¤Ĺà¤¢ à¤ķ
à¤Łà¤°à¤® à¤§
Ġà¤Ĺà¤ı à¤Ľ
Ð½Ñĭ Ñħ
arg et
C ontinue
K habar
Ã ł
à¤¾ |
à¤° à¤Ĩ
à¤¹ à¤ªà¤¥à¤¸
à¤¦ à¤¸à¤¹
Ġà¤¹ à¤«
Ġà¤¹ à¤¬à¤ķ
à¤ķà¤° à¤¨à¤Ĺà¤°
à¤¤à¤°à¤£ à¤¸à¤®
ad e
à¤ĩà¤ľ à¤¤
it er
Ġs ub
âĢĮ âĢĮ
Ġà¥¬à¥« à¥¦
ĠH imal
ĠFS X
B R
i ent
à¤Ł à¤Ĺà¤¢
Ġà¤¬ à¤°à¤ķ
à¤¬ à¤µ
Ġà¤¸à¤¡à¤ķ à¤¦
ĠF r
ĠFire fox
å °
à¤¤ à¤¶à¤¤
à¤¯ à¤¦à¤ķ
à¥ģ à¥ģÂ¥
à¤¸ à¤²à¤¨
Ġà¤µ à¤¨à¤¹à¤°
Ġà¤¤ Ã¬
à¤¸à¤® à¤¸à¤ķ
à¤®à¤² à¤ļ
à¤§à¤¨ à¤°
Ġà¥§à¥¬ à¥ª
Ġà¥¦ à¥¦
à¤ľà¤ª à¤¥
à¥¨à¥¦ à¥¦à¥¬
ĠI s
ÑĤ Ð¾
à¥¨à¥¦à¥§ à¥¨
Ġqu e
m à¤¹à¤°
r ome
w are
à¤ĺ à¤ľ
Ġà¤®à¤¹ à¤Ĺ
à¤ıà¤¸ à¤Īà¤Ī
Ġà¥§à¥® à¥§
ĠD R
ĠM ed
à¥ĭ? âĢĻ
à¤¸à¤°à¤¸ à¤«
ĠJul y
uck et
G oogle
p x
ĳ ī
à¤° à¤ľà¤¨à¤®
Ġà¤ıà¤ķ à¤®à¤¹
Ġà¤ıà¤ķ à¤¹à¤ª
à¤Łà¤² à¤°à¤²
à¤ĩà¤Ł à¤¸
el s
à¥¨à¥¦à¥§ à¥§
Ñĩ Ðµ
Âº à¤¨
D A
Y ou
à¤¤ m
à¤¦ à¤ľà¤¸
à¤ı à¤ĺ
à¤£ à¤Ĺà¤°
Ġà¤īà¤¦ à¤¯à¤®
à¥¦à¥Ń à¥¦
Ġà¤¸à¤¦à¤¨ à¤¬
OS T
d ate
è ¿
à¤° à¤ĵà¤Ł
à¤¤ à¤¤à¤²
à¤¦ à¤²à¤Ĺ
à¤ľ à¤Ł
Ġà¤ĸ à¤¤à¤®
à¤ķà¤ķ à¤°
à¤Łà¤° à¤ªà¤¨
à¤ıà¤¨ à¤Ĩà¤ĩà¤¸
Ġà¤Ĺà¤² à¤«à¤¤
à¤Ĩà¤ľ à¤¸à¤®
à¤Ĭ à¤ķ
Ð¾Ð ·
Ðº Ð°
ÐµÐ½ Ð¸Ñı
Ġà¤¸ à¤°à¤®
à¤µ à¤Īà¤ķ
Ġà¤¹ à¤°à¤¹
à¤§ à¤ľà¤¸
à¤ıà¤ķ à¤Ľ
à¤¸à¤ķ à¤µà¤°
à¤µà¤° à¤«
à¤¤à¤°à¤£ à¤¬
à¤°à¤· à¤Ł
Ġà¤°à¤® à¤Ŀ
al s
Ġre st
Ð°Ð ´
à¤² à¤ĸà¤¨
Ġà¤¸ à¤°à¤¹à¤°
à¤¹ à¤²à¤¸
à¤¶ à¤Ĺ
à¤ªà¤¨ à¤¹
à¤ħ à¤«à¤®
à¤·à¤ķ à¤¸à¤®
ĠM o
Ġà¤Ĩà¤ĩà¤¨ à¤¸à¤ķ
à¨ ¾
sh ip
Å Ł
á º
à¤Ĺà¤° à¤¨
à¤¤à¤° à¤Ĺà¤¯
à¤ıà¤® à¤ª
Ġà¤Ĺà¤£ à¤²
it ation
ĠE le
à¥¨à¥¦à¥ª à¥Ń
âĨ ĳ
Ġwh ich
ounc il
9 0
p en
Ġà¤µ à¤°à¤£
à¤ĩ à¤¬à¤°à¤ķ
à¥Į ,âĢĻ
à¤ł à¤ľ
à¤Ĩ à¤®à¤¸
à¤¹à¤¤ à¤¸
ĠW ord
Ġ00 00
Mah endra
à¥ģ à¥ĩ
Ġà¤¬ à¤°à¤¬à¤°
à¤ļ à¤¸à¤¹
à¤¹à¤° à¤£à¤®
à¤®à¤ķ à¤¨
Ġà¥§à¥¯à¥« à¥ª
iss ion
K C
i y
p ro
å Ŀ
à¤ı à¤¶à¤¨à¤²
Ġà¤« à¤Ļ
à¤§à¤¨ à¤¦
Ġà¤¦à¤² à¤¹à¤¨
à¤¡à¤² à¤°
à¤ĸà¤¨ à¤¨à¤ķ
à¤ľà¤Ĺà¤¢ à¤²
ple te
Ġtr ans
Ġà¤ľ à¤£
à¤Ń à¤ľ
Ġà¤ħà¤¸ à¤Ļ
à¤¸à¤¹à¤° à¤®
à¥ĩà¤ģ ,âĢĻ
à¤¤à¤°à¤ķ à¤²
à¤¯à¤ľà¤¨ à¤¹à¤°
97 7
P R
m an
Ġà¤ª à¤²à¤ķ
à¤¶ à¤ľà¤¸
Ġà¤ıà¤ķ à¤ªà¤Łà¤ķà¤®
à¤®à¤² à¤¤
à¤Ĩà¤° à¤¡
Ġà¥¨à¥Ń à¥ª
ĠC ont
ĠB as
ĠB ible
Ð¾Ð ¿
ow s
ĠV oice
Ġe st
ud e
Ġ........ ...
Ġà¤ħà¤¨à¤ķ à¤¨
Ġà¤Ńà¤°à¤£ à¤ª
O O
P D
à¤¨ à¤¹à¤¦
Ġà¤¤ à¤Ľ
à¤ģ âĢĻ,
Ġà¤² à¤Łà¤°à¤®
Ġà¤¸à¤Ļ à¤Ĺ
Ġà¥¨à¥« à¥¦à¥¦
à¤Ĩà¤ľ à¤Ńà¤¨
Ġà¤¡à¤² à¤°à¤¸
ĠH er
Ġà¥§à¥¯à¥« à¥Ń
à¹ Ī
8 0
ä ¼
à¤¹à¤° à¤¬
à¥įà¥¤ ...
Ġà¤ħà¤® à¤°à¤ª
à¤¬à¤² à¤ª
à¤ľà¤¨à¤ķ à¤°
Ġl ink
à¤¼ à¥ĭ
Ġà¥¯à¥¯ à¥¯
ut e
à¥¨à¥¦à¥« à¥§
I M
à¤¿ âĢį.
à¤¸ à¤ıà¤ª
Ġà¤¨ à¤ĺ
Ġà¤ħ à¤«à¤²
à¤¶ à¤²à¤Ĺ
Ġà¤®à¤¤ à¤¬
Ġà¥§à¥¯ à¥§à¥Ń
Ġà¤ĺà¤Ł à¤¦
à¤Ĺà¤®à¤¨ à¤¸à¤®
à¥¦à¥§ à¥¬
Ġà¥§à¥¯à¥¬ à¥¯
à¥¨à¥¦à¥« à¥¨
à¤ªm à¤¬
ere n
Ð½Ñĭ Ð¹
à¤ķ à¤ªà¤ķ
à¤² à¤¸à¤°
à¤¬ à¤ļà¤¤
Ġà¤µ à¤¦à¤®
à¤ļ à¤ķà¤°
à¤ļà¤¨ à¤ħà¤¨
Ġà¤ĺà¤° à¤Łà¤¹à¤°
à¤·à¤¯ à¤ª
ĠÂ £
à¸ Ļ
à¥įà¤ģ à¥ĩ
A K
e g
p ur
à¥ĩ âĢĿ,
à¤¦ à¤ĸ
Ġà¤¡ à¤Ĺà¤®à¤Ĺ
Ġà¤Ŀ à¤ªà¤Ł
à¤¯à¤¯à¤¨ à¤¶
à¤¯à¤Łà¤ķ à¤¬
Ġà¥¨à¥¯ à¥«
ra b
Ġus e
Ġà¤Ĩà¤°à¤ıà¤¸ à¤Ĩà¤Ī
) âĢĶ
à¤¨ à¤°à¤¬
à¤² à¤°à¤¸
à¤¦ à¤Ńà¤¨
à¤ĸ à¤²à¤Ĺ
à¤°à¤² à¤¯à¤ķ
à¤¯à¤¤ à¤¹à¤ķ
Ġà¤Ĩà¤ĩ à¤¬
in es
Ġà¤¨à¤Ńà¤ı à¤¤
Ġo ther
Ġà¤¨à¤Ĺ à¤ı
Ġ200 3
Ġà¤ķà¤ļà¤¨à¤ķ à¤µà¤²
à¤² à¤ĸà¤°
Ġà¤¹ à¤²à¤²
Ġà¤§ à¤¨à¤¸
à¤ŀ à¤µà¤²
à¤¤à¤° à¤īà¤¨
à¤°à¤µ à¤¹à¤¨à¤ķ
à¤¨à¤¸ à¤ĸà¤£
Ġà¤«à¤° à¤µà¤°
à¤²à¤° à¤¸à¤ķ
ĠS k
Ð° ÑĨ
ur re
Ġin d
Ġà¤ªà¤ļ à¤¹à¤¤
ãģ ¯
Ġà¤ħà¤Ĺà¤® à¤µà¤ķ
Ġ ÑģÑĤ
à¤ķ à¤«à¤°
à¤¥ à¤²à¤Ĺ
à¤ħ à¤ļà¤®
à¥Įà¤ģ :
à¤¶à¤¨ à¤µ
à¤¹à¤¨ à¤Ĺà¤°
Ġà¤Ńà¤° à¤¥
i ico
É Ļ
Ġ Ï
Ġà¥ ł
à¤¡ à¤¢
à¤°à¤ķ à¤°à¤£à¤¬
à¤¨à¤® à¤Ĺà¤°
à¤°à¤¹ à¤£à¤®
à¤µà¤ķ à¤°à¤£
à¥© à¥¦à¥¦
Ġà¤ĵ à¤Ĺ
Ġà¥§à¥® à¥«
à¤µà¤¦ à¤¤
ĠD on
am a
Ġà¤ļà¤°à¤® à¤¸
ik i
à¥¨à¥¦à¥¨ à¥¦
Ġ!!! !
A d
P G
Ġà¥ ŀ
âĢ ł
à¥Į âĢĮ
Ġà¤ĺ à¤°à¤¤à¤°
à¥įà¥¤ &
Ġà¥§à¥« à¥¨
à¤ıà¤® à¤ĵà¤¯
à¤Ĩà¤Ī à¤¤à¤¬
Ġc ap
à¤ĩà¤¬ à¤²à¤²
à¤ªà¤¨à¤² à¤Ĺ
ang e
à¤ľà¤¸à¤® à¤§
ĠÐ½ Ðµ
ru ary
Ġà¤ħà¤µà¤¯à¤µ à¤¹à¤°
j a
à¤¤ à¤ĺ
à¤Ī à¤ıà¤®
à¥Ĥ âĢĿ
Ġà¤ħà¤¸ à¤¦
Ġà¥§à¥Ń à¥ª
Ġà¤²à¤¡ à¤¨
il m
ed er
à¤Łà¤°à¤² à¤Ĺ
ĠIn formation
ïģ ®
Ġà¤ķ à¤µà¤¯
Ġà¤¨ à¤¢
Ġà¤¬ à¤¨à¤®
à¤£ à¤ļ
à¤Ľ à¤°à¤®
à¤ķà¤² à¤°
Ġà¤¬à¤¸ à¤Ń
à¤Łà¤® à¤¸
Ġ! '
Ġd er
ĠB Y
am ent
Ġ0 5
Ġà¤Ĩà¤¸à¤¨ à¤¬
à¥©à¥« à¥Ń
ĠUn ivers
ĠCent er
Ġà¤¨ à¤µà¤ķ
à¤ĵ à¤Ń
à¤¸à¤¦ à¤¸à¤®
à¤²à¤¤ à¤¹à¤°
Ġà¤Ī à¤¦
re en
ar n
à¤ıà¤² à¤ª
à¤ıà¤² à¤ı
à¤ıà¤¨à¤ı à¤ļà¤¸
op e
ãĤ ĭ
ire ct
Ġà¤¬à¤¬à¤°à¤® à¤¹à¤²à¤®
f acebook
à¤ľ à¤ªà¤ķ
Ġà¤Ĩ à¤Īà¤¨
Ġà¤Ĩ à¤Ļà¤¬
à¤¸à¤¨ à¤¯
à¤Ĺà¤® à¤¨à¤ķà¤°
Ġà¤Ĩà¤Ī à¤®
à¤¯à¤¶ à¤°
ÑĢ Ñĥ
ĠL ive
âĢį à¥ĭ
ä¸ Ģ
", "
à¤¸ à¤«à¤²à¤¤
Ġà¤° à¤Ļà¤²
Ġà¤Ĩ Âºà¤¨
à¤ī à¤«
à¤Ļ à¤ªà¤Ľ
à¤Ļ à¤Ĺà¤°à¤²
Ġà¥© à¥¦à¥¨
Ġà¤Ńà¤¯ à¤Ļ
Ġà¤Ĳ à¤ľ
à¤·à¤¯ à¤¸à¤®
à¤µà¤¨à¤ķ à¤¥
ou th
ĠC O
à¤Łà¤µà¤² à¤¸à¤®
ĠH ong
à¥¨à¥¦à¥¬ à¥¦
ah ity
iz ed
C T
Ġà¤ħ à¤ªà¤ķ
à¤ģ ...
à¤Ĥ -
à¤Ĩ à¤ı
Ġm onth
if ied
Ġapp lication
ann el
CM DP
7 0
p ress
à¤Ł à¤Ĺà¤¦
Ġà¤¸à¤ķ à¤¨
âĢĵ âĢĵ
Ġà¤ĩ à¤¡à¤²
à¤«à¤² à¤¸
Ġà¤ħà¤® à¤°à¤¤
le y
Ġf ree
Ġ3 00
lo ck
ant s
Ġà¤Ĩà¤²à¤® à¤ķ
Ð¾Ð» ÑĮ
G H
İ ¡
à¥ĭ ]
à¤ľ à¤°à¤¹à¤°
Ġà¤µ à¤ļà¤¨à¤²
à¤Ī à¤®à¤¨
Ġà¤ħà¤² à¤Ļ
Ġh ere
ĠK ong
Ġà¤¹à¤¤à¤ķ à¤¡
R P
Ġà¤ħ à¤ıà¤ķ
Ġà¤Ĺà¤° à¤°
à¤Ī à¤¥à¤°
à¤ī à¤¸à¤¬
Ġà¤« à¤²à¤²
à¤ĺ à¤¢
à¤ħ à¤¨à¤¨
à¤Ĩ à¤ľà¤¦
Ġà¤Ŀ à¤¸à¤Ļ
Ġà¤ħà¤Ŀ à¤¸à¤®
om at
à¤¡à¤¬ à¤¡
aus e
isp ak
s er
à¤¸ à¤ı
Ġà¤® à¤ķà¤¹
à¤ļ à¤¬à¤°
Ġà¤ĵ à¤ĸà¤²
Ġà¤ħà¤¦ à¤®
Ġà¤ľà¤² à¤¸à¤®
Ġb el
Ġà¤°à¤¹à¤° à¤ķ
ĠW ith
Ġà¤«à¤¨ à¤«à¤¨
ik on
AT ION
7 8
à¤¸ à¤¬à¤²
Ġà¤µ à¤®à¤¨
Ġà¤ıà¤ķ à¤¹
à¤¯à¤¸ à¤¨à¤²
à¤ĸà¤° à¤ª
à¤ľà¤¸ à¤ħà¤¨
à¤ıà¤¨ à¤ıà¤²
re m
al a
Ġà¤ľà¤¨à¤ķ à¤ķ
Ġd ie
ay an
Ġ115 15
Ġà¤ķà¤²à¤® à¤²
A JU
B C
M O
M T
g oogle
à¥ĭ &
Ġà¤ħ à¤Ĺà¤°
à¤ĩ à¤·
Ġà¤ı à¤·
Ġà¤ľà¤¨ à¤Ĩà¤¸
à¤°à¤¹ à¤¸
à¤¶à¤¨ à¤ª
on es
Ġà¤ıà¤² à¤¡
.... .....
ĠO r
ĠOffic er
à¤Ĩà¤®à¤¸ à¤ŀ
N D
N ispak
P S
i ous
Ġ x
à¤¾ à¥Ī,
Ġà¤ķ à¤²à¤ķà¤²
à¤ľ à¤²à¤²
Ġà¤ªà¤¦ à¤¬à¤¹
Ġà¤¨à¤ª à¤¸
Ġà¤ľà¤Ĺà¤¤ à¤ª
Ð½Ñĭ Ðµ
k v
ã İ¡
Ġ >
à¥į ',
à¤® à¤°à¤£à¤ķ
à¤ļ à¤ĺà¤°
à¤Ń à¤²à¤ª
à¤²à¤® à¤¸
Ġà¤ªà¤ķ à¤µ
Ġà¥§à¥¯ à¥§à¥ª
à¤Ķ à¤ªà¤¨
Ġà¤¤à¤® à¤ĺ
Ġà¤¬à¤ļà¤¤ à¤ªà¤¤
Ġ4 2
ĠK atha
Ġà¤ķà¤¦ à¤®à¤¬
ÐµÐ ³
ord er
L O
Ġ iafamerica
à¤² à¤ĺà¤¨
Ġà¤¸ à¤²à¤¬à¤²
à¤µ à¤īà¤ªà¤ª
Ġà¤ķ à¤¹à¤°
Ġà¤Ľ à¤°à¤ª
à¤ĺ à¤°à¤Ń
Ġà¤Ł à¤¹à¤²
à¥įà¥¤ [
Ġà¤¹à¤° à¤°
à¤Ĺà¤¢ à¤®
Ġl ove
Ġà¤°à¤¨ à¤Ń
Ġà¤°à¤ľ à¤¤à¤ª
Ġ200 2
== ==
ĠSet o
T OR
à¤¨ à¤Ĺà¤¦
Ġà¤Ĺ à¤Ĺà¤¨à¤²
à¥Ī âĢĿ
Ġà¤ı à¤¨à¤ķ
à¤Ļ à¤ĺ
Ġà¤ľà¤¨ à¤¸à¤®à¤ķ
Ġà¤ķà¤® à¤²à¤²
Ġà¤īà¤¦ à¤¯à¤²
Ġà¤¦à¤² à¤µ
Ġà¤ıà¤¸ à¤ıà¤¸
Ġà¥§à¥¨ à¥ª
à¤Ĺà¤ł à¤¨à¤¸
ĠS ch
à¤¤à¤¸ à¤Ļ
Ġp res
à¤µà¤°à¤² à¤Ĺ
ĠW orld
à¤īà¤¥ à¤¹
Ġà¤ĵà¤ĸ à¤°à¤ķ
à¤ľà¤¬à¤° à¤ľà¤¸
Ġà¤®à¤°à¤® à¤¸à¤²
à¥ģ à¤¿
à¤¬ à¤¯
Ġà¤īà¤ª à¤®à¤¨
à¤ĩà¤¨ à¤«
Ġà¤²à¤Ĺ à¤ĩà¤¨
Ġà¤Ĺà¤£ à¤®
Ġà¤¤à¤² à¤¦
Ġà¤²à¤® à¤¤à¤¨
Ġw eb
ĠL GCDP
Ø§ Ø±
à¤£ à¤®à¤¨
à¤°à¤® à¤ĸ
Ġà¤ªà¤° à¤¸à¤®
à¤ŀ à¤¸à¤¹
Ġà¤Ĩà¤° à¤¨
Ġà¤ħà¤µ à¤ļ
Ġà¤ľà¤® à¤°à¤ķà¤Ł
Ġà¥¨à¥§ à¥®
Ġà¤¹à¤² à¤¸à¤®
ĠS UR
à¤¶à¤¹à¤° à¤ķ
Ġb r
à¤¼ à¥ĩ
à¤¯à¤£à¤Ĺà¤¢ à¤®
H I
à¤¨ à¤ħà¤Ĺ
Ġà¤¤ à¤¶
à¤¥ à¤ħà¤¨
Ġà¤² à¤¦
Ġà¤ļ à¤¹à¤ķ
Ġ- '
à¤ªà¤¸ à¤²à¤®
ĠP ahil
Ġà¤Ńà¤ĩ à¤ķà¤¨
à¤Ĩà¤ĩ à¤ıà¤®à¤Ī
à¤¸à¤« à¤°à¤ķ
Ġà¥¦à¥« à¥«
à¤¥ à¤ķà¤®
à¤ĸ à¤¶
Ġà¤ĸ à¤µà¤°à¤ķ
à¤¸à¤ķ à¤¤
à¤¤à¤° à¤¸à¤°à¤ķ
Ġà¤ķà¤® à¤²à¤¸
à¤²à¤¯ à¤Ĺà¤¤
Ġà¤¹à¤ľ à¤°
re at
Ġà¥§à¥© à¥¯
Ġà¥§à¥ª à¥§
Ġs ur
à¤ıà¤« à¤¡
am b
âĢį âĢį
Ġà¤Ĩà¤ĩà¤ıà¤® à¤Īà¤²
åĨ Ĩ
åĿ ª
ãİ¡ (
9 6
P ress
f in
à¤¦ à¤Ļ
Ġà¤Ľ à¤¤à¤¬
à¤Ī à¤ľà¤¸
à¥Į .
à¤Ĺà¤° à¤¸
à¤ħ à¤¸à¤®
à¤Ńà¤µ à¤¨à¤®
al ly
Ġà¤Ńà¤°à¤¤ à¤¬à¤¹
ĠE d
Ġà¥§à¥¯à¥ª à¥¬
AR L
G F
S u
h i
à¤¸ à¤¯à¤®
à¤¸ à¤°à¤ª
à¤¡ à¤Ńà¤°
Ġà¤ī à¤§à¤®
à¤ĩ à¤Ĩà¤ıà¤ķ
Ġà¤ı à¤¡à¤²
à¥ª à¥¦à¥¦
à¤¨à¤¨ à¤Ĺà¤°à¤ķ
Ġà¤ħà¤µ à¤Ĺ
Ġà¤ªà¤Łà¤ķ à¤Ńà¤¨
ĠP OST
Ñĥ ÑĢ
ĠCom plete
Ġà¥§à¥¯à¥« à¥¬
Ġà¥§à¥¯à¥ª à¥¨
Ð½Ð¾ ÑģÑĤ
ĠSUR YA
P l
o Post
t v
à¤° à¤Ĩà¤²
à¤¬ à¤ķà¤°
à¤¡ à¤®à¤²
Ġà¤§ à¤°à¤£
à¤µà¤¤ à¤¨à¤ķ
Ġà¤ķà¤ª à¤¨à¤®
à¤Ĺà¤®à¤¨ à¤¬
et y
Ġà¤ħà¤ľ à¤¯à¤®
Ġacc ess
ĠMH z
ĠPahil oPost
I X
à¤ª à¤²à¤¬
à¥Įà¤ģ )
à¤ıà¤® à¤µ
à¤¯à¤Łà¤ķ à¤¸
Ġà¤Ńà¤Ī à¤¦
Ġs econd
à¥¨à¥¦ à¥¦à¥®
epal ia
Ġbe en
Ġal so
Ġnepal ikon
ĠPAR AJU
epalia awaz
Ġnepalikon epaliaawaz
ĠPARAJU LI
Ġà¤Ĩ à¤¸à¤ķ
à¤Ń à¤ıà¤°
Ġà¤ħà¤¨ à¤Ļ
à¤Ĩ à¤°à¤ľ
ĠN e
Ġag ain
1 10
Ġà¤ķ à¤¦à¤ķ
à¤ī à¤Ļ
à¤Ļ à¤®à¤¤
Ġà¤²à¤Ĺ à¤¨à¤Ĺ
Ġà¥§à¥® à¥©
an i
lo bal
ple ted
ĠFeb ruary
à¤ķ à¤¡à¤®
à¤µ à¤§à¤¨
Ġà¤¨ à¤ħà¤Ł
à¤¬ à¤²à¤¬
Ġà¤¦ à¤¸à¤ķà¤¦
Ġà¤ľ à¤¯à¤¸à¤µ
à¤¯à¤® à¤¨à¤®
à¤¾à¤Ĥ à¤Ĥ
à¤¸à¤° à¤¸à¤®
à¤¬à¤¸ à¤ª
à¤ľà¤¯ à¤¬à¤¹
er g
ĠâĢ¦ ..
à¥¦à¥¬ à¥®
ĠCh rome
Ġà¤¬à¤ĸ à¤¤à¤®
av a
e ep
à¤² à¤¸à¤¨
Ġà¤° à¤Ĺà¤¡
à¤Ĥ âĢĻ
à¤ļ à¤ħà¤¨
à¥Ĥ à¤ĥ
Ġà¤ıà¤ķ à¤¤à¤²
à¤ķà¤² à¤¹à¤°
à¤¤à¤ķ à¤£
Ġà¤Ĩà¤¦ à¤®
à¤Īà¤² à¤¹à¤°
à¤¾) :
à¤ıà¤² à¤Ł
Ġl ife
as ansar
à¥¦à¥¬ à¥¯
Ġà¤ıà¤¡ à¤®à¤ķ
ĠR ock
ri end
Â« à¥ĩ
Ġà¤Ĺà¤Ĺà¤¨ à¤ļ
n ess
v ish
à¤¤ à¤·
à¤¸ à¤ĸà¤°
à¤ľ à¤¤à¤°
à¤¡ à¤¨à¤µ
à¤²à¤® à¤¹
à¥Įà¤Ĥ à¤ģ,
à¤ķà¤ķ à¤ķ
Ġà¤¬à¤¹à¤¸ à¤ªà¤Ľ
Ġà¥§à¥§à¥© à¥¦à¥Ń
ang u
wan ews
ïĥ ĺ
vish wanews
R am
à¥ģ ;
à¤ªà¤¨ à¤ªà¤Ľ
à¤ĩà¤¨ à¤¸à¤®
Ġà¥¯ à¥«à¥¦
à¤ľà¤® à¤¹à¤²
Ġà¤¸à¤¸ à¤«
ĠD etails
ĠM y
Ġb u
Ġre l
Ġà¤ľà¤Ĺà¤¤ à¤ħà¤®
à¸ Ń
ĠV ideo
ĠCom p
AR CH
r ation
à¤¿ Â·
à¤¯ à¤¥à¤²
à¤¹ à¤Ńà¤¨
Ġà¤Ĺ à¤ľà¤°
à¤ıà¤ķ à¤ķ
à¤« à¤¸à¤®
Ġà¤Ł à¤²à¤ķ
à¤·à¤® à¤¯
Ġà¥§à¥Ń à¥Ń
à¤ķà¤¬ à¤¡
ĠV ersion
Ġà¤µà¤ļà¤¨ à¤¬à¤¦
s ahity
à¤® à¤µà¤¹
à¤® à¤¶à¤®à¤¶
Ġà¤® à¤²à¤²
Ġà¤ļ à¤ªà¤²
à¤®à¤¤ à¤¸
Ġà¤¹à¤° à¤ª
Ġà¤ªà¤¦ à¤§
à¤ķà¤¨ à¤¸à¤®
Ġà¥§à¥¯ à¥©
à¤¨à¤¯ à¤¬
Ġà¤ĺà¤¨ à¤ĺ
à¥¦à¥§ à¥Ń
Ġà¤Ĺà¤Ī à¤¸à¤ķ
Ġ115 11
Ġ115 05
os s
Ġà¤²à¤¹ à¤¡à¤®
Ġà¤®à¤¹Ã¬ à¤µà¤ķ
ä¸ ĩ
à¤½à¤½ à¤½à¤½
velop ment
à¤ķ à¤¤à¤ķ
à¤µ à¤Ľ
à¤Ł à¤ĩà¤¨
à¤ľ à¤²à¤¬
Ġà¥§à¥¯ à¥¨à¥¦
à¤ľà¤¦ à¤£
ar s
Ġa ct
à¤ªà¤Ł à¤ªà¤®
à¥¨à¥¦à¥¬ à¥§
ous e
ant a
Ġdis c
ĠDec ember
Ġ ________
à¤° à¤Ĺà¤®à¤¨à¤ķ
à¤¿ ï¿½
à¤¤ à¤Ĺà¤¢
à¤¯ à¤²à¤¯à¤¹à¤°
Ġà¤ıà¤ķ à¤¤à¤¨
Ġà¤¸à¤¨ à¤«
Ġà¤ıà¤¨à¤Ĩà¤°à¤ıà¤¨ à¤¹à¤°
ov er
Ġà¤Ńà¤°à¤® à¤Ĺ
à¥¦à¥ª à¥¬
Ġ115 07
Ġ115 12
Ġà¥®à¥® à¥¦
ut ion
ãĥ ³
Ġit s
Ð°Ð» ÑĮ
E L
å Ľ
à¤¤ à¤µà¤°à¤£
Ġà¤ķ à¤ļà¤ķ
à¤Ī à¤¨à¤¬
Ġà¤² à¤¯à¤²
Ġà¤ı à¤ļà¤¬
à¤µà¤¨ à¤¬à¤¹
à¤®à¤² à¤ª
à¤°à¤®à¤£ à¤¸
à¤ªà¤Ł à¤ªà¤ķ
Ġd ocuments
Ġà¤ķà¤ļ à¤¹à¤°
à¤Ńà¤ªà¤¤ à¤¨à¤²
ric t
Ġà¤°à¤£ à¤Ń
à¤®à¤¨à¤Ĺà¤° à¤¸
ob ile
à¥§à¥ªà¥®à¥® à¥ª
à¥§à¥ªà¥®à¥® à¥Ń
æĹ ¥
= "
W S
u ary
à¤® à¤ĺà¤°à¤®
à¤¯ à¤Ńà¤°
à¤ı à¤Ĩà¤Īà¤ľ
Ġà¤¬ à¤°à¤®
à¤§ à¤ľà¤¯à¤¨
à¤ļ à¤ļ
Ġà¤¥ à¤¸
à¤²à¤® à¤Ł
à¤ĥ ,
Ġà¥§à¥ª à¥¨
à¤ĩà¤Ń à¤°à¤ķ
Ġo ver
Ġà¥ªà¥© à¥«
ĠK h
Ġ0 3
our s
rad e
y b
à¤µ à¤Ĺà¤¤
à¤Ĺ à¤Ľ
à¤¶ à¤ªà¤¤
Ġà¤¸à¤® à¤Ń
à¥Į ...
Ġà¤ľà¤¨ à¤¹à¤°
Ġà¥¬ à¥Ńà¥«
à¤°à¤ĸ à¤¬à¤°
Ġthe y
à¤¯à¤ľà¤¨ à¤¸
Ġà¤µà¤¢ à¤¨
Ġ115 30
Ġv i
erse ys
A P
I K
à¤ĸ à¤Ĺà¤¨
Ġà¤ı à¤«à¤¬
à¤°à¤¹ à¤ªà¤Ľ
Ġà¤ħà¤® à¤°à¤¬à¤¹
Ġà¤®à¤¤ à¤ħà¤¨
Ġà¤ľà¤¹ à¤¦
Ġà¤®à¤¦ à¤¨à¤²
com e
ĠA cc
Ġà¥«à¥« à¥«
ĠR ai
Ġ5 5
ĠW ik
Ġ115 13
Ġà¥§à¥¯à¥¬ à¥©
all en
c u
f ul
à¤µ à¤¦à¤°
à¤£ à¤¶
Ġà¤ľà¤¨ à¤ªà¤¦
à¤µà¤ķ à¤°à¤²
Ġà¥¨à¥¦à¥ ¯
à¤Ĺà¤® à¤¬
à¤¸à¤¹ à¤µ
Ġà¥©à¥§ à¥¦
Ġs erv
Ġà¥§à¥Ńà¥© à¥¦à¥®
Ġ207 0
I m
R N
t o
à¤¤ à¤µà¤°
Ġà¤¨ à¤ĩà¤²
à¤§ à¤¨à¤®à¤¨
Ġà¤Ĩ à¤ªà¤¨
à¤Ľ à¤Ł
Ġà¤§ à¤Ļ
Ġà¤īà¤ª à¤ľà¤¹à¤°
Ġà¤Ľà¤²à¤«à¤² à¤¸à¤®
Ġà¥¨à¥§ à¥«
à¤µà¤ľ à¤¹à¤°
à¥Įà¤ģà¥¤ "
Ġà¥§à¥¬à¥« à¥©à¥¨
Ġ199 9
Ġcom ment
iz e
oh n
o ff
Ġà¤¸ à¤īà¤²
à¤¹ à¤²à¤²
à¤¹ à¤¸à¤¹
à¤ĸ à¤ķà¤¸
Ġà¤ħà¤¨ à¤¶à¤¨à¤²
à¤Ļ à¤¥
Ġà¤ĺ à¤¤à¤²
à¤¤à¤¨ à¤¤à¤°
à¤¤à¤² à¤ª
Ġà¤¬à¤¹ à¤¸à¤¹à¤°
à¤¡à¤® à¤°
à¤ıà¤¸ à¤ıà¤ķ
Ġà¥§à¥¬ à¥¦à¥¦
en e
ĠP e
Ġà¥§à¥¯à¥¬ à¥ª
Ø§ ÛĮ
c ess
Ð Ĳ
à¤¸ à¤¤à¤²
Ġà¤¸ à¤ľà¤¨
à¤ļ à¤®à¤§
à¤ļ à¤Ĺà¤µ
à¤ĩ à¤ıà¤°
à¥ĥ à¤¿
à¤ĸà¤° à¤Ŀ
Ġà¤¨à¤® à¤ľ
Ġà¤ħà¤« à¤°à¤¹à¤°
ent s
Ġà¤ľà¤¯à¤¨ à¤¨
ĠG irl
Ġà¥§à¥Ńà¥© à¥¦à¥Ń
Ġà¥§à¥Ńà¥© à¥¦à¥¬
Ġà¥§à¥Ńà¥© à¥¦à¥«
Ġà¥§à¥Ńà¥© à¥¦à¥¨
Ġà¥§à¥Ńà¥© à¥¦à¥ª
Ġà¥§à¥Ńà¥© à¥¦à¥©
U d
m b
s k
w o
à¤² à¤·
à¤ļ à¤²à¤¸
à¤°à¤² à¤²
Ġà¤ĩ à¤²à¤®
à¤ķà¤° à¤¨
Ġà¤ªà¤Ľ à¤¯
à¤ıà¤¨ à¤Ĩà¤Īà¤¸
à¤¯à¤Łà¤¨ à¤¬
Ġà¥¨à¥¯ à¥¬
Ġà¥¨à¥© à¥¨
ĠB ank
W h
à¤¹ à¤Łà¤ķ
Ġà¤ľ à¤¯à¤ľ
Ġà¤« à¤¸à¤²
à¤ħ à¤¥à¤µ
à¤ªà¤® à¤§
à¤ķà¤² à¤¨à¤²
à¤¾. ,
Ġà¤¸à¤¹à¤Ń à¤Ĺ
à¤°à¤ª à¤Ļ
Ġà¤Ĳ à¤¡
à¤°à¤ľ à¤¤
Ð° Ñħ
Ġà¤¤à¤¬ à¤°à¤²
Ġà¤ĵà¤Ń à¤°à¤²
Ġà¤ĵà¤® à¤¨à¤ķ
ĠÐ² Ñĭ
ARCH IVE
ä¸ĩ åĨĨ
6 3
z e
Ġ el
à¤¿ Â¥
à¤ī à¤Ĩà¤®
Ġà¤ĸ à¤²à¤ķ
Ġà¤¤à¤° à¤¹à¤°
à¤·à¤£ à¤¦
à¤®à¤¤ à¤Ĺà¤£à¤¨
à¤µà¤°à¤£ à¤¸
Ġà¤¨à¤¹ à¤¸
à¤Īà¤² à¤Ł
Ġà¤¨à¤ª à¤ļ
Ġà¥§à¥ª à¥¯
in i
at o
à¤µà¤¯à¤® à¤ķ
oo t
Ð½ Ð¾Ð¹
20 16
à¤°à¤ĺ à¤£
l er
s c
à¤ª à¤ł
à¤« à¤£
à¤Ŀ à¤¯
à¤®à¤ķ à¤°à¤£à¤ķ
Ġà¤ĩ à¤ĸ
Ġà¥ª à¥¦à¥¦à¥¦
à¥¬ à¥¦à¥¦
Ġà¤ªà¤¦ à¤®à¤°
Ġà¤®à¤² à¤Ļ
Ġà¤«à¤° à¤«
Ġà¤Ĩà¤Ī à¤¬
Ġà¤Ĺà¤¨ à¤Ĺà¤¨
à¤Łà¤¬à¤² à¤ª
à¤¾à¥Īà¤Ĥ à¥¤
Ġà¤ıà¤ħ à¤°à¤ķ
à¹ ī
d oc
à¤ķ à¤ĸ
à¥ģ |
à¤¹ à¤®à¤§
à¤Ł à¤®à¤¨
Ġà¤¬ à¤Łà¤®
Ġà¤Ĩ à¤¦à¤¨
à¤ī à¤ªà¤¦
à¤°à¤¦ à¤¶à¤¨
Ġà¤ĸà¤¨ à¤ľ
Ġà¥¨à¥¨ à¥¨
à¤ħà¤Ĺ à¤·
iz ation
Y z
é Ģ
à¤¨ à¤ı
à¤µ à¤ļà¤°
Ġà¤« à¤²à¤®
à¤Ĩ à¤¨à¤ķ
à¤Łà¤¨ à¤ªà¤Ľ
à¤¬à¤° à¤Ĺ
Ġà¤ĵ à¤ľà¤¸
à¤°à¤¶ à¤®
à¤ķà¤¨ à¤ªà¤Ľ
Ġà¤®à¤¤ à¤¹à¤°
om it
ĠÐ ľ
ĠO LD
Ġ4 00
Ġà¤°à¤¹à¤° à¤¹à¤°
à¤¯à¤£à¤Ĺà¤¢ à¤ķ
Ġà¤²à¤ĸ à¤¤à¤°
à¥¨à¥¦à¥« à¥ª
aj ura
ĠOLD ER
1 00
l a
Ġà¤ ½
à¤² à¤¹à¤¨
à¤¦ à¤¯à¤µ
Ġà¤Ĺ à¤ĩà¤¯
à¤ľ à¤¥
à¤· à¤¸à¤ķ
à¤· à¤Ŀ
à¤ļ à¤ªà¤Ľ
à¤¡ à¤Ľ
à¤°à¤¤ à¤ľà¤¸
Ġà¤ĸà¤° à¤ĸà¤ľ
Ġà¤«à¤° à¤«à¤°
à¤°à¤ľ à¤Ļ
Ġà¤Ńà¤Ī à¤°à¤¹à¤¨
Ġà¥¦ à¥©à¥¬
ha s
em e
ĠRe g
Ġcom p
8 5
O C
v ail
à¤ª à¤Ļ
à¤· à¤ħà¤¨
à¤£ à¤Ńà¤¨
à¤ĩ à¤§
Ġà¤§ à¤°à¤®à¤ª
à¥ĩ, âĢĿ
Ġà¥§à¥® à¥¨
à¤®à¤ª à¤Ł
Ġà¥¨à¥¯ à¥®
Ġà¤¬à¤Ĺ à¤°à¤ķ
à¤°à¤¸à¤® à¤£
à¤¤à¤¹ à¤Łà¤²
Ð¸ Ð·
and ard
à¤¼ à¥Ī
ap er
97 4
echn ology
M AND
à¥ Ĩ
à¤¶ à¤®à¤²
à¤£ à¤ĺ
Ġà¤¶ à¤®à¤¸
Ġà¤ıà¤ķ à¤¥
Ġà¤Ĩà¤ľ à¤²
Ġà¤¦à¤² à¤¦à¤²
à¤²à¤¤ à¤¸à¤®à¤ķ
à¤°à¤ľà¤¨ à¤¸
ĠL ocation
Ġà¥§à¥§à¥© à¥¦à¥¨
oc ial
Q W
R L
v GF
Î ¿
Ø ´
à¤¹ à¤¬à¤¹
à¤¹ à¤£à¤²
à¤ı à¤°à¤ķ
Ġà¤¹ à¤°à¤¤
à¤Ń à¤¶
à¤ĸ à¤¤à¤ķ
à¤ªà¤° à¤¹à¤°
à¤ħ à¤«à¤°
à¤ļà¤¨ à¤¦
à¤²à¤¨ à¤Ń
Ġ1 000
à¤ĸà¤ķ à¤·
al t
ĠÐ Ŀ
à¤¯à¤Ł à¤ķà¤®
Ð° ÐµÑĤ
Ð¸ Ñħ
ol low
Ġ.. ?
vGF kv
à¤® à¤¦à¤ķ
Ġà¤° à¤¬à¤°à¤ķ
Ġà¤¦ à¤¨à¤ķ
Ġà¤ĸ à¤²à¤ª
Ġà¤ķà¤° à¤¹à¤°
Ġà¥§à¥¯ à¥¨
Ġà¥§à¥¯ à¥©à¥®
à¤¤à¤¬ à¤¦
er o
Ġs chool
ĠH ome
Ġà¤ķà¤¦ à¤®à¤®
ĠNepal ese
Ġv is
ys ansar
Ġ........... (
MAND U
G z
M A
Î ±
à¤¯ à¤«
Ġà¤¬ à¤ĺ
Ġà¤¦ à¤¹à¤®
à¤¡ à¤µà¤°
à¤Ń à¤Ĺà¤¤à¤²
à¤ī à¤ªà¤Ľ
à¤ĺ à¤°à¤¦
Ġà¤¯à¤¸ à¤¤
Ġà¤Ŀ à¤µ
Ġà¤Ĩà¤® à¤¹à¤¡
à¤¤à¤°à¤® à¤¹
Ġà¤¨à¤Ĺ à¤¦à¤ķ
à¤¾à¥Īà¤Ĥ -
ir m
Ġà¤Ĩà¤īà¤Ł à¤¸
Ġhel lo
Ġà¤ľà¤¯à¤ľ à¤¯à¤ķ
i i
å Ĭ
Ġ à¥ĭ
Ġà¤ª à¤²à¤®
à¤Ł à¤ľà¤¤
à¤ı à¤°à¤²
à¤§ à¤µà¤¨
à¤¶ à¤Ĺà¤¤
Ġà¤ī à¤¢
à¤°à¤¤ à¤Ńà¤°
à¤Ŀ à¤°à¤¨
Ġà¤ħà¤ª à¤¸
Ġà¥§à¥ª à¥¬
à¤Ĺà¤®à¤¨ à¤ªà¤Ľ
à¤ĩà¤¡ à¤¬
com pleted
ĠD h
Ġs ome
Ġd ay
à¥¦à¥¬ à¥«
Ġà¤°à¤¹à¤° à¤®
à¥Ģ' ,
à¤ļà¤¥ à¤°à¤¬
ang t
Ġà¤µà¤§ à¤¶
Ġat t
I I
à¤¨ à¤°à¤ª
à¤¦ à¤²à¤¬
Ġà¤ħ à¤¡à¤ķ
à¤¬ à¤¬à¤Ī
Ġà¤¤ ÅĴà¤µ
Ġà¤Ĩ Ã
à¤ķà¤°à¤£ à¤¦
à¤µà¤ª à¤¦
Ġà¥§à¥¯ à¥§
Ġà¤Ĺà¤ł à¤ľ
Ġà¥¨à¥© à¥©
ĠC he
ĠF orm
ãģ ĭ
ĠK ang
Ġà¤ıà¤¸à¤Ī à¤Īà¤ķ
Ã© s
ĠJan uary
T KC
w ma
à¤Ł à¤ªà¤°
Ġà¤ľ à¤Ĺà¤²
à¤ľà¤¨ à¤¶à¤ķ
à¤²à¤ķ à¤ª
à¤Ĺà¤¤ à¤¸
à¤·à¤¤ à¤¯
ĠA rticle
à¤¤à¤¸ à¤¯
Ġà¥«à¥§ à¥Ń
ail y
à¤Ĳ à¤¨à¤ķ
ah oo
Ġ205 8
Ġà¤Ľà¤°à¤ª à¤·
Yz TKC
Gz YzTKC
GzYzTKC wma
! âĢĻ
j k
â ĸ
æ Ŀ
à¤² à¤ĺà¤°
à¤ª à¤¥à¤®
Ġà¤ħ à¤Łà¤®
à¤§ à¤²à¤Ĺ
Ġà¤¦à¤¶ à¤¹à¤°
à¤¦à¤® à¤¯
Ð¾ Ñĩ
Ġà¤Ľà¤ł à¤²à¤Ĺ
ĠF l
Ġà¥¯à¥® à¥«
à¤¤à¤ķà¤® à¤§
ea ve
und ay
p s
Ø ©
Ġ \'
à¤¾ à¥ħ
Ġà¤ķ à¤ªà¤°
à¤¯à¤ķ à¤¥
à¤ľà¤¨ à¤°à¤²
à¤¢ à¤¯
à¤°à¤² à¤®
à¤²à¤¬ à¤¡
à¤ĥ -
Ġà¤°à¤¹à¤¨ à¤¸à¤ķ
à¤¾- -
Ġà¤ıà¤ª à¤¹à¤°
ep t
Ġ3 9
ĠG urk
Ñĥ Ð´
Ġà¤ıà¤®à¤ı à¤¡à¤¬
Ġà¤ľà¤¨à¤Ĺ à¤£à¤¤
D R
p erson
Å Ĥ
à¤¨ à¤§à¤¨
à¤ķ à¤ªà¤¤
Ġà¤µ à¤¡à¤²
Ġà¤¥ à¤°à¤¹à¤°
à¤¸à¤® à¤¥à¤°
à¤¨à¤® à¤¹
Ġà¤ªà¤ķ à¤¡à¤®
Ġà¤Ĩà¤® à¤¸
Ġà¤ıà¤¸ à¤¸
Ġf l
Ġ3 4
ĠâĢĻ âĢĻ
Ð½ Ð¾Ð³Ð¾
à¤Ĩà¤ĩ à¤«
Ġà¤ķà¤¦à¤° à¤ªà¤¤
ĠCha ir
angt ang
N ews
S P
n ing
à¤² à¤Ľ
à¤µ à¤®à¤®
Ġà¤¨ à¤¬à¤°
à¤ľ à¤®à¤²
Ġà¤µ à¤°à¤ķ
Ġà¤ľ à¤«
à¤ī à¤ĺà¤°à¤®
à¤īà¤¨ à¤Ń
à¤°à¤¸ à¤Ĺ
Ġà¤ĺà¤° à¤¨à¤ľ
Ġà¤ħà¤µ à¤¦
Ġà¤¹à¤¤ à¤ªà¤¤
à¤¸à¤¹ à¤¸à¤ļ
Ġà¥§à¥® à¥®
Ġà¥¦ à¥§à¥Ń
Ġl es
Ġà¤Ĺà¤¹ à¤Ńà¤°
Ġà¤Ĺà¤ı à¤Ľà¤¨
Ġà¤ıà¤« à¤Ł
à¤ıà¤ļ à¤ª
à¤ªà¤°à¤® à¤ª
Ġ199 8
Ġà¤ľà¤®à¤ĺ à¤Łà¤ķ
à¤ıà¤¯à¤° à¤ª
Ġund er
Ġà¤Ľà¤²à¤ķ à¤ªà¤Ł
C P
m à¤¦
à¤° à¤Ĺà¤®à¤¨
Ġà¤ķ à¤Łà¤°
Ġà¤Ĩ à¤¶à¤¨
à¤£ à¤ľà¤¨
Ġà¤ªà¤° à¤¯
à¤ĩà¤¨ à¤ĸà¤¬à¤°à¤ķ
Ġà¤ķà¤° à¤ª
à¤·à¤£ à¤¸à¤¹
à¤ķà¤ķ à¤¸
Ġà¤ĵ à¤Ńà¤²
à¤ľà¤¦ à¤°à¤µ
à¤īà¤ª à¤¸à¤Ń
ĠP art
à¤¨à¤Ĺ à¤ıà¤ķ
à¸ ĩ
ddc mugu
allen ge
a ur
â Ī
à¥ĩ à¥ģ
Ġà¤° à¤¥à¤®
Ġà¤ľ à¤²à¤²
à¤®à¤ķ à¤ķ
à¤ķà¤® à¤¬
à¤ļà¤¨ à¤µ
à¥¨ à¥¨à¥¦
à¤²à¤¨ à¤¤à¤°
à¤ıà¤® à¤Ĩà¤Ī
om en
à¥¦à¥¬ à¥Ń
Ġ5 3
Ġwh o
form s
ĠTr ump
D ownload
H e
Ã ¨
à¤¯ à¤¶à¤¨à¤²
Ġà¤µ à¤ļà¤¨à¤ķ
à¤ī à¤Łà¤ķ
à¤¯à¤ķ à¤¸à¤®
à¤°à¤¤ à¤ªà¤°à¤¸
à¤Ļ à¤¬à¤ľ
Ġà¤ıà¤ķ à¤²à¤ķ
à¤ħ à¤µà¤ķ
Ġà¤ľà¤¸ à¤¦
à¤°à¤Ń à¤¦
Ġà¥§à¥« à¥ª
Ġà¤§à¤¨ à¤¤
Ġà¥§à¥ª à¥Ń
Ġà¥¨à¥ª à¥§
ĠT e
ion al
Ġà¥©à¥© à¥ª
ro om
ĠK ul
ir d
äº Ĩ
ĠEng lish
n n
u a
w atch
à¤µ à¤¶à¤®à¤¶
Ġà¤¬ à¤Łà¤°à¤«
Ġà¤Ń à¤¯à¤®
Ġà¤Ľ à¤ľà¤¨
Ġà¤ªà¤° à¤«
Ġà¤ĺ à¤°à¤¬à¤¹
Ġà¤Ĳ à¤¯
à¤Ĩà¤ľ à¤¬
.... "
as es
à¤ıà¤ļ à¤ĵ
os e
Ġà¤ķà¤¨à¤ķ à¤®à¤£
T S
Ġà¤Ĺ à¤±
à¤Ł à¤ļà¤¨
Ġà¤µ à¤µ
à¤§ à¤Ļ
Ġà¤¥ à¤®à¤¨
à¤ªà¤° à¤¯
à¤²à¤¨ à¤ľ
à¤¯à¤² à¤¹à¤°
à¤Ĺà¤² à¤Ń
à¤«à¤² à¤«
à¥ĩà¥¤ âĢĿ
Ġà¥§à¥Ń à¥®
Ġm od
ol or
Ġà¤Ĩà¤Ļ à¤Ľ
te rest
ud io
Ġà¤¬à¤¬à¤°à¤® à¤¹à¤²
ĠProf ile
t ime
y le
Ĥ ¬
à¤¸ à¤ıà¤¸
Ġà¤ķ à¤²à¤¬
à¤¬ à¤Ń
Ġà¤µ à¤¨à¤®à¤¨
à¤ĩ à¤ĺ
à¤°à¤£ à¤¬à¤¸
à¤ĺ à¤°à¤¸
Ġà¤§ à¤¨à¤¨
Ġà¤¡ à¤¯
à¤Ŀ à¤¨à¤²
à¤ħ à¤ªà¤²
à¤µà¤¨ à¤ªà¤¦
Ġà¤¸à¤° à¤Ĺà¤®
à¤ĸà¤° à¤¨
à¤¹à¤ķ à¤¬
à¤¾à¥ĩ )
Ġà¤Ĳ à¤¨à¤¬
in o
ĠA JA
et work
Ġ4 7
ist ry
Ġà¤Łà¤® à¤Ł
rou gh
ĠGurk ha
ĠAJA X
l ink
o e
Ġà¤¦ à¤ľ
à¤¥ à¤°à¤®
à¤Ī à¤ľà¤°
Ġà¤ķà¤® à¤²à¤µ
à¤Ĺà¤ķ à¤µ
Ġà¥¨à¥© à¥ª
à¤²à¤¨à¤² à¤Ĺ
Ġ5 4
à¹ Ģ
àµ į
Ġ Ø§Ø
Ġà¤² à¤¹à¤¸
Ġà¤ı à¤²à¤¨
à¤ķà¤® à¤¸
à¤¤à¤ķ à¤¸
Ġà¤Ĩà¤ľ à¤ªà¤°
à¤ķà¤ª à¤Łà¤ķ
Ġà¤ıà¤® à¤Ĩà¤Ī
à¤¤à¤¬ à¤ľ
ĠT arget
à¤Łà¤µà¤² à¤¸
à¥¨à¥¦à¥« à¥¯
ĠAn n
olle ge
a im
à¤¿ --
à¤¿ Â«
à¤® à¤¯à¤®
à¤¯ à¤°à¤¸à¤¹
à¤· à¤ļà¤¨
Ġà¥© à¥¦à¥«
Ġà¤ļà¤² à¤¨à¤®
Ġà¥¨à¥« à¥«
à¤ľà¤¯ à¤¬
an e
à¤¸à¤µ à¤¬
à¤¾... âĢĻ
Ġà¥¨à¥¯ à¥¦
Ġp ress
ĠM other
us h
Ġà¥¦à¥« à¥Ń
Ġà¥§à¥¯à¥« à¥§
ĠðŁ ĳī
Ġà¥§à¥§à¥¦à¥¨ à¥§
NT V
Ġche ap
æĺ ¯
sahity asansar
C S
à¤¦ à¤¯à¤¸
à¤°à¤£ à¤Ńà¤¨
Ġà¤ķà¤® à¤²à¤¬à¤¹
à¤Ĩ à¤ĩà¤¨
Ġà¤ĺà¤° à¤ĸ
âĢĿ à¥¤
Ġà¤¬à¤² à¤°à¤²
Ġà¤¨à¤Ĺ à¤ıà¤°
Ġà¤Ĩà¤īà¤Ł à¤¡
ĠJ ohn
à¤£à¤Ĺ à¤Ļ
ind ows
ĠĠĠĠ ĠĠĠĠ
g et
j n
à¤¨ à¤°à¤ķà¤°
à¥ĩ &
Ġà¤¸ à¤Ŀ
à¤¡ à¤µà¤²
à¤īà¤¨ à¤ªà¤°
à¤¾à¤ģ "
à¤¸à¤ķ à¤ķà¤¹
Ġà¤¬à¤¨ à¤¬
Ġà¤®à¤¨ à¤µ
Ġà¤ħà¤µ à¤¶à¤°
à¤µà¤¤ à¤¬
à¤ıà¤® à¤Ĩà¤°à¤²
à¥¨à¥¦à¥ ¯
à¤ıà¤« à¤Ł
à¥ĩ- âĢĻ
ol angtang
Ġà¤ªà¤Łà¤ķà¤ªà¤Łà¤ķ à¤ķ
Ġv omit
à§ į
radi olangtang
6 4
f l
s on
y t
à¤µ à¤£à¤®
Ġà¤° à¤ľà¤¹à¤°
Ġà¤¨ à¤«à¤¸
à¤°à¤® à¤¹
à¥Į )
à¤ħ à¤¥
Ġà¤¬à¤¢ à¤µ
Ġà¤ķà¤® à¤Ńà¤¨
à¤Łà¤¨ à¤¦
Ġà¤¢ à¤¡
Ġà¤ĩà¤¨ à¤ª
à¤¨à¤µ à¤¦
à¤ļà¤² à¤ª
à¤Īà¤¨ à¤²à¤ķ
Ġs ex
Ġs ee
Ġd ec
Ġd ownload
à¤¨à¤Ń à¤°à¤®
ak ing
à¤¤à¤Ń à¤£
pos h
M ore
T Z
m à¤ķ
x t
Ø ¹
Ġ right
à¤Ń à¤µà¤ª
à¤¯à¤ķ à¤Ĺ
à¤¢ à¤¨
Ġà¤ĺ à¤®à¤¨
à¤Łà¤° à¤ľà¤¸
Ġ- &
Ġà¤ľà¤Ĺ à¤ľà¤Ĺ
Ġà¤¹à¤¸ à¤¨à¤²
Ġà¤ľà¤² à¤ļà¤°
Ġà¤¨à¤Ĺ à¤ª
op hy
Ġ199 7
Ġcl ass
Ġà¤ķà¤ļà¤ķ à¤ļ
Ġà¤¸ à¤ī
à¤¥ à¤ľ
à¤Ī à¤ªà¤¨
à¤Ń à¤¹
à¤ĩ à¤¬à¤ķ
à¥Į à¥¤âĢĻ
Ġà¤¶ à¤¤à¤¬
à¤µà¤¨ à¤Ĺà¤°
à¤ıà¤¸ à¤ĵ
à¤ıà¤¸ à¤ıà¤¸
Ġà¥¨à¥¨ à¥Ń
ĠT ong
Ð¸ Ñģ
ĠØ ¯
à¤ķà¤ħ à¤ªà¤®
k antipur
à¤² à¤¤à¤ª
Ġà¤¬ à¤ķà¤¸
à¤ļ à¤¯à¤²
à¤Ī à¤§
à¤¶à¤ķ à¤¸à¤®
à¤Ĺà¤² à¤ªà¤¨
Ġà¤ĵ à¤®à¤°
à¤Ĺà¤® à¤¯
Ġà¤¸à¤¤ à¤¬
à¤¿. )
ĠA g
Ġà¤¦à¤®à¤¨ à¤¨
è Ģ
é ĩ
Ġ Ñħ
à¤ķ à¤¨à¤¸
à¤Ĺ à¤Ĺà¤¨
Ġà¤¹ à¤ķà¤¬
Ġà¤Ĩà¤ĩ à¤Ń
à¤¸à¤¨à¤² à¤Ĺ
ĠN CC
19 54
Ġg o
Ġme et
Ġprov id
6 5
H R
m on
à¤° à¤°à¤£
à¤° à¤¶à¤ķ
à¥ĭ à¤¾
à¤§ à¤ľ
Ġà¤ľ à¤Ĺà¤ķ
Ġà¤ı à¤®à¤¨
à¤¸à¤® à¤ħà¤¨
à¤²à¤ķ à¤¸à¤®
âĢĻ (
Ġà¤¬à¤² à¤¶
Ġà¤ľà¤® à¤¦à¤Ĺ
Ġà¤¸à¤µ à¤Ńà¤¨
Ġà¤ĩà¤® à¤°à¤ľ
el f
Ð¸ Ðº
ot t
à¥¤à¥¤ à¥¤
b a
å º
à¥ĩ âĢĺ
à¤§ à¤Ńà¤¨
à¤ħ à¤ł
à¤µà¤° à¤Ń
à¤¸à¤¬ à¤Ńà¤¨
Ġà¤ıà¤¨ à¤Ĩà¤ĩà¤¬
Ġà¥§à¥® à¥¦à¥¦
à¤·à¤§ à¤°à¤ķ
ateg ory
c es
à¤ª à¤Łà¤®
à¤ı à¤ı
à¤¡ à¤µà¤ķ
à¤ī à¤¡à¤²
à¤ķà¤² à¤Ļ
Ġà¤¨à¤Ĺà¤° à¤¹à¤°
à¤ľà¤ķ à¤¸à¤®
à¤ıà¤¨ à¤Ĩà¤Ī
à¤ķà¤ª à¤Ł
à¤ĩà¤² à¤¸
Ġà¤ıà¤® à¤µ
à¤¯à¤£ à¤Ĺà¤£
Ġà¤ªà¤² à¤Ļ
ĠÐ ł
à¤ĩà¤ķà¤² à¤¯
à¤Ĺà¤ľ à¤²à¤ķ
à¥¨à¥¦ à¥¦à¥ª
à¥į- âĢľ
Ñĥ Ñİ
Ġhel p
: âĢĿ
Ġ ra
à¤Ĺ à¤¨à¤ª
Ġà¤® à¤łà¤ķ
Ġà¤Ń à¤Łà¤°
à¤¡ à¤£
à¤Ń à¤µà¤¸
Ġà¤ı à¤²à¤¬à¤®
Ġà¤ĵ à¤łà¤ķ
Ġà¤ıà¤® à¤Ĩà¤°à¤Ĩà¤Ī
Ġà¤®à¤¤ à¤µ
âĢľ ,
à¤Ĭ à¤²
Ġt witter
Ġà¤ıà¤¡ à¤µ
__ _
ist rict
ĠÐ¸ Ð½
enc y
atur day
7 9
d er
p o
t ain
å ·
à¤¤ à¤µà¤ķ
à¤¶ à¤°à¤®
à¤¡ à¤¹à¤²
à¤ĩ à¤¬à¤°à¤®
Ġà¤ħà¤¨ à¤ªà¤¢
Ġà¤¸à¤¹ à¤ħà¤Ń
Ġà¤ł à¤Ĺà¤¹à¤°
à¤²à¤¯ à¤¤à¤°
Ġà¤ıà¤® à¤ıà¤²
Ġà¤ıà¤¨ à¤Ĩà¤°à¤Ł
Ġà¤ļà¤¢ à¤¨
en ing
Ġà¤ħà¤ĸ à¤µ
ĠB r
ĠB ar
à¥¦à¥¬ à¥§
Ġà¥Ńà¥© à¥Ń
à¤Ĳ à¤¨à¤®
Ġà¤ıà¤¸à¤ĩ à¤ĩ
vail able
à¹Ģ à¸
S cript
b ack
Ð ŀ
à¥Ģ à¤¾
Ġà¤¸ à¤¸à¤ķ
Ġà¤¸ à¤ĺà¤°
à¤µ à¤§à¤°
Ġà¤ĸ à¤°à¤¦
Ġà¤ı à¤¨à¤²
Ġà¤ĩ à¤¦à¤ķ
ak o
Ġv ideo
à¥¨à¥¦à¥ª à¥¯
ĠCh ina
å Ń
Ġà¤Ľ à¤¤à¤ķ
à¤Ī à¤®à¤¹
à¤Ń à¤Ń
Ġà¤ħà¤° à¤°
à¤°à¤¹à¤° à¤£
Ġà¤ªà¤¦ à¤°
Ġà¤¦à¤² à¤ľ
ĠM edia
Ġà¤ħà¤¸à¤® à¤ķ
à¥ĭà¤Ĥ ,
Ġà¥§à¥§à¥© à¥¦à¥©
arm a
Ġj ust
rad y
doc s
D e
r act
w ay
Û ģ
à¤¨ à¤Ĺà¤łà¤¨
à¤· à¤¯à¤µ
Ġà¤ī à¤¸à¤¸
à¤°à¤¤ à¤¨
Ġ( âĢĺ
Ġà¥§à¥Ń à¥§
Ġà¤¨à¤µ à¤Ĺ
à¥¨à¥¦ à¥¦à¥¯
Ġà¤ħà¤ľ à¤¯à¤²
Ġà¤ıà¤¡ à¤µà¤°
Ġin formation
Ġ4 4
Ġg r
iv ing
ĠSt ate
Ġas s
Ġ{ {
Post ed
ĠWord Press
ĠDon ald
J W
c red
u es
Ð ¡
å Į
Ġà¥ ĥ
Ġà¤® à¤°à¤£à¤ķ
Ġà¤¹ à¤ķà¤¸
Ġà¤µ à¤ĸà¤¤
à¤§ à¤¸à¤¹
à¥¤ (
à¥Į /
Ġà¤ı à¤ıà¤¨à¤ı
à¤µà¤¸ à¤§
à¤ħ à¤ĸà¤¬
à¤ķà¤² à¤Ł
Ġà¤ĵ à¤¦
Ġà¤ıà¤¨ à¤¡
er a
Ġp ol
à¤ıà¤« à¤ıà¤²
Ġà¤¨à¤Ĩ à¤ıà¤°
Ġin ter
Ð°Ð ³
Ġ199 4
à¤¬à¤ĸ à¤¤à¤²
Ġyear s
Ġed it
à¤¨à¤ħ à¤Łà¤°
A Z
T ravel
w y
Ú ¯
à¤° à¤°à¤ķ
à¤¹ à¤¶
à¤µ à¤Ńà¤ķ
à¤ı à¤ªà¤¶
à¤Łà¤ķ à¤ĺà¤°à¤®
Ġà¥© à¥¦à¥¯
à¤¦à¤¨ à¤ªà¤Ľ
Ġà¤¸à¤®à¤¯ à¤ħà¤Ĺ
Ġà¤ķà¤µ à¤¹
Ġà¥§à¥® à¥§à¥ª
Ġà¤«à¤² à¤ª
à¤ªà¤Ł à¤¨à¤®
Ġd dc
Ġth em
ĠâĢ¦ âĢ¦âĢ¦
ag lung
Ġà¤²à¤¨ à¤Ł
Ġ115 14
Ġà¥§à¥§à¥© à¥¦à¥«
Ġà¥§à¥§à¥© à¥¦à¥ª
ãĤ Ĭ
Ġ14 4
ÐµÐ½ Ð¸Ðµ
ĠEth nic
ĠTong ue
( "
P in
P ro
m en
Ġà¤® à¤µ
à¤¥ à¤ªà¤¨
à¤ļ à¤°à¤¸
à¤£ à¤ľà¤¸
à¤ľà¤¨ à¤®à¤¤à¤²
à¤¤à¤® à¤°
Ġà¤¬à¤ľ à¤°
Ġà¤ĵ à¤ªà¤¨à¤ķ
à¤¯à¤£ à¤¦à¤²
in ation
Ġà¥¨à¥§ à¥©
Ġà¥¨à¥¬ à¥¯
ĠS ub
ĠA LS
ĠI ce
Ġà¤¸à¤¤à¤¹ à¤Ńà¤¨
ĠPro ced
rain ing
n epcal
à¤¿ âĢĶ
à¥ĩ .....
à¤Ĺ à¤¥
à¤ļ à¤°à¤£à¤®
à¤ł à¤µ
Ġà¤ľà¤® à¤²à¤®
Ġl ike
00 1
ir a
à¸ ¡
à¸ ±
Ġà¥§à¥§à¥© à¥¦à¥¬
Ġà¥§à¥¯à¥ª à¥§
ĠAd d
q c
ä ¹
Ġ Ä
à¤¨ à¤ıà¤ľ
à¤® à¤¯à¤²
Ġà¤Ń à¤¬à¤¨
Ġà¤ľ à¤¯à¤®
à¤ī à¤Łà¤°
Ġà¤ı à¤¸à¤°
Ġà¤ĩ à¤°à¤«
à¤²à¤² à¤²
à¤¦à¤² à¤¸
à¤Īà¤ķ à¤²à¤ķ
Ġà¤Ī à¤Ļà¤²
Ġm ed
ĠÂ ¨
Ġc re
ĠR en
à¥ĭ? !
Ġà¤¦à¤¹ à¤ļ
Ġe ver
br b
Ġpl ay
G irl
r s
u ter
à¤¾ #
à¤ļ à¤²à¤Ĺ
à¤« à¤²à¤²
Ġà¤ĸ à¤¯à¤°
à¤¯à¤¤ à¤¹à¤®
à¤ĩà¤¨ à¤ª
à¥ĭà¥¤ &
à¤®à¤¤ à¤µ
Ġà¤īà¤¦ à¤¯à¤ķ
à¤¹à¤ķ à¤ª
Ġà¥¨à¥¦à¥Ń à¥Ń
Ġà¤¤à¤² à¤¤à¤²
ĠS an
Ġà¤°à¤Ĺà¤¤ à¤¬
Ġh ow
ãĥ »
pan y
ĠTh is
à¤Ľà¤²à¤« à¤²à¤ķ
Ġà¤ĳ à¤Ł
rop in
B A
C ouncil
T b
q v
Ù Ĥ
à ®
à ¼
å ¸
æ ī
à¤¨ à¤ıà¤¥
à¤ķ à¤ªà¤®
à¥Ī Â´
à¤· à¤°à¤¸
à¤§ à¤°à¤¤
Ġà¤ı à¤Ĩà¤°à¤Ł
Ġà¤¸à¤¹ à¤ĩà¤¨
à¤°à¤§ à¤°
Ġà¤¢ à¤ķà¤¨
à¤ľà¤Ĺ à¤ľ
Ġà¥¨à¥® à¥©
à¤µà¤Ł à¤¯
ĠS w
Ġb l
à¥ĭ? âĢĿ
à¦ ¨
à¥Ģ.. âĢĿ
ÑĩÐµ ÑģÐº
ĠChair person
A ut
O n
w n
å ¿
à¤ķ à¤Ļà¤®
à¤¿ ;
à¥Ģ à¤¼,
Ġà¤Ĺ à¤ŀ
Ġà¤Ĺ à¤ĩà¤°
à¥Ī âĢĶ
Ġà¤¬ à¤°à¤£
Ġà¤® à¤°à¤ķ
à¤Ĺà¤° à¤¹à¤°
Ġà¤¤à¤° à¤ĸà¤°
à¤µà¤¨ à¤¨
à¤·à¤£ à¤ª
à¤¤à¤² à¤¹à¤°à¤ķ
Ġà¤ĺà¤° à¤Ľ
à¤²à¤¤ à¤¦
Ġà¤ıà¤¨ à¤ĵà¤¸
Ġà¤ıà¤¨ à¤Ĩà¤Īà¤¬
Ġà¤Ĩà¤Ī à¤²à¤¬
Ġà¤¹à¤² à¤Ń
à¤Ĩà¤Ī à¤ıà¤²
Ġà¤¦à¤¶à¤ķ à¤¤
Ġà¤ľà¤¡ à¤¤
il es
Ġà¤°à¤Ļ à¤¹à¤°
em b
Ġà¤ĵà¤Ń à¤²à¤®
à¤°à¤¨à¤Ĺà¤° à¤¸
à¤ĩà¤ı à¤ħà¤¨
und ar
sp ot
äº º
ĠUnivers ity
ĠKul ung
9 4
A D
A n
Y ear
g er
à¤¦ à¤µà¤¸à¤¹
à¤Ł à¤ļà¤¨à¤²
Ġà¤¨ à¤°à¤ķà¤ķ
Ġà¤µ à¤²à¤®
à¤· à¤°à¤ķà¤°
à¤£ à¤ħà¤¨
à¤¸à¤¨ à¤¸à¤¹
Ġà¥¨à¥¨ à¥§
Ġm ay
à¤Ĭ à¤¦à¤ķ
ĠÐ µ
Ġs ystem
Ġà¤ħà¤¨à¤¶à¤¨ à¤¹à¤°
ĠIn v
Ġ8 5
ast e
ud ur
ĠÃ Ĺ
Ġex p
Ġdis e
Ġà¤¬à¤¬à¤°à¤® à¤¹à¤²à¤¸
à¤¹à¤¹ à¤¹à¤¹
New Year
L J
à ª
à¥ĭ à¥ĩà¥¤
à¤¸ à¤¯à¤¤
à¤¦ à¤¹à¤ķ
Ġà¤Ĺ à¤Ł
à¤ı à¤¬à¤²
à¤£ à¤Łà¤®
à¤ĩ à¤¸à¤¨
Ġà¤®à¤¹ à¤®à¤¦
à¤°à¤¬ à¤®
à¤ķà¤ª à¤²
à¤ªà¤² à¤Ĺà¤¤
à¤ıà¤® à¤ıà¤²
à¤¯à¤¯ à¤°à¤¤
ĠD r
as i
à¥Įà¤ģà¥¤ '
Ġb ack
Ġw ere
ch e
ĠV is
à¥¨à¥¦à¥« à¥¬
Ġ206 3
âĢ¢âĢ¢ âĢ¢âĢ¢
ĠÐ´ Ð»Ñı
a id
à¤® à¤°à¤¨
à¥ģ Ã·
à¥Ģ ;
Ġà¤ª à¤¡à¤ķ
Ġà¤ª à¤Ĺà¤²à¤²
Ġà¤° à¤²
Ġà¤Ľ à¤łà¤®
Ġà¤¦ à¤°à¤¹à¤°
Ġà¤² à¤¤à¤®
à¤¯à¤ķ à¤®à¤¨
Ġà¤ħà¤¨ à¤ľ
Ġà¤ħà¤° à¤µà¤ķ
Ġ? ...
Ġà¤Ķ à¤·à¤¤à¤®
à¤¾à¥ĩ !
à¤¤à¤°à¤£ à¤¸
Ġà¤Ĳ à¤ľà¤¨
Ġ: )
à¤¦à¤µ à¤¬
à¤ıà¤® à¤Ĩà¤°
à¤¯à¤£ à¤¬à¤¹
à¥Ģ) âĢĵ
à¤¥à¤²à¤® à¤§
à¤²à¤Ń à¤²
ĠM al
Ġà¥ªà¥« à¥Ń
ĠI m
ĠB ucket
Ġh t
he re
à¥ĩ? âĢĻ
ÐµÐ ·
ust ral
ĠAct s
E V
S A
b x
i Y
à¤¯ à¤°à¤¦
Ġà¤ħ à¤²à¤¨
à¤¶ à¤°à¤¬à¤¹
à¤ļ à¤¤à¤²
à¥¤ ,
Ġà¤ļ à¤ļ
à¤¯à¤¸ à¤Ļ
Ġà¤ķà¤® à¤¨à¤µ
à¥« à¥¦à¥Ńà¥¬
Ġà¤ĺà¤° à¤ĺà¤¡
at ra
Ġà¤Ĺà¤ł à¤¨à¤²
Ġà¥¨à¥ª à¥«
ĠS hare
à¤Ĺà¤¸ à¤Ĺ
ĠR CC
Ġthe re
ĠH ot
Ġà¤ıà¤ķà¤ªà¤Łà¤ķ à¤ķ
ra ph
ĠSh ort
à¤īà¤ªà¤ķ à¤°à¤£
D TZ
F o
J uw
K yb
c G
d Tb
i EC
j hC
r N
u th
à¤¤ à¤ĵà¤Ł
à¤¹ à¤§
Ġà¤ķ à¤°à¤¤
Ġà¤ķ à¤¡à¤°
Ġà¤Ĩ à¤¸à¤¨à¤ķ
Ġà¤ľ à¤ķà¤°
à¤ĩ à¤®à¤¤
à¤°à¤£ à¤¤
à¤¯à¤® à¤ª
à¥Įà¤Ĥ .
à¤¾, ...
à¥ĭà¥¤ +
Ġà¤ħà¤² à¤ª
à¤Ĺà¤¢ à¤¨
Ġà¥¨à¥ª à¥ª
ĠÂ ´
ĠÐ ŀ
Ġà¥ªà¥ª à¥§
ve st
um na
Ġfor m
à¤¾? ?
ap an
à¤®à¤¤à¤² à¤µà¤ķ
à¥įâĢĿ ?
Th is
GB iY
md lo
AK jn
JW X
qv mdlo
LJ Kyb
bx dTb
DTZ qc
iEC bKD
AKjn qvmdlo
LJKyb G
E N
H AT
å į
à¤¨ à¤°à¤¹
à¥ĭ ....
à¤¯ à¤µà¤²
à¤¹ à¤ļà¤°à¤£
à¤Ł à¤¬à¤¹
à¤ĩ à¤²à¤¨
Ġà¤¶ à¤¦
à¤¤à¤° à¤ªà¤Ł
à¤łà¤® à¤¡
à¤Łà¤° à¤¨à¤²
à¤ªà¤ķ à¤¸
à¤łà¤ķ à¤µà¤°
Ġà¤ħà¤Ļ à¤¸
à¥¦à¥¬ à¥ª
à¤ľà¤Ĺà¤¢ à¤¸à¤®
Ġà¥¯à¥© à¥Ń
ht ml
pl ay
sha res
9 5
P rady
p Fo
Â ®
Ð ł
Ġà¤ª à¤¯à¤°
à¤Ĺ à¤§
à¤ľ à¤°à¤¨
à¤£ à¤ıà¤¶
Ġà¤ı à¤¨à¤°
à¤²à¤ķ à¤¨
à¤¤à¤° à¤ĸ
Ġà¤¸à¤¹ à¤²
à¤¤à¤ķ à¤¹
à¤µà¤¨ à¤¤
à¤µà¤¨ à¤ľà¤²
Ġà¤īà¤¨ à¤¸
Ġà¥© à¥¦à¥®
Ġà¤Ĩà¤ĩ à¤ķà¤¨à¤®
Ġà¤Ĺà¤£ à¤ª
à¤Ĥ. âĢĵ
Ġà¤®à¤¦ à¤¨à¤®à¤£
Ġà¤Ĩà¤ł à¤¦
Ġm ain
à¤īà¤ª à¤¸à¤®
ĠÐ ¶
ĠD al
as on
ĠE p
à¤Ĩà¤¤ à¤Ļ
Nepal NewYear
ub ajura
à¥©à¥« à¥¬
Ġ198 9
Ġà¥¨à¥«à¥¬ à¥«à¥¦
ĠâĢĭ âĢĭ
Sh mm
nar ubajura
Mahendra Shmm
wy MT
ĠProced ures
rN wyMT
Prady umna
MahendraShmm g
w c
à¤² à¤Ŀà¤£
Ġà¤ķ à¤ļà¤²
à¤« à¤¡
à¤¯à¤ķ à¤°à¤£à¤ķ
Ġà¤ľà¤¨ à¤²
Ġà¤ľà¤¨ à¤²à¤¹à¤°
Ġà¤¬à¤¢ à¤¯
à¤²à¤¨ à¤¶
Ġà¤¢ à¤ķà¤²à¤Ł
Ġà¥¨à¥« à¥§
an b
Ġà¤ľà¤¨à¤ª à¤¥
Ġp ar
ĠC y
Ġn ep
ĠL a
ĠO b
ĠO f
Ġà¤ļà¤°à¤® à¤ªà¤¨
ri b
à¤°à¤¨à¤Ĺà¤° à¤²
à¤¨à¤µà¤² à¤ª
Ġwh en
Ð¸ÑĤ ÑĮ
...." ??
s udur
à¤¯ à¤µà¤¨
à¤¦ à¤¤à¤ķ
à¤µ à¤Ĺà¤£
à¤Ĺ à¤£à¤ķ
à¥Ī ..
à¤Ľ à¤²à¤Ĺ
à¤ľà¤¨ à¤ľà¤¤
à¤Ŀ à¤īà¤¨
à¤®à¤® à¤¯
à¤µà¤°à¤£ à¤ªà¤¤
Ġà¤¸à¤¡à¤ķ à¤Ľ
à¤µà¤Ń à¤°à¤®
à¤¹à¤¦ à¤¸à¤®
à¤ļà¤¨à¤ª à¤¶
Ġs er
Ġ6 5
Ġà¤²à¤¹à¤° à¤²
Ġà¥§à¥§à¥© à¥Ń
ort s
ĠNE SE
ĠQ u
rest ha
ocu ment
blog spot
sudur khabar
à¤¨ à¤·
à¤¨ à¤Ĺà¤¨
à¤ª à¤«
Ġà¤ı à¤Łà¤®
à¥ĥ à¥ģ
à¤¸à¤® à¤¯à¤²
Ġà¤ĩ à¤¸à¤¹
Ġà¤ªà¤¦ à¤ķà¤µ
à¤¨à¤¬ à¤ľ
à¤ļà¤² à¤¨à¤²
à¤Ĩà¤Ī à¤ıà¤ķ
ic ham
Ġà¥©à¥« à¥ª
ĠC an
Ġs undar
à¥§à¥« à¥¦
Ñĥ ÑĤ
ik a
Ġ199 1
ÐµÐ½ ÑĤ
ĠViews à¤¨
hara icham
âĢ¢âĢ¢âĢ¢âĢ¢ âĢ¢
Ġsundar haraicham
Ġsundarharaicham un
9 1
b y
r or
Ġ eb
à¤° à¤¯à¤®
Ġà¤° à¤Ľ
à¤¥ à¤¸à¤¹
à¤ĺ à¤ħà¤¨
Ġà¤¸à¤ķ à¤¸à¤ª
Ġà¤ħà¤Ĺ à¤®à¤¸
à¤ĵ à¤¶
Ġà¤ªà¤¦ à¤¤
à¤°à¤¨ à¤¹à¤°
Ġ, âĢĻ
an u
Ġp ri
Ðµ ÑģÑĤ
à¤¯à¤¯à¤¨à¤ķ à¤°
ct or
Â« Â«
ea ut
Ġcon s
ĠPolic ies
ener al
x x
Ò ¯
à¤¿ à¥¤âĢĻ
à¥Ģ à¥į
Ġà¤¸ à¤Łà¤°à¤ķ
à¤Ł à¤Ĺà¤°
Ġà¤¬ à¤¯à¤°
à¤¶ à¤®à¤ķ
Ġà¤ľ à¤µà¤ķ
à¤¡ à¤¨à¤¦
Ġà¤¡ à¤«
à¤Ĩ à¤ªà¤¸
à¤·à¤£ à¤²à¤Ĺ
Ġà¤Ŀ à¤¨à¤ķ
Ġà¤Ĩà¤° à¤Ĩà¤°
à¤¬à¤° à¤Ńà¤¨
Ġà¤Ĩà¤¤ à¤¤
Ġà¤Ľà¤² à¤Ľ
Ġà¤ķà¤µ à¤ļ
Ġà¥§à¥® à¥ª
à¤Ĺà¤łà¤¨ à¤¦
Ġà¥¨à¥® à¥¨
ov ation
à¤²à¤Ĺà¤° à¤²
Ġde ep
à¤¡à¤°à¤¸ à¤Ł
Ġcommun ity
oci ation
angu age
6 2
I p
S c
v a
à¤ª à¤Łà¤²
à¤¦ à¤¹à¤®
Ġà¤° à¤¡à¤²
à¤Ľ à¤¹à¤°
à¤ĸ à¤²à¤¨à¤ķ
à¤²à¤ķ à¤µ
à¤µà¤¨ à¤¹à¤°
à¤Ĩ à¤Ĺà¤¨
à¤Ĩ à¤µà¤§
à¤²à¤¨ à¤µ
Ġà¤ħà¤® à¤°à¤°
Ġà¤¨à¤¬ à¤¦à¤²
Ġm ost
à¤Ĭ à¤¦à¤²
Ġà¤¸à¤¡à¤ķà¤® à¤§
Ġà¤ħà¤µà¤° à¤¸à¤®
ur nt
Ġà¥¯à¥® à¥ª
Ġk now
ãĥ Ī
Ġà¤Ĩà¤ĩà¤ıà¤® à¤µ
Ġà¤ľà¤¯à¤¨à¤Ĺà¤° à¤¦
Ġà¤ľà¤¨à¤®à¤¤à¤¸ à¤Ļ
åĲ į
) (
Ù ģ
à¤¤ à¤§
à¤¸ à¤Ńà¤°
à¤¦ à¤¯à¤¬
Ġà¤° à¤ľà¤µ
à¤¬ à¤®à¤²
à¤ļ à¤²à¤¤
à¤Ī à¤°à¤¸
à¤Ń à¤¸à¤®
à¤ī à¤§à¤¨à¤ķ
à¤ĩ à¤ıà¤Ľ
à¤²à¤ķ à¤¬à¤¸
Ġà¤Ĩà¤° à¤Ł
Ġà¤¹à¤ľ à¤°à¤¤
Ġà¤ĵ à¤°à¤²
Ġà¤°à¤ķà¤® à¤¹à¤°
Ġà¥§à¥® à¥Ń
à¤µà¤¦ à¤¹à¤ķ
à¤¡à¤° à¤°
Ġa c
Ġc lick
Ġd en
Ġà¤°à¤Ļ à¤°
Ġw ould
Ġà¤ļà¤°à¤£ à¤µà¤¦
à¥§à¥© à¥¨
Ġà¤¶à¤°à¤¦ à¤²
ĠCh annel
Ġà¤Ĺà¤£à¤ªà¤¤ à¤¯
Ġà¤ľà¤®à¤² à¤¸
Ġà¤®à¤°à¤¹ à¤ł
" )
: âĢĻ
k e
m à¤¸
è ¡
à¤® à¤¹à¤ķ
à¤¦ à¤ķà¤®
à¤Ł à¤ªà¤¨
à¤· à¤¸à¤¹à¤°
Ġà¤ľ à¤ľà¤®
âĢ ³
Ġà¤ī à¤Ńà¤¯
Ġà¤ĸ à¤Łà¤®
à¤īà¤¨ à¤¯à¤¤
Ġà¤¡ à¤¨à¤¹à¤°
à¤ªà¤¤ à¤¨
à¤¾. /
re t
Ġà¥§à¥® à¥¬
Ġà¤ıà¤² à¤ıà¤²à¤¬
ĠT imes
Ġc o
Ġ19 50
à¤¡à¤µ à¤ĸ
us ic
ot o
ãĤ Ĥ
ĠPro gram
ount ry
S EE
Z MANDU
Ġà¤ķ à¤¬à¤°
à¤ľ à¤°à¤¬
à¤¬ à¤Īà¤¸
Ġà¤¦ à¤¹à¤ķ
Ġà¤Ĩ à¤Ļà¤ķ
Ġà¤ľ à¤ľà¤¸à¤²
à¤ī à¤ªà¤¸
Ġà¤¯ à¤£
à¤¨à¤ķ à¤®
à¤ĺ à¤°à¤¹à¤°
Ġà¤ħà¤§ à¤µ
à¤Łà¤ķ à¤¬
à¤Ĩ à¤ķà¤¸
à¤²à¤¯ à¤Ńà¤¨
à¤®à¤¨ à¤¨
à¤°à¤¯ à¤¶à¤ķ
Ġà¤Ĩà¤® à¤¹à¤¡à¤¤
à¤ľà¤¯ à¤¶
à¤²à¤¨à¤ķ à¤°
Ġp age
ÑĢ Ð°Ð½
Ġh is
Ġ4 6
20 14
à¸ ¢
Ð°Ð ¶
Ġà¤ıà¤¸à¤Ī à¤Īà¤®
Ġà¤²à¤ĸà¤¨ à¤Ĭ
ens e
ĠBI ZMANDU
cred i
K antipur
V Q
d a
j ay
à¤¸ à¤¤à¤¬
à¤ľ à¤¬à¤²
à¤· à¤¸à¤²
à¤¡ à¤ªà¤¸
à¤Ļ à¤ķà¤°
à¤Ŀ à¤¤
à¤¯à¤¨ à¤ª
à¤Ĩ à¤¤à¤ķ
Ġ| --
à¤ĵ à¤ľ
à¤¸à¤¹à¤° à¤²
Ġà¥¦ à¥Ńà¥¬
an te
com à¤®
Ġin cl
Ġà¤Ŀà¤² à¤Ŀà¤²
ip s
ĠAn uz
Ġsu ite
Ġcont ent
à¤°à¤Ĩ à¤µà¤¸
i ber
l ing
à¤® à¤µà¤²
Ġà¤¸ à¤¥
Ġà¤® à¤°à¤¨
Ġà¤ľ à¤ŀ
à¤Ī à¤Ľ
Ġà¤² à¤ķà¤°
Ġà¤¶ à¤ĸ
à¤¯à¤ķ à¤¶
Ġà¤§ à¤°à¤®
à¤Ĩ à¤¨à¤²
à¤Ĩ à¤¯à¤²
Ġ? âĢĻ,
à¤ĵ à¤ıà¤¨à¤ıà¤¸
à¤¤à¤°à¤£ à¤ªà¤Ľ
Ġà¥§à¥¯ à¥¨à¥©
Ġà¥§à¥¯ à¥©à¥«
st r
ĠS er
ĠD ar
à¤¯à¤Ł à¤ķà¤®à¤§
à¥Ģ... âĢĻ
Ġw orld
ĠH el
Ġà¤Ĩà¤ĩà¤¡ à¤²à¤¬
ïĢ ł
7 2
D S
L L
Q LS
r d
y ch
Ä Ļ
å ½
ì Ŀ
ģ à¸
à¤² à¤°à¤¬
à¤¯ à¤Ļà¤Ĺ
à¤¹ à¤ľà¤¨
à¤¹ à¤¤à¤²
Ġà¤Ń à¤ĩà¤¸
à¤ľ à¤®à¤¨
à¤ī à¤ĺ
à¤°à¤¤ à¤Ń
à¤ħ à¤°à¤²
à¤¯à¤¤ à¤ľà¤¸
Ġà¤®à¤¨ à¤Ĺà¤¢à¤¨
à¤®à¤¨ à¤Ĺà¤°à¤ķ
à¤¸à¤¦ à¤®à¤§
à¤ıà¤¨ à¤Ĩà¤°à¤ı
Ġà¥§à¥« à¥¯
Ġà¤Ĩà¤Ī à¤ĵà¤¸
à¤Ĩà¤Ī à¤ıà¤®
il i
ĠP M
ur s
Ġw ord
ag ement
ĠRe d
Ġà¤¸à¤¯à¤ķ à¤¡
à¥ĩ! "
FA Ip
à¥Ľ à¤°
FAIp QLS
8 00
b u
t on
é ģ
à¤® à¤ªà¤Łà¤ķ
Ġà¤¸ à¤¤à¤ķ
à¤ı à¤ĩà¤²
Ġà¤µ à¤¸à¤²
à¤¶ à¤ĸ
à¤Łà¤® à¤£
Ġà¤Ĩà¤® à¤¦
Ġà¤Ĩà¤¶ à¤¯à¤²
à¥Īà¤ģ âĢĵ
Ġà¥§à¥® à¥¬à¥Ń
Ġà¤Ńà¤µà¤¨ à¤¸
Ġà¤¦à¤¸ à¤Ĺà¤ľ
ĠD es
as y
à¤ĭ à¤Ĺ
ãĤ ¹
ãĤ ī
à¥¨à¥¦à¥« à¥©
Ġ15 0
TM L
omat ropin
: à¥¤
E T
F LD
H jk
O wc
X bKD
j VQ
Ã ª
Ġà¤¸ à¤ĩ
à¤ī à¤¸à¤¹à¤°
Ġà¤ĸ à¤µà¤°à¤²
à¤¯à¤° à¤«
Ġà¥¯ à¥¨à¥¦
à¤°à¤®à¤£ à¤ª
Ġà¤ĩà¤¤ à¤°à¤ķ
ar ly
Ġà¥¨à¥§ à¥¯
Ġà¥¨à¥ª à¥¯
Ġà¤ħà¤µà¤¸à¤° à¤¸à¤®
à¤®à¤£ à¤µ
Ġà¤· à¤£
ĠW indows
Ġà¤²à¤¸ à¤ıà¤¨
ĠCom mun
ä¸ Ń
** *
Ġ207 1
Cl XbKD
ava Script
FAIpQLS cG
FLD s
Hjk FLDs
Owc ClXbKD
jVQ d
OwcClXbKD o
l s
à¤° à¤°à¤²
à¤¹ à¤¸à¤²
à¤ª à¤¤à¤°
Ġà¤° à¤ª
Ġà¤¨ à¤īà¤¡
à¤· à¤¡
à¤§ à¤§
à¤¥ à¤°à¤²
à¤ļ à¤¤à¤¤
Ġà¤¬à¤¨ à¤²
à¤°à¤¬ à¤¸
à¤¡à¤ķ à¤¨
Ġà¤Ĩà¤ĩ à¤ĵà¤¸
à¤Łà¤¬à¤² à¤ħà¤¨
or th
Ġl ong
Ġa ward
Ð° Ð»Ð¸
à¥§à¥§ à¥§
Ġà¤Ĩà¤®à¤¨ à¤°à¤¸
Ġ199 6
Ġà¥¤) "
ĠSh ow
**** ****
Ġà¤°à¤¹à¤¨à¤¸à¤¹ à¤¨à¤®
F I
M IS
d iv
f er
à¤° Tags
à¤² à¤ľà¤¨
à¤² à¤ĺà¤°à¤ķ
à¤ª à¤¦à¤¨
à¤Ĺ à¤¨à¤¬
Ġà¤µ à¤¤à¤¨
Ġà¤Ĩ à¤Ĺà¤°
à¤ļ à¤¯à¤®
à¤¸à¤ķ à¤¸à¤¹
à¤ªà¤¨ à¤°à¤¤
à¤µà¤¨ à¤ļà¤ķ
à¥ĭ, âĢľ
à¤ľà¤ķ à¤¸
Ġà¤ķà¤² à¤¶à¤ķ
à¤¨à¤ª à¤¶
Ġà¤Ī à¤µ
Ġà¥§à¥® à¥Ńà¥§
Ġà¤®à¤¦ à¤¤à¤®
ic on
ĠI P
ĠÐ¸ Ð·
IT CO
Ġ198 0
Ð¾ÑĢ Ð¼
ĠÑĢ Ð°Ð·
Ġdi ff
S unday
à¤µ à¤¯à¤ķà¤°
Ġà¤Ĺ à¤Īà¤¨
à¤Ł à¤°à¤¤
Ġà¤² à¤µà¤ľ
à¤ĩ à¤ľà¤¸
Ġà¤ħà¤¨ à¤¦
à¤Ļ à¤Ńà¤¨
à¤¸à¤® à¤°à¤¶à¤®à¤¶
Ġà¤¡ à¤°à¤®
Ġà¤¡ à¤¨à¤ķ
Ġà¤¬à¤° à¤¨
Ġà¤Ķ à¤¸
à¤ļà¤ķ à¤¸à¤®
à¤¸à¤¹à¤° à¤¬
à¤ĩà¤® à¤¸à¤²
Ġl ine
it i
ĠA iico
ĠC ard
Ġà¤Ĺà¤ı à¤ľà¤¸
Ð° Ñİ
à¥§à¥§ à¥Ń
Ġb o
ĠK H
à¥į) à¥¤
ãĤ Į
Ð Ĵ
å ¥
à¤¯ à¤°à¤¹
Ġà¤ķ à¤Łà¤¨
à¤ľ à¤¬à¤ľ
Ġà¤² à¤ľà¤®
à¤ĸ à¤²à¤¤
à¥§ à¥¦à¥¦à¥¦
à¤¸à¤¨ à¤Ń
Ġà¤ľà¤¸ à¤ª
Ġà¤ħà¤® à¤°à¤²
à¤ľà¤¸ à¤ľ
Ġà¥§à¥¯ à¥¦à¥®
à¥ĩà¥¤ '
Ġà¥¨à¥§ à¥¬
Ġà¤¹à¤² à¤ļ
Ġà¤ĸà¤¸ à¤Ĩà¤°
ĠA c
Ġà¥©à¥ª à¥¦
à¥¨à¥« à¥®
ri e
à¤¬à¤¢ à¤ķ
ĠRe l
ÐµÐ ¿
ĠØ ³
âĢ¦âĢ¦âĢ¦âĢ¦ âĢ¦âĢ¦âĢ¦âĢ¦
m à¤®
y ahoo
à¤ª à¤ħà¤ĺ
à¤µ à¤ľà¤²
Ġà¤ķ à¤ķà¤ª
Ġà¤¬ à¤·
à¤ļ à¤ªà¤Łà¤ķ
à¤¡ à¤¸à¤ķ
à¤ī à¤ķà¤²
à¤¯à¤® à¤Ń
Ġà¤ļà¤² à¤ħà¤ļà¤²
à¤ķà¤°à¤£ à¤ħà¤¨
Ġà¤ļà¤° à¤Ļ
Ġ20 48
à¤µà¤¶ à¤°
ic a
à¤¤à¤µà¤¨ à¤¸
ĠD PR
ĠT O
Ġà¤Ĩà¤¸ à¤«
Ġn k
Ġh igh
ĠG AM
à¤¨à¤¯à¤¨ à¤ªà¤¤
art ment
pe ople
ES S
ific ation
A pp
Î ¹
ç ľ
Ġ ĠĊ
Ġ ÑĦ
à¤¾ âĢĿ,
à¤ı à¤¯à¤¤
Ġà¤¦ à¤²à¤¬à¤²
Ġà¤ıà¤ķ à¤¤à¤®
à¤·à¤ķ à¤¸à¤¹
Ġà¤ıà¤® à¤«
à¤łà¤ķ à¤¦
à¤¯à¤¯à¤¨ à¤¸à¤®
à¤ĺà¤° à¤ľà¤Ĺ
Ġà¤ľà¤¬ à¤ľ
Ġà¤Ĩà¤ļ à¤°à¤£à¤²
Ġà¥¨à¥¬ à¥ª
ĠS em
Ġà¤®à¤Ļ à¤¸
il le
à¤ıà¤« à¤Ĩà¤°
ĠâĢ¦ âĢ¦
ov ern
Ġ4 1
à¥¦à¥ª à¥ª
,âĢĿ âĢĵ
ĠDe velopment
ITCO IN
L GCDP
W orld
y d
à¤¾ _
à¤° à¤«à¤¤
à¤° à¤ĺà¤°
Ġà¤Ĩ à¤Ŀ
Ġà¤ľ à¤¤à¤¨
à¤Ī à¤Ĺà¤°
à¤ł à¤¸à¤²
à¤°à¤¹ à¤£à¤²
Ġà¤īà¤ª à¤ľà¤²
à¤·à¤£ à¤¤
à¤¯à¤° à¤«à¤ķ
à¤µà¤® à¤£
Ġà¤Ĳ à¤¨à¤¬à¤®
Ġ- --------
à¤īà¤¦ à¤Ľà¤¨
Ġà¥¨à¥¨ à¥®
it a
ĠD ep
ĠM et
ĠR ob
!! !!
ĠU pd
Ġg roup
du ct
ĠQ ual
à¤¦à¤¶à¤°à¤¥ à¤ļà¤¨
- âĢĺ
M E
h us
å ¼
ç Ľ
Ġ um
Ġà¤¸ à¤µà¤°
à¤µ à¤Ĺà¤°
à¤Ł à¤ħà¤ĺ
à¥Ī ?
à¤ı à¤¹à¤°
à¤ľ à¤®à¤¤
à¤¬ à¤Īà¤²
à¤¬ à¤®à¤¬
à¤§ à¤Ĺà¤®
à¤Ń à¤°à¤¸
Ġà¤ĸ à¤ªà¤Ł
Ġà¤ı à¤ļà¤²
à¤¾à¤ģ à¥Īà¤Ĥ
Ġà¤ľà¤¨ à¤¦à¤¬
Ġ: âĢĵ
Ġà¥§à¥ª à¥¦à¥¦
Ġà¤¶à¤¹à¤° à¤¸
à¤ĩà¤ľ à¤°à¤ķ
st it
à¤¤à¤°à¤® à¤¨
ĠÐ Ķ
ĠT ulsipur
ĠT rade
am es
à¥¨à¥« à¥¦
Ġ5 6
Ġ4 3
Ġà¤Ķà¤¸à¤¤ à¤Ńà¤¨
op ati
F B
L ire
g o
v o
y n
è ¯
à¤ľ à¤Ĺà¤°
à¤ī à¤Ńà¤°
Ġà¤¯à¤¸ à¤ħà¤Ĺ
Ġà¤¸à¤¹ à¤®
à¤¾, à¥ĩ
à¤¡à¤ķ à¤¹à¤°
à¤Ĺà¤² à¤Ł
à¤ªà¤£ à¤µ
à¤¯à¤Łà¤¨ à¤¨
Ġà¥¨à¥¯ à¥©
à¤ĩà¤¡ à¤¹à¤°
ĠS m
ĠC E
Ġa b
Ġà¤¦à¤® à¤¨à¤®
Ġà¤®à¤¦à¤¨ à¤¸
à¥¦à¥¯ à¥Ń
ĠEx c
urg ery
5 00
a is
v ol
Ä ħ
â Ļ
à¤¨ à¤Ńà¤¯
Ġà¤¨ à¤ĵ
Ġà¥¤ ||
à¤¶ à¤¯à¤¨
Ġà¤² à¤¯à¤ķ
à¤ĩ à¤ıà¤¸
à¤°à¤¤ à¤Ĺà¤¤
à¤Ĺà¤° à¤¨à¤²
Ġà¤Ĩà¤µ à¤ľ
à¤²à¤Ĺ à¤Ļ
à¤¸à¤¦ à¤ľ
Ġà¤¦à¤² à¤ª
à¤ĺà¤° à¤ªà¤°
Ġà¤¸à¤¹à¤° à¤¸
à¥¨à¥¦ à¥¦à¥«
ĠF air
à¥¦à¥¬ à¥¬
Ġo ak
Ġà¤¤à¤¬ à¤°à¤¬
Ġà¤Ĩà¤¬ à¤§
ap ur
ĠCh rist
à¤ıà¤¸à¤ı à¤²à¤²à¤Ĺ
Ġcommun ic
ĠAss ociation
à¤ıà¤¸à¤ĩ à¤Ī
f a
à¤¾ ï¿½...
à¤² à¤ļà¤®
à¤² à¤¡à¤ª
à¤µ à¤¬à¤¨
Ġà¤¨ à¤ľà¤®
à¤Ĥ à¥į
à¤¯à¤ķ à¤Ńà¤¨
Ġà¤¸à¤ķ à¤¤
à¤ħ à¤°à¤¨
à¤ħ à¤ĸà¤£
Ġà¤ł à¤°à¤ķ
Ġà¤Ĺà¤¤ à¤¹à¤ª
à¤°à¤µ à¤§
à¤Ĺà¤² à¤Ŀ
à¤®à¤² à¤¸
à¤§à¤¨ à¤Ń
Ġ? )
à¤²à¤Ĺ à¤¡
Ġà¤§à¤¨ à¤Ĺà¤¡
Ġà¤Ĺà¤£ à¤¹à¤°
ĠC ar
Ġd u
Ġà¤ıà¤¡ à¤®à¤¨
à¤Ĩà¤ĩ à¤ĵà¤ıà¤®
à¥į) )
à¤¸à¤¯ à¤ªà¤¤
ĠÃ ł
à¤Łà¤ªà¤Łà¤ķ à¤ķ
Ġà¤Ĩà¤ĩà¤° à¤¨à¤ķ
J ul
g r
Ġà¤ķ à¤ĸà¤°
Ġà¤¹ à¤µà¤¸
à¤¬ à¤°à¤£à¤®
à¤· à¤ķà¤°
à¤§ à¤¸à¤°à¤ķ
à¤ıà¤ķ à¤µà¤Ł
à¥Į âĢĮà¤Ĥ
à¤²à¤ķ à¤¬à¤¹
à¤¯à¤® à¤¸à¤®
Ġà¤§à¤¨ à¤ªà¤¤
Ġà¤Ī à¤¡
ou n
ĠC ollege
à¤ħà¤ª à¤¹à¤°à¤£
em s
Ġà¥©à¥® à¥¦
Ġà¤ıà¤¯à¤°à¤¬ à¤¸à¤ķ
IK O
K TM
u red
å ĵ
Ġà¤® à¤²à¤¯
à¤ī à¤°à¤®
à¤°à¤® à¤²à¤Ĺ
Ġà¤Ńà¤¨ à¤¨
Ġà¤¶ à¤µà¤¹à¤°
Ġà¤ĸ à¤¨à¤¨
à¤ľà¤¨ à¤Ĺà¤£à¤¤à¤¨
à¤Ŀ à¤«
Ġà¥¬ à¥§à¥§
à¤Łà¤² à¤¸
Ġà¤Ĩà¤ĩ à¤ıà¤¸à¤ķ
Ġà¤¨à¤Ń à¤ĩà¤¨
Ġà¤¨à¤Ń à¤ĩà¤¦
Ġà¤Ī à¤Ĩà¤Īà¤ı
à¤¯à¤¬ à¤®
ĠP re
Ġà¤²à¤¤ à¤ªà¤¤
Ġà¥¦à¥ª à¥¯
ah ad
ĠOff ice
Ġman y
Ġà¤¹à¤°à¤¤ à¤°à¤¹à¤²
U B
c ss
ĥ ½
à¤¾ [
Ġà¤ľ à¤¦
Ġà¤² à¤ªà¤ķ
âĢ º
à¥ĥ à¤ģ
à¤°à¤£ à¤¤à¤°
à¤²à¤® à¤ª
à¤¸à¤¨ à¤ħà¤¨
Ġà¥ª à¥§à¥¦
à¤¡à¤² à¤¦
Ġà¤ıà¤¨ à¤ıà¤ļà¤ķ
à¤¬à¤¸ à¤¤
Ġà¥§à¥¬ à¥§à¥®
er ve
Ġà¤ľà¤¨à¤ķ à¤µ
ĠÐ ¢
Ġf ile
ĠB K
Ġà¥«à¥¬ à¥«
lo s
Ġà¤¦à¤®à¤ķ à¤¸
Ġ6 6
Ġ8 8
ok es
iv es
Ġà¤²à¤µ à¤ľà¤®
Ġup date
Ã¼ r
ĠAr th
åľ ¨
l ess
à¥ĭ à¥Ī
à¤¦ à¤¯à¤¤
à¤µ à¤Ĺà¤¨
Ġà¤Ń à¤®à¤°
à¤°à¤ķ à¤¤
à¤Ŀ à¤µ
Ġà¤ıà¤® à¤Ń
Ġà¥§à¥¯ à¥©à¥ª
Ġà¥¨à¥¨ à¥ª
Ġà¤ľà¤² à¤¦
st e
Ġwh at
Ġà¤ıà¤ķà¤®à¤¤ à¤°à¤¹
è ¦
à¤° à¤Ĩà¤¨
à¤² à¤ªà¤¨
à¤® à¤²à¤¬
à¤® à¤¶à¤ķ
à¤¯ à¤¨à¤®à¤¨
à¤ª à¤ªà¤¤
à¤µ à¤ªà¤°à¤°
à¤ģ à¥į
à¤Ń à¤¨à¤ķ
à¤ī à¤¥à¤Ĺ
Ġà¤ĸ à¤²à¤ķà¤ķ
à¤¸à¤ķ à¤µ
à¤ĺ à¤¨à¤®
à¤°à¤¦ à¤¸
à¤®à¤¤ à¤ªà¤Ľ
à¤£à¤¯ à¤Ĺà¤°
Ġà¤µà¤¨ à¤ľà¤¨
Ġà¤¨à¤Ńà¤ı à¤ľà¤¸
à¤¯à¤Ł à¤¨à¤²à¤Ĺ
Ġt er
Ġt urnt
ter s
Ġà¤ħà¤°à¤¬ à¤¬
Ġà¤ıà¤ļ à¤Ĩà¤°
um an
Ġ206 4
à¤Ĩà¤ī à¤Łà¤ķ
app y
stru ction
à¤® à¤ľà¤¨à¤®
à¤ı à¤Ļ
à¤· à¤ļ
Ġà¤¶ à¤°à¤¦à¤°
à¤¨à¤® à¤¤
à¥Įà¤Ĥ ',
Ġà¤ķà¤® à¤²à¤¨
à¤ķà¤® à¤Ĺ
à¤¤à¤® à¤®
à¤Łà¤² à¤µ
âĢ¦ âĢĿ
à¤°à¤®à¤£ à¤¸à¤®
Ġà¥§à¥§ à¥¦à¥¦
ãģ Ĭ
à¤¸à¤« à¤°à¤®
ak ar
im ited
um n
à¥¨à¥¦à¥« à¥«
if y
ĠÙ Ĩ
à¤¡à¤°à¤¸ à¤Łà¤¸
Ġmonth s
Ġà¤°à¤ľà¤¤à¤ª à¤Łà¤®
) ?
m y
p ar
p ert
à¤ķ à¤Ĩà¤īà¤Ł
Ġà¤¸ à¤¸à¤°
Ġà¤µ à¤¦à¤¨
Ġà¤¤ ÅĴ
à¤¥ à¤¨à¤¬
à¤ĸ à¤¤à¤°
à¤ĸ à¤°à¤¹à¤°
âĢ İ
à¤¯à¤ķ à¤¨
Ġà¤Ł à¤«
à¤°à¤¹ à¤Ń
à¤ħ à¤µà¤²
à¤°à¤µ à¤®
Ġà¤ħà¤¹ à¤®à¤¤
à¤ĩà¤°à¤¹ à¤¦
à¤®à¤¬ à¤°à¤£
à¤ĺà¤Łà¤¨ à¤ªà¤Ľ
Ġà¤Ĩà¤Ī à¤°à¤¹à¤¨
à¥ĩà¤Ĥ âĢĵ
en n
ĠN RN
ĠA AW
à¥§à¥« à¥®
Ġ10 6
Ġg et
Ġ199 2
ï¼ Ī
ä¸ į
ĠÐ¿ÑĢ Ð¸
58 0
ĠRo y
ĠÏ Ģ
ĠAAW AZ
8 53
B l
C E
U n
c ont
p ost
à¤¨ à¤ĺà¤°
à¤ı à¤«à¤¬
à¤ľ à¤Ĩà¤ľ
à¤Ń à¤°à¤£à¤ķ
à¤ī à¤ī
Ġà¤ªà¤° à¤ªà¤°
Ġà¤¬à¤¨ à¤Ĺ
à¤¨à¤² à¤¤
à¤°à¤² à¤Ĺà¤¤
à¤ħ à¤¬à¤¦
Ġà¤²à¤Ĺ à¤¨à¤ķ
à¤¦à¤¨ à¤¦
Ġà¤¢ à¤²à¤²
Ġà¤ħà¤ª à¤¬
Ġà¤Ĭ à¤¹
à¥ģà¥¤ "
ĠP er
ĠP RO
à¥ĩâĢĵ âĢľ
Ġd a
à¤¾âĢ¦ âĢĻ
Ġre t
à¸ µ
14 0
ĠÐ¿ Ð¾Ð´
Ġà¤ħà¤®à¤¨ à¤ļà¤¯à¤¨
arg in
Ġà¤¸à¤¤à¤² à¤ľ
Ġagain st
à¤® à¤Ĺà¤¤
Ġà¥¤ à¥ģ
Ġà¤¤ à¤Łà¤ķ
à¤īà¤¨ à¤ª
à¤ł à¤¨à¤²
à¤°à¤¤ à¤Ńà¤¨
à¤ĺ à¤µà¤¦
Ġà¤ıà¤ķ à¤µà¤Ł
Ġà¤Ł à¤ķà¤²
à¤µà¤¨ à¤ªà¤Ľ
à¤Ĩ à¤ĩà¤²
à¤Ĩ à¤¬à¤¦
à¤°à¤¯ à¤£
à¤¨à¤¸ à¤¨à¤²
à¤¹à¤¨ à¤¬
Ġ- âĢĿ
à¤Ĥ. -
à¤®à¤Ĺ à¤¨
om b
Ġà¥¨à¥® à¥Ń
à¤ĩà¤¸ à¤ŀ
à¤Ĩà¤Ī à¤ıà¤¨à¤ľ
à¤ħà¤¸ à¤¤
ĠS l
ro ll
am ily
ĠL td
ãģ £
à¤·à¤¸ à¤°à¤¹
ĠU RL
Ġà¤²à¤ĸ à¤¨à¤ª
ĠOff er
IT H
Ġle g
ĠPay ments
ĠHimal ayan
j e
Ä į
à¤ķ à¤Ŀ
à¤¤ à¤¡à¤ķ
à¤¹ à¤¥
à¤Ł à¤ħà¤Ł
Ġà¤ľ à¤¯à¤²
à¤Ī à¤¨à¤°
Ġà¤ļ à¤°à¤£à¤²
à¤°à¤¤ à¤µà¤¨
Ġà¤§ à¤µà¤¨
à¤Ĺà¤² à¤¦
ad y
Ġà¤ħà¤¡ à¤ķà¤²
Ġà¤®à¤Ĺà¤° à¤¸
à¥ĭà¥ĩ âĢ¦
Ġre sp
ĠÐ¿ ÐµÑĢ
Ġpro gram
Ġ25 0
à¤¡à¤°à¤¸ à¤Łà¤®
ual ly
69 5
ĠHe ad
ĠInv itation
ï Ĥ
à¤¯ à¤µà¤ķ
Ġà¤¤ à¤Ĺà¤¡
à¤¶ à¤µà¤²
à¤¡ à¤¬à¤°
à¤Ľ à¤ª
Ġà¤ļ à¤¸à¤ķ
Ġà¤ļ à¤Łà¤¨
à¥Į !!!
à¤²à¤® à¤ł
à¤¤à¤ķ à¤ª
Ġà¤Ŀ à¤ŀ
Ġà¥« à¥¦à¥ª
à¤°à¤®à¤® à¤®
à¤ĸà¤° à¤ļà¤¨
à¤µà¤® à¤¯
Ġà¤¬à¤¹ à¤¤
Ġà¤ħà¤« à¤°à¤ķ
à¤¥à¤² à¤Ń
Ġà¤ľà¤¬ à¤ľà¤ķ
Ġà¥¨à¥© à¥§
Ġà¤ĭà¤£ à¤¹à¤°
ĠA ND
à¤²à¤Ń à¤°à¤ķ
Ġs uryakhabar
ĠB ITCOIN
ĠG ork
Ñı ÑĤ
ĠSt andard
ĠÑģ Ð²
ï¼ ī
à¤¬à¤ĸ à¤¤à¤¨
Ġ.... ...
vis ion
ĠRen ovation
S ud
f or
è ¨
Ġ à¸
à¤¿ |
à¤¸ à¤ħà¤ª
à¤µ à¤ļà¤¯
Ġà¤Ĺ à¤²à¤Ĺ
Ġà¤¬ à¤¯à¤²
Ġà¤¹ à¤¡à¤¬à¤¡
à¤¥ à¤¬à¤¹
Ġà¤ıà¤ķ à¤®à¤¨
Ġà¤ĩ à¤¨à¤¸
Ġà¤ªà¤¹ à¤²à¤¬
à¥įà¥¤ .
Ġà¤Ĩà¤µ à¤¸à¤ķà¤¤
à¤µà¤² à¤¡
à¤Ĺà¤® à¤£
Ġà¤¬à¤¹ à¤²
à¤²à¤¤ à¤¸
Ġà¥§à¥¯ à¥¨à¥ª
Ġà¤Ī à¤ľà¤²
at n
Ġà¥¨à¥§ à¥¨
Ġà¤ľà¤¡ à¤¸
Ġth an
ĠO F
à¸ ´
Ġ7 6
ub lish
à¥¨à¥¦à¥© à¥¬
Å ¾
à¥į ï¿½...
à¤ķ à¤Łà¤°
à¤® à¤Ńà¤°
à¤Ĺ à¤£à¤¤
Ġà¤¬ à¥Ŀ
à¤¬ à¤ķà¤ķ
Ġà¤Ľ à¤Ńà¤¨
à¤ī à¤ªà¤¹
à¤ĩ à¤Ļà¤²
à¤¯à¤ķ à¤ªà¤°
Ġà¤ı à¤ıà¤¸
à¥ĥ à¤¾
Ġà¤§ à¤ªà¤ķ
à¤·à¤£ à¤°à¤¹
Ġà¥© à¥Ńà¥«
à¥¯ à¥Ńà¥Ń
Ġà¤Ķ à¤¤
Ġà¥§à¥¯ à¥§à¥§
à¤łà¤ķ à¤µ
à¤®à¤¦ à¤¨à¤ķ
al ue
Ġ20 46
Ġà¤Ŀà¤¨ à¤Ŀà¤¨
Ġà¤¶à¤¹à¤° à¤¸à¤®
à¤ıà¤² à¤¡
ĠA ustral
à¤Ńà¤Ĺ à¤µà¤¦
Ġà¤¹à¤ķ à¤ħà¤¨
à¤īà¤ª à¤¶
à¥ĭâĢĻ âĢĵ
à¤ģ, âĢĿ
ĠB el
Ġre m
à¤¿à¥¤ '
à¤īà¤ľ à¤°à¤®
Ġe in
---- -
à¥¨à¥¦à¥« à¥¦
Ġà¤¸à¤¡à¤ķà¤² à¤Ĺ
à¤µà¤²à¤¨ à¤¶
Ð¼ Ð¸
Ġà¤§à¤Ļ à¤§à¤Ļ
h ya
n ect
v es
å ĩ
à¤ª à¤łà¤¨
à¤Ĺ à¤¸à¤®à¤ķ
à¤ģ âĢĿ
à¤ģ Ã·
à¤£ à¤¯à¤ķà¤°
Ġà¤ľà¤¨ à¤ľà¤¨à¤ķ
Ġà¤¸à¤¹ à¤¬
Ġà¤ħà¤µ à¤¤à¤°
Ġà¥§à¥® à¥¬à¥¦
Ġà¥¨à¥© à¥®
à¤ĩà¤¡ à¤¸
Ġà¤¨à¤µ à¤²à¤ķ
à¤ªà¤¹ à¤ª
à¥ĭ... âĢĻ
ĠM S
Ġd ata
Ġo pt
Ġb log
20 15
à¤¾' :
Ġà¥ªà¥¬ à¥¦
ud d
à¤®à¤Ĺà¤ł à¤µà¤¨
à¤¬à¤Ĺà¤° à¤¬
MO U
o le
v an
Ð Ŀ
à¤° à¤ľà¤®
à¤Ĥ )
Ġà¤Ĩ à¤Ķ
à¤¡ à¤¹à¤µ
à¤Ľ à¤¬
à¥Ĥ âĢ¢
à¤¯à¤ķ à¤ħà¤¨
à¤¯à¤¨ à¤¤
à¤¾) ....
Ġà¥¨à¥© à¥«
ĠS MS
il ot
ĠC up
ur al
ĠF eder
à¥ĭ- âĢĻ
ĠW ITH
um ber
Ġ7 2
te e
ill s
ĠSam achar
Ġ196 0
Ġint o
ĠEng ine
do or
Ġeb aglung
E x
R S
] .
k s
Ħ à¸
à¤² à¤Ńà¤ķ
à¤µ à¤°à¤¤à¤°
Ġà¤Ĩ à¤łà¤ķ
Ġà¤¸à¤® à¤®
à¤ľà¤¨ à¤¸à¤¹à¤Ń
à¤ªà¤ķ à¤ª
Ġà¤īà¤² à¤Ļ
à¤¨à¤µ à¤¬à¤¸
Ġà¤ıà¤¸ à¤ľ
à¤ĩà¤ķ à¤¹à¤°
Ġà¤µà¤¸ à¤ª
ĠS and
à¥¨à¥¦à¥ ®
Ġà¤ħà¤¶ à¤°
ĠP ower
Ġà¥Ńà¥« à¥Ń
Ġf ace
à¥§à¥§ à¥©
Ġw r
ĠK han
ri es
Ġ9 9
ĠIn fo
à¤®à¤Ń à¤ŀ
Ġ199 5
ĠØ ª
ĠIS O
p a
t y
w ood
ç »
à¤¯ à¤¶à¤¨à¤ķ
à¤¯ à¤²à¤¯à¤¬
Ġà¤° à¤ľà¤ķ
à¤· à¤°à¤¬
à¤· à¤°à¤¸à¤¹
à¤¶ à¤ļ
Ġà¤¦ à¤¦
Ġà¤ľ à¤®à¤¨
à¤ļ à¤ĵà¤Ł
Ġà¤ı à¤Ĩà¤°
à¤¨à¤ķ à¤¨
Ġà¤Ł à¤¨à¤Ńà¤¨
à¤°à¤¸ à¤ļ
à¤¦à¤¨ à¤°
Ġà¤¨à¤¯ à¤°
Ġà¤ªà¤¦ à¤ķà¤®
à¤ķà¤¤ à¤¹à¤°
à¤ļà¤ķ à¤¬à¤§
à¤¨à¤µ à¤¬
Ġà¤ıà¤¨ à¤ı
à¤°à¤¥ à¤®à¤²
Ġh and
20 68
ĠU N
ãĢ Į
à¥¨à¥¦à¥ª à¥«
ath er
à¥ľ à¤ķ
Im age
Ġ144 580
] ]
v ing
à¤ ³
à¤¾ <
à¤¶ à¤¤à¤¨
à¥Ĥ ;
Ġà¤ĩ à¥Ľà¤°
à¤µà¤² à¤¹à¤°
à¤¦à¤ķ à¤¬
à¤¸à¤° à¤ľà¤¸
Ġà¥§à¥Ń à¥¯
it ude
Ġà¤Ĩà¤¸ à¤¯à¤ķ
Ġà¤ıà¤« à¤µ
Ġd ays
Ġre c
Ġre qu
ĠK A
ol a
ĠU K
ĠV ID
Ġà¤¦à¤²à¤® à¤§
eric an
sh ya
Ġà¤ļà¤¹à¤² à¤ªà¤¹
W e
l in
Ð ĺ
Ġà¤¨ à¤ªà¤ķ
Ġà¤Ń à¤ľà¤¨à¤®
à¤« à¤¸à¤¹
Ġà¤®à¤¹ à¤ľ
à¤¸à¤¨ à¤¤à¤¨
à¤§à¤¨ à¤Ĺà¤°à¤®
Ġà¤ıà¤® à¤°
Ġà¤¤à¤¹ à¤Ńà¤¨
Ġà¥§à¥® à¥¦à¥§
ĠÂ °
ĠÐ Ĳ
ĠD i
ĠD ay
ĠD igital
ĠT o
ĠT ri
à¤Ĺà¤ľ à¤¹à¤°
Ġs ave
Ġà¥©à¥© à¥®
à¤¾âĢ¦ .
Ġà¤ıà¤¯à¤° à¤«
ĠL o
ãģ ı
Ġà¥Ńà¥© à¥¬
oc us
âĢ¦âĢ¦ .
ãĢ į
à¤ĩà¤°à¤¸ à¤¹à¤°
end ed
Ð¾Ð² Ñĭ
Ġà¤¤à¤¦ à¤ħà¤¨
Ø§Ø ª
Ġne ed
ĠBl ack
DA Y
Ġà¥ł à¤·
B ay
r ish
Ġ ve
à¤¿ à¥Ī
à¤¿ âĢĮ
Ġà¤® à¤¤à¤®à¤§
à¤°à¤ķ à¤¸
à¤ĩ à¤ªà¤°à¤¬
à¤ľà¤¨ à¤ļ
Ġà¤ıà¤ķ à¤Łà¤ķ
à¥Įà¤Ĥ |
à¥ģà¤ģ âĢĵ
Ġà¥« à¥¦à¥«
Ġà¤¦à¤° à¤Ńà¤¨
Ġà¤Ĩà¤® à¤ľà¤¨à¤®
Ġà¤Ńà¤ĩà¤°à¤¹ à¤¦
Ġà¤ıà¤¸ à¤ĵà¤ıà¤¸
à¤Ĺà¤¦ à¤°à¤¬
Ġà¥¨à¥Ń à¥¬
à¥ĩà¤ģ -
Ġà¤ªà¤¸à¤² à¤¦
ur l
Ġà¤Ńà¤ĩ à¤Ĩà¤ıà¤ķ
Ġ10 8
Ġk eep
Ġ14 8
Ġà¤ĵà¤Ľ à¤¯
Ġà¤ĵà¤ĸà¤° à¤ª
ĠMar ket
Ġcon f
Ġ??? ?
6 7
T V
c i
d is
h ot
k y
u le
à¤¨ à¤¥à¤°
Ġà¤¸ à¤¨à¤²
à¥Ī :-
Ġà¤¨ à¤ķà¤Ł
à¤ĸ à¤¤à¤®
à¤« à¤°à¤¸
Ġ( "
à¤°à¤¬ à¤¹à¤¨
à¤¤à¤¨ à¤Ĺà¤°à¤®
âĢ¦ à¥¤
à¤¨à¤µ à¤µ
à¥ĩà¥¤ [
Ġà¤ħà¤« à¤®
à¤Ńà¤µ à¤¨à¤ķ
Ġà¥§à¥© à¥¦à¥¦
Ġà¥§à¥¬ à¥¬à¥¦
Ġà¥§à¥Ń à¥Ńà¥©
à¤¯à¤¬ à¤¤
à¤¸à¤¤ à¤¹
à¤¤à¤¹ à¤Łà¤¬
Ġth rough
à¤Ĩà¤ĩ à¤ıà¤®
ĠL ight
ĠL etter
Ġv er
à¤¾à¥į à¥ĩ
ss anu
Ġà¤Ĩà¤ĩà¤ĵ à¤ıà¤¸
Ġfun ny
Ġdeep ssanu
6 1
d f
à¤° à¤īà¤¨
à¥ģ âĢĮà¤Ĥ
à¤¹ à¤Łà¤²
à¤µ à¤·
à¤µ à¤¯à¤¤
Ġà¤¬ à¤®à¤¬
Ġà¤ħ à¤Ĺà¤²
Ġà¤ı à¤ı
à¤²à¤ķ à¤¦à¤²à¤ķ
âĢĵ âĢľ
Ġà¤Ńà¤ı à¤ľà¤¤
Ġà¤īà¤¦ à¤¹
Ġà¤Ķ à¤¡
Ġà¤®à¤² à¤¹
à¤ĩà¤² à¤¸à¤®
à¤ıà¤¸ à¤¨à¤®
à¤Ńà¤µ à¤¶
à¤µà¤¯à¤¨ à¤ªà¤Ľ
à¤£à¤¨ à¤Ĺà¤°à¤®
Ġà¤Ńà¤Ĺ à¤µà¤¦
ĠM ag
à¥¨à¥¦ à¥¦à¥©
Ġf r
Ġf ull
Ġà¤Ľà¤ł à¤ªà¤Ľ
ĠL LC
Ġà¤ħà¤°à¤¬ à¤ªà¤¤
à¤¼ âĢ¦
Ġ10 53
ĠIn c
iv a
Ġà¤¦à¤®à¤ķà¤² à¤²
rou nd
urk hus
å¤ §
Nispak shya
anb ahad
Sud anbahad
urkhus ha
Sudanbahad urkhusha
U N
y c
å ¯
å ¾
à¤® à¤ªà¤ķ
à¤Ĺ à¤¨à¤¦
à¤°à¤ķ à¤¬
à¤¸à¤² à¤¬
Ġà¥« à¥¨à¥¦
à¤¡à¤ķ à¤¬
Ġà¥ª à¥¦à¥«
Ġà¤ħà¤ª à¤°à¤®
Ġà¥§à¥¯ à¥¦à¥¦
à¤ªà¤Łà¤ķ à¤ªà¤Łà¤ķ
Ġà¤Ĩà¤Ī à¤ĵ
à¤ĩà¤¨à¤² à¤Ĺ
Ġa ut
ĠB iz
ro ss
Ð¸ ÑĩÐµÑģÐº
à¥§à¥® à¥®
Ð½ Ð°
Ġ9 4
ff ect
ly ing
Ġj okes
aw s
Ġà¤¨à¤Ŀ à¤°
Ġà¤ĸà¤Łà¤¨ à¤ªà¤Łà¤¨
Ġaf n
Û Ĵ
ç ī
à¤® à¤°à¤¹
à¤¦ à¤µà¤¨
à¤¦ à¤¬à¤ķ
Ġà¤ľ à¤¯à¤¤
à¤¡ à¤ªà¤¥
à¤Ľ à¤Ńà¤¨
Ġà¤¶ à¤°à¤¤à¤¸
Ġà¤§ à¤¨à¤¬
Ġà¤Ł à¤¨à¤¸à¤®
Ġà¤Ł à¤¸à¤®à¤¸
Ġà¤¡ à¤µà¤²
à¤ļà¤¨ à¤¤à¤°
à¤¶à¤¨ à¤Ĺà¤°
Ġà¤ķà¤² à¤¹à¤ķ
Ġà¤ĺà¤° à¤«
à¤ıà¤¨ à¤¯
Ġà¤ıà¤¸ à¤Ł
Ġà¤§à¤¨ à¤¦
Ġà¥¨à¥ª à¥¨
ad i
or a
Ġà¤¬à¤¡ à¤¹à¤°
Ġp lease
Ġs et
Ġà¤¨à¤°à¤¹ à¤²
Ġd et
Ġw ant
ĠW atch
à¤§à¤¸ à¤¤à¤ķ
ĠQual ity
ĠVID EO
S L
æ Ķ
à¤¾ ||
à¤¸ à¤°à¤¦
Ġà¤¨ à¤¤à¤°
à¤ľ à¤ĸ
à¤¶ à¤°à¤¤
à¤¥ à¤«
à¤ĸ à¤Ńà¤°
à¤ī à¤ĺà¤°
à¤°à¤ķ à¤¤à¤¤
Ġà¤ĺ à¤Łà¤ķà¤ķ
à¤¯à¤¸ à¤¨à¤®
à¤¤à¤® à¤¹
Ġà¥§à¥¯ à¥©à¥©
à¤®à¤¸ à¤Ļà¤²
Ġà¥¦ à¥§à¥«
Ġà¥¦ à¥ªà¥«
à¤Ķ à¤²
it age
il os
âĢĮ à¤¾
Ġà¥©à¥Ń à¥¦
ÑĢ Ð°
à¤°à¤ľà¤¨ à¤¹à¤°
ĠH igh
à¤ĩà¤« à¤Ł
Ġà¤¡à¤Łà¤ķà¤® à¤¸
Ġg u
Ġà¤¶à¤°à¤¦ à¤¸
ĠRe view
Ġ199 3
arth a
Ġen g
æľ ī
ĠAd min
ĠAcc ount
8 9
Ë Ĳ
Ġ Ã©
à¤¤ à¤Ł
Ġà¤¸ à¤¯à¤¨
à¤¦ à¤µà¤®
Ġà¤Ĺ à¤¬
Ġà¤Ĺ à¤¦à¤°
Ġà¤¨ à¤¬à¤²
à¤¡ à¤¸à¤²
Ġà¤ļ à¤īà¤°
Ġà¤¥ à¤ļà¤ķ
à¤µà¤¸ à¤¦à¤¸
à¤ªà¤¨ à¤ĩà¤¤à¤°
à¤°à¤¹ à¤ľ
Ġà¤¸à¤¹ à¤¸à¤®
à¤ĩà¤¨ à¤ħà¤¨
à¤ķà¤® à¤µ
Ġà¤ĩ à¤¹
à¥ģà¤ģ à¥¤âĢĻ
à¤¯à¤¨ à¤µ
à¤°à¤µ à¤¹à¤°
à¥ĭà¥¤ âĢĺ
Ġà¤Ĩà¤µ à¤°à¤®
Ġà¥¤âĢĻ ,
à¤¶à¤² à¤Ł
Ġà¥§à¥® à¥§à¥«
Ġà¤ľà¤² à¤ªà¤°
à¤ħà¤¸ à¤«à¤²à¤¤
à¤¦à¤µà¤² à¤Ĺ
Ġà¤¦à¤® à¤¨à¤²
à¤®à¤°à¤£ à¤¹à¤°
Ġc ar
Ġt ype
Ġà¤ĥ âĢĵ
Ġà¥¦à¥« à¥©
Ġst art
Ġpro f
Ð¾Ð² Ð°Ð½
à¤ıà¤¸à¤ıà¤² à¤Ĩà¤°
Ð¾ÑĤ Ð¾ÑĢ
m i
Ġ ë
à¥ĩ ï¿½
à¤¯ à¤¯à¤²
à¤¹ à¤²à¤¯à¤ķ
à¤ı à¤Ĩà¤Ī
à¤ļ à¤¹à¤ľ
à¥Ĥ à¥ģ
à¤ī à¤¸à¤°
à¤īà¤¨ à¤°
Ġà¤¸à¤¬ à¤²à¤¤
... âĢĻ,
Ġà¤Ĩà¤¯ à¤°
à¤µà¤¨ à¤Ńà¤°à¤ķ
à¥© à¥§à¥®
Ġà¤ĵ à¤łà¤²
à¤¿à¤ģ ,
à¤ıà¤¨ à¤ıà¤«à¤ª
Ġà¤Ĩà¤ĩ à¤ıà¤¸à¤²
Ġà¤®à¤¤ à¤¸
Ġà¥§à¥¯ à¥§à¥®
à¤ļà¤® à¤Ĺ
re et
Ġà¤Ńà¤Ī à¤¹
âĢľ à¥ģ
à¤µà¤¯à¤¨ à¤¤à¤°
à¤¡à¤° à¤¸à¤®
ĠS econd
Ġà¤¦à¤¶à¤ķ à¤Ń
Ġd ur
à¥¦à¥¨ à¥¬
à¤ĩà¤ı à¤¤
ra ft
os p
ec ur
Ġj erseys
Ø§Ù ħ
ert ain
hak a
Ġà¤ıà¤¸à¤ıà¤® à¤ıà¤¸à¤®
ä¼ ļ
Ġsecond s
m p
n al
s ch
å ±
à¤ķ à¤°à¤¤
à¤¤ à¤ªà¤¨
à¤Ĺ à¤£à¤²
à¤ı à¤ıà¤ķ
à¥Ĥ âĢľ
à¤ī à¤¦à¤°
Ġà¤ī à¤Łà¤ªà¤Ł
Ġà¤¶ à¤Ł
à¤°à¤£ à¤ª
à¤ªà¤° à¤¨
à¤ħ à¤ľà¤¯
Ġà¥© à¥¦à¥ª
à¤®à¤¨ à¤¬
à¤®à¤² à¤°
Ġà¤¸à¤®à¤¯ à¤¹à¤°
Ġà¤¸à¤¡à¤ķ à¤Ńà¤¨
à¤²à¤¸ à¤ĸ
à¤¨à¤ª à¤¸
à¤ķà¤¸ à¤Ļ
à¤¹à¤® à¤£
ĠM aj
ur ope
ĠF e
à¥ĭ? '
à¤ĩà¤ļ à¤¢
od y
à¤½à¤½ à¤½
oft ware
ark ari
row ser
à¤¾!! !!!
ĠServ ice
Ġtrans l
h r
} .
è §
é Ŀ
à¤Ł à¤ĩà¤£
à¤ĸ à¤°à¤¸
Ġà¤ļ à¤¬
Ġà¤ı à¤¯à¤°à¤®
Ġà¤ı à¤ıà¤¨à¤¸
à¤µà¤¨ à¤ªà¤°
à¤Ĩ à¤¯à¤®
à¤Łà¤° à¤°
Ġà¤¥à¤ª à¤¡
à¥ģ, '
Ġà¤ıà¤¸ à¤ıà¤²
Ġ- âĢĺ
th eme
Ðµ Ñĩ
Ġd r
Ġd ep
ĠI FB
ĠB ids
Ġb as
à¤Ĩà¤ĩ à¤ĵà¤¸
ir c
ĠCom m
ical ly
Ġ197 0
Ġsu ch
Ġâ Ĥ¬
ĠÐ¾Ð± Ð»
ĠRep ort
ako artha
ĠArth akoartha
9 2
T O
Ð ļ
å ĭ
à¤¯ à¤ħà¤Ń
Ġà¤Ĺ à¤¯à¤°
Ġà¤° à¤«à¤¤
à¤ı à¤ļà¤¬
Ġà¤¹ à¤°à¤®
Ġà¤Ľ à¤¡à¤ķ
Ġà¤Ĩ à¤Ĭà¤¨
à¤ĩ à¤®à¤§
à¤īà¤¨ à¤Ńà¤¨
à¤¤à¤° à¤ŀ
Ġà¤īà¤ª à¤ľà¤®
à¥įà¥¤ )
à¤Ĺà¤² à¤ľà¤¸
Ġà¤¦à¤° à¤ª
Ġà¥Ń à¥©à¥¦
à¤¾. )
à¥įâĢ ľ
Ġà¤ĺà¤°à¤® à¤§
in st
Ġà¥¨à¥¨ à¥¬
à¤ľà¤ª à¤¥à¤ķ
à¤¯à¤°à¤¤ à¤¸à¤®
à¤°à¤¥ à¤®à¤ķ
ĠP erson
Ġà¤īà¤ªà¤ķà¤°à¤£ à¤¬
and a
ĠE ve
à¤ĩà¤« à¤¸à¤ķ
Ġà¤Ĺà¤¦ à¤Ĺà¤¦
ãĤ ¤
AR U
urb a
à© Ģ
8 7
A ug
B log
M US
] ;
m à¤²à¤ķ
Ã £
ĩ à¤¨
à¤¿ âĢį
à¤® à¤°à¤¬à¤¹
à¤ª à¤¹à¤²
Ġà¤¬ à¤ł
Ġà¤¬ à¤¬à¤°
Ġà¤Ń à¤°à¤¦
à¤¬ à¤°à¤§
à¤ļ à¤ķà¤®à¤§
à¤Ń à¤°à¤¬
à¤« à¤°à¤¹à¤°
à¤µà¤° à¤ªà¤°
à¤Łà¤¨ à¤¹à¤°
Ġà¤ħà¤¬ à¤¤
à¤¹à¤¨ à¤¦
à¤¦à¤ķ à¤¸
Ġà¤ĺà¤Ł à¤¯
à¤¥à¤ķ à¤¬
à¤£à¤® à¤¯
Ġà¥¨à¥¬ à¥®
it or
ĠT arkari
ĠM ex
Ġs m
Ġs ch
à¤ħà¤ª à¤¹à¤°à¤£à¤ķ
Ġc ategory
à¤Īà¤ķà¤² à¤²
ĠL ove
Ġst ud
aj ha
à¥¬à¥¯ à¥¬
Ġà¤ıà¤¯ à¤°à¤¹
Ġim age
Ġà¥¨à¥¦à¥® à¥¦
66 4
ĠBh at
Ġà¤ħà¤Ĺà¤° à¤¬à¤¤
Ġà¤¸à¤ī à¤²à¤®
a it
Ġ à´
à¤° à¤¥à¤²
à¥ĩ à¥ĥ
à¤² à¤ªà¤°
Ġà¤ª à¤Łà¤°
Ġà¤ª à¤ļà¤²
Ġà¤ķ à¤Ĺ
Ġà¤Ĺ à¤¹à¤¤
à¤§ à¤°à¤®
à¤ıà¤ķ à¤ªà¤Ľ
Ġà¤ľ à¤¹à¤°
Ġà¤ī à¤¸à¤°
Ġà¤ļ à¤ķà¤®à¤¨
Ġà¤ªà¤° à¤ĸ
à¤ĩà¤¨ à¤°à¤¹à¤°
à¤Ĩ à¤·
à¤¬à¤® à¤¹à¤°
Ġm ake
Ġs al
Ġd eb
à¥§à¥¨ à¥ª
ĠâĢĻ ,
em p
Ġà¥©à¥ª à¥ª
à¤ĺà¤Ł à¤¨à¤®
ĠU J
oc r
ÐµÐ ¶
Ġà¤Ĺà¤¡ à¤Ĺà¤¡
à¥Ńà¥Ń à¥Ń
itt ing
ĠFOR SEE
9 55
H DAY
à¤¦ à¤°à¤®à¤£
Ġà¤Ń à¤¯à¤°
Ġà¤Ń à¤Ĺà¤¤à¤²
à¤¬ à¤ĩà¤ķ
à¤§ à¤¬à¤¹
Ġà¤¤ à¤®à¤¨
à¤¥ à¤Ł
à¤ļ à¤¯à¤¤
à¤ļ à¤®à¤¤
à¤ī à¤ľà¤¸
à¤²à¤® à¤°
ĠâĢĺ ...
à¤µà¤ķ à¤µ
à¥įà¥¤ âĢ¦
à¤ıà¤¨ à¤ıà¤®à¤¬
à¤¹à¤¨ à¤¶à¤®à¤¶
Ġà¥§à¥ª à¥¨à¥¦à¥¯
à¤ĺà¤° à¤¸à¤®
à¤ļà¤° à¤°
à¤µà¤¯à¤¨ à¤¸à¤®
Ġà¤Ĭ à¤¬
Ġà¤¶à¤¹à¤° à¤¬à¤ľ
à¥ģà¥ģ à¥ģà¥ģ
ĠD HR
à¤²à¤ĸ à¤¬à¤¨
Ġf ind
Ġw ater
Ġà¥©à¥Ń à¥Ń
à¥ĩ- '
Ġà¥¬à¥© à¥«
iv ity
ĠSt ud
up er
Ġsp ace
LE BR
ĠBI RT
ĠHer itage
ĠCE LEBR
ĠDHR MUS
ĠBIRT HDAY
ĠCELEBR ATION
P A
l ar
à¤° à¤ı
à¤¡ à¤ĺà¤Ł
à¤ĸ à¤ľà¤¨
Ġà¤¶ à¤¯à¤¨
à¤Ļ à¤¶
Ġà¤¬à¤¨ à¤°
Ġà¤§ à¤°à¤®à¤°
à¤Ĩ à¤®à¤¨
à¤¸à¤¨ à¤ľà¤¸
à¥Įà¤ģ ...
Ġà¤«à¤° à¤°
à¤¡à¤² à¤°à¤ķ
Ġà¤¨à¤Ń à¤ĩà¤°à¤¹
Ġà¤¦à¤¶ à¤¦
Ġà¥¨à¥« à¥¨
in ce
Ġà¤Ĺà¤łà¤¨ à¤¬
à¤ĩà¤¡ à¤°à¤²
Ġà¤¸à¤¹à¤° à¤¤
ĠD ARL
à¤¦à¤¨à¤ķ à¤°
ent ation
à¤¨à¤Ń à¤µà¤¨à¤¸
ĠR AN
Ġw ay
Ñĥ Ð±
à¦ ¿
Ġj e
Ġà¤¬à¤Ĺà¤° à¤«
US HI
NE PAL
ĠSc orp
ĠPAR OD
ĠBas anta
urre nt
GH ARU
ĠDh urba
Ġdise ases
ĠKH USHI
ĠUJ JU
ĠDARL ING
ĠRAN GHARU
ĠPAROD Y
? ,
f ore
g en
o z
v t
à¤¨ à¤ļà¤¨
à¤¨ à¤¶à¤ķ
Ġà¤¨ à¤²à¤¸
Ġà¤¨ à¤¢à¤²
Ġà¤¦ à¤¶à¤¨
Ġà¤ľ à¤ľà¤¹à¤°
à¤ļ à¤ªà¤²
à¤Ń à¤Ĺà¤¤
Ġà¤ļ à¤®à¤ļ
à¤°à¤£ à¤µà¤¸
à¤¢ à¤¸à¤¯
à¤¯à¤¸ à¤ĸ
Ġà¤¸à¤¹ à¤¶
Ġà¤ķà¤® à¤²à¤¬à¤ľ
à¤¹à¤¨ à¤ļà¤¨
à¤µà¤ª à¤ŀ
à¤ľà¤² à¤ª
Ġà¤ľà¤Ĺ à¤¬
in n
Ġà¤ħà¤ķ à¤®à¤ķ
à¤®à¤ª à¤¶
Ġà¥¨à¥® à¥«
Ġà¤¶à¤¹à¤° à¤¦
ĠS omatropin
à¥¨à¥¦ à¥¦à¥§
Ġt wo
ĠF ocal
Ġon ly
Ġà¥ªà¥¨ à¥¬
un e
lo em
ĠIn ter
à¥©à¥ª à¥©
ie f
à¥§à¥¯à¥¯ à¥¦
Ġà¥§à¥§à¥¦ à¥¦à¥«
Ġdes ign
Ġà¤®à¤°à¤¹ à¤Ł
% ),
D is
O L
à¤² à¤°à¤¤
à¤¸ à¤¯à¤ķ
Ġà¤¸ à¤²à¤ķ
Ġà¤Ĺ à¤ľà¤ķ
à¤· à¤Ľ
à¤£ à¤¨à¤®
à¥Ĥ "
à¤Ń à¤¬à¤¤
Ġà¤¯ à¤®à¤ķ
à¤°à¤® à¤¬à¤ľ
Ġà¤®à¤¹ à¤²à¤¹à¤°
à¤ŀ à¤¸à¤®
à¤ķà¤² à¤¨à¤¬
Ġà¤ĩ à¤¹à¤²
à¤¸à¤¨ à¤¤à¤°
Ġà¤Ŀ à¤²à¤ķà¤®
Ġà¤Ńà¤¯ à¤¬
à¤ķà¤°à¤£ à¤²à¤Ĺ
à¤ľà¤² à¤ľà¤²
Ġà¤¤à¤¹ à¤ħà¤¨
à¤ļà¤² à¤µ
Ġà¤ħà¤ķ à¤¬à¤°à¤²
ĠS ites
Ġp erson
Ġ19 47
ãģ ķ
he ad
Ñĥ Ð¿
Ġà¤ħà¤«à¤° à¤ħà¤¨
iz er
Ġà¤ıà¤®à¤ı à¤®à¤ķ
ĠâĢł âĢĻ
mit tee
Ġever y
] ,
i or
à¤¾ ?âĢĻ
à¤¨ à¤Łà¤ķ
Ġà¤¨ à¤łà¤¹à¤°
à¤ĸ à¤°à¤¤
à¤Ļ à¤Ŀ
à¤¸à¤® à¤¯à¤¸
Ġà¤§ à¤®à¤ķ
à¥Įà¤Ĥ à¤Ĥ,
à¤ªà¤¤ à¤²
à¤²à¤¯ à¤ľ
Ġà¤ĺà¤° à¤¨
Ġà¤¬à¤² à¤°à¤¹à¤°
Ġà¤ıà¤¨ à¤Ń
in ch
à¤¾à¥¤ âĢĿ
ou g
ĠM aster
ĠB it
07 6
à¤¨à¤Ń à¤µà¤¨
Ġo b
bs cri
Ġ& #
ĠU nd
à¤ĩà¤°à¤¸ à¤¬
âĢĭ âĢĭ
08 7
Ġà¥¦à¥¯ à¥«
ult ure
ne y
88 8
à¤¡à¤ļ à¤¢
R I
i que
t en
à¤¿ .....
à¤¯ à¤Ĺà¤®à¤¨
Ġà¤° à¤¸à¤ª
à¤§ à¤ħà¤¨
à¤¶ à¤¯à¤¤
à¤Ī à¤Ļ
à¤Ī à¤ĵà¤ķ
à¤¨à¤ķ à¤¹à¤°
à¤ħ à¤²à¤ķ
Ġà¤Ĩà¤¯ à¤¬
à¤Ĩ à¤ĩà¤®
à¤°à¤µ à¤ļà¤¨à¤ķ
Ġà¤ĺà¤° à¤ħà¤Ĺ
à¤²à¤Ĺ à¤°à¤ķ
à¤¦à¤Ľ à¤ĺà¤£
Ġà¤§à¤¨ à¤µà¤¨
à¤ĩà¤ķ à¤Ł
Ġà¤ıà¤¨ à¤ıà¤«
Ġ1 20
Ġà¥§à¥® à¥¨à¥«
Ġà¤ĸà¤¡ à¤Ĺ
Ġà¤ľà¤¨à¤ķ à¤¬à¤¹
ĠT est
ÑĤ Ð¾Ð¼
Ġh ours
à¤Ĳ à¤¨à¤²
ãĤ ĵ
ĠCh it
ĠØ ´
ĠCha utari
ilos ophy
4 00
à¤¾ âĢĮà¤Ĥ
à¤ķ à¤¨à¤¸à¤¹
à¤® à¤²à¤¨
à¤¸ à¤Ŀ
Ġà¤ķ à¤ķà¤Ł
à¤Ĺ à¤ľà¤¬
Ġà¤ħ à¤²à¤¬
à¤ģ âĢĿ,
Ġà¤Ĩà¤« à¤¸
à¤¶à¤¨ à¤¸à¤¹
à¤µà¤¤ à¤¹à¤°
Ġà¤Ĳ à¤¨à¤¸
Ġà¤ħà¤« à¤°à¤®
à¤ĸà¤ķ à¤¦
Ġà¥¨à¥© à¥¯
ĠS un
Ġd em
Ġà¤¡à¤² à¤°à¤¬
oo th
ĠH ol
âĢ¦âĢ¦ âĢ¦
ä¸ Ĭ
ĠNE WS
ian p
68 0
äº ĭ
âĢĶâĢĶ âĢĶâĢĶ
Ġturnt able
D ata
e KTM
t ro
í ķ
à¤ª à¤ªà¤¶
à¤ıà¤ķ à¤¥à¤°
à¤ļ à¤Łà¤®
à¤ī à¤Ńà¤¨
à¤¢ à¤¸
à¤¢ à¤¦
ĠâĢĺ ,
Ġà¤ĩ à¤¨à¤®
à¤Ĩ à¤ªà¤°
Ġà¥© à¥¦à¥©
Ġà¤īà¤¦ à¤£
Ġ' ...
Ġ! ,
in al
Ġà¥§à¥¬ à¥§à¥¦
Ġà¤Ĭ à¤®
à¥ĩà¤ģ à¥¤âĢĻ
à¤īà¤ª à¤µ
el come
à¥Ńà¥© à¥§
Ġà¥«à¥ª à¥©
à¤¾à¥Īà¤Ĥ âĢĵ
20 11
ab ility
Ġbe ing
ðŁ Ĵ
ator s
ãģĹ ãģŁ
Ġà¤ĨÃ ĩà¤¨
c ap
v eng
æ °
æ ķ
è ĩ
à¤¸ à¤¦à¤¨
à¤¬ à¤ķà¤²
à¤Ī à¤ıà¤ªà¤Ľ
à¤Ī à¤¹à¤ľ
Ġà¤¯ à¤µ
Ġà¤¶ à¤Ń
à¥¯ à¥§à¥¦
Ġà¥Ń à¥¦à¥§à¥Ń
à¤ıà¤¨ à¤Ĩà¤°à¤Ł
Ġà¤īà¤® à¤°
Ġà¤Ĳ à¤¨à¤µ
Ġà¤īà¤ł à¤¯
à¤Łà¤¬à¤² à¤¸
Ġà¤¨à¤¬ à¤Ĺ
ĠS ur
Ġ) à¥¤
ĠÂ ¤
Ġà¥©à¥§ à¥«
Ð¸ Ñİ
Ġà¤ħà¤ľ à¤Ļ
Ð½ Ð°Ñı
ĠG roup
ãģ Ĩ
Ġ6 1
ĠW eek
Ġà¤ľà¤¯ à¤²à¤²
à¤ıà¤Ī à¤µ
áĥ Ŀ
à¥©à¥© à¥¯
aj a
Ġà¤ıà¤®à¤ı à¤ıà¤ļà¤ķ
fe j
anch ar
CP M
! '
8 2
c ell
t om
Ġ ________________
à¤ķ à¤ıà¤ķ
à¤ķ à¤°à¤¹
à¤¯ à¤¯à¤®à¤¬
à¤¦ à¤Ĺà¤°
Ġà¤® à¤ľà¤Ĺ
Ġà¤ħ à¤²à¤ķà¤¤
à¤§ à¤¹à¤¸
Ġà¤² à¤¯à¤°
Ġà¤« à¤¨à¤ª
à¤¸à¤ķ à¤¨
Ġà¤ıà¤ķ à¤¬à¤°
à¤ķà¤² à¤¨à¤ķà¤°
à¤®à¤¨ à¤Ńà¤°
à¥¯ à¥ªà¥¨
Ġà¤ħà¤¬ à¤ļ
Ġà¥¨à¥« à¥©
à¤¯à¤£ à¤¬
à¤¾) à¥¤
Ġ20 28
Ġà¥¨à¥© à¥¬
ĠA f
ep l
ĠT E
Ġc ent
Ġà¥©à¥¬ à¥ª
ĠR am
Ġb ox
ĠH ug
Ġà¤Ĩà¤ĩà¤¸ à¤«à¤²
Ġà¤ĺà¤°à¤ª à¤Ŀ
Ġà¤Ńà¤Ĺà¤¤ à¤¸
land s
Ġte am
Ġdel iv
ĠDep artment
ĠUpd ate
ĠBiz Khabar
ecur ity
) ...
Ã Ĺ
Ġ ×
à¤¾ à¥Į
à¤¿ à¥Ĥ
à¥Ī âĢľ
Ġà¤Ń à¤ĩà¤¨à¤¨
à¤ĸ à¤ĺ
à¤ī à¤ľà¤°à¤ķ
Ġà¤ī à¤¥
à¤ķà¤² à¤Ŀ
Ġà¤ªà¤¹ à¤²à¤¹à¤°
à¤µà¤¨ à¤¸à¤®
à¥§ à¥¦à¥§
à¥Ń à¥¦à¥¦
Ġà¤ĺà¤° à¤ľ
à¤¨à¤µ à¤²à¤ķ
à¤ľà¤¯ à¤ĸà¤°
Ġà¥¦ à¥«à¥¦
Ġà¥¨à¥ª à¥¬
Ġà¤Ĺà¤² à¤¹à¤¤
à¤Ĩà¤Ī à¤ıà¤®à¤Ī
à¤īà¤ª à¤¸à¤ļ
Ġp op
Ñģ Ð¿
à¤ıà¤ļ à¤ıà¤¸
Ġ6 4
im edia
à¤ļà¤¥ à¤°à¤²
iv al
à¥¨à¥¦à¥ª à¥¨
áŀ ¶
hak i
Ġne fej
ĠSu pport
ĠMed ianp
Ġà¤°à¤®à¤Ŀ à¤®à¤®
Jul y
haka haki
Ġnefej hakahaki
A l
O B
Î ½
Ġ id
Ġ ir
à¤¨ à¤ªà¤ķ
à¤² à¤ħà¤Ń
à¤® à¤¥à¤¨
à¤µ à¤īà¤ªà¤ķ
à¤Ĺ à¤ªà¤¨
à¤Ł à¤¤à¤®
Ġà¤¨ à¤ķà¤²
Ġà¤¨ à¤ħà¤²
Ġà¤¬ à¤ķà¤®
à¤ļ à¤°à¤£à¤²
à¤£ à¤ªà¤Ł
Ġà¤ı à¤ªà¤°
Ġà¤ħà¤¨ à¤¯
à¤¤à¤° à¤Ńà¤¨
à¥Ģ, ...
à¤Łà¤° à¤¡
Ġà¤Ĩà¤° à¤§
Ġà¤ħà¤¹ à¤²
Ġà¤ĵ à¤®à¤¸à¤¤
Ġà¤¬à¤² à¤°à¤ķ
Ġ, âĢĺ
à¤¯à¤¬ à¤¶
Ġà¤ľà¤¨à¤® à¤¨à¤®
Ġà¤¥à¤ķ à¤¥à¤ķ
à¤¨à¤Ĺ à¤¯
ut ing
te xt
Ð°Ð ¿
Ġst r
ry pt
ld er
ĠTrans posh
C on
g y
l or
Ä Ľ
à¤ķ à¤§à¤®
à¤² à¤ļà¤¸
à¤¦ à¤µà¤°
à¤¦ à¤°à¤Ń
à¤¦ à¤¯à¤¹à¤°
Ġà¤Ĺ à¤«à¤²
à¤ı à¤ŀ
Ġà¤¹ à¤łà¤ķ
Ġà¤®à¤¹ à¤«
Ġà¤¸à¤°à¤ķ à¤°
à¤µà¤ķ à¤§
Ġà¥© à¥¦à¥¬
à¤¶à¤® à¤¬à¤¹
à¤·à¤¯ à¤Ńà¤¨
Ġà¥¨à¥¯ à¥¯
à¤¹à¤°à¤£ à¤¬
à¤ıà¤« à¤Ĩà¤ĩà¤¡
ĠR ating
Ġb et
à¤°à¤ľà¤¨ à¤ª
ĠO ri
Ġà¥ªà¥Ń à¥®à¥©
à¥¨à¥¯ à¥ª
à¤ĸà¤¨à¤¨ à¤¬
ction s
ĠY outube
Ġ198 6
Ġà¤ıà¤®à¤ı à¤ıà¤ļ
Ġ205 1
ĠLe vel
à¤¡à¤°à¤¶ à¤Ł
Ġà¤¸à¤ĸà¤° à¤ĸà¤£
Aut umn
s pl
Ð Ł
à¤¹ à¤ľà¤¹
Ġà¤Ĺ à¤ķ
à¤ı à¤ľà¤¤
Ġà¤¬ à¤Ľ
Ġà¤ħ à¤ľà¤°
Ġà¤¤ à¤¨à¤®
Ġà¤Ĩ à¤Ľ
à¤¡ à¤ªà¤¬
à¤ĩ à¤¸à¤¹
Ġà¤ļ à¤¯
Ġà¤¥ à¤ļ
Ġà¤ı à¤®à¤²
Ġà¤« à¤ķà¤°
Ġà¤®à¤¹ à¤Ń
Ġà¤ıà¤ķ à¤µ
à¤¬à¤¨ à¤¸
à¥Īà¤Ĥ à¥¤
à¤ĵ à¤Ĩà¤Īà¤ª
Ġà¤ªà¤¦ à¤®à¤²
à¤µà¤¤ à¤§
à¤ķà¤ª à¤¨à¤ķ
à¤¨à¤µ à¤°à¤¹
à¤·à¤¦ à¤µ
à¤Īà¤¨ à¤Ń
à¤°à¤Ĺà¤¤ à¤®
Ġà¤¦à¤¶à¤ķ à¤¬
Ġà¤°à¤¨ à¤Ĩà¤īà¤Ł
Ġà¤¹à¤ķ à¤Ń
Ġà¥ªà¥« à¥¦à¥¦
Ġà¤ıà¤ķà¤¦ à¤¶à¤ķ
à¥¦à¥© à¥¬
à¤¤à¤ľà¤¨ à¤¸
Ñĥ Ð»
Ġv ery
à¥§à¥¯à¥¯ à¥®
ĠÑģ Ð¿
Ġà¥§à¥¦à¥¯ à¥®
Ã³ n
ĠRep ublic
ĠBe ach
eren ce
ĠAustral ia
A g
H E
à¤¯ à¤ľà¤¨à¤²
Ġà¤¨ à¤¹à¤ķ
à¤§ à¤¦à¤ķ
à¤§ à¤°à¤ª
à¤ģ âĢĺ
à¤ĸ à¤¨à¤¦
Ġà¤ıà¤ķ à¤¬à¤¦
Ġà¤ĺ à¤°à¤¯
Ġà¤īà¤ª à¤°à¤ķ
à¤Ĩ à¤Ń
à¤²à¤¯ à¤ľà¤¸
à¤Ńà¤¨ à¤ª
à¤°à¤¶ à¤Ļ
Ġà¤ĸà¤° à¤ĸà¤°
à¤¤à¤ª à¤¸
Ġà¥¨à¥« à¥¯
in c
Ġà¤ĭ à¤£à¤¸
ĠÐ ĳ
ĠP lease
à¥¨à¥¦ à¥¦à¥¨
Ġc al
Ð¸ Ð´
et ition
Ġn ow
Ġ6 00
à¤¯à¤¦à¤² à¤¹à¤°
à¥¨à¥¦à¥¨ à¥®
if t
Ġ198 7
Ġà¤Ĩà¤ĩà¤ĵ à¤ıà¤®à¤ķ
erm an
Ġà¥ªà¥Ńà¥®à¥© à¥¦à¥¯à¥Ń
e red
à¥ģ ',
à¤¸ à¤ĩà¤¬
à¤ı à¤¨à¤®
Ġà¤¹ à¤°à¤¦
à¤Ī à¤¥
Ġà¤¶ à¤°à¤£à¤ķ
Ġà¤¶ à¤¶à¤¸
à¤¨à¤® à¤Ĺà¤°à¤²
Ġà¤ľà¤¨ à¤Ĩà¤µ
Ġà¤¤à¤¥ à¤Ĩ
à¤²à¤® à¤¯
à¤Ŀ à¤Łà¤®
Ġà¤īà¤¦ à¤¯à¤¬à¤¹
Ġà¤ļà¤° à¤¨à¤ķ
à¤ķà¤¨ à¤°
à¤ªà¤² à¤ļ
à¤¨à¤ª à¤¦à¤µ
Ġà¥§à¥Ń à¥¨à¥Ń
à¤µà¤¨à¤ķ à¤°
Ġ/ >
à¤¡à¤¬ à¤²à¤®
Ġà¥©à¥« à¥¦à¥¦
ĠM e
Ġà¤¨à¤Ĩ à¤īà¤¦
Ġà¤¤à¤²à¤¬ à¤²
Ġà¤Ĺà¤ľ à¤²à¤Ĺ
à¤ģà¥¤ '
em pl
ĠK ing
Ġà¤ĸà¤¬ à¤°à¤¸
à¤¨à¤Ĺ à¤ŀ
ĠAn g
lic h
à¤¡à¤°à¤¸ à¤¨à¤²
Ġà¤Ĩà¤¡ à¤Ńà¤°
Ġà¤Ĩà¤Īà¤ıà¤¸ à¤ĵ
Ġer ror
) /
I nd
Ķ Ĥ
à¤¨ à¤ħà¤§
à¤ķ à¤¥à¤¨
à¤² à¤Łà¤®
à¤µ à¤ªà¤¨
Ġà¤ķ à¤°à¤¸à¤¹
à¤· à¤®à¤ķ
à¤¶ à¤¦à¤¤
à¤¡ à¤°à¤¸à¤¨
à¤ĩ à¤ĩ
à¤°à¤£ à¤®à¤¨
à¤ľà¤¨ à¤¬à¤¢
Ġà¤¬à¤¨ à¤ľà¤Ļ
Ġà¤Ł à¤ªà¤¨
Ġà¤¡ à¤¸à¤¨
Ġà¤®à¤¨ à¤ļ
à¤°à¤¹à¤° à¤®
Ġà¥© à¥¦à¥§
à¤¶à¤¨ à¤°à¤¤
à¤µà¤² à¤¤
à¤§à¤¨ à¤¤à¤°
à¤ĵ à¤Ŀ
Ġà¤®à¤² à¤¹à¤°
Ġà¥® à¥©à¥¦
à¤¹à¤¨ à¤ľ
Ġà¤Ĩà¤ĩ à¤ıà¤¸à¤¸
Ġà¤°à¤ķà¤® à¤¦
Ġ- âĢľ
Ġà¤ľà¤µ à¤¸à¤®
ĠD istrict
ĠT op
ĠT echnology
ĠF ree
Ġà¤ħà¤ľ à¤°à¤¬
ag ram
à¥ĭ- '
ãģ Ĥ
ip edia
ĠPl ay
Ġup load
Ġz u
ts c
Ġaf ter
Ġcap tion
eaut y
b b
l ass
Ã ½
Î µ
à¤¨ à¤ľà¤¤
à¤ķ à¤²à¤ķà¤¹à¤°
à¤² à¤²à¤ķ
à¤Ł à¤¶
à¤Ł à¤ľà¤¨
Ġà¤ħ à¤°à¤¹
à¤§ à¤¯à¤²
Ġà¤¤ à¤ĸ
Ġà¤¯ à¤¶à¤ķ
à¤°à¤ķ à¤¹
à¤¾à¤ģ âĢ¦
à¥ĥ ,
Ġà¤ħà¤§ à¤ķà¤²
âĢĻ ...
à¤°à¤¦ à¤°à¤¹
à¤µà¤¨ à¤ľ
Ġà¤Ĺà¤¤ à¤²
à¤ķà¤ķ à¤¬
à¤¤à¤¨ à¤¤
à¤µà¤² à¤¨à¤ķ
Ġà¤ķà¤¥ à¤¨à¤²
à¤®à¤ª à¤°à¤ķ
Ġà¥¨à¥¯ à¥¨
ĠN GO
à¥§à¥§ à¥ª
à¥Įà¤ģà¥¤ âĢĿ
à¤¨à¤¹ à¤ľ
à¤¤à¤¸à¤® à¤ķ
Ġà¥«à¥¬ à¥¦
all eng
ĠAm erican
ele ct
opy right
Ġserv ice
He alth
div ide
2 07
I t
d en
k l
y p
Ġ email
à¤® à¤Ĩ
à¤® à¤¥à¤°
à¤¸ à¤Ī
Ġà¤¸ à¤°à¤£
à¤µ à¤ĩà¤ļ
à¤Ĺ à¤°à¤£à¤®
Ġà¤Ĺ à¤Ń
à¤Ł à¤ªà¤®
Ġà¥¤ ..
à¤¬ à¤°à¤¸à¤¹
à¤ļ à¤ľà¤¸
à¤Ī à¤¨à¤µ
Ġà¤² à¤Ńà¤°
à¥Į à¥¤âĢĿ
à¤¢ à¤®
à¤Łà¤° à¤Ĺ
à¤µà¤² à¤¸
à¤«à¤² à¤¡
Ġà¤ĩà¤¨ à¤¬
Ġà¤¦à¤² à¤¦
à¤²à¤¤ à¤Ń
à¤·à¤¦ à¤¦
re nd
à¤Ĺà¤¢ à¤µ
Ġà¤ľà¤¬ à¤ľà¤²
Ġà¥¨à¥¨ à¥¯
Ġà¤ľà¤² à¤Ńà¤£
à¤¾à¥¤ '
à¤·à¤° à¤ªà¤Ľ
à¤ħà¤¸ à¤«à¤²
th ers
ĠS ex
ĠN etwork
Ġp ur
Ġp ara
ĠB u
Ġth ese
20 13
à¤ļà¤¨à¤² à¤Ĺà¤¤
à¸ Ķ
Ñĥ Ñĩ
out u
Ġ8 00
à¤°à¤ķà¤°à¤£ à¤ªà¤Ľ
à¥¨à¥¦à¥ª à¥¦
pl ace
Ġà¤µà¤¯ à¤·
ĠPost ed
Ġex t
ĠSam loem
Ġsh ort
Ð°Ð¼ Ð¸
Ġà¤¤Ã¬ à¤µ
PD MS
R adio
r is
ī Ī
à¤° à¤¥à¤ķ
à¤® à¤°à¤¹à¤°
à¤¤ à¤Ĺà¤£
à¤ª à¤¥à¤²
à¤Ĺ à¤¬à¤¸
à¤Ł à¤ħà¤ªà¤®
Ġà¤¨ à¤īà¤¤
à¤§ à¤Ńà¤ķ
Ġà¤Ľ à¤Ļ
à¤°à¤® à¤¤à¤°
Ġà¤ħà¤¨ à¤Ł
à¤°à¤¤ à¤¸à¤¹
Ġà¤« à¤¡à¤ķ
Ġà¤ıà¤ķ à¤²à¤µ
Ġà¤ľà¤¨ à¤§
Ġà¤®à¤¨ à¤¨à¤¯
Ġà¤Ĩà¤° à¤ıà¤²
à¤ķà¤° à¤µà¤°
Ġà¤Ĩà¤µ à¤Ń
Ġà¤ĵ à¤ľà¤¨
à¤ĵ à¤ı
à¤°à¤ª à¤¦
Ġà¥§à¥¯ à¥¦à¥©
à¤¯à¤¯à¤¨ à¤¸
à¤¾... !
à¤ĩà¤ľ à¤°à¤²
ĠS outh
à¥Ĥà¤ģ à¥¤
Ġà¤Ĺà¤ı à¤¦
Re veng
ĠK B
Ġà¥ªà¥¯ à¥«
ak a
ri me
Ġà¤¬à¤¦ à¤°à¤ķ
Ġà¤Ĩà¤īà¤Ł à¤ª
ow k
à¸ £
ist er
Ġà¤²à¤¹à¤° à¤ķ
op ian
Ġà¤ļà¤®à¤ķ à¤¦
à¥¯à¥¯ à¥¬
ĠMin istry
h el
h up
Ø Ń
æ Ń
à¥ĩ ',
à¥ĭ âĢľ
à¤ľ à¤°à¤¤
Ġà¤¹ à¤²à¤µ
à¤¬ à¤¥
Ġà¤¤ à¤µà¤¸à¤®
à¤Ĥ (
Ġà¤¶ à¤°à¤®
Ġà¤ªà¤¨ à¤¡
Ġà¤ıà¤ķ à¤ĺà¤£
à¤¤à¤° à¤²à¤¤
à¤ķà¤² à¤¯à¤ķ
Ġà¤ķà¤° à¤«
à¤®à¤¨ à¤¤
à¤®à¤¤ à¤ªà¤¤
Ġà¤Ĩà¤µ à¤°à¤£à¤ķ
Ġà¤ķà¤² à¤°à¤®
Ġà¤Ķ à¤ª
Ġà¤Ķ à¤¸à¤§
à¤°à¤®à¤£ à¤ħà¤ĺ
Ġà¤Ĩà¤¶ à¤¬à¤¹
Ġ- (
à¤¨à¤ª à¤ĸ
Ġà¥§à¥® à¥®à¥§
Ġà¥¦ à¥¦à¥¦
Ġà¤ľà¤¨à¤® à¤¤à¤®
à¤ıà¤« à¤®
ag n
à¥§à¥ª à¥®
Ġà¥ªà¥ª à¥«
à¤·à¤ķà¤® à¤§
ĠH ere
Ġà¤²à¤¹à¤° à¤¹à¤°
ĠAn al
Ġ206 9
Ġ197 1
à¤ıà¤¨à¤ıà¤® à¤ıà¤¨
Ð°Ð± Ð¾ÑĤ
oj pur
R ep
m à¤°
t a
é Ļ
à¤® à¤ľà¤¨
Ġà¤° à¤Ń
Ġà¥¤ .......
à¤ľ à¤¤à¤®
Ġà¤µ à¤ļà¤¨à¤®
Ġà¤µ à¤¨à¤ķà¤°
à¤¶ à¤¯à¤¬
à¤ļ à¤Ĺà¤°
à¤Ī à¤ľà¤ķ
à¤Ń à¤¨à¤²
à¤ĸ à¤ħà¤¨
à¤°à¤£ à¤¬à¤¹
Ġà¤¬à¤¨ à¤µ
à¤¯à¤® à¤Ńà¤¨
à¤°à¤¹ à¤¦à¤ķ
à¤ķà¤¨ à¤µ
à¤µà¤¯ à¤¬
à¤¯à¤ª à¤¦à¤ķ
re ak
Ġà¤®à¤¸ à¤²à¤¨
Ġà¥§à¥® à¥¯à¥¦
Ġ20 20
Ġà¤¨à¤µ à¤µà¤°
Ġà¤ªà¤² à¤ªà¤²
Ġà¥©à¥§ à¥§
Ġà¤ļà¤²à¤¨ à¤¹à¤°
ĠT er
à¤ıà¤« à¤ĵ
Ġà¤¨à¤Ĩ à¤ĩà¤ª
Ġà¥©à¥© à¥«
Ġà¤ªà¤¸à¤² à¤¸à¤®
Ġà¤ıà¤ļ à¤Ł
ri ve
à¥¨à¥¯ à¥«
à¤¨à¤Ľ à¤¹à¤°
Ġà¤°à¤¨à¤° à¤ħà¤ªà¤ķ
ĠÑĤ Ð°Ðº
Ġsu pport
Ġcont act
Com ments
ĠDar az
) '
y outu
Å Ľ
è ®
à¤¸ à¤Łà¤¨
à¤¹ à¤¸à¤ª
à¤Ĺ à¤¡à¤®
à¤ľ à¤ľà¤¨
à¤¬ à¤¸à¤¹
à¤¬ à¤°à¤¹à¤¥à¤µ
à¤¶ à¤·
à¤¶ à¤¬à¤®
Ġà¤ļ à¤²à¤®à¤²
Ġà¤§ à¤µà¤¨à¤²
Ġà¤ľà¤¨ à¤¤à¤²
à¤¤à¤° à¤ħà¤¨
à¤Ŀ à¤¡à¤ªà¤®
Ġà¤ĩ à¤Łà¤°
à¤µà¤° à¤ļà¤¨
Ġà¤ħà¤¸ à¤²à¤®
Ġà¤¨à¤Ĺà¤° à¤¸à¤®
à¤ªà¤ķ à¤ľ
Ġà¥¬ à¥¦à¥«
à¤Łà¤® à¤°
Ġà¤¸à¤¡à¤ķ à¤¬à¤¤
Ġà¥¦ à¥©à¥«
Ġà¤¤à¤² à¤ªà¤Ł
or ies
Ġà¤Ĩà¤ı à¤Ľà¤¨
Ġp df
Ġc ook
à¥§à¥¨ à¥¯
ĠB B
Ġ19 48
à¤ıà¤ļ à¤ıà¤®
à¥¦à¥¨ à¥Ńà¥ª
ay akhabar
à¥ĩ? âĢĿ
Ġà¥¯à¥¯ à¥©
Ġ9 2
à¥ĭâĢĿ âĢĵ
à¥¨à¥¦à¥ª à¥©
ere nt
ĠÐº Ð¾Ð¼
Ã¶ r
Sp y
ĠCy ber
à¤ıà¤¨à¤Ĩà¤°à¤ı à¤¨à¤ķ
ĠMarket ing
ĠReview ed
N P
c a
t ulsipur
z a
Ä Ł
Ñ ĳ
à¥ģ à¥Ī
à¥Ī "
Ġà¤µ à¤²à¤ķ
Ġà¤µ à¤²à¤²
à¤· à¤®à¤²
à¤¡ à¤ķà¤®
à¤Ī à¤¡à¤ķ
à¤£ à¤¹à¤¤
à¤ī à¤¸à¤Ń
à¤°à¤® à¤Ńà¤¨
Ġà¤ļ à¤īà¤°à¤®
à¥Į âĢĻ,
à¤ĺ à¤ĺ
Ġà¤®à¤¹ à¤¤à¤°
à¤ªà¤¤ à¤¬
Ġà¤ķà¤° à¤¡
à¥ģà¤ģ à¤ģ
à¤Ĩ à¤¸à¤ª
à¤·à¤£ à¤ľà¤¸
à¤¨à¤®à¤¨ à¤¤
à¤ĵ à¤Ĺ
Ġà¤®à¤¤ à¤¹à¤¤à¤ķ
à¤¬à¤² à¤¦
à¤¹à¤² à¤¯à¤®
à¤¨à¤¤ à¤¸
à¤¦à¤® à¤£
Ġà¥¦ à¥©à¥®
Ġà¤Ĺà¤¹ à¤µ
ĠT ags
Ġs im
Ġt est
ĠB usiness
ĠB ato
à¤ĩà¤¬ à¤°à¤²
à¤°à¤ľà¤¨ à¤¨à¤ķ
ĠL ist
Ġà¤¨à¤Ĺ à¤ıà¤ªà¤Ľ
ul ation
à¤¯à¤£à¤Ĺà¤¢ à¤¤à¤°
Ġà¤¸à¤¶ à¤Ļ
Ġà¤ħà¤®à¤¨ à¤ļ
Ġ98 4
çĶ Ł
Ġà¤¦à¤¶à¤° à¤¥à¤²
à¼ ĭ
tulsipur khabar
P H
k an
Ġ order
à¤¿ ï¿½...
à¤¦ à¤µà¤ª
Ġà¤¨ à¤«à¤²
à¤· à¤¹
Ġà¤¦ à¤²à¤¨
à¤£ à¤µà¤¹
à¤Ľ à¤¥à¤°
à¤¹à¤° à¤¦
à¤¯à¤¸ à¤ħà¤µà¤¸à¤°à¤®
à¤ĩà¤¨ à¤°à¤ķ
Ġà¤ł à¤¯
à¤µà¤° à¤§
à¤¶à¤¨ à¤¬à¤®
à¤¯à¤° à¤ª
Ġ? ,âĢĻ
Ġ, âĢĿ
à¤¨à¤Ĺà¤° à¤¸à¤Ń
Ġà¥¨à¥Ń à¥§
Ġà¥¨à¥Ń à¥¯
Ġà¥¨à¥¯ à¥§
Ġà¤®à¤¦ à¤°à¤²
ĠS te
Ġl ook
ĠN OW
Ġà¥©à¥§ à¥®
ĠT ele
Ġà¥©à¥¨ à¥§
is ode
Ġà¤¨à¤Ĩ à¤ıà¤®
à¥Ģà¤Ĥ ,
am j
Ġà¤¡à¤² à¤°à¤¸à¤¹
Ġà¥ªà¥ª à¥¦
Ġà¤ªà¤ļ à¤ªà¤¨
ra w
Ġà¤Ńà¤ľà¤¨ à¤¹à¤°
à¨ ¿
ack ed
Ġ198 8
à¤Ĩà¤°à¤Ĩà¤Ī à¤®
9 3
a a
a ut
i qu
à¤¯ à¤¡à¤ķ
Ġà¤ħ à¤¡à¤°
Ġà¤¹ à¤µà¤ķ
Ġà¤¹ à¤°à¤¬
Ġà¤¹ à¤Łà¤¨
à¤· à¤¥à¤ª
à¥Ĥ âĢĻ,
à¤ī à¤¡à¤¸
à¤¯à¤ķ à¤ª
Ġà¤®à¤¹ à¤¦
Ġà¤¸à¤¹ à¤¯à¤¤
à¤ħ à¤¢
à¤ħ à¤¨à¤¸
à¤¯à¤¤ à¤¸à¤®
à¤ĩà¤¨ à¤°à¤²
à¥ģà¤ģ ...
Ġà¤¸à¤®à¤¯ à¤¬à¤¦
Ġà¥¯ à¥§à¥¦
Ġà¤Ĩà¤® à¤īà¤ªà¤Ń
Ġà¤Ĩà¤¦ à¤°à¤Ń
à¤®à¤¸ à¤Ļà¤ķ
Ġà¥§à¥® à¥©à¥§
à¤¯à¤ķà¤° à¤¥
Ġà¥¨à¥Ń à¥¨
Ġà¤¸à¤« à¤°
ĠS al
à¤¯à¤°à¤¤ à¤°
ĠP ER
ĠM ach
à¤°à¤¹à¤£ à¤ªà¤Ľ
Ġc le
à¥§à¥§ à¥¦à¥ªà¥ª
am achar
Ġo pen
un ch
Ġà¥©à¥® à¥«
ol ar
Ġ9 5
one y
à¤¡à¤°à¤¸ à¤Łà¤ķ
à¥¨à¥¦à¥© à¥©
áŁ Ĵ
Ġà¥§à¥¬à¥§à¥® à¥¦à¥¨à¥Ńà¥ª
Ġà¥§à¥¬à¥§à¥®à¥¦à¥¨à¥Ńà¥ª à¥§à¥§à¥¦à¥ªà¥ª
Å ¡
Å ¼
â ľ
à¤¾ âĢĮ
Ġà¤¸ à¤īà¤¦
Ġà¤¸ à¤¯à¤®à¤®
à¤¹ à¤¯à¤¤
à¤§ à¤®à¤¤
Ġà¤Ľ à¤īà¤¨
Ġà¤¤ à¤ķà¤¨
à¤ļ à¤°à¤¬
à¤Ī à¤Łà¤¨
à¤£ à¤¶à¤®
à¤ī à¤¦à¤®
Ġà¤¶ à¤µà¤°
Ġà¤ªà¤° à¤¹
à¤ĺ à¤ª
Ġà¤¸à¤ķ à¤¸à¤®
à¤¯à¤¤ à¤ħà¤¨
à¤ķà¤² à¤°à¤¸
Ġà¤īà¤¨ à¤¨
à¤Ĩ à¤¤à¤¦
à¥¨ à¥¦à¥¦à¥¦
à¤ľà¤ķ à¤¬
Ġà¤Ĩà¤® à¤¸à¤°
Ġà¤¸à¤Ļ à¤ĺ
Ġà¤¸à¤¤ à¤¤
Ġà¤Ĩà¤ī à¤Łà¤°
à¥¦à¥Ń à¥®
Ġà¥¨à¥« à¥Ń
à¤Ĩà¤° à¤Ĩà¤Īà¤ķ
at ic
Ġm ult
ĠS TOR
Ġp ilot
ĠP aper
ĠM obile
Ġà¤Ľà¤ł à¤¸à¤®
Ġà¤¨à¤ĸ à¤Ł
am ro
ĠG r
à¤¼ à¥ģ
um b
à¤®à¤Ļ à¤ª
Ġà¥§à¥¯à¥ª à¥ª
ĠÐ² Ñģ
Ġ198 2
à¥¨à¥¦à¥© à¥¯
æĪ ĳ
' t
t i
Î º
à¤¨ à¤īà¤¨
à¤ķ à¤·à¤£à¤ķ
à¤² à¤īà¤¦
à¤ī à¤¤à¤¹à¤°
Ġà¤ļ à¤¦
à¥Į à¥Īà¤ģ
à¤°à¤£ à¤²à¤Ĺ
Ġà¤ıà¤ķ à¤«
à¤¯à¤² à¤¦
à¤§à¤¨ à¤ªà¤¤
à¤ĵ à¤¢
à¤°à¤Ń à¤°à¤¬
à¤¬à¤² à¤°
à¤¨à¤ª à¤Ł
Ġà¥§à¥® à¥¬à¥§
Ġà¤°à¤® à¤ªà¤®
à¤ªà¤£ à¤ªà¤Ľ
Ġ20 47
à¤²à¤¸à¤® à¤ķ
ĠA re
à¥Ĥà¤ģ à¤Ĥ
ĠP revious
à¤¯à¤°à¤² à¤Ĺ
Ġà¥ªà¥® à¥§
Ġh er
ĠâĢĿ ,
ot s
à¤°à¤¸à¤ķ à¤¨
à¦ ²
ĠÑģ Ð¾
ain ik
Ġà¤¸à¤¨à¤® à¤ķ
ĠTr ail
æľ ¬
Ġà¥¨à¥¦à¥® à¥«
Ġà¤ľà¤¯à¤¶ à¤Ļ
ĠEth iy
ĠMex icon
ĠEthiy opian
F L
b it
m ed
n ame
o or
Ã ¸
Ð ľ
à¤¨ à¤¯à¤°
à¥ĭ ......
Ġà¤¸ à¤²à¤Ĺ
Ġà¤ª à¥Ŀ
à¤¦ à¤ľà¤¨à¤ķ
à¤µ à¤Ĩà¤°
Ġà¤¨ à¤ľà¤²
à¤ľ à¤ļ
à¤§ à¤°à¤£à¤¹à¤°
Ġà¤Ĩ à¤¡à¤µ
Ġà¤² à¤Łà¤°
à¤¯à¤ķ à¤®à¤§
Ġà¤¥ à¤ªà¤®
Ġà¤ı à¤«à¤ķ
à¤ľà¤¨ à¤ħà¤¨
à¤ŀ à¤¶
Ġà¤¡ à¤¹à¤°
à¤ħ à¤¸à¤¹
à¥Įà¤Ĥ !
à¤µà¤¨ à¤¦à¤°
à¥Ģ, âĢĻ
Ġà¤¸à¤¦ à¤°à¤²
Ġà¤ķà¤² à¤¶à¤®
Ġà¤ĺà¤° à¤ĺà¤°à¤¬
Ġà¤¦à¤² à¤Ńà¤¨
Ġà¤ıà¤¨ à¤Ĩà¤Ī
à¤µà¤¦ à¤¹à¤®
Ġà¤Ĩà¤Ī à¤ı
à¥ĩà¤ģ '
Ġà¤Ńà¤µà¤¨ à¤¸à¤®
Ġà¤¨à¤µ à¤§à¤¨
ĠS a
ic les
ĠA ut
Ġà¤¸à¤°à¤¸ à¤¹à¤¯
ĠP H
Ġà¤¶à¤µ à¤Ĺ
Ġc or
Ġd as
ĠI ss
Ġà¤¨à¤¸ à¤¹à¤¨
id ding
ĠL ib
âĢį à¥ĩ
ĠCom mittee
ĠPost s
à¤ħà¤µà¤¤ à¤°à¤£
ĠSk ype
Spy oo
y e
Ã º
à¤ ©
à¤¦ à¤°à¤¸
à¤µ à¤«
Ġà¤¨ à¤°à¤ķà¤®
Ġà¤¬ à¤Łà¤°
Ġà¤® à¤Ĺà¤®à¤Ĺ
Ġà¤² à¤Łà¤®
Ġà¤¯ à¤ľà¤®
à¤°à¤® à¤¬à¤¹
à¥Į à¤ĥ
Ġà¤ıà¤ķ à¤¬à¤¹
à¤¯à¤¸ à¤ħà¤Ĺ
à¤¯à¤¤ à¤Ńà¤¨
Ġà¤ķà¤° à¤Ľà¤²
Ġ( ...
Ġà¤īà¤¤ m
à¤Ĩ à¤°à¤Ń
à¤§à¤¨ à¤¤
à¥¯ à¥¦à¥¦
à¤¶à¤¤ à¤¦
Ġà¤¦à¤² à¤¸à¤¹
à¤¤à¤µ à¤¹
à¤ľà¤Ĺ à¤¤à¤ķ
à¤łà¤ķ à¤ħà¤ĺ
Ġà¤¹à¤¸ à¤¨à¤ķ
Ġà¥¨à¥¬ à¥¨
à¤¶à¤¬ à¤¬à¤¹
Ġà¥©à¥§ à¥¨
à¤īà¤ª à¤ľ
Ġp or
à¤²à¤Ń à¤¤
à¤®à¤¶ à¤°
Ðµ Ñħ
ĠL imited
à¥§à¥¬ à¥«
à¤ĸà¤¬ à¤°à¤²
ĠU s
Â« à¥ĭ
Ġg ood
Ġà¤ħà¤®à¤² à¤Ł
ĠCh ar
Ġà¤ıà¤¨à¤Ĩà¤°à¤ı à¤¨à¤®
ver t
Ġan n
Ġà¤µà¤ľà¤¨ à¤¦
ĠApp s
Ġcont ract
Ġacc ount
ĠPh ilosophy
Ġar ound
On line
. âĢĿ
C A
ç Ĳ
ç Ļ
à¤¯ à¤Ľ
à¤¯ à¤Ĺà¤¢
à¤¹ à¤¹à¤ķ
Ġà¥ Ī
Ġà¤° à¤ľà¤Ĺà¤ľ
à¤Ł à¤¸à¤¬
à¤ľ à¤°à¤¸
Ġà¤µ à¤¯à¤®
à¤¥ à¤ļ
à¤Ĥ à¤¾
à¤ĸ à¤ľà¤¤
Ġà¤ī à¤¤à¤°à¤¦
à¤°à¤£ à¤ļ
Ġà¤ĩ à¤¥à¤¨
Ġà¥« à¥¦à¥§
Ġà¤ĵ à¤®à¤µ
Ġà¤¹à¤° à¤«à¤®
Ġà¤¬à¤¹ à¤¶
à¤¨à¤¬ à¤ķ
à¤īà¤¦ à¤¯
à¤¾... )
à¤Ĺà¤®à¤¨ à¤¸
it ive
à¤µà¤¨à¤® à¤°à¤£à¤ķ
ĠC D
à¤ªà¤Ł à¤¨à¤²
Ġc ode
Ġà¤ıà¤« à¤ľ
ĠF ilm
Ġà¥©à¥Ń à¥¯
Ġà¥ªà¥© à¥®à¥©
Ð» ÐµÐ½
ist ration
Ġ9 1
ĠĠ Ġ
ill a
à¥¤à¥¤ à¥¤à¥¤
Ġà¤ıà¤²à¤¬ à¤®à¤ķ
ShareTweet Pin
Pl us
ĠÐ¾Ð±Ð» Ð°ÑģÑĤ
b ol
g i
h u
Ġà¤Ĺà¤° à¤ı
Ġà¤Ľ à¤¸à¤®
Ġà¤² à¤ľà¤ķ
à¤ĸ à¤ªà¤Ľ
à¤Ļ à¤Ĺà¤²
Ġà¤ľà¤¨ à¤ħà¤¦
Ġà¤¡ à¤¨à¤²
Ġà¤¸à¤¬ à¤¨à¤®
à¥įà¥¤ âĢĺ
à¤°à¤¬ à¤¦à¤²à¤ķ
à¥© à¥©à¥¦
à¤Ĺà¤² à¤«
Ġà¤ĵ à¤łà¤¹à¤°
Ġà¤Ĩà¤īà¤¨ à¤¬
à¤¾. (
à¤¬à¤² à¤¹à¤°
Ġà¤°à¤ķà¤® à¤Ńà¤¨
à¤¦à¤µ à¤¹à¤°
à¤ıà¤¸ à¤Ī
Ġà¤Ńà¤Ł à¤Ńà¤Ł
in fo
Ġà¤¤à¤² à¤µà¤®
Ġà¤ıà¤² à¤Ł
ĠS P
ic ht
Ġp ublic
ĠC HAT
à¥¦à¥¬ à¥¦
ak m
ir th
ĠW eb
Ġà¥¤" ...
à¤¡à¤Ń à¤ŀ
tern et
ĠÐº Ð¾ÑĤÐ¾ÑĢ
Ġ205 6
eng th
à¤¨à¤Ĺà¤¢ à¤ķ
à¤ĸà¤°à¤² à¤²
ĠEve rest
Ġà¤ıà¤¨à¤ıà¤« à¤Ĩà¤°à¤ıà¤¸
alleng es
A s
M B
U T
Ð ¢
à¤ķ à¤°à¤µ
à¤² à¤¤à¤µ
à¤¯ à¤¶à¤¨à¤®
à¤ª à¤¸à¤¨
à¤µ à¤®à¤ķ
Ġà¤ķ à¤ļà¤¨
Ġà¤Ĺ à¤¯à¤²
Ġà¤Ĺ à¤ĩà¤¦
Ġà¥¤ _
à¤¡ à¤µà¤¤
à¤Ī à¤¨à¤¹à¤°
Ġà¤ļ à¤°à¤ķ
Ġà¤¡ à¤°à¤¤
Ġà¤īà¤ª à¤¸à¤°
à¤®à¤ķ à¤Ł
à¤ļà¤¨ à¤Ńà¤¨
Ġ? à¥¤
Ġà¥Ń à¥¨à¥¦
à¤¹à¤¨ à¤¹à¤°
Ġà¤Ĩà¤ĩ à¤ı
à¤°à¤ĸ à¤®
Ġà¥¨à¥© à¥Ń
à¤Ĩà¤Ī à¤ĵà¤¸
Ġm uch
ou gh
il s
Ġs om
Ð¸ ÑģÑĤ
Ġ19 45
Ġw ell
Ġà¤ķà¤¦à¤® à¤ª
Ġà¤ļà¤°à¤£ à¤¦
lo t
ir t
ĠU p
Ġà¤Ĩà¤Ĺà¤®à¤¨ à¤ªà¤Ľ
Ġà¥¦à¥ª à¥¨
ust om
Ġor gan
|| ~
ĠSh restha
Ð¿ ÑĢ
Ġà¤¤à¤Ļ à¤¨
Ġ~ ||~
ĠBh ojpur
ĠÑĩ ÑĤÐ¾
Ram esh
ĠAnn ounc
Ġclass room
Ġà¤īà¤Ńà¤¯ à¤ļà¤°
F P
m à¤²à¤¹à¤°
à¥ĭ âĢĺ
à¤® à¤¬à¤¨
à¥ģ &
Ġà¤ª à¤ķà¤²
à¤¹ à¤®à¤²
à¤¦ à¤°à¤£
Ġà¤° à¤¸à¤¦
à¥Ī âĢĻ,
à¤§ à¤Ķà¤ªà¤¨
Ġà¤Ĩ à¤ĵ
à¤Ń à¤·
à¤ī à¤Ŀ
à¤¹à¤° à¤ľà¤¨
à¤ĩ à¤Ľà¤¨
à¤ł à¤¯à¤ķ
à¤²à¤ķ à¤®à¤§
à¥Įà¤Ĥ âĢ¦
Ġà¤¹à¤ľ à¤®
Ġà¤īà¤¦ à¤¯à¤¸
Ġà¤¸à¤¨ à¤¤
à¤°à¤ª à¤¹à¤°
à¤°à¤®à¤£ à¤µ
à¤²à¤¸ à¤ľ
à¤Ķ à¤·
Ġm ov
ĠS ource
Ġl ooks
un n
Ġin c
Ġà¤¹à¤¨ à¤¨à¤ķ
à¥§à¥© à¥«
20 12
Ġà¤ıà¤ļ à¤µ
ãĥ «
à¥§à¥¯à¥¯ à¥©
Ġ198 5
Ġà¤Ĩà¤ĩà¤ĵ à¤ıà¤®à¤²
Ġà¤¦à¤¶à¤° à¤¥à¤ķ
overn ment
k o
à¥ĭ âĢķ
à¤Ĺ à¥Ŀ
à¤ı à¤¸à¤°
Ġà¤® à¤łà¤¹à¤°
Ġà¤µ à¤Łà¤¨
à¤ıà¤ķ à¤®
à¤ĩ à¤¬à¤¸
Ġà¤ļ à¤Ļà¤Ĺ
à¤¸à¤® à¤¸à¤®
à¤¸à¤® à¤¯à¤¸à¤®
à¤ĺ à¤·à¤ķ
à¤Ŀ à¤²à¤¨
à¤¬à¤¨ à¤¬
à¤¯à¤¨ à¤ľ
à¤Ĺà¤¤ à¤Ĺà¤¤
Ġà¥ª à¥¨à¥¦
à¤¬à¤° à¤¨
Ġà¤ĵ à¤¥
à¤ĵ à¤¸à¤ķ
Ġà¤ªà¤Łà¤ķ à¤¦
Ġà¥§à¥§ à¥§à¥¨
à¤ıà¤® à¤ıà¤ķ
Ġà¤Ĩà¤Ī à¤ıà¤²
Ġà¤Ĭ à¤ªà¤¶
à¤Ĺà¤¢ à¤²
ad d
Ġà¥¨à¥¬ à¥§
Ġm ail
it le
à¤¸à¤¤ à¤¹à¤®
ĠÐ ĵ
Ġd ist
el o
à¤ĩà¤Ń à¤¸
Ġin s
Ġh ad
us e
op p
Ġ7 1
ĠNews p
Ðº Ð¾
áĥ ł
à¤¾à¥Īà¤ģ à¥¤
co in
Ġà¤¬à¤ļà¤¨ à¤¬à¤¦
ĠØ ¬
Ġà¤¹à¤µà¤² à¤¦
ĠÐ¿ÑĢ Ð¾
ÑĨ Ð¸
Ð¸ÑĤ ÐµÐ»ÑĮ
erv ed
Ġà¤²à¤ļà¤ķ à¤¦
Ġincl ud
ĠSTOR Y
/ âĢĵ
O I
k i
p ut
ä ¿
à¤° à¤ĸà¤²
à¤¨ à¤Ĩà¤ıà¤ķ
Ġà¤ª à¤µà¤°
à¤¦ à¤¤à¤¬
à¤µ à¤īà¤ªà¤°
Ġà¤ķ à¤£à¤ķ
Ġà¤Ĩ à¤¨à¤ķ
à¤¡ à¤¬à¤ķ
Ġà¤² à¤µà¤£
à¤£ à¤¯à¤¸à¤¹
à¤ī à¤¥à¤ķ
Ġà¤¸à¤® à¤°à¤ķ
Ġà¤¥ à¤¯
à¤¯à¤® à¤ĸ
à¤ªà¤¨ à¤¤à¤°
à¤¤à¤° à¤Ĩà¤¤
à¤µà¤° à¤ľà¤¸
à¤¯à¤¨ à¤¯
à¤°à¤µ à¤¬à¤¹
à¤Łà¤¨ à¤ľ
Ġà¤¢ à¤ªà¤ķ
Ġà¤ħà¤® à¤°à¤ľ
Ġà¤ªà¤¦ à¤¸à¤®
à¤§à¤ķ à¤Ł
à¤°à¤ľ à¤µ
Ġà¥¨à¥« à¥ª
re l
re am
à¤Ńà¤ķ à¤°à¤ķ
Ġà¤Ĩà¤ı à¤¤
ĠÐ ĺ
ou d
à¤ĩà¤ķà¤² à¤¸à¤¹
à¤Ĩà¤¯ à¤°à¤²
à¤µà¤¹ à¤¨à¤ķ
Ġà¥ªà¥® à¥¦
Ġà¥ªà¥¬ à¥«
Ġà¥ªà¥¬ à¥§
à¤¹à¤£ à¤¹à¤°
ber s
ĠRe cent
ĠØ ®
Ġ206 5
ĠSp orts
1 07
B yl
N ayakhabar
P oint
R E
Ã ´
Ó ©
Ø ²
æ Ģ
æ Ħ
à¤ķ à¤²à¤ķà¤²
à¤ķ à¤¶à¤ª
à¤® à¤¹à¤¨
à¤¸ à¤°à¤¸à¤°
Ġà¤ķ à¤Ńà¤°à¤®
Ġà¤ħ à¤°à¤¸
à¤¡ à¤®à¤®
à¤Ľ à¤ľà¤¸
à¤ĸ à¤ķà¤®
Ġà¤¯ à¤«
à¤īà¤¨ à¤¨
ĠâĢĺ âĢĻ
... à¥¤
à¥§ à¥¦à¥¨
à¤ľà¤ķ à¤¦
à¤¦à¤¨ à¤µ
Ġà¤¹à¤° à¤°à¤°
Ġà¤ħà¤® à¤¨à¤²
à¤ĥ âĢĻ
Ġà¤¸à¤¯ à¤ľà¤¤
à¤ķà¤°à¤£ à¤ľà¤¸
à¤¦à¤° à¤¬à¤¨
à¤ĩà¤² à¤¨à¤ķ
à¤ıà¤® à¤Ĩà¤°à¤ª
à¤ĩà¤ķ à¤°à¤ķ
à¤¦à¤® à¤ķà¤²
Ġà¤ķà¤ª à¤¨à¤ķ
Ġà¥¨à¥¬ à¥¬
ĠA b
ĠT our
ĠP ati
le ys
ĠI f
ro ad
à¤ģà¥¤ âĢĿ
ĠG eneral
Ġre f
ĠH y
à¤Ļà¤Ĺ à¤£à¤®
ĠK antipur
Ġà¤µà¤¢ à¤¦
à¤ķà¤ħà¤ª à¤ªà¤Ľ
à¥¨à¥¦à¥© à¥¦
Ġsp ecial
Ġus ed
ĠEx am
Ġqu est
ater ial
ãģ¾ ãģĻ
ĠWik imedia
Byl aws
, )
L A
M e
g in
m à¤Ń
m ap
à¥į à¥į,
à¤¨ à¤¦à¤ķ
à¥ĩ ....
à¤¸ à¤µà¤ª
Ġà¤ª à¤±
à¤¹ à¤ħà¤ĺ
à¤µ à¤²à¤¬
à¤Ĺ à¤°à¤¤à¤°
à¤ļ à¤Ķ
à¤Ļ à¤ķà¤²
à¤¯à¤¨ à¤¤à¤°
à¤Ĩ à¤Ļà¤²
à¤¤à¤® à¤Ńà¤ķ
à¤Ĺà¤² à¤¸à¤®
à¤¬à¤° à¤Ń
Ġà¤¬à¤° à¤Ĺ
à¤¯à¤° à¤¨
Ġà¥Ń à¥§à¥¦
à¤¾à¥ĩ à¤Ĥ
à¤µà¤¤ à¤¤
Ġà¥¨à¥§ à¥¦à¥¦
Ġà¥¨à¥¨ à¥©
Ġà¥¨à¥® à¥§
ĠS ing
it ch
à¤Łà¤°à¤ķ à¤¹
ĠP a
Ġs l
Ðµ Ð»Ð¸
Ġd on
ĠG e
à¤¨à¤Ĺ à¤ª
à¤¨à¤Ĺ à¤Ī
Ġà¥®à¥ª à¥¦
Ðº Ñĥ
ong s
ĠCh allenge
Ġ= >
cl aim
Ġint ent
ident ified
H acked
N C
S aturday
o om
y an
Î »
æ ³
ç ´
à¤¨ à¤¤à¤°à¤£
à¤¨ à¤ĩà¤ļ
à¤ı à¤¸à¤Ń
à¤ı à¤Łà¤°à¤²
Ġà¤¹ à¤°à¤¸
Ġà¤µ à¤¸à¤®
Ġà¤¤ à¤¹à¤°
à¤£ à¤¨à¤ķ
Ġà¤ıà¤ķ à¤§
Ġà¤¸à¤¹ à¤¤
Ġà¤īà¤ª à¤¸à¤¨
à¤°à¤¦ à¤¹à¤®
à¥§ à¥¨à¥¦
à¥ĭà¥¤ )
à¤¤à¤® à¤ª
à¤µà¤² à¤¦
à¥į, "
Ġà¥¨à¥¦à¥Ń à¥®
Ġà¤ħà¤ª à¤ł
à¤ªà¤² à¤¡
à¤®à¤¦ à¤¯
Ġà¤µà¤¨ à¤¸à¤®
ar oo
à¥ĩà¤Ĥ -
Ġà¥¨à¥® à¥®
ĠS chool
Ġl ocal
à¤īà¤¤ à¤¸
ĠA ward
à¤«à¤ķ à¤¦
il ly
ĠC S
ĠM ang
Ġà¤īà¤ªà¤ķà¤°à¤£ à¤¸à¤¹
Ġn a
Ġà¤Ńà¤ĩ à¤ıà¤²
ĠE arth
à¥¦à¥« à¥§
ĠO lder
Ġà¤Ĺà¤ľà¤² à¤¸
ãģ ł
ak es
à¤Łà¤°à¤¬ à¤°
Ġà¤¸à¤ĸ à¤¡
ĠÐ¿ Ð¾Ð»
ĠSt ar
ld quo
Ġ198 4
ĠÐº Ð¾Ð½
ĠÐ¿ÑĢ ÐµÐ´
ĠUn ion
çĶ ¨
Ġà¤°à¤¹à¤¨à¤¸à¤¹ à¤¨à¤ķ
oci ety
ĠEle ct
Ġà¤¬à¤ķà¤¸ à¤ªà¤¤
Aug ust
ĠScorp ion
V i
f itting
m as
v ers
Ê »
æ ²
à¤° à¤°à¤®
à¤¸ à¤¸à¤®à¤ķ
à¤ª à¤ľà¤¨
Ġà¤° à¤Ĺà¤ķ
à¤ı à¤Ĩà¤ĩà¤ľ
Ġà¤Ĩ à¤ŀ
à¤Ń à¤°à¤¹à¤°
à¤ĩ à¤¸à¤¹à¤°
à¤¢ à¤¹à¤°
à¤Ĺà¤° à¤¸à¤®
à¥Įà¤ģ ?
à¤¨à¤¸ à¤ªà¤Ľ
Ġà¤ĩà¤¨ à¤¬à¤ķ
Ġà¤ħà¤² à¤¸
Ġà¤Ī à¤¨à¤°
à¤ªà¤¦ à¤¬
om an
à¤°à¤ĸ à¤¬à¤¹
ad h
Ġà¤¨à¤µ à¤Ĩà¤Ĺà¤¨
Ġà¤Ĺà¤² à¤¬à¤¨
à¥Įà¤Ĥà¥¤ "
ĠN RNA
Ġs i
Ġf ollow
ĠF rom
ĠF irst
à¤¾à¥Ī âĢĮà¤Ĥ
ÑĤ ÐµÑĢ
Ġw here
ĠE l
ĠL eave
à¤ıà¤ļ à¤ĵà¤²
à¸ ļ
ĠV al
Ġ8 1
ÐµÐ ±
ĠÃ Ľ
à¥¨à¥¦à¥© à¥«
à¤¸à¤ı à¤ªà¤®
De v
A r
P rab
f r
l ist
É ª
é ĸ
à¤¨ à¤¬à¤²
à¤ķ à¤Ļà¤ķ
à¤¤ à¤Ŀ
Ġà¤¸ à¤¸à¤¸
à¤¹ à¤ªà¤ŀ
à¤Ł à¤īà¤ªà¤Ĺ
Ġà¤Ń à¤īà¤ķ
à¤ľ à¤®à¤®
à¥¤ âĢľ
Ġà¤ĺ à¤¨à¤ª
Ġà¤ľà¤¨ à¤ľà¤¨à¤®
à¤²à¤¯ à¤¸à¤®à¤ķ
à¤·à¤ķ à¤ħà¤¨
à¤§à¤¨ à¤§
Ġà¤ħà¤² à¤ľà¤ľ
Ġà¤¬à¤ļ à¤¤à¤²
Ġà¤ķà¤¥ à¤¨à¤ħà¤¨
Ġà¥§à¥® à¥ªà¥®
Ġà¤Ĩà¤Ī à¤ĵà¤ıà¤¸
Ġà¤¶à¤¹à¤° à¤¤
à¤ķà¤µ à¤¹
ĠÐ £
ĠD ocuments
Ġà¥©à¥¨ à¥©
à¤°à¤ļà¤²à¤¨ à¤¸à¤®
ĠE arly
à¤°à¤ľà¤¨ à¤¬
ĠL iving
ĠCom ment
Ġch allenges
ïģ ¬
Ġal low
à¥ħ à¤Ĥ
à¤°à¤®à¤Ń à¤Ļ
Ġ________ ____
à¤ĩà¤¨à¤ĸà¤¬à¤°à¤ķ à¤°
Ã£ o
ĠSupport ing
& #
N ot
P P
S M
i ans
w a
ç §
Ġ ict
à¤ķ à¤īà¤¤
à¥ģ Â·
à¤¸ à¤¸à¤Ń
à¤¸ à¤ľà¤¨à¤ķ
à¤Ł à¤ı
Ġà¥¤ âĢĵ
à¤¬ à¤ķà¤¹à¤°
à¤¶ à¤Ł
à¤¡ à¤¸à¤¨
à¤Ī à¤¡à¤®
à¥Ĥ !
Ġà¤¯ à¤Ļ
à¤ĺ à¤Łà¤ķ
Ġà¤ıà¤ķ à¤¦à¤°
à¤¤à¤° à¤ªà¤Ľ
Ġà¤ªà¤¦ à¤ķà¤¬
à¤ľà¤® à¤§
Ġà¥¦ à¥¨à¥®
à¥ĩà¤ģ âĢĻ
Ġà¤¨à¤µ à¤°à¤¤
Ġà¤ĭà¤£ à¤Ń
Ġà¤¸à¤¹à¤° à¤Ń
à¤Ĩà¤Ī à¤®
Ġp rom
ĠT ib
ĠP u
ĠM er
à¤·à¤¬ à¤¢
ĠI T
Ġt ext
Ġo wn
em d
em y
Ġà¤Ńà¤ĩ à¤Ľ
à¤Ĩà¤ĩ à¤ıà¤¨à¤ľ
ĠL and
Ġà¤ĵà¤® à¤¨à¤®
ia ble
Ġe Bay
Ġ7 4
Ġv alue
Ġà¤²à¤ĸ à¤ªà¤¤
ĠÙ ¾
Ġal ert
Ġ197 9
Ã¡ n
ĠEp isode
tro fitting
U K
Ê ¼
Ø ¬
Ġ ___
à¤¨ à¤ªà¤²
Ġà¤¸ à¤¶à¤¤
à¤Ł à¤µà¤¯
Ġà¤® à¤²à¤Ĺ
à¤ľ à¤¶à¤¬
Ġà¤¦ à¤¥
à¤Ī à¤ķà¤°
à¤Ī à¤ħà¤¨
à¤Ī à¤¬à¤¹
à¤« à¤¤à¤²
Ġà¤ı à¤¦
Ġà¤« à¤°à¤¹
à¤ľà¤¨ à¤¸à¤Ļ
à¤ĩà¤¨ à¤¸à¤¹
à¥§ à¥©à¥¦
à¤²à¤¯ à¤ħà¤Ĺ
à¥© à¥¨à¥¦
Ġà¤¸à¤¦ à¤Ĺà¤¤
Ġà¥§à¥¯ à¥§à¥¯
à¥¦à¥Ń à¥Ń
à¤ķà¤¸ à¤ªà¤®
Ġà¤¨à¤ķ à¤Ĩà¤īà¤Łà¤ķ
Ġà¥¦ à¥§à¥ª
Ġà¥¦ à¥©à¥Ń
à¤ªà¤£ à¤¬
à¤§à¤¨à¤ķ à¤°
Ġà¥¨à¥ª à¥©
à¤ĩà¤¨à¤² à¤Ńà¤¨
à¤ķà¤µ à¤ļ
à¤ļà¤¨à¤® à¤¯
Ġà¤°à¤¸ à¤Ĺ
ĠD el
Ð° ÑĪ
ĠB eauty
ĠF in
ĠF lying
Ġ19 75
id a
ĠE Y
à¤Ĩà¤ĩ à¤ıà¤²
à¤Ĺà¤µ à¤¤à¤®
à¤¤à¤ľà¤¨ à¤¬
Ġst ress
Ġpro pert
Ġ.... .....
Ð½Ð¾ÑģÑĤ Ð¸
ĠKang aroo
âĸ ł
ĠWeek ly
7 1
B y
b all
c mugu
c ause
o on
Ã ±
Ġ ÑĨ
à¤° à¤ī
à¤² à¤ħà¤Ĺ
à¥Ģ âĢĺ
à¤Ł à¤°à¤¹
à¤ı à¤ľà¤¬
Ġà¤µ à¤µà¤¶
Ġà¤ı à¤ıà¤¨à¤ıà¤ķ
à¤Ļ à¤Ĺà¤°
à¤¨à¤® à¤¯
à¥Įà¤Ĥ (
à¤ķà¤² à¤¯
Ġ( -
à¤¯à¤¨ à¤Ĺà¤°
à¥ĭ, "
Ġà¤īà¤¦ à¤¯à¤¦
à¤¬à¤° à¤ľà¤¸
à¤¨à¤¸ à¤°à¤¹
à¤ıà¤¨ à¤Ľ
Ġà¤Ĩà¤® à¤µ
Ġà¤¨à¤® à¤ĸ
à¤®à¤ļ à¤¤
à¤¥à¤² à¤µ
Ġà¤Ī à¤Ĺ
à¤²à¤µ à¤ľ
à¤Ńà¤µ à¤¹
à¤¯à¤£ à¤¦à¤¤
à¤°à¤¥à¤® à¤ªà¤Łà¤ķ
ĠA vailable
Ġà¥©à¥§ à¥©
Ġà¤¬à¤¡ à¤ĺà¤°
à¤µà¤ķà¤ª à¤ªà¤Ľ
Ġà¤¶à¤µ à¤ªà¤°
Ġd tom
el le
Ġà¥ªà¥¯ à¥®
Ġà¤ľà¤Ĺà¤¤ à¤¸
ak er
ĠV ote
dc cmugu
à¥ĩâĢĶ âĢĺ
à¥¨à¥¦à¥© à¥®
Ġ205 4
con on
In fo
Ġà¤ľà¤®à¤ĺ à¤Łà¤²
Ġhello ddcmugu
Ġhello dccmugu
Ġddc mugu
âĻ ¦
Ġà¤¨à¤ĵ à¤ĩà¤²
cont ent
empl ate
Ġdtom ugu
, à¥¤
2 075
: ,
F l
Q L
Q u
j i
m ang
p and
Å Ļ
å ĳ
Ġ Ñı
à¥į ),
Ġà¤¨ à¤°à¤Ń
Ġà¤® à¤ĺ
à¤¶ à¤²à¤®
Ġà¤Ĩ à¤¸à¤²
Ġà¤ľ à¤Ĺà¤°à¤¨
à¤Ī à¤ıà¤²
Ġà¤Ńà¤¨ à¤ķ
Ġà¤ħà¤¨ à¤²à¤ķ
à¤ĺ à¤¶
à¤¤à¤° à¤µà¤°
Ġà¤µà¤° à¤ª
à¥Įà¤Ĥ à¤ģà¥¤
à¤ĩà¤¨ à¤Ľ
Ġà¤ķà¤° à¤Ļ
à¤µà¤¨ à¤Ń
Ġà¥® à¥¦à¥¦à¥¦
Ġà¥¯ à¥§à¥¯
à¤ľà¤² à¤ľ
Ġ2 10
Ġà¤ĺà¤Ł à¤ķà¤²
Ġà¤Ńà¤µ à¤¨à¤²à¤Ĺ
re ed
Ġà¤Ńà¤Ī à¤¯
Ġà¤Ĩà¤Ī à¤ıà¤ķ
Ġà¥¨à¥§ à¥§
Ġà¤¸à¤¡ à¤¨
Ġà¤®à¤¦ à¤¤à¤²
à¤µà¤¶ à¤°à¤£
à¤ħà¤¸ à¤Ī
Ġm et
ĠP at
ĠM ysansar
Ġà¥©à¥© à¥§
Ġà¥©à¥© à¥©
Ġf ound
ĠB est
Ð½ Ð¾Ð¼
Ġà¥«à¥® à¥¦
Ġ7 44
ĠSt ay
à¥§à¥¯à¥¯ à¥«
ÐµÐ½ ÑĮ
ÙĨ Ø¯
ãģĹ ãģ¦
ÐµÐº ÑĤ
ïĥ ¼
Ġà¤Ŀà¤ªà¤Ł à¤¬à¤¹
Ġpres erve
ĠJohn ny
uth or
ĠKhan e
/ >
8 3
T r
] à¥¤
h m
s ub
Ï ģ
Ġ ist
à¤¨ à¤¦à¤°
à¤¨ à¤ħà¤ª
à¤ķ à¤Ĩà¤¸
à¥Ģ ....
à¤¸ à¤Łà¤²
Ġà¤ª à¤Ń
à¤ª à¤Ńà¤°
à¤ı à¤Łà¤ķ
Ġà¤® à¤Ĺà¤°à¤®
à¤¶ à¤¯à¤¹à¤°
Ġà¤Ĩ à¤ľà¤¨
Ġà¤¶ à¤°à¤¤
Ġà¤ħà¤¨ à¤¸à¤¨à¤²
à¤Ļ à¤®à¤§
à¤¯à¤¤ à¤Ń
à¤°à¤¹à¤° à¤ķ
à¤²à¤¯ à¤ĸà¤µà¤°
à¤°à¤µ à¤¬
à¤¸à¤¨ à¤§
à¤·à¤ķ à¤¤à¤¤
Ġà¥ª à¥©à¥¦
à¤µà¤¤ à¤µ
Ġà¤Ĩà¤® à¤ª
Ġà¤ıà¤® à¤Ĩà¤°
à¤ļà¤ķ à¤¸
à¤°à¤¨ à¤¦
Ġà¤ıà¤¨ à¤Ĩà¤Īà¤¡
à¤ĩà¤¸ à¤¯
Ġà¤ľà¤² à¤īà¤¤
Ġm en
Ġm it
ĠS at
ĠN TC
à¤ĩà¤ķà¤² à¤¹à¤°
ĠP vt
ĠM on
Ġa uf
à¤¯à¤°à¤ķ à¤ª
Ġo p
Ġw eek
un ction
ĠG ad
à¥¦à¥ª à¥®
Ġà¥®à¥ª à¥«
os h
à¦ ¤
Ġpro ject
Ø± ÛĮ
av as
Ġ205 2
Ġex per
ĠðŁ ĺ
nar conon
Ġà¤¦à¤²à¤¬à¤² à¤¸à¤¹
roll ment
, (
G A
r as
t op
Ë ļ
à¤¨ à¤Ĩà¤īà¤¨
à¥ĩ à¥ĭ
à¥ģ âĢį
Ġà¤¸ à¤Ļà¤ķ
à¤¦ à¤¬à¤ľ
Ġà¤° à¤ħà¤ķ
à¤Ł à¤ķà¤®à¤²
Ġà¤¨ à¤¸à¤¦
Ġà¤¹ à¤²à¤Ĺ
Ġà¤¦ à¤¸à¤µà¤Ł
à¤ģ ?
à¤ļ à¤§
à¤¡ à¤¸à¤°
à¥Ĥ âĢĶ
à¤ī à¤¥à¤µ
Ġà¤« à¤¨à¤ķ
à¤ªà¤¨ à¤¤
à¤§à¤¨ à¤Ńà¤¨
Ġà¤¸à¤¯ à¤¬
Ġà¤ħà¤¬ à¤Ĺà¤¤
à¥įâĢ º
à¤°à¤¨ à¤¬
à¤ıà¤¸ à¤Ĩà¤°
à¤¨à¤ª à¤¹
à¥Ī, âĢĻ
ar ge
at al
Ġà¥¨à¥® à¥¯
à¤Łà¤¬ à¤ķ
Ġà¤Ńà¤ıà¤¨ à¤Ľ
Ġp oint
ĠD ocument
à¥ģà¥¤ à¥¤
ĠT v
ĠP ok
is ion
à¤ģ, '
ĠB ack
ĠB hak
ĠF ear
à¥§à¥ª à¥ª
un t
à¥¦à¥« à¥¯
ve y
Ġg e
Ñĭ Ð²
Ġà¤ıà¤¸à¤ıà¤®à¤ıà¤¸ à¤¬
ĠOn e
Ġà¤®à¤²à¤® à¤ªà¤Ł
ĠÐ´ Ð¸
able d
ĠUn ited
ild ren
________________ ____
à¤ħà¤®à¤° à¤Ĺà¤¢
bo ard
Ġà¤¸à¤¤à¤² à¤ľà¤²
Ġprov ide
è¿ Ļ
urre nc
Ġprovid ed
ïĤ §
amj ung
r akar
s ych
u ance
æ Ĭ
à¤° à¤ĩà¤Ļ
à¤¤ à¤¹à¤®
Ġà¤ª à¤¶à¤¨
à¤Ł à¤¸à¤¨
à¤ı à¤Īà¤¦
Ġà¤¹ à¤²à¤¨
Ġà¤Ĺà¤° à¤ıà¤ķ
Ġà¤¤ à¤¡à¤ª
à¤¥ à¤Ń
à¤¡ à¤Łà¤ķà¤®
à¤¡ à¤°à¤µà¤²
à¤ĸ à¤Ĺà¤°
à¤ī à¤²à¤Ĺ
Ġà¤¸à¤® à¤ªà¤°
à¤« à¤ľ
à¤ĺ à¤ľà¤¸
Ġà¤®à¤¹ à¤¬
Ġà¤ħà¤° à¤¬à¤¸
Ġà¥Ń à¥¦à¥¦à¥¦
Ġà¤ĩà¤¨ à¤«
Ġà¤¬à¤¹ à¤¸à¤¬
à¤¦à¤µ à¤¦
Ġà¥§à¥ª à¥§à¥«
Ġà¤Ĩà¤ª à¤¸à¤ķ
à¤¤à¤°à¤ķ à¤¹à¤°
Ġm edia
à¤§à¤¨à¤® à¤§
Ġf riend
à¤ħà¤ª à¤µ
âĢĮ .
Ġw ar
à¤°à¤ļà¤²à¤¨ à¤ħà¤¨
à¤¯à¤°à¤® à¤§
Ġh ome
Ġà¥©à¥¯ à¥¦
à¤¦à¤¨à¤² à¤Ĺ
he emd
Ġ6 7
ĠW ork
ig en
à¸ «
à¤¸à¤¡à¤ķ à¤¦
Ġg cu
iv er
à¤ıà¤ľà¤¸ à¤°
Ġent er
==== ====
rish na
heemd att
Ġgcu i
G au
m itt
w eb
à¤ķ à¤¸à¤¹à¤°
à¤¸ à¤Ĩà¤°
Ġà¤¬ à¤°à¤¸
Ġà¤ħ à¤°à¤®
à¤§ à¤¯à¤ķ
à¤ļ à¤¹
à¤Ī à¤¹à¤ª
Ġà¤®à¤¨ à¤Ľ
Ġà¤ĩ à¤¯à¤°à¤ķ
à¤Ĩ à¤µà¤¦
à¤ķà¤° à¤¸à¤®
Ġà¥ª à¥§à¥¨
à¤¿à¤Ĥ ,
Ġ| âĢĿ
à¤¹à¤¨ à¤¤à¤®
à¤£à¤¯ à¤¬à¤®
Ġà¥§à¥¯ à¥©à¥Ń
à¤¨à¤¬ à¤¸
Ġà¥¤âĢĻ âĢĵ
à¤¨à¤Ĺà¤° à¤ªà¤²
à¤®à¤¦ à¤¬
Ġà¤Ĩà¤Ī à¤Łà¤®
à¥ĩà¤ģ ;
Ġà¤Ńà¤¤ à¤Ńà¤¤
à¤ĩà¤¡ à¤°à¤ķ
st er
th ing
ĠT raining
ĠM ira
à¥§à¥« à¥¦à¥¦
Ġà¥©à¥Ń à¥¨
ĠH ar
à¤ıà¤ļ à¤ıà¤²
Ġà¥¬à¥ª à¥«
Ġà¥¯à¥« à¥§
à¥ĩ? '
Ġà¥Ńà¥¬ à¥«
ik o
ab in
Ġpro ble
à¥§à¥¯à¥¯ à¥ª
ä¸ ª
Ġ206 2
rad u
Ġ197 8
Ð½Ð¸ Ðº
áĥĺáĥ ¡
Nispak hya
Ð½Ð¾ÑģÑĤ ÑĮ
off ee
Ġdeb uting
Health y
L PG
m ysansar
y ou
Ã Ī
å Ĵ
à¤° à¤Ĩà¤ĸ
à¤ķ à¤łà¤®
à¤® à¤¸à¤Ń
Ġà¤¸ à¤Īà¤ķà¤²
Ġà¤ķ à¤¸à¤®à¤¸
à¤Ĺ à¤ľà¤¨
à¤ı à¤ıà¤«
Ġà¤ħ à¤µà¤¨à¤¤
à¤§ à¤¤à¤°
à¤Ī à¤«à¤ķ
à¥Ĥ ?
à¤Ń à¤«à¤²
à¤ī à¤¯
Ġà¤ı à¤¸à¤²
Ġà¤¬à¤¢ à¤Ľ
à¤µà¤° à¤¬à¤¦
Ġà¤Ĩà¤° à¤¡
Ġà¥ª à¥Ńà¥«
Ġà¤ĵ à¤ĩ
à¤ĥ )
Ġà¤¸à¤®à¤¯ à¤ªà¤¶
Ġà¥® à¥§à¥¯
à¤ķà¤¨ à¤¦
à¤ķà¤¨ à¤ľ
Ġ20 22
à¤Ķ à¤°
à¤¥à¤µ à¤°à¤¸
ĠS urgery
ou l
ĠC ap
ĠM a
ĠM essage
Ġn on
Ġin terest
ãģ ĵ
Ġà¥ªà¥Ń à¥¦
Ġà¤Ĩà¤īà¤Ł à¤®
Ġà¥«à¥Ń à¥¦
ra z
à¤Łà¤¦ à¤²à¤®
áŀ ļ
og raph
ĠEn ter
orp or
Ad d
ĠGork h
dis play
ĠOri entation
F O
L ocation
è ´
ô Ģ
à¤¤ à¤Ľà¤¨
à¤¦ à¤®à¤§
Ġà¤Ĺ à¤µà¤°
Ġà¤° à¤¸à¤¸
Ġà¤¨ à¤®à¤ķ
Ġà¤¨ à¤°à¤Ńà¤ķ
à¤ľ à¤§à¤¨
Ġà¤ħ à¤¶à¤²
à¤§ à¤¹
à¤§ à¤°à¤¸
Ġà¤¤ à¤Łà¤¹à¤°
Ġà¤¤ à¤°à¤¹à¤²
Ġà¤Ĩ à¤Ĺà¤¤
Ġà¤² à¤²à¤¨
à¤ĸ à¤ľà¤¸
à¤ī à¤ľà¤®
Ġà¤ı à¤¨à¤µ
Ġà¤ľà¤¨ à¤¦
à¤¯à¤® à¤¬à¤®
à¤ªà¤¨ à¤¨
Ġà¤¸à¤¹ à¤ĩà¤ŀ
à¤¯à¤¤ à¤¹
à¤°à¤¦ à¤¯
à¤ķà¤® à¤¤
à¤²à¤¨ à¤ľà¤¸
à¤®à¤¨ à¤ªà¤°
à¤Ĺà¤² à¤¤à¤°
Ġà¤¹à¤° à¤«à¤²
à¤ĵ à¤Ĩà¤°à¤ķ
à¤²à¤Ĺ à¤¸
à¤²à¤Ĺ à¤ª
à¤ľà¤¸ à¤¬
Ġà¤ħà¤¬ à¤®
à¤ľà¤® à¤¨à¤²
Ġà¤Ĩà¤ĩ à¤ıà¤²
à¤°à¤¨ à¤µ
Ġà¤§à¤¨ à¤²à¤ķ
Ġà¤¨à¤ľ à¤¦
Ġà¤ľà¤Ĺ à¤¤à¤°
Ġà¤ªà¤°à¤® à¤ªà¤°
on y
Ġà¥§à¥® à¥®à¥¬
à¤®à¤£ à¤°
Ġà¤ıà¤² à¤ıà¤²à¤¸
ĠS ar
ĠS ol
ĠN orth
à¤Ĺà¤£ à¤¹à¤°
Ġ19 81
Ð½ Ñı
un a
ĠE urope
à¥¦à¥§ à¥«
Ġ4 50
Ġ7 9
à¤ĩà¤²à¤® à¤ķ
Ġà¥®à¥¯ à¥Ń
ly wood
Ġpro cess
Ġde ath
Ġà¤¦à¤¶à¤°à¤¥ à¤ª
à¨ °
ĠÑģ Ð»
ĠVi jay
Ġsp ec
Ġà¤°à¤ĸ à¤µ
we en
à¤ķà¤ħ à¤ªà¤²
Ġà¤Ńà¤Ĺà¤¤ à¤ª
cl us
St ory
ĠCont act
ARL ESS
Ġà¤ħà¤¨à¤Ļ à¤Ĺà¤¨
ĠKang mang
Ġcommunic able
Ġleg acy
ĠChit rakar
ĠTE ARLESS
hup ada
ĠAnnounc es
Prab hupada
ĠEY ES
avas cript
ĠFear ism
" .
A ll
N O
P C
t apur
Ä ģ
à¤° à¤ħà¤¸
à¤ķ à¤°à¤¸à¤¹
à¤® à¤ªà¤£
Ġà¤¸ à¤¸à¤¦
Ġà¤ª à¤¤à¤¨à¤ªà¤Ľ
à¤¹ à¤²à¤¬
Ġà¤¬ à¤ķà¤µ
Ġà¤¬ à¤ķà¤¬
Ġà¤® à¤ĩ
Ġà¤ħ à¤Łà¤µ
Ġà¤¤ à¤ķà¤Ńà¤°
à¤¥ à¤²à¤¤
à¤¡ à¤¦à¤°
à¤Ń à¤¯à¤ķ
à¤ī à¤¤à¤¬
à¤ī à¤¡à¤¬
à¥ĥ .)
.. âĢĻ
à¤Ŀ à¤¨à¤ķ
à¤°à¤¦ à¤ªà¤Ľ
Ġà¤Ńà¤ı à¤¥
Ġà¥ª à¥§à¥§
à¤¿à¤Ĥ à¤Ĥ
à¤§à¤¨ à¤ªà¤¶
à¤¤à¤² à¤¹à¤°à¤²
Ġà¥§à¥¦ à¥¦à¥®
à¤¤à¤°à¤£ à¤²à¤Ĺ
ĠâĢĵ âĢĵâĢĵ
Ġà¥¨à¥Ń à¥®
ĠS il
ĠS ik
it ening
ep h
ĠD o
ĠC al
ĠP ar
ĠI I
ent al
Ġth en
ĠO ut
à¤īà¤ľ à¤°à¤¹à¤°
ĠH ow
Ġà¥¬à¥ª à¥¦
Ġà¤ķà¤¦ à¤®à¤ļ
ĠW est
à¤Ĩà¤ł à¤°
à¥¨à¥¦à¥¨ à¥«
Ġ.. ??
Ġpro duct
ue st
az on
Ð½Ñĭ Ð¼
ÑģÐº Ð¸Ð¹
ition al
Ġà¥¨à¥¦à¥® à¥¨
row n
ĠHe alth
ĠBo ard
åĽ ½
ĠOb ject
claim er
F S
M M
m of
n es
à¥Ģ âĢĿ,
Ġà¤¸ à¤¬à¤¨
Ġà¤¸ à¤Łà¤°à¤®
Ġà¤Ĺ à¤¤à¤ķ
Ġà¤¨ à¤ħà¤¸
Ġà¤¨ à¤īà¤®
Ġà¤¦ à¤¹à¤¬
à¤£ à¤¹
à¤£ à¤¦à¤²
à¥Ĥ à¤¿
Ġà¤ļ à¤¯à¤¨à¤²
à¤« à¤¤à¤ķ
Ġà¤ªà¤° à¤¤
Ġà¤Ł à¤µ
à¤¯à¤¤ à¤²à¤Ĺ
Ġà¤ħà¤¸ à¤¨à¤ķ
à¤Ĩ ËĨà¤¨
Ġà¤Ŀ à¤ªà¤ķ
à¥Įà¤ģ âĢĮ
Ġà¥Ń à¥¨à¥«
Ġ! ''
à¤ıà¤¸ à¤°à¤¹
à¤°à¤ľ à¤Ĺà¤¤
à¤²à¤µ à¤¬
al ax
Ġ20 30
Ġà¤Ĩà¤Ī à¤ıà¤®à¤ı
Ġà¤Ĭ à¤ª
à¥ĩà¤ģ âĢĶ
Ġl og
ĠD em
ĠM ind
à¤ıà¤« à¤ıà¤¸
Ġà¥«à¥« à¥©
ro l
et er
Ġà¤ıà¤¡ à¤ª
ĠR at
ĠR aj
Ġw rit
Ġà¥ªà¥¨ à¥«
Ġin st
ul ip
Ġà¤¨à¤¹à¤° à¤¬
Ġà¤Ĺà¤Ĺà¤¨ à¤Ĺ
30 5
Ġà¥¦à¥ª à¥©
log y
Ġà¤Ĩà¤¯à¤ķ à¤°à¤®
à¤°à¤µà¤£ à¤¶à¤ķ
anc er
Ġsh ould
à¤ĵà¤Ńà¤° à¤Ł
ĠBl ue
Ġáĥ Ľ
Ġres ult
Ð°Ð¹ ÑĤ
) ",
D C
h ell
u an
v ir
{ {
æ Į
à¤ķ à¤ĵà¤Ńà¤°
à¤® à¤µà¤¨
à¤¤ à¤Ńà¤ıà¤ķ
à¤Ĺ à¤Ŀ
à¤Ł à¤£
Ġà¤¨ à¤ªà¤²
à¤ı à¤ıà¤¸
Ġà¤¬ à¤Łà¤²à¤°
à¤¬ à¤£
à¤¬ à¤°à¤¹
Ġà¤Ĩ à¤®à¤ķ
à¤Ī à¤£
à¤Ī à¤Ĩà¤Īà¤ı
à¤ĸ à¤ıà¤ķ
Ġà¤ªà¤° à¤ļ
à¥ĥ à¥ĩ
à¤°à¤£ à¤°
à¤ľà¤¨ à¤¹
Ġà¤ĺ à¤°à¤¸à¤¹
Ġà¤¸à¤ķ à¤¸à¤ķ
Ġà¤ªà¤¹ à¤²à¤µ
à¤°à¤µ à¤ļà¤¨à¤®
Ġà¥« à¥Ńà¥«
à¤®à¤¨ à¤¶
à¤¶à¤¨ à¤Ń
Ġà¤¬à¤° à¤ª
à¤¿à¤Ĥ .
Ġ| ...
âĢĿ :
à¤£à¤ķ à¤Ł
à¤ķà¤ª à¤ª
à¤¨à¤µ à¤¯
Ġà¤Ńà¤ıà¤° à¤ªà¤¨
Ġà¥«à¥¦ à¥¦à¥¦à¥¦
Ġà¤ķà¤µ à¤¯à¤¤
à¤¯à¤£ à¤¦
Ġà¤µà¤¨ à¤Ĺ
à¤Ļà¤® à¤¯
Ġ20 27
à¤¯à¤Łà¤¨ à¤¦
à¥Įà¤ģ, '
Ġà¥¨à¥¯ à¥ª
Ġà¤¦à¤¶à¤ķ à¤¹à¤°
ĠM ac
ĠM um
Ġs he
à¤ıà¤« à¤ľ
Ġà¤Ĺà¤ľ à¤²à¤¬
Ġà¤łà¤¹à¤° à¤¸à¤¹
ĠI N
ĠI OS
Ð¸ Ñĩ
à¥¦à¥« à¥®
ĠL PG
Ġà¥©à¥¯ à¥§
à¥§à¥¬ à¥Ń
Ġà¥Ńà¥¬ à¥§
à¸ ¸
à¸ ģ
Ñĥ Ñģ
à¤°à¤«à¤²à¤® à¤§
à¤®à¤ĸ à¤®à¤²
Ġde v
Ġà¤Ĺà¤¡ à¤ıà¤¨
à¥§à¥¯à¥¯ à¥Ń
ï¼ ļ
Ġà¤ĵà¤ĸ à¤°à¤¬
Ġà¤¶à¤ª à¤¥à¤ķ
DR MP
FI LE
ĠPRO FILE
Ġà¤ıà¤¸à¤ıà¤² à¤Ĩà¤°
ĠIss uance
m à¤Ł
m nt
p ect
v ed
æ ł
ç ¤
Ġà¤ İ
à¤° à¤·à¤£
à¤° à¤ľà¤Ĺ
à¤° à¤ħà¤²
à¤¨ à¤°à¤¸à¤¹
à¤ķ à¤¨à¤²à¤Ĺ
à¤¿ &
à¤¯ à¤ļà¤¨
Ġà¤° à¤ľà¤¶
à¤ģ à¥ģà¤Ĥ
à¤ļ à¤«
à¥Ĥ âĢ¦
à¤¤à¤° à¤¦à¤ķ
Ġà¤¸à¤¬ à¤°
à¥ĭà¥¤ à¥¤
à¤¤à¤® à¤¨à¤¸
à¤¬à¤° à¤«
à¤Łà¤® à¤¯
Ġà¤®à¤² à¤¸
à¤ıà¤¨ à¤ıà¤®à¤¸
à¤°à¤ľ à¤¬
Ġ1 75
al inch
Ġà¤Ĩà¤ľà¤ķ à¤²à¤ķ
Ġà¥¨à¥® à¥¬
à¤ĸà¤¨ à¤¨à¤®
ad o
ad ams
Ġà¤¦à¤¸ à¤µà¤°
Ġp our
Ġà¤¨à¤Ĺà¤¦ à¤°à¤¹
Ġs ol
Ġà¤¤à¤²à¤¬ à¤¸à¤¹
à¤·à¤ķà¤² à¤Ĺ
el low
ÑĢ Ð¾Ð²
ĠG h
ãģ į
à¥¦à¥ª à¥Ń
Ġà¤¨à¤¹à¤° à¤²
ĠIn st
áĥ ķ
Ñĭ Ð¹
à¥ģ... à¥¤âĢĿ
à¤¾" ,
à¤°à¤ķà¤°à¤£ à¤¸
à¤¾à¤¿ à¤¿
Ġcon c
Ġpl c
itt le
Ä± n
ĠMan ang
ĠEn rollment
ĠÄ ĳ
è¡ Į
ĠBit coin
çĲ Ĩ
ĠBhak tapur
mnt v
alinch owk
g har
Ã Ł
Ð ķ
à¥į Ã·
à¤ķ à¤¶à¤¤
à¤² à¤ľà¤µ
à¤¯ à¤Ŀ
à¤ª à¤µà¤¨
à¤ı à¤ıà¤®à¤¸
à¤¬ à¤®à¤§
à¤£ à¤¨à¤²
âĢ ¨
Ġà¤¯ à¤¯
Ġà¤¸à¤® à¤¥à¤²
Ġà¤ļ à¤ķà¤Ł
à¤īà¤¨ à¤Ł
Ġà¤ıà¤ķ à¤²à¤®
à¤²à¤ķ à¤ļ
Ġà¤ľà¤¨ à¤°à¤²à¤ķ
à¤¯à¤¤ à¤¦
à¤¯à¤° à¤Ĺ
à¤ķà¤°à¤£ à¤¤
à¤ĵ à¤Ľ
à¤ıà¤¨ à¤Ĩà¤°
Ġà¤ħà¤² à¤Ł
Ġà¤īà¤ł à¤¦
à¤·à¤¯ à¤¤à¤°
Ġà¥¦ à¥ªà¥¦
Ġà¥¨à¥Ń à¥©
Ġà¥¨à¥¬ à¥©
st and
th ar
à¤¤à¤µà¤¨ à¤µ
à¤¹à¤¦ à¤¤
ĠM od
Ġà¤Ńà¤°à¤¤ à¤µ
Ġà¥«à¥« à¥¬
am i
ĠR RP
id ge
à¥ĭâĢ¦ âĢĻ
à¥¦à¥« à¥¨
à¥¦à¥« à¥¬
ĠL DRMP
à¥ĭ? "
à¤¾' '
ĠJ ack
à¸ ¥
Ġ10 1
Ġà¤¦à¤°à¤® à¤ĸ
Ġà¤Ĩà¤ĩà¤¨ à¤ª
à¥¨à¥¦à¥¨ à¥¨
aw aj
az er
à¥¨à¥¦à¥© à¥§
Ġâ Ī
Ġim p
ph p
ĠSc ience
èĢ ħ
ĠSub ba
EV IN
7 16
S T
v ar
æ İ
Ġ il
à¤° à¤ħà¤Ĺ
à¤ķ à¤¬à¤°
à¤¹ à¤ªà¤¶
Ġà¤ķ à¤£à¤²
Ġà¤° à¤¦à¤°
Ġà¤® à¤Ĺà¤ľ
à¤ĸ à¤§
à¤ī à¤¤à¤°
à¤ī à¤§à¤¨
à¤ĩ à¤ªà¤Łà¤ķ
à¤ĩ à¤ĵà¤²
Ġà¤ĺ à¤°à¤Ńà¤°
à¤ªà¤¨ à¤ľà¤¸
Ġà¤¡ à¤°à¤¬
Ġà¤ķà¤® à¤°à¤¸
à¤Ĩ à¤¤à¤¸
Ġà¤Ŀ à¤Ļ
Ġà¥« à¥©à¥¦
Ġà¤ħà¤¹ à¤¸
Ġà¤ªà¤¦ à¤®à¤ķ
Ġà¤¸à¤¤ à¤µ
à¤¨à¤µ à¤ª
à¤®à¤° à¤¸à¤®
à¤¯à¤£ à¤¥
Ġp riv
Ġà¤ĺà¤¨ à¤ļà¤ķ
à¤Łà¤¸ à¤²à¤ķ
ĠI V
Ġt ra
el a
Ġà¤ħà¤¸à¤® à¤ŀ
Ġw id
Ġà¤¬à¤Ł à¤¨à¤®
ate st
Ġ5 9
à¥¦à¥§ à¥¯
à¤Ĩà¤ĩ à¤µ
Ġà¥©à¥¯ à¥¨
à¥§à¥¬ à¥¦
Ġà¥ªà¥¯ à¥¦
ot a
Ġà¤ĸà¤ªà¤¤ à¤®
Ġà¤ĺà¤°à¤Ń à¤Ī
ãĢ Ĭ
Ġà¤¸à¤°à¤¦ à¤°à¤®
à¥§à¥¯à¥¯ à¥¯
à¤°à¤ªà¤¥ à¤Ń
à¤ªm à¤ķ
Ñį Ñį
Ð½Ð¾ Ðµ
à¤¨à¤Ĺà¤¢ à¤®
à¤£à¤¨à¤Ĺà¤° à¤¸
ĠMo U
à¤¨à¤ı à¤ľà¤°
èĩ ª
Ġpropert y
! )
I L
O V
m à¤¤
à¤® à¤ĸà¤°
à¤¸ à¤ľà¤¨à¤²
Ġà¤ª à¤ļà¤°
à¤¹ à¤ľà¤¨à¤²
à¤ı à¤¯à¤°à¤²
Ġà¤® à¤Łà¤°
Ġà¤® à¤°à¤Ń
à¤ľ à¤ĸà¤¬à¤°
Ġà¤¹ à¤°à¤¹à¤®
Ġà¤¤ à¤ľ
Ġà¤¤ à¤°à¤¹
à¤¥ à¤°à¤¹à¤°
à¤Ī à¤²à¤²
à¤ī à¤°à¤ķ
Ġà¤¯ à¤¶à¤°
à¤°à¤ķ à¤¥
Ġà¤ļ à¤ªà¤°
à¤°à¤£ à¤ľà¤¸
à¤Ŀ à¤¡
à¥§ à¥¦à¥«
à¤·à¤£ à¤Ńà¤¨
à¤²à¤¬ à¤µ
Ġà¤Ŀ à¤Łà¤ªà¤Ł
Ġà¥« à¥Ńà¥¬
Ġà¤īà¤¦ à¤Ĺà¤®
Ġà¤ķà¤² à¤¹à¤²
Ġà¤Ķ à¤¶
à¤ķà¤¨ à¤ª
Ġà¥§à¥¯ à¥¨à¥§
re ad
à¤ĺà¤° à¤ĺà¤°à¤®
à¥¤âĢĻ âĢĻ
à¥Ģ) à¥¤
Ġà¤¬à¤® à¤ľà¤¨
Ġà¤ħà¤¸à¤° à¤«
à¤¶à¤¹à¤° à¤¬
ĠÂ ®
Ġà¥©à¥« à¥Ń
Ġà¥©à¥§ à¥Ń
à¤°à¤« à¤°
Ġp ay
ĠP R
à¤¦à¤¯ à¤Ļ
ag g
à¤¥à¤Ĺ à¤¨à¤ķ
ĠG a
Ġà¤ľà¤¯ à¤Ĺ
à¤µà¤Ĺ à¤£à¤²
nt c
Ġ206 0
Ġà¤ıà¤¡à¤® à¤£
Ġus ing
Ġqu ality
68 4
à¤°m à¤®à¤®
ĠAm azon
Ġà¤Ĩà¤ĩà¤ĵ à¤ıà¤®
ĠMan agement
Ġfun ction
Dis claimer
Info box
åĴ Į
F acebook
M an
g ar
h o
h eld
k h
Ù ĥ
å İ
ç İ
à¤ķ à¤ĩà¤¨
à¤² à¤ŀ
à¤¤ à¤ľà¤¨à¤®
à¤Ł à¤µà¤ķ
Ġà¤® à¤¸à¤¹
Ġà¤ħ à¤¦à¤°
à¤Ī à¤²à¤¬
à¤£ à¤¢
à¤Ń à¤ıà¤ªà¤¨
à¤ĸ à¤¤à¤°à¤¨
Ġà¤« à¤Ľà¤°
à¤ªà¤¨ à¤Ĺà¤°
à¤ĩà¤¨ à¤Ńà¤¨
à¤®à¤ķ à¤®
Ġà¤¸à¤¬ à¤Īà¤²
à¤Ĩ à¤Ł
à¤²à¤¨ à¤Ł
à¤¸à¤¨ à¤Ńà¤¨
à¥ĭà¥¤ .
à¤¶à¤¨ à¤Ńà¤¨
Ġà¤ĵ à¤Īà¤°
Ġà¤ħà¤® à¤°à¤¨
Ġà¤Ĩà¤ľ à¤µ
Ġà¥¯ à¥©à¥¦
Ġà¤Ī à¤¦à¤ķ
à¤Ńà¤µ à¤¸à¤®
Ġ1 30
Ġà¥§à¥® à¥ªà¥¬
à¤ĩà¤¤ à¤°à¤ķ
al ign
à¤Ĩà¤Ī à¤ĵà¤ıà¤®
ĠS ha
ĠM c
à¤ıà¤« à¤¡à¤¬
Ġà¤Ĩà¤¦à¤° à¤ª
Ġà¤°à¤Ļ à¤Ĺ
à¥§à¥ª à¥¦
ĠK EVIN
Ġà¥«à¥© à¥¬
Ġ6 2
à¤¸à¤µà¤® à¤¯
ist ory
à¤¨à¤Ľ à¤ķ
Ġe ven
Ġ7 00
Ġv an
Ġà¤Ĩà¤Ĩà¤« à¤¨
à¥ĢâĢ¦ âĢĻ
Ġà¤µà¤ļà¤¨ à¤¹à¤°
ãĢ ĭ
Ġ16 5
ĠÐ¸ Ð»Ð¸
Ġ206 1
Ġwith out
Ð°Ð½ Ð¸Ñı
az ine
Ġà¤ıà¤¯ à¤°à¤¸
à¤°à¤µà¤¹ à¤¨à¤®
ĠX à¤¹
à¤Ĩà¤°à¤ıà¤¸ à¤Ĩà¤Ī
ound ation
Ġà¤¬à¤°à¤® à¤Ŀ
ante en
ĠCommun ity
Ġdiff erent
ĠHead line
A nd
a o
i h
l ight
n h
w ays
z i
Ï Ħ
Ĺ ı
à¤ķ à¤¬à¤¨
à¤¯ Tags
Ġà¤¸ à¤«à¤¤
à¤¦ à¤§
Ġà¤Ĺ à¤®à¤ķ
Ġà¤¨ à¤Ńà¤¯
Ġà¤¨ à¤īà¤Ń
à¤ı à¤ī
Ġà¤µ à¤ľà¤¨à¤ķ
à¤¶ à¤°à¤ķ
Ġà¤Ĩ à¤ªà¤ķ
Ġà¤² à¤°à¤¬à¤°
Ġà¤¯ à¤®à¤¬
Ġà¤¶ à¤µà¤®
Ġà¤¥ à¤°à¤²
Ġà¤ħà¤¨ à¤«
à¤¢ à¤µ
à¤¤à¤° à¤Ĺà¤°
Ġà¤ł à¤°
Ġà¤²à¤Ĺ à¤¯
à¤Ĩ à¤ĩà¤ıà¤ķ
à¥§ à¥¦à¥¬
à¤¾à¤Ĥ ,
à¥ĩ, ...
Ġà¥ª à¥§à¥©
Ġà¤ĵ à¤ıà¤¸à¤¸
à¤ķà¤°à¤£ à¤µ
Ġà¥¨à¥¦à¥Ń à¥¯
Ġà¥¯ à¥§à¥«
Ġà¥¨à¥« à¥®
à¤¯à¤Łà¤ķ à¤¸à¤®
Ġà¤¸à¤¹à¤ľ à¤ª
Ġ20 36
à¤ĸà¤² à¤¨à¤²
Ġ[ &
à¤¡à¤° à¤ħà¤¨
Ġà¤ĸà¤¬à¤° à¤ªà¤Ľ
Ġà¤Ĺà¤² à¤¤à¤ķ
à¤¾à¥¤ à¥¤
ĠS ocial
it o
Ġà¥©à¥¨ à¥¬
à¤ªà¤Ł à¤¨à¤ķ
Ġc ol
à¤°à¤Ļ à¤Ĺ
ag a
Ġin form
Ġà¥ªà¥¯ à¥¯
Ġà¥¯à¥® à¥¬
ul a
à¥įâĢĻ âĢĵ
Ġà¥Ńà¥Ń à¥Ń
Ġà¤¯à¤® à¤¨à¤²
à¸ Ĺ
Ġ7 7
à¤¸à¤¡à¤ķ à¤¬
ãĥ ĥ
à¤ļà¤ĸ à¤ªà¤¨
ĠØ ±
ib ooks
Ġà¤ĵà¤ĸ à¤²à¤®
AT E
Ð³ Ð¾
Ġ196 1
ron ic
Ġvis it
time à¤ķ
hell ip
7 19
9 48
G o
P ol
S ON
n ÃŃ
w ar
ç «
è ĥ½
Ġà¤ª à¤īà¤²
à¤¹ à¤µà¤°
Ġà¤ķ à¤µà¤¨
Ġà¤¨ à¤Ĺà¤²
Ġà¤ħ à¤ļà¤¨
à¤Ľ à¤°à¤ķ
à¤ĸ à¤®à¤¦
à¤ī à¤²à¤²
à¤ł à¤Ł
Ġà¤ĺ à¤ľ
Ġà¤ľà¤¨ à¤Ĩà¤§
Ġà¤ħà¤§ à¤¯à¤ķ
à¤Ŀ à¤ĸà¤£
Ġà¤²à¤Ĺ à¤¨à¤Ł
Ġà¤ĩ à¤°à¤ķ
Ġà¤ĩ à¤ķà¤®à¤°
à¤Ĺà¤¤ à¤¸à¤®
Ġà¤Ńà¤ı à¤Ńà¤¨
à¥ĭà¥¤ âĢ¦
à¤Łà¤¨ à¤°à¤®
Ġà¥« à¥¦à¥¨
à¤ķà¤°à¤£ à¤¸à¤¹
Ġà¥Ń à¥¦à¥¨
Ġà¤Ĩà¤ĩ à¤¡à¤²à¤²
Ġà¥§à¥¯ à¥§à¥¨
Ġà¥§à¥¯ à¥¦à¥«
Ġà¤¦à¤¶ à¤¹à¤ľ
à¤ıà¤® à¤¹à¤°
à¥ģà¤Ĥ ,
Ġà¥§à¥® à¥«à¥Ń
Ġà¤®à¤¦ à¤¹
Ġà¤¬à¤Ĺ à¤¹
à¤Łà¤¬à¤² à¤°à¤ķ
à¤¸à¤¨à¤² à¤®
ĠS ie
Ġs ign
Ġth ank
à¤¬à¤¤ à¤·
Ġb ec
Ġn umber
à¥§à¥ª à¥©
Ġh ar
ĠL ay
Ġà¤¨à¤Ĺà¤°à¤ķ à¤®
ĠK es
Ġto p
ĠJ e
ĠJ izer
ĠV ir
à¥į- '
Ġ8 2
Ġà¥¯à¥Ń à¥¦
ebook s
ff ic
OR P
ĠY ork
ain t
Ġ206 6
ĠZ one
ÑģÑĤÐ² ÐµÐ½
ĠCon f
ĠâĢ¢âĢ¢âĢ¢ âĢ¢âĢ¢
ĠEle ment
Ġoak leys
ĠMaj door
ĠNewsp ortal
8 4
B heemdatt
j ag
l ength
Î ·
ë ĭ
Ġ end
à¤¨ à¤Ļ
à¤ª à¤¦à¤²
à¤Ĺ à¤ľà¤µ
Ġà¤Ĺ à¤¯à¤ķ
à¤Ł à¤ħà¤ªà¤ķ
à¥Ī ),
Ġà¤® à¤²à¤¬
à¤ľ à¤¬à¤¨
Ġà¤¹ à¤¬à¤®
à¤¬ à¤ķà¤®
Ġà¤Ľ à¤¥à¤°à¤ķ
à¤¥ à¤®à¤ķ
à¤ģ à¤¾
à¤ļ à¤¤à¤¨
à¤¡ à¤ªà¤¨
à¤¡ à¤¸à¤®à¤ķ
à¤¹à¤° à¤Ńà¤µà¤¨
à¤ł à¤ľà¤¸
Ġà¤ªà¤¨ à¤ķ
Ġà¤ªà¤° à¤«à¤°à¤®
Ġà¤¸à¤¹ à¤Ĺ
à¤ħ à¤«à¤ķ
Ġà¤ħà¤¸ à¤¨à¤®
Ġà¤Ńà¤ı à¤ª
à¤²à¤¯ à¤²à¤²
à¥© à¥«à¥¦
à¤ĥ à¥ģ
Ġà¤ĸà¤° à¤ĸà¤ľà¤¨
à¤¶à¤® à¤°
Ġà¥¯ à¥ªà¥¦
Ġà¤Ĩà¤ĩ à¤ķà¤¨à¤ķ
Ġà¤Ĳ à¤¨à¤¦
à¤°à¤®à¤£ à¤¤
Ġà¥§à¥¯ à¥¨à¥Ń
à¤ıà¤¸ à¤¯
Ġà¤¦à¤¶ à¤²
à¤²à¤µ à¤¶
Ġà¥§à¥® à¥®à¥¨
Ġ" "
Ġà¤ħà¤¡ à¤ļà¤¨
Ġm ind
Ġà¤ıà¤² à¤ıà¤²
Ġà¤Ĩà¤ı à¤Ŀ
ĠN tv
Ġà¤¨à¤Ĩ à¤ıà¤ªà¤¨
ed ic
Ġc are
Ġd own
ur anc
Ġà¤ıà¤¡ à¤ľà¤¸
Ġ19 52
à¥ĭâĢ¦ .
ĠG o
à¤Ĩà¤ĩ à¤¸à¤²
Ġà¤Ĺà¤ľà¤² à¤¸à¤Ļ
Ġà¥«à¥ª à¥¦
ul es
Ġà¥¬à¥® à¥«
à¤ıà¤¨à¤Ĩà¤°à¤ıà¤¨ à¤ıà¤ķ
Ġà¤Ĩà¤ĩà¤¨ à¤¸
Ġà¤°à¤¨à¤° à¤ħà¤ªà¤²
Ġà¤¸à¤¯à¤® à¤§
à¥įà¥Ģ à¥Ģà¥ĩ
ÐµÑĤ ÑģÑı
à¹ ģà¸
Ġup d
Ġ197 2
ĠSp ecial
ĠNot ices
ĠCl ub
gan epal
ĠTrail bl
ĠGorkh ali
ghar jag
ĠNtv Plus
gharjag ganepal
3 00
T H
k m
p g
t m
u et
Ã ¢
å ł
à¤¾ à¥Ĥ
à¤¨ à¤¯à¤¸
à¤¨ à¤¤à¤¨
à¥ĭ Â»
à¤® à¤¶à¤®
à¤¸ à¤Ĺà¤¨
Ġà¤ª à¤¥à¤ķ
à¤µ à¤¬à¤®
Ġà¤ķ à¤°à¤£à¤ķ
Ġà¤Ń à¤ĩà¤ķ
Ġà¤ħ à¤°à¤£
Ġà¤ħ à¤ľà¤¨
à¤¬ à¤²à¤Ĺ
à¤¬ à¤ľà¤°
à¤· à¤·
Ġà¤ľ à¤²à¤°
à¤ļ à¤ľ
à¤¡ à¤Ľà¤¨
à¤Ī à¤ķà¤ķ
à¤Ī à¤«à¤²
à¤ĩ à¤Ĺà¤°à¤ķ
à¥Į !
à¤¨à¤ķ à¤¹
âĢĻ )
à¤¾, âĢĿ
Ġà¤ķà¤® à¤²à¤¦
Ġà¤ĩ à¤Ĺà¤²
Ġà¤ĩ à¤ķà¤¬
à¤µà¤ķ à¤µà¤°
à¤Ĩ à¤ªà¤¤
Ġà¥« à¥§à¥¦
à¤ķà¤° à¤ļ
à¥Įà¤ģ /
Ġà¤¸à¤¨ à¤ª
Ġà¥ª à¥¦à¥Ń
Ġà¥ª à¥§à¥®
à¤¦à¤¨ à¤¤à¤°
Ġà¥¬ à¥¦à¥¦à¥¦
Ġà¤¨à¤ª à¤¡
à¤¯à¤¯à¤¨ à¤ªà¤¶
à¤ľà¤§ à¤°
Ġà¤ķà¤¥ à¤¨à¤ķ
Ġà¥¦ à¥©à¥©
an agar
Ġà¤¹à¤² à¤ĸ
Ġà¥¨à¥® à¥ª
Ġà¤¶à¤¹à¤° à¤µ
à¤¨à¤¸à¤® à¤ķ
ĠS ER
à¤Ĭ à¤Ľ
Ġà¤°à¤¨ à¤¬à¤¹
ĠC ham
à¤¤à¤¹ à¤¸à¤®
Ðµ Ðµ
em a
Ġà¤Ńà¤ĩ à¤Ĺà¤¯
id d
à¥¦à¥« à¥Ń
Ġre p
ĠO il
Ġà¥©à¥¯ à¥«
Ġà¤ķà¤¦ à¤°à¤¸
à¸ §
ĠU FO
Ġà¥®à¥Ń à¥¯
Ñĥ Ð¶
Ġà¤®à¤Ĺ à¤§
ĠRe c
à¥§à¥¯à¥¯ à¥§
ind i
Ġà¥§à¥¦à¥ª à¥©
39 2
ÙĪ Ø¯
ĠÐ± Ñĭ
ĠÐ° Ð²
Ð°ÑĨ Ð¸Ð¸
ĠWith held
ĠVis it
fa ult
Ġdeliv ery
ĠTour ism
C anteen
à¤ķ à¤¯à¤ķ
à¤¯ à¤Łà¤°à¤®
Ġà¤ķ à¤¥à¤®
à¤Ĺ à¤¯à¤¤à¤ķ
à¤ı à¤¯
à¤ıà¤ķ à¤ļ
Ġà¤ľ à¤Ĺà¤°
à¤« à¤¨à¤ķ
Ġà¤ĸ à¤¸à¤ķ
Ġà¤ı à¤¹
Ġà¤ı à¤¸à¤®
à¤¨à¤² à¤Ļà¤ķ
Ġà¤Ł à¤¸à¤ķ
à¤Łà¤ķ à¤ĺà¤°
à¤¯à¤¨ à¤¨
à¥§ à¥§à¥¨
Ġà¤¸à¤®à¤¯ à¤ªà¤¹
à¥į, âĢľ
à¤ķà¤°à¤£ à¤ª
à¤¦à¤° à¤ĸ
à¤ļà¤ķ à¤¬
Ġà¤ľà¤® à¤¦
à¤¦à¤² à¤µ
à¤¯à¤£ à¤Ł
à¤ĩà¤° à¤²à¤ķ
Ġà¤µà¤¨ à¤°à¤ķ
Ġà¥¨à¥¯ à¥¦à¥¦à¥¨
Ġà¥©à¥« à¥¬
à¤¦à¤¨à¤® à¤§
à¤¶à¤¨à¤² à¤Ĺ
Ġp os
Ġà¤ļà¤²à¤¨ à¤ħà¤¨
ĠM onth
à¤īà¤° à¤Ļ
Ġa p
à¤ªà¤Ł à¤ªà¤²
ĠI CT
Ġw in
Ġà¥ªà¥¨ à¥Ń
ĠG lobal
Ġre al
ĠL ong
Ġà¤ħà¤¨à¤¶à¤¨ à¤¸
ãģ Ľ
à¥¦à¥ª à¥¯
ol es
Ġà¥Ńà¥ª à¥¦
Ġà¥Ńà¥© à¥¨
Ġà¥®à¥® à¥®
ĠIn s
Ġv on
Ġà¥Ńà¥¯ à¥¦
wit ch
Ġà¤ľà¤¨à¤°à¤² à¤²
Ġà¤¦à¤®à¤¨ à¤¬
ess ion
Ġà¤Ńà¤ľà¤¨ à¤¸
od ay
Ġà¤ħà¤²à¤® à¤²à¤²
ĠÐº Ð°Ðº
à§ ģ
à´ ¿
Ġà¤Ŀà¤®à¤ķ à¤ķ
RO ID
ĠAP K
ĠAND ROID
Ġbet ween
ĠBB Q
H TML
X X
h re
i et
t el
w er
z er
æ ĥ
è µ
à¥į à¤¾à¤ģ
à¤° à¤¨à¤¸
à¤¸ à¤¯à¤²
à¤¸ à¤ĩà¤µ
Ġà¤ª à¤Łà¤®
Ġà¤ķ à¤²à¤²
Ġà¤° à¤ªà¤®
Ġà¤® à¤ıà¤ķ
Ġà¤® à¤¡à¤¸
à¤¶ à¤°à¤ľ
à¤ļ à¤¡à¤ķ
à¤ļ à¤°à¤¸à¤¹
à¤Ľ à¤łà¤ķ
à¤īà¤¨ à¤¯
à¤Ĩ à¤°à¤§à¤¨
Ġà¤¬à¤° à¤«à¤ķ
à¤µà¤¤ à¤¦
Ġà¥¯ à¥ªà¥«
à¤Ńà¤° à¤Ł
à¤¦à¤ķ à¤¦
Ġà¤ıà¤® à¤Ĩà¤Īà¤Ł
à¤°à¤ª à¤¥à¤¸
à¤ľà¤Ĺ à¤¤à¤°
Ġà¥§à¥¯ à¥¦à¥ª
Ġà¤ıà¤¨ à¤Ĩà¤°
in ese
à¤¾) --
Ġà¥§à¥Ń à¥¦à¥¦
Ġà¥¦ à¥©à¥¯
om s
à¤Ĩà¤Ī à¤¤à¤µ
Ġm ap
ic co
Ġl ight
Ġl aw
à¤²à¤¦ à¤°à¤¬
ĠA ir
Ġà¥©à¥« à¥«
ĠD am
ĠP ass
Ġa iico
à¤Ĺà¤£ à¤¬
Ġà¥©à¥¬ à¥Ń
ÑĢ ÐµÐ´
à¥¦à¥« à¥«
à¥¦à¥« à¥ª
ĠL ife
ch he
à¤ıà¤ļ à¤Ĩà¤°
Ġà¥ªà¥¯ à¥ª
Ġà¥®à¥« à¥¬
Ġ8 6
ok ya
........ ..
Ġà¤¬à¤¹à¤° à¤®
ĠY ear
est er
Ġà¤Ĩà¤¯à¤ķ à¤°à¤ķ
ĠPl c
Ġà¤Ŀà¤¡ à¤ªà¤²
ai icco
à¥¨à¥¦à¥© à¥ª
Ġpl an
ĠUn identified
Ġà¤ĩà¤¯à¤° à¤«
ĠÐ· Ð°
ins uranc
AC K
Ãŀ m
Ġà¤Ĺà¤Ĺ à¤¨à¤¸
Ġht ml
áĥĿ áĥ
epl c
insuranc eplc
. /
B U
P T
i pp
j al
m o
Ä ĩ
ı à¤¨
à¤¤ à¤¦à¤°
à¤¯ à¤µà¤®
à¥ģ ....
Ġà¤¸ à¤Łà¤ķ
à¤¹ à¤¬à¤®
Ġà¤¨ à¤Ī
à¤¬ à¤¬à¤¹
à¤· à¤°à¤¸à¤®
à¤ģ âĢĶ
à¤Ī à¤¡à¤°
à¥Ĥ à¥ĥ
à¤ĸ à¤¸à¤®à¤ķ
Ġà¤ī à¤¸à¤ª
à¤ĺ à¤°à¤§à¤¨
à¤Ĺà¤° à¤¹
à¤Ŀ à¤Łà¤ķ
à¤ħ à¤ľà¤¯à¤ķ
à¥Įà¤Ĥ &
à¤ĩà¤¨ à¤ľà¤¸
Ġ( âĢľ
à¤Ĺà¤¤ à¤µ
à¤¸à¤¨ à¤ĸ
à¤ªà¤ķ à¤¦
Ġà¤ľà¤¸ à¤µ
à¤ĵ à¤®à¤°
à¤°à¤Ń à¤ŀ
Ġà¤ĺà¤° à¤ĺà¤°à¤ķ
à¤ıà¤¨ à¤µ
Ġà¤Ĩà¤® à¤¬
Ġà¤Ĩà¤¦ à¤°à¤ķ
Ġà¤²à¤ķ à¤°à¤®
Ġà¥§à¥¯ à¥©à¥¬
à¤§à¤ķ à¤¦à¤ķ
à¤¯à¤¸à¤® à¤ķ
à¤ľà¤¯ à¤Ń
à¤ķà¤¸ à¤°à¤¹
Ġà¥§à¥® à¥®à¥¯
à¤ķà¤Ł à¤µà¤°
Ġà¤Ĭ à¤ļ
à¤¾... âĢĻ,
Ġà¤Ĩà¤ł à¤ĵà¤Ł
à¤ĩà¤¡ à¤°à¤¹à¤°
ĠS y
ĠS IP
Ġl anguage
ĠD irect
ĠC ons
ĠT ime
Ġà¥©à¥¨ à¥¯
Ġa vailable
Ġà¥©à¥© à¥«à¥¬
ac ter
Ġà¤®à¤¦à¤¨ à¤¬à¤¹
ÑĢ Ð¾
Ġà¤¹à¤Ļà¤ķà¤Ļ à¤®à¤®
Ġà¤ľà¤¨à¤¸à¤Ļ à¤ĸ
ĠJ oy
à¸ ª
Ġà¤ķà¤¸à¤ķ à¤¸à¤²
Ġis s
à¥¨à¥¦à¥ª à¥ª
à¥¨à¥¦à¥© à¥Ń
Ġ205 5
Ġsp ins
anc y
Ã¡ s
Ġsh ow
à¤¤à¤²à¤¹à¤° à¤¬
à¤ıà¤¨à¤ıà¤« à¤ıà¤¨
oug ht
alax y
ĠTrailbl azer
B L
N L
W B
W iki
f lo
g lobal
i ya
Ġ ut
à¤¨ à¤¯à¤ª
à¥ĩ :-
à¤® à¤°à¤¬
à¤® à¤£à¤¸
Ġà¤ª à¤ľà¤¨
à¤Ī à¤ķà¤®
à¤Ī à¤¤à¤®
Ġà¤² à¤ľà¤¹à¤°
Ġà¤¶ à¤¯à¤°
Ġà¤ĸ à¤¯
Ġà¤« à¤²à¤¬
à¤¢ à¤µà¤°
Ġà¤®à¤¹ à¤Ļà¤Ĺ
à¤ªà¤¨ à¤µ
à¤°à¤¹ à¤¦à¤¶
à¥« à¥¨à¥¨
à¤¤à¤® à¤¦
Ġà¥« à¥¨à¥«
Ġà¤¬à¤° à¤ĸ
Ġà¤¹à¤° à¤¨
à¤ĵ à¤Ĩà¤°à¤®
Ġà¤ķà¤² à¤¹à¤°
Ġà¥Ń à¥¨à¥¬
Ġà¤Ĩà¤¨ à¤¦
à¤ªà¤² à¤¸
Ġ! )
à¤¦à¤µ à¤ľ
à¤ıà¤¸ à¤Ĩà¤Ī
à¤¾) -
à¤¨à¤¯ à¤¨à¤²
Ġà¤Ĩà¤² à¤Ļ
Ġà¥¨à¥ª à¥®
Ġà¤ľà¤¬ à¤ľà¤¬
à¤ĸà¤¨ à¤¶
Ġà¤¬à¤® à¤¹à¤°
Ġm il
Ġà¤ıà¤² à¤µà¤®
à¥Ģà¤ģ âĢĵ
ĠC C
ĠC L
à¤¡à¤¸ à¤ľ
à¥§à¥¯ à¥¬à¥¬
ĠF und
Ġin ternational
Ġà¤¬à¤Ł à¤®à¤²
ÑĢ ÐµÐ¼
ĠE nd
ch allenge
ĠJ avaScript
ĠV ER
Ġ8 3
ik habar
ĠCh all
pan ch
ĠØ ¢
ĠÐ¾ Ñģ
ÑģÐº Ð°Ñı
ĠDe v
Ġse ems
åĪ °
md ash
ĠRoy ale
Ġdur ing
Ġsal okya
emp or
rypt oc
Ġ984 98
pand ulip
ĠLay out
pandulip ibooks
? ,âĢĻ
A G
N e
v al
à¤² à¤ī
à¤ı à¤Łà¤²
Ġà¤® à¤²à¤®à¤²
à¤§ à¤¬à¤¨
à¤§ à¤¨à¤¨
à¤Ĥ âĢį
Ġà¤ľ à¤ĸ
à¤Ń à¤Ļ
à¤ī à¤¥à¤²
Ġà¤¯ à¤®à¤¨à¤¸
à¤ĩ à¤Ļà¤ķ
à¤¸à¤® à¤¯à¤¦
à¤¯à¤¨ à¤¦
à¤°à¤¬ à¤Ł
Ġà¥ª à¥§à¥ª
Ġà¤ĵ à¤¸à¤¨
Ġà¤ĵ à¤Ĩà¤°à¤ľ
à¤µà¤² à¤Ĺà¤¤
Ġà¥Ń à¥¦à¥®
à¤ħà¤¨ à¤¸à¤¨
à¤Łà¤® à¤¹à¤°
Ġà¤Ĩà¤® à¤®à¤¤à¤¦
Ġà¤Ĩà¤ĩ à¤«à¤²
Ġà¤Ĩà¤ĩ à¤ıà¤¸à¤¬
à¤°à¤ļ à¤°
Ġà¤§à¤¨ à¤¶
Ġ- âĢĻ
Ġà¤¦à¤¶ à¤ķà¤²
à¤ĩà¤° à¤¨à¤ķ
Ġà¤«à¤°à¤ķ à¤²
Ġà¤Ĩà¤Ī à¤ķà¤¨
,âĢĻ âĢĻ
à¤ıà¤² à¤Īà¤¡
or ang
ĠS aturday
à¤¤à¤¸ à¤°à¤®
ĠP res
is ch
le x
Ġà¤Ńà¤°à¤¤ à¤®à¤£
à¤²à¤ĸ à¤¨à¤ª
ĠF ile
Ð¸ Ð»Ð¸
Ġà¥©à¥ª à¥®
à¥§à¥© à¥Ń
ĠH ouse
ĠH appy
ĠW ill
Ġà¤ªà¤ª à¤Ĺ
Ð» Ñİ
ĠJ erseys
Ġà¥¬à¥¬ à¥©
Ġ9 6
Ġà¤²à¤¹ à¤¡à¤ķ
à¦ ®
à¦ ķ
Ġ15 00
Ð´ Ð°
Ġ198 3
ĠâĢĵâĢĺ âĢĺ
Ġ196 2
Ġà¤ıà¤Ļ à¤ķà¤°
ĠBo ys
Ġoff line
led ge
æĸ °
Ġà¤¸à¤ĸà¤° à¤ĸà¤¨
ĠComp etition
, âĢľ
F E
H A
I AL
L eave
æ µ
è ª
Ġ ess
à¤¾ Â·
à¥į à¥Īà¤Ĥ
à¥ĩ ......
à¤¯ à¤Łà¤²
à¥ģ ï¿½
à¥Ģ à¥ģ
à¤ª à¤īà¤¨
à¤ª à¤¡à¤ķ
à¤Ĺ à¤īà¤¨
à¤Ł à¤¬à¤°
Ġà¤µ à¤¦à¤°
à¤¶ à¤¸à¤ļ
à¤Ń à¤¸à¤²
à¤Ń à¤ıà¤¸
à¤Ń à¤ıà¤ľà¤¸
Ġà¤ı à¤ıà¤«
à¤ªà¤¨ à¤°
Ġà¤ĩ à¤Ľ
à¤¯à¤¨ à¤¸à¤®
Ġà¤ħà¤¸ à¤¦à¤ķ
à¤Ĺà¤¤ à¤¬à¤°
à¥§ à¥¦à¥ª
à¤¾à¤Ĥ à¥Īà¥¤
à¤²à¤¨ à¤ªà¤¶
Ġà¥© à¥Ńà¥©
à¤°à¤µ à¤ľ
à¤¤à¤¨ à¤¸à¤¹
à¤ªà¤ķ à¤¬
Ġà¥ª à¥¦à¥§
Ġà¤ļà¤² à¤¤
à¤§à¤¨ à¤ľà¤¸
Ġà¤Ķ à¤·
à¤Ĺà¤® à¤ªà¤®
à¤¶à¤® à¤¯
Ġà¤ħà¤ª à¤¶
Ġà¤¨à¤¹ à¤²
Ġà¤ľà¤® à¤²à¤ķ
Ġà¤¤à¤¹ à¤¤
à¤¿. (
à¤Īà¤ķ à¤Łà¤°à¤ķ
à¤¥à¤² à¤Ńà¤¨
re place
Ġà¤Ĩà¤Ī à¤ıà¤¸à¤²
at ter
at ures
à¤ĩà¤® à¤£
Ġà¤Ĭ à¤¤
à¤Łà¤¬à¤² à¤¤à¤°
ic eb
it an
ĠC ode
Ġà¤ıà¤ķà¤² à¤¤à¤°
Ġà¤ľà¤¨à¤® à¤¤à¤¬
Ġs a
à¤ĩà¤ª à¤¹à¤°
à¤ıà¤« à¤Ĩà¤Īà¤¡
Ġc ountry
ĠB ig
Ġà¤¸à¤ĺ à¤¨à¤¤
Ġà¤ªà¤µ à¤¨à¤²
Ġre port
Ġ4 19
à¤ıà¤ļ à¤ĵà¤ķ
Ġà¤ıà¤ļ à¤ıà¤ļà¤¸
à¥¨à¥¬ à¥¦
à¥¦à¥© à¥«
Ġ8 4
12 684
à¥¨à¥¦à¥¨ à¥ª
Ġà¥§à¥¯à¥ª à¥©
ãĥ ª
24 68
Ñħ Ð¾Ð´
27 2468
Ġal ong
Ġ205 9
Ġ197 6
69 272468
Ġ98 69272468
ÑĦ Ð¾ÑĢÐ¼
Ð¾Ñģ Ð»
åĵ ģ
ublish ed
åĩ º
hot mail
ĠGad get
uet ooth
panch thar
Ġ98498 12684
' );
F ood
L ua
P age
c m
f ect
ç µ
Ļ ×
à¤¨ à¤¨à¤®
à¤² à¤ıà¤ķ
à¤® à¤²à¤²à¤Ĺ
à¤¯ à¤ıà¤ķ
à¤¸ à¤Ĺà¤łà¤¨
Ġà¤¬ à¤¨à¤ķà¤°
Ġà¤Ń à¤²à¤¬
à¤¬ à¤Ĺà¤°à¤ķ
à¤¥ à¤°à¤¨
Ġà¤Ĩ à¤ªà¤¦
Ġà¤Ĩ à¤Ļà¤¸
à¤¡ à¤°à¤¦
Ġà¤¥ à¤ªà¤¨
Ġà¤ı à¤Ĩà¤ĩ
Ġà¤ıà¤ķ à¤°à¤¤
Ġà¤§ à¤¡à¤ķà¤¨
à¤¾à¤Ĥ ...
Ġà¥Ń à¥§à¥®
âĢĿ -
Ġà¥® à¥§à¥¦
Ġà¥® à¥¨à¥¨
Ġà¥¯ à¥§à¥§
à¤¶à¤¤ à¤ľà¤¤
Ġà¥§à¥¯ à¥¦à¥¯
Ġà¤ļà¤²à¤ļ à¤¤
à¤ıà¤¸ à¤ıà¤®à¤ıà¤¸
Ġà¤Ī à¤Ľà¤¨
Ġà¤ĭ à¤ĸ
Ġà¥¦ à¥¨à¥¯
Ġà¤Ĩà¤Ī à¤ıà¤¸à¤ķ
à¤Ķ à¤¸à¤¤
à¤Ĩà¤Ī à¤µ
Ġm i
à¤¤à¤µà¤¨ à¤¸à¤®
à¤¶à¤¨à¤® à¤°
ĠÐ Ľ
ĠT aja
Ġà¤Ĩà¤¸ à¤ªà¤®
Ġs eren
Ġc as
Ġc ould
Ġà¤°à¤Ļ à¤¸
as ia
ĠF I
à¥§à¥§ à¥®
Ġ19 30
em or
Ġn ick
Ġn ame
Ġà¤īà¤ĸ à¤°à¤®
à¤¨à¤ľ à¤¸à¤²
ĠO pen
ĠW ar
ĠV er
ĠV ol
à¤Ĳ à¤ķ
Ġà¤¶à¤°à¤¦ à¤ļà¤¨
Ġà¤®à¤Ĺ à¤ľà¤®
Ġà¤Ĳà¤¨à¤² à¤Ĺ
17 4
à¤ĭ à¤£à¤ķ
Ġst ate
ĠSt ates
ric e
Ġà¤°à¤£ à¤§
ĠÂ« Â«
Ġà¤ľà¤²à¤¶ à¤¯à¤¨
Ø§Ø ¯
uk t
à¤ħà¤¯ m
ĠEngine ering
à¤¥à¤Ł à¤ªà¤¸
Ġseren ity
L ocal
d aily
g u
i ac
i Ã³n
m ark
é «
Ġ ri
à¤° à¤ªà¤®
à¥ĩ ï¿½...
à¤µ à¤ľà¤¨à¤ķ
Ġà¤ķ à¤ľà¤µ
Ġà¤¨ à¤łà¤Ĺ
à¤ľ à¤²à¤¯
Ġà¤µ à¤ª
à¤§ à¤¸à¤¤
à¤ıà¤ķ à¤ħà¤°
Ġà¤ľ à¤¤à¤¨à¤¸
à¤Ī à¤Łà¤¬
à¤£ à¤¡
à¤£ à¤µà¤°
à¤Ľ à¤¹
à¤ī à¤ĺà¤°à¤ķ
Ġà¤ī à¤ĸà¤²
Ġà¤ı à¤²à¤ķ
Ġà¤ı à¤°à¤ª
Ġà¤ħà¤¨ à¤¬
à¤Ļ à¤ĵà¤Ńà¤°
à¤¢ à¤°
à¤µà¤¸ à¤¹à¤°
Ġà¤¬à¤¨ à¤ľ
à¤°à¤¦ à¤ľ
Ġà¤ķà¤® à¤£
Ġà¤Ńà¤ı à¤Ĺà¤°
à¤°à¤µ à¤¦à¤²
à¥Įà¤ģ âĢĶ
à¤¯à¤² à¤°
à¤ĩà¤°à¤¹ à¤ķ
Ġà¥® à¥§à¥¬
à¤ķà¤¨ à¤Ĺ
Ġà¤¹à¤Ł à¤¸
à¤ķà¤¬ à¤ľ
Ġm ass
Ġl ear
ĠN O
it u
ĠA awaz
Ġà¥©à¥« à¥§
Ġp aste
Ġà¤®à¤¹à¤° à¤ķ
Ġà¤¨à¤Ĩ à¤ĩà¤¸à¤ķ
Ġà¥©à¥© à¥Ń
Ġc lo
à¥§à¥¨ à¥Ń
Ġt alk
ĠB ut
à¤īà¤¡ à¤°à¤²
id ay
ĠL ee
Ġ4 22
Ġ?âĢĻ âĢĻ
Ġà¥ªà¥© à¥ª
Ġà¤¨à¤Ĺ à¤µ
ĠK TM
Ġà¤ľà¤Ĺà¤¤ à¤Ĺ
Ġà¤ıà¤ļ à¤ı
Ġà¤ıà¤ļ à¤ıà¤ļ
ĠW omen
âĢį -
Ġà¥Ńà¥¬ à¥¦
ĠV in
Ġ7 3
à¤¸à¤¡ à¤ķà¤²
ack age
AR K
ï¼ Ł
à¤²à¤Ŀ à¤°à¤¨
Ġwh ile
act ion
Ġà¤Ĩà¤ĩà¤ıà¤® à¤Īà¤ķ
ĠX box
ĠÐ¼ Ð¾Ð¶
Ġâ Ļ
88 86
ati ya
à¤ĩà¤ªà¤° à¤Ł
uck s
Ġà¤®à¤¤à¤® à¤¤
ddc panchthar
ucket challenge
Ð°Ñİ ÑĤ
ĠFeder ation
ĠÐºÐ¾Ð¼ Ð¿
Ġà¤¹à¤°à¤¬ à¤ĸà¤¤
à¥«à¥¨à¥¨ à¥¨à¥¨
ryptoc urrenc
iceb ucketchallenge
U M
i od
p al
à¥į à¥ĥ
à¤ķ à¤Ĺà¤°
à¤ķ à¤ħà¤«
à¥ĭ à¥ģ
à¤¯ à¤ªà¤²
à¤¦ à¤ªà¤¤
à¤µ à¤īà¤¦
Ġà¤Ń à¤ľà¤¨à¤²
à¤ľ à¤¤à¤ª
à¤ıà¤ķ à¤¸
à¤ļ à¤®à¤¹
à¤Ī à¤ľà¤²
à¥Ĥ à¤¾
Ġà¤ļ à¤µ
Ġà¤¥ à¤Ļ
âĢĻ _
à¤ªà¤® à¤¤à¤²
Ġà¤ĵ à¤®à¤¨à¤¸
Ġà¤¸à¤¦ à¤°à¤ĸ
Ġà¤ħà¤¬ à¤¹
Ġà¤®à¤² à¤¹à¤®
Ġà¤Ĩà¤Ĺ à¤¡
Ġà¥§à¥¯ à¥¦à¥Ń
à¤¸à¤¬ à¤¸
Ġ20 21
Ġ20 32
à¤¯à¤Łà¤¨ à¤Ĺ
Ġà¤Ĩà¤Ī à¤¯
Ġl ik
à¤²à¤ª à¤Ł
it ar
à¤¹à¤¦ à¤¬
ou ble
Re trofitting
Ġà¥©à¥¨ à¥¨
Ġà¥©à¥¨ à¥ª
à¤Łà¤µà¤² à¤¤à¤°
ĠF ull
à¤ĩà¤¬ à¤°à¤¯
Ġà¥©à¥¬ à¥®
Ġà¥©à¥ª à¥«
Ġ11 0
à¤ıà¤ļ à¤ıà¤¨à¤ıà¤«à¤ıà¤¨
lo ss
Ġà¥ªà¥§ à¥Ń
Ðº ÑĤ
à¤Ĳ à¤°
ok har
Ġ-- (
ric ket
ĠY ung
Ġà¤ķà¤¸à¤°à¤¤ à¤ªà¤Ľ
est ival
Ð°Ð½ Ð¸Ðµ
ĠUS D
Ġ197 3
à§ ĭ
Ġà¥§à¥®à¥¯ à¥ª
à¤Īà¤¸à¤¯ à¤ħà¤§
à© ĩ
ĠCl ash
uf g
OW ER
oot ball
Ġ--------- -
ĠMum chhe
ĠKes har
ĠJizer ou
J avaScript
y en
Â ħ
Ġ ãĤ
à¤¨ à¤Ńà¤µà¤¨à¤®
à¤¿ ....
à¤¿ Â¨
à¥ĭ à¥ĥ
à¥Ģ à¥¤âĢĻ
à¤¹ à¤®à¤ķ
à¤Ĺ à¤łà¤ķ
Ġà¤Ĺ à¤®à¤¨
à¤§ à¤®à¤²
à¤¶ à¤ľà¤²
Ġà¤¦ à¤ľà¤¨
à¤¥ à¤Łà¤¬
à¤Ī à¤¡à¤²
Ġà¤² à¤µà¤¶
à¤Ń à¤²à¤°
Ġà¤¸à¤® à¤¹
Ġà¤ı à¤ľà¤ķ
Ġà¤ªà¤¨ à¤°
Ġà¤ħà¤¨ à¤¤
à¤¸à¤ķ à¤¸à¤®
à¤²à¤ķ à¤Ł
à¤¯à¤® à¤²à¤Ĺ
Ġà¤µà¤° à¤µà¤°
Ġà¤Ŀ à¤ķà¤¬à¤¹
à¤¶à¤¨ à¤¤
Ġà¥¬ à¥§à¥Ń
Ġà¤ħà¤Ĺ à¤®à¤µ
Ġà¤ĺà¤° à¤Ŀ
Ġ: &
à¤§à¤® à¤§
à¤ıà¤¸ à¤µ
Ġà¤ħà¤« à¤¯
à¤®à¤¬ à¤²à¤ķ
Ġà¤ıà¤¨ à¤Ĩ
Ġà¥§à¥® à¥«à¥¦
à¥ĩà¤Ĥ à¥¤âĢĻ
Ġà¤Ĭ à¤¨à¤ķ
à¤Ĺà¤łà¤¨ à¤ª
Ġà¤ľà¤² à¤§
Ġm o
ĠS elect
Ġà¤°à¤¨ à¤ªà¤Ľ
Ġp at
à¤¶à¤µ à¤£
à¤²à¤ĸ à¤¬à¤°à¤¸
Ġà¤Ľà¤ł à¤ľà¤¸
Ġà¤µà¤¹ à¤¸à¤ķ
âĢĮ à¥ĩâĢĮ
Ð¸ ÑĨ
Ġ19 56
Ġ19 59
Ġà¤¦à¤®à¤ķ à¤²à¤®
Ġà¤¡à¤Łà¤ķà¤® à¤¬
Ġà¥¬à¥¬ à¥«
Ġà¥¤' '
à¤Ĳ à¤¯
our se
Ñĭ Ðµ
are nt
Ġi Spyoo
per ation
Ġà¤ĳ à¤«
ÙĬ Ø©
æĸ ¹
Ġright s
ĠShare Point
çľ Į
akm anch
H S
a ar
g ufg
k u
o ch
t al
â īĪ
é Ĺ
Ġ hab
à¥į à¥ģà¥ģ
à¥ĭ ï¿½
à¤® à¤ıà¤ķ
à¤¸ à¤īà¤²
à¤ª à¤Ĺà¤¨
à¤µ à¤°à¤¸à¤¹
Ġà¤Ĺ à¤²à¤²
à¥Ī à¥¤âĢĻ
Ġà¥¤ ....
à¤ı à¤¡à¤®
à¤ı à¤ıà¤¨à¤ı
à¤§ à¤¦à¤°
Ġà¤¦ à¤Ī
à¤¥ à¤µà¤°
à¤¥ à¤²à¤²à¤Ĺ
Ġà¤² à¤¶
Ġà¤² à¤²à¤ķ
à¤ĩ à¤ªà¤¨
à¤°à¤¤ à¤ªà¤Ľ
Ġà¤§ à¤¯
à¤¨à¤² à¤¸
à¤Ŀ à¤¹à¤°
à¥Įà¤Ĥ Ã·
Ġà¤²à¤Ĺ à¤¨à¤²
à¤°à¤¹à¤° à¤²
à¤µà¤¨ à¤Ĺ
à¥§ à¥¦à¥¯
Ġà¤¸à¤° à¤«
à¤¦à¤¨ à¤Ńà¤¨
à¤¨à¤¸ à¤¬
Ġà¤ĺà¤° à¤µà¤°
à¤µà¤¤ à¤¬à¤¹
à¤¾. -
à¤¡à¤² à¤¸à¤¹
Ġà¥§à¥¯ à¥©à¥¨
à¤·à¤¯ à¤ħà¤¨
à¤¯à¤¯à¤¨ à¤¸à¤¹
à¤¯à¤£ à¤¹à¤°
à¤¯à¤Łà¤¨ à¤µ
Ġà¤Ĩà¤ł à¤¸à¤¯
à¤Ĩà¤Ī à¤ıà¤²à¤ĵ
th e
Ġm on
ĠS im
à¤°à¤Ĺ à¤£
Ġà¥©à¥¨ à¥Ń
Ġf Ã¼r
Ðµ ÑĪ
Ġd etails
Ġt raining
ĠB en
Ġth ink
Ġ19 49
ĠE asy
ĠG od
Ġà¥«à¥¬ à¥©
ĠH TML
Ġà¤ľà¤Ĺà¤¤ à¤¬
à¥¦à¥© à¥¦
ĠW ebs
ers h
Ġà¥¯à¥¬ à¥¦
Ġà¥Ĳ à¤ķ
end er
iv ely
Ġ.. |
if orm
du st
à¥§à¥¯à¥¯ à¥¨
ĠÙ ģ
ĠTrans l
que en
iter ature
Ġà¤ĨÃ ıà¤¨
ĠTe am
Bl ack
ĠÑģÐ² Ð¾
gufg af
3 14
I G
R V
m ar
m ah
â ĶĤ
é ķ
à¤° à¤Ĺà¤¤à¤ķ
à¤¿ ?âĢĻ
à¥ĭ [
à¥ĭ âĢį
à¤² à¤Ĩ
à¤¤ à¤Ļ
Ġà¤¨ à¤¨à¤¸
Ġà¤¨ à¤ĸà¤¨
Ġà¤® à¤Łà¤¨
à¤ľ à¤Ńà¤ķ
Ġà¤ħ à¤¦à¤¨
à¤¥ à¤ľà¤¸
Ġà¤² à¤Łà¤ªà¤Ł
Ġà¤² à¤ªà¤¤à¤¬
Ġà¤ī à¤¶
Ġà¤¸à¤® à¤īà¤·
Ġà¤¶ à¤¡
à¤īà¤¨ à¤¡
ĠâĢ ¯
à¤®à¤ķ à¤£
à¤®à¤ķ à¤Ńà¤¨
à¤µà¤° à¤ľ
à¤µà¤° à¤¬à¤²
à¤Ĩ à¤°à¤¤
à¤Ĩ à¤ĩà¤¤
à¤Ĩ à¤£à¤µ
à¤Łà¤¨ à¤¢
à¤ªà¤ķ à¤¸à¤®
Ġà¥ª à¥§à¥«
à¤īà¤Ł à¤°à¤ķ
à¤Ĺà¤² à¤ªà¤¨à¤ķ
à¤¸à¤¦ à¤¨à¤®
Ġà¥® à¥¨à¥¦
Ġà¤Ĩà¤ĩ à¤ıà¤¸à¤ª
Ġ! ?
à¤ĩà¤Ł à¤¸à¤®
an es
Ġà¤¸à¤¹à¤° à¤¸à¤®
st atus
ĠS ee
ic ine
à¤Ĭ à¤¸
ĠD har
ĠM P
à¤¤à¤¹ à¤¬
Ġà¥©à¥© à¥¨
ed ding
à¥§à¥¨ à¥«
Ġt echnology
ĠB y
ac es
Ġà¤¸à¤Ł à¤°à¤¹à¤°
ĠF oundation
âĢĮ à¥Ģ
Ð½ ÑĥÑİ
Ġn h
à¥ĭ) à¥¤
Ġà¥ªà¥ª à¥®
Ġà¥©à¥® à¥©
à¤Ķà¤·à¤§ à¤¸à¤®
Ġà¥Ńà¥Ń à¥¦
ot ion
à¸ Ī
Ñĥ Ð½
Ġà¤°à¤ľà¤¤ à¤ľà¤¯à¤¨
14 3
à¤ķà¤²à¤ķ à¤¤
Ð¾Ð» Ð¾Ð³
ek na
Ġpr act
Ġro ad
ĠCon struction
Ð¾ÑģÑĤ Ð¾
Â¬ âĢĵ
???? ????
ĠOr gan
Ġlong itude
Ġbo th
argin ia
Rep ort
i red
Ø ·
Ġ ï»¿
à¤¯ à¤¡à¤®
à¤¦ à¤¯à¤¨
à¤µ à¤¹à¤°à¤£
Ġà¤¨ à¤Ĺà¤¤
Ġà¤Ń à¤ĸà¤°
à¤ľ à¤·
Ġà¤¹ à¤Łà¤ķ
à¤¬ à¤Ĺà¤¨
à¤Ī à¤¨à¤¸
à¤Ī à¤®à¤°
à¤Ń à¤¯à¤¤
Ġà¤ī à¤²à¤¨
Ġà¤¸à¤® à¤¨à¤ª
Ġà¤ªà¤° à¤ļà¤ķ
Ġà¤« à¤ļ
à¤ľà¤¨ à¤¤à¤°
à¤¢ à¤Ļ
à¤ªà¤° à¤ª
Ġà¤ĺ à¤¨à¤²
Ġà¤Ł à¤¨à¤®
Ġà¤Ł à¤®à¤²
Ġà¤¡ à¤µ
à¤Ŀ à¤¨à¤®
à¥Įà¤Ĥ .....
à¤®à¤ķ à¤¬
Ġà¤ĩ à¤Ńà¤°
à¤Łà¤ķ à¤¸
à¤¯à¤µà¤¸ à¤¯
à¤ķà¤° à¤ľ
Ġà¥Ń à¥Ńà¥«
Ġà¤¸à¤¡à¤ķ à¤¤
Ġà¤¸à¤¡à¤ķ à¤Ńà¤°
Ġà¤¨à¤ľ à¤°à¤ķ
Ġà¤Ī à¤¯à¤°
Ġà¥¨à¥« à¥¬à¥¨
à¤¸à¤¹à¤° à¤¹à¤°
Ġ20 33
ar ai
à¤ĩà¤ľ à¤¤à¤°
st yle
à¤µà¤¶ à¤Ļ
or i
à¤Ĩà¤Ī à¤ıà¤¨
Ġm aterial
à¤Łà¤¨à¤Ĺà¤° à¤¸à¤®
Ġà¤¨à¤Ĺà¤¦ à¤¬
à¤ªà¤¨à¤ķ à¤°
Ġa ir
à¥§à¥« à¥¨
Ġf ix
Ġà¤ıà¤« à¤«
ĠB ay
ĠB log
Ġà¥«à¥« à¥¨
Ġà¤Ĩà¤ªà¤¤ à¤®
Ġ19 55
Ġb k
ag on
and s
ĠL ED
ãģ ĳ
Ġà¤¥à¤² à¤¹
us a
ĠW ater
à¤ĸà¤¸ à¤¯à¤²
Ġk n
Ã¬ à¤µ
aj has
à¤ħà¤µà¤¸ à¤°à¤ķ
ari us
Ġpl ace
à¤ĩà¤¨à¤ĸà¤¬ à¤°à¤¬
Ġà¨ ¦
Ġ{ \
ÑģÑĤÐ² Ð°
port ant
of queen
---------------- ----------------
4 200
I d
Ġ ant
à¤¯ à¤¯à¤¤
à¤¸ à¤ªà¤¤
à¤µ à¤Ĩà¤Īà¤ľ
à¤Ĺ à¤¡à¤²
Ġà¤® à¤¸à¤®
à¤ļ à¤ħà¤§
à¤ļ à¤¬à¤ľ
Ġà¤¸à¤® à¤¯à¤°
Ġà¤ļ à¤Łà¤°
Ġà¤¶ à¤µà¤¸
à¤īà¤¨ à¤¹
à¥ĥ ...
à¤°à¤£ à¤ħà¤¨
à¤¨à¤® à¤®
Ġà¤§ à¤¨à¤¸à¤°
à¤ªà¤¨ à¤ª
à¤°à¤² à¤°
à¤¯à¤¤ à¤¹à¤²
Ġà¤īà¤ª à¤ķà¤¥
à¤ªà¤® à¤®
âĢĵ ...
Ġà¤ĩ à¤¬à¤°
Ġà¤ĩ à¤¡à¤¨
Ġà¤ħà¤¸ à¤°à¤®
à¤°à¤¯ à¤²
à¤¨à¤¨ à¤ľ
Ġà¤¨à¤¯ à¤ª
à¤ĸà¤° à¤¸à¤®
à¤ħà¤¨ à¤ª
à¤Ĺà¤® à¤¬à¤¹
Ġà¥¯ à¥¦à¥©
à¤ªà¤² à¤¹à¤°
Ġà¥§à¥¯ à¥¦à¥§
re y
Ġ20 25
Ġà¥¨à¥ª à¥Ń
Ġà¤¶à¤¹à¤° à¤Ń
ad es
à¤®à¤£ à¤¬à¤¹
à¤Ĩà¤Ī à¤ıà¤¸à¤²
Ġl o
ĠN aya
à¤Ĭ à¤¦à¤Ľ
à¤ľà¤¤ à¤¸
à¥Ģà¤ģ ,
Ġp o
Ġs am
Ġà¤ªà¤¸à¤² à¤Ń
Ġc olle
ĠâĢ¦ à¥¤
Ġà¤ľà¤Ł à¤¹
à¤ĩà¤Ń à¤°à¤¹à¤°
Ġb lock
Ġà¥ªà¥ª à¥¨
Ġà¤· à¤¤
à¤¯à¤¨à¤ķ à¤ķ
ĠH il
Ġà¥ªà¥¯ à¥¬
à¤¤à¤ļ à¤°à¤¹à¤°
à¥įà¤¾ à¤¿
à¤Ĳ à¤²
Ġà¤²à¤¯ à¤¬à¤¦
Ġ8 7
Ġg en
ab asi
ap e
à¥¨à¥¦à¥¨ à¥¯
à¤°à¤¡ à¤®à¤ķ
ä¸ º
Ġà¤Ļ à¤µ
Ġ........ ........
ä» ¥
ĠÙħ ÛĮ
à¤«à¤¸à¤² à¤¬
ï»¿ (
ĠÑį ÑĤ
åľ °
Ġvi ews
atn anagar
Ġwr ite
ĠTri o
Ġnick name
( /
. âĢ¦
O s
n i
à¤ķ à¤ªà¤°
à¤® à¤¯à¤¦
Ġà¤¸ à¤ĩà¤¦
Ġà¤¬ à¤°à¤¹
Ġà¤¬ à¤°à¤²
Ġà¤Ĺà¤° à¤¬
à¤¬ à¤ŀ
à¤¬ à¤°à¤£à¤ķ
à¤§ à¤Ĺà¤°
à¤¶ à¤µà¤¨
Ġà¤¯ à¤Ī
Ġà¤¯ à¤§à¤ª
Ġà¤Ńà¤¨ à¤ª
à¤Ļ à¤ħà¤¨
à¤ľà¤¨ à¤Ĺà¤£à¤¨
Ġà¤®à¤¹ à¤²à¤²
à¤ªà¤¨ à¤¸à¤¹
à¤¯à¤¤ m
à¤®à¤ķ à¤¦
Ġà¤ĩ à¤Ĩà¤ĩà¤ı
à¤µà¤ķ à¤¯
à¤µà¤ķ à¤°à¤ķ
Ġà¤ħà¤¸ à¤¦à¤²
à¤Ĺà¤¤ à¤¹à¤°
Ġà¤Ńà¤ı à¤°à¤®
à¤²à¤¨ à¤¹
Ġà¤ħà¤µà¤¸ à¤°à¤¸
Ġà¤¸à¤° à¤¯
Ġà¥ª à¥¦à¥ª
à¤¶à¤¨ à¤ħà¤ĺ
à¤°à¤¶ à¤¯
à¤ķà¤°à¤£ à¤Ń
à¤ķà¤°à¤£ à¤Ńà¤¨
Ġà¤Ĩà¤īà¤¨ à¤²
à¤®à¤ļ à¤°à¤£à¤®
Ġà¥§à¥¯ à¥¦à¥¬
Ġà¥§à¥¯ à¥¨à¥®
er c
à¤ķà¤Ł à¤¸à¤®
an z
à¤ıà¤² à¤ıà¤¨à¤²
Ġà¤ķà¤ł à¤°
Ġm ark
com p
ĠA M
ĠA S
Ġp ower
Ġp oss
ĠC opy
ĠT HE
ĠP ublic
ĠM en
à¤ıà¤« à¤Ĩà¤°à¤®
Ġc urrent
Ġà¤¦à¤²à¤² à¤Ĺ
oo se
Ġà¥©à¥® à¥§
ĠE OI
à¤īà¤ľ à¤°à¤²
ĠH all
à¤¾à¤ĥ ,
Ġà¥¯à¥® à¥¦à¥Ń
Ġà¤ĸà¤ªà¤¤ à¤²
ia b
Ġv arginia
Ġà¤¬à¤¬ à¤Īà¤®
à¥¨à¥¦à¥¨ à¥Ń
à¥¨à¥¦à¥¨ à¥¬
à¤¸à¤Ĺ à¤ŀ
à¤¨à¤µà¤¤ à¤¸
Ġbe fore
Ġcom pany
Ġà¤ħà¤²à¤® à¤²à¤ķ
Ġr ay
ek t
à¤īà¤ªà¤¦ à¤«
æĿ ¥
bscri be
ĠPu ja
= âĢĿ
M CPM
h al
Â ¤
Ð £
Ġ à½
à¤° à¤Ĺà¤®
à¤ķ à¤°à¤¬à¤¹
à¤® à¤«à¤²
Ġà¤ª à¤¡à¤¨
à¤Ĺ à¤ķà¤®
à¤Ĺ à¤¨à¤¸
Ġà¤Ĺ à¤¡à¤µ
à¤Ł à¤¸à¤¸
Ġà¤¬ à¤¶à¤¨
à¤ľ à¤¯à¤¤
Ġà¤ħ à¤¬à¤¨
Ġà¤µ à¤²à¤°
à¤· à¤ªà¤¶
Ġà¤¦ à¤ª
Ġà¤¦ à¤ľà¤°
à¥Į ?âĢĿ
Ġà¤¶ à¤¯à¤¨à¤ķà¤ķ
Ġà¤ªà¤¨ à¤²
à¤¸à¤® à¤¬
à¥ģà¤ģ âĢĻ,
à¤¤à¤® à¤²à¤Ĺ
Ġà¥« à¥¦à¥©
à¤¡à¤ķ à¤°à¤ķ
à¤¬à¤° à¤ľà¤¤
à¤®à¤² à¤Ĺà¤¢
âĢĿ .
à¤µà¤¤ à¤¹
Ġà¥¯ à¥§à¥¨
à¤¤à¤ª à¤Łà¤ķ
Ġà¤¤à¤¹ à¤µ
Ġà¥§à¥¯ à¥¨à¥«
Ġà¤Ī à¤®à¤°
Ġà¤ıà¤¨ à¤ıà¤®à¤¸
à¤¹à¤® à¤¦à¤²
Ġ20 42
à¤¯à¤¬ à¤§
à¤ĩà¤¡ à¤°à¤®
ĠS o
Ġà¤Ĩà¤ı à¤ħà¤¨
à¤Ĭ à¤ª
à¤¤à¤¸ à¤°à¤¹
Ġf am
Ġth ree
ac he
ĠF ore
à¤¾à¥Ī à¥¤
Ġà¤ķà¤¦à¤® à¤µ
ĠE r
ĠL ess
Ġà¤ħà¤¨à¤¶à¤¨ à¤ª
ãģ Ī
10 8
ol lywood
ĠW ild
à¥¨à¥¨ à¥¨
ĠNepal iko
à¤²à¤Ĺà¤¨ à¤ĸ
Ġg reat
Ġwh itening
à¥¨à¥¦à¥© à¥¨
áŀ ĵ
Ġà¥§à¥®à¥¯ à¥¬
Ġ...| ...
ÑģÑĤÐ² Ð¾
ĠNEPAL IKO
blog ger
ĠÐ» Ñİ
do ctor
ux ury
ãĥ³ ãĤ
stit ute
NEPAL IKO
ðŁĴ ¿
ĠDhar abasi
, à¥ĩ
, âĢĵ
M ay
N ote
S ep
W ebsite
n ie
Ø ®
Ø Į
ç ķ
à¤¨ à¤īà¤¤
à¤ķ à¤£à¤¬
à¤² à¤¤à¤¨
à¤¸ à¤°à¤µ
à¤ı à¤Ĩà¤°à¤ķ
Ġà¤® à¤ľà¤ķ
à¤¡ à¤¤à¤¨
Ġà¤² à¤ĸà¤°
à¤Ń à¤ĺ
à¤ĩ à¤Ĺà¤°à¤²
à¤¾à¤ģ '
à¤°à¤¸ à¤Ń
à¤ªà¤¤ à¤ª
à¥« à¥¨à¥¦à¥§
à¤°à¤µ à¤Ĺ
à¤°à¤¬ à¤¤
à¤Łà¤¨ à¤¸à¤¤
Ġà¥Ń à¥§à¥¯
Ġà¥Ń à¥§à¥«
à¤Łà¤® à¤ªà¤Ľ
à¤ľà¤® à¤¹à¤²à¤ķ
à¤¨à¤µ à¤Ĺà¤ł
à¤¡à¤® à¤¹à¤°
à¤·à¤¯à¤® à¤§
à¤®à¤¹ à¤¤à¤²
Ġà¤ħà¤ªà¤° à¤¹à¤£
Ġà¤Ńà¤Ł à¤Ł
Ġà¤Ńà¤Ī à¤°
Ġà¤µà¤¨ à¤¦
à¤¾âĢĻ à¥¤
Ġà¥¨à¥© à¥¦à¥¦
Ġm ade
ĠC re
ĠT echn
ew a
ĠI C
el ing
ĠG l
ãģ Ŀ
ist a
Ġe vent
Ġ8 9
Ġà¤ĩà¤Ļ à¤¨
end e
ug g
ãĥ ©
Ġà¤²à¤ĸà¤¨ à¤īà¤ķ
ER V
Ġr un
à¹ Ħà¸
Ġ205 7
áŀ ĺ
itt en
Ġà¤¹à¤°à¤ķ à¤¤
Ġhe alth
æĸ ĩ
Ġà¤ıà¤¨à¤ıà¤® à¤ıà¤²
ĠPe ace
à¤ªà¤łà¤¨ à¤ª
mitt ed
ĠVER SP
Ġ..| ...
! "
H UB
L ist
S amachar
h n
k er
Ñ Ĭ
Ø µ
à ¯
é ļ
Ġ ê
à¤¨ à¤Īà¤®
Ġà¤¸ à¤ľà¤²
à¤¹ à¤µà¤²
à¤µ à¤Łà¤¬
à¤Ĺ à¤µà¤¸
à¤Ĺ à¤µà¤¤à¤ķ
à¤Ł à¤ħà¤Ĺ
à¤¶ à¤ªà¤¥
à¤ıà¤ķ à¤ªà¤²
à¤¡ à¤¯à¤¨à¤ķ
à¤ī à¤¶
à¤¹à¤° à¤¨
à¤ĩ à¤ł
Ġà¤ĸ à¤Ļ
à¤Ļ à¤ķà¤ķ
à¤ªà¤° à¤Ļ
à¤ĺ à¤¯
Ġà¤ıà¤ķ à¤¹à¤¦à¤¸à¤®
à¤²à¤ķ à¤¹
à¤°à¤¹ à¤Ĺ
à¤¤à¤° à¤§
à¤¤à¤° à¤ªà¤¨
à¤Ŀ à¤®à¤ķ
à¤¯à¤¤ à¤¬à¤¸
à¤¾, '
à¤¸à¤¨ à¤¯à¤¨
à¤°à¤¬ à¤²à¤²
à¤ķà¤ķ à¤¨
à¤ķà¤ķ à¤°à¤£
à¥Įà¤ģ âĢĿâĢĵ
Ġà¤ĵ à¤ľà¤ª
Ġà¤ħà¤Ĺ à¤¨
à¤ıà¤¨ à¤Ľà¤¨
Ġà¤Ĩà¤® à¤§
à¤¬à¤² à¤¤à¤°
Ġà¤®à¤¹à¤¤ à¤¸
à¤°à¤¨ à¤°
Ġà¤Ĳ à¤¨à¤¨
à¤ıà¤® à¤ĵ
à¤Ńà¤µ à¤ľà¤¸
Ġà¤ıà¤¨ à¤ħ
à¤ªà¤Łà¤ķ à¤¥
à¥¤âĢĻ âĢĺ
à¤Ĺà¤¢ à¤¹à¤°
à¥Ģ) -
Ġà¤Ĳà¤¨ à¤¸à¤®
à¤®à¤ª à¤¸
à¤ĸà¤¨ à¤¸à¤®
à¤ıà¤² à¤ıà¤¨à¤ķ
ad min
à¤¾à¥¤ "
Ġp erm
ĠD E
à¥ĩ. ,
Ġà¤Ĺà¤ı à¤Ĺ
is ing
00 00
ĠB ik
à¤·à¤Ń à¤¤
el lo
à¥§à¥® à¥©à¥§
à¤¨à¤Ń à¤ı
Ġà¥©à¥ª à¥Ń
ch and
ĠH atiya
Ġà¥«à¥¨ à¥§
ãģ ©
Ġà¤¦à¤®à¤ķ à¤¬
Ġà¥«à¥¯ à¥©
Ġe qu
à¥§à¥¯à¥¯ à¥¬
Ġà¤¸à¤¯à¤® à¤¦
Ġr atnanagar
ens ion
ĠÑĤ ÑĢ
à¤Łà¤Ĩà¤īà¤Ł à¤¬
ĠBl uetooth
ä» ¬
å® ¶
MP TE
Ø¨ Ø±
\\ \\
Ð¾Ð»ÑĮ Ð·
ĠWik ipedia
ĠPER SON
Ġratnanagar news
D I
F or
J ee
L TE
g n
u j
æ ±
é ħ
à¤ ĳ
à¥į *
à¤¨ à¤ĸà¤®
à¤¨ à¤¹à¤¸
à¤® à¤°à¤µ
à¤¯ à¤īà¤¨
à¤¹ à¤¯à¤ķ
à¤¹ à¤ħà¤µà¤°
à¤ª à¤µà¤°
à¤¦ à¤Ńà¤°
à¤¦ à¤¶à¤¤
Ġà¤ķ à¤łà¤®
Ġà¤° à¤¸à¤°
à¤Ł à¤¸à¤¹à¤°
Ġà¤¨ à¤ļà¤°
Ġà¤Ń à¤°à¤²
à¤· à¤®à¤®
Ġà¤¤ à¤¸à¤²
Ġà¤¤ à¤ĸà¤²
Ġà¤¤ à¤Łà¤µà¤°
à¤¡ à¤¥
à¤Ń à¤ħà¤¨
à¤« à¤¨à¤²
à¤¨à¤® à¤Ĺ
Ġà¤ľà¤¨ à¤¬à¤°
à¤°à¤¹ à¤¸à¤¹
à¤ĩà¤¨ à¤ĸ
à¤ķà¤² à¤¯à¤®
Ġà¤ĩ à¤¦à¤®
à¤¸à¤² à¤Ń
à¤īà¤Ł à¤®
Ġà¥¬ à¥Ńà¥¬
Ġà¤¢ à¤Ĺ
Ġà¤¢ à¤²à¤¨
à¤ĵ à¤¦
Ġà¥¯ à¥¦à¥®
à¤¬à¤² à¤¸
Ġà¥§à¥¯ à¥§à¥©
Ġà¥§à¥¯ à¥¨à¥¨
à¤¯à¤¦ à¤²à¤¬
à¤¨à¤¯ à¤¶
om a
à¤£à¤® à¤£
ad ha
Ġm a
Ġm ill
à¤¤à¤µà¤¨ à¤¤à¤°
Ġà¥©à¥« à¥¨
à¤Łà¤¨à¤Ĺà¤° à¤¦
ĠM ax
à¤®à¤°à¤£ à¤¯
Ġc ele
Ġd irect
à¤¦à¤¯ à¤ļà¤¨
Ġà¥©à¥¬ à¥¬
Ġb etter
Ġ6 8
ig er
ra Khabar
áĥ ļ
à¤Ļà¤Ł à¤¨à¤®
à¤Ļà¤Ł à¤¨à¤²
ash ing
Ð² ÐµÑĤ
Ð¾Ð² Ð°ÑĤÑĮ
Ġcom ple
29 81
ĠPl us
à¤²à¤ł à¤Ł
Ġ197 7
Ġà¦ ¬
ĠÐ³ Ð¾Ð´
ãĥ¼ ãĤ
fin ed
ĠEd ition
Jee van
" :
N Y
P L
[ [
m es
Ï Ĥ
Ï ĥ
ç ²
è Ĥ
ă ...
Ġ à¥įà¥¤
à¥į à¤¿à¤¾
à¤¨ à¤ıà¤ķ
à¤² à¤¥à¤²
à¤¤ à¤¸à¤¤
à¤¸ à¤¶à¤ķ
Ġà¤ķ à¤¹à¤¨
Ġà¤° à¤£à¤ķ
Ġà¤µ à¤ĸ
à¤§ à¤°à¤¹
à¤§ à¤¸à¤Ļ
à¤¶ à¤ľà¤Ļ
à¤ĸ à¤¯à¤¤
à¤°à¤ķ à¤£
à¤« à¤ªà¤Ľ
à¤« à¤²à¤¬
à¤Ĺà¤° à¤¸à¤¹
à¤°à¤¹ à¤¨à¤ķ
à¤¯à¤¸ à¤°à¤¹
à¤¾, âĢ¦
à¤µà¤° à¤µà¤²
Ġà¥© à¥¦à¥Ń
à¥Įà¤ģ ),
à¥Ń à¥§à¥«
Ġà¥ª à¥¦à¥©
à¤ĵ à¤ĩ
à¤ĵ à¤ªà¤Ľ
à¤Ĺà¤® à¤°
Ġà¤ĺà¤° à¤ľà¤¸
à¤¾à¥ĩ à¥ĩ
Ġà¤Ĩà¤® à¤¸à¤®
Ġà¤ħà¤¤ à¤¹à¤°
Ġà¥§à¥¯ à¥¨à¥¯
à¤ĩà¤ķ à¤°à¤²
à¤¯à¤¯à¤¨ à¤¦
re as
Ġà¤°à¤ķ à¤¡
Ġà¤Ńà¤Ī à¤ķà¤¨
à¤¸à¤¸ à¤Ĺ
Ġà¤Ńà¤ıà¤¨ à¤Ńà¤ıà¤ķ
Ġà¤¸à¤¹à¤° à¤¦
à¤Ĩà¤Ī à¤¯
ĠS MPTE
ic ation
Ġl ady
ha i
ĠD ainik
ĠT om
à¤Łà¤¸ à¤²à¤®
à¥Ģ. :
ĠM ult
is ed
Ġd ies
à¤°à¤Ļ à¤¦
Ġà¤ªà¤Ł à¤ķà¤²
ĠF ix
et es
à¥§à¥® à¥¯
Ġà¥©à¥¬ à¥©
Ġ19 53
Ġà¥©à¥ª à¥©
Ġà¥©à¥ª à¥¯
Ġà¥ªà¥® à¥¨
ĠE mb
Ġh uman
ĠG ood
à¤Ĩà¤ĩ à¤ıà¤¨
ĠL og
Ġà¥«à¥® à¥¬
Ġà¤¦à¤µ à¤¦à¤µ
Ġà¥Ńà¥© à¥©
Ġe ffect
à¤¸à¤¡à¤ķ à¤¸
ra v
Ġg irl
Ġv ot
our t
à¤ĭ à¤ļ
ĠSt at
amp le
Ð¾ÑĢ Ð¾Ð´
à¥įâĢ¦ )
Ġà¤ľà¤¯à¤¨à¤Ĺà¤° à¤¬
Ġà¤Ĩà¤Īà¤ıà¤®à¤Ī à¤Ĩà¤Ī
NE SE
Ġ196 5
Ġpr int
ĠØ¨ Ùĩ
ãĥ¼ ãĥ
ĠServ ices
æĪ Ĳ
977 41
à¸Ń à¸ĩ
âĸ ª
aur us
åŃ ¦
Ġà¤ķà¤®à¤²à¤¨ à¤¯à¤¨
Ġresp ons
è¨ ĺ
Ġinclud ing
4200 85
HUB CL
( \'
P I
T witter
Ë Į
Ð Ľ
ç ®
ç Ħ
Ġ Ê»
à¤° à¤¯à¤¨
à¤¨ à¤¶à¤®à¤¶
à¤¤ à¤¦à¤¨
à¥ģ à¥Ģ
à¥Ģ à¥ĥ
Ġà¤ª à¤¦à¤¨
Ġà¤ª Ãŀm
à¤¦ à¤ľà¤°
à¥Ī &
à¤ı à¤°à¤¹
Ġà¤¹ à¤¡à¤°
Ġà¤¤ à¤¨à¤ķ
Ġà¤¦ à¤°à¤¸à¤¨
Ġà¤Ĩ à¤ļà¤°
à¤ļ à¤®à¤ķ
Ġà¤¸à¤® à¤¯à¤¨
Ġà¤ı à¤Ĩà¤Īà¤ķ
à¤¸à¤ķ à¤Ńà¤°
à¤¯à¤® à¤ľà¤¸
à¤¨à¤² à¤¸à¤¹
à¤°à¤¹ à¤ħà¤¨
Ġà¤µà¤° à¤ªà¤°à¤¬
à¤ħ à¤¨à¤ķ
Ġà¤ķà¤® à¤Ĺà¤°
Ġà¤²à¤Ĺ à¤Ńà¤ķ
à¤¸à¤² à¤¤
à¤Łà¤¨ à¤°à¤¹à¤°
à¤¤à¤¨ à¤Ĺà¤°à¤ķ
Ġà¤¸à¤° à¤ªà¤²
à¤ľà¤ķ à¤ª
Ġà¤ķà¤² à¤ª
à¤ľà¤¸ à¤Ń
à¤Łà¤² à¤Ń
à¤°à¤¨ à¤°à¤¸
à¤¦à¤² à¤Ń
à¤²à¤¸ à¤Ł
Ġà¤Ĺà¤łà¤¨ à¤¬à¤¨
al y
Ġà¤Ĩà¤ª mà¤¨
à¥ĢâĢĻ ...
à¤Ķ à¤§
à¤¤à¤°à¤® à¤§
à¤¸à¤¨à¤² à¤¸
à¤Ĭ à¤¹à¤°
Ġà¤®à¤¨à¤® à¤¨à¤®
Ġp i
ĠD a
ĠC A
ĠC all
ĠT em
Ġa bs
Ġd an
Ġd etail
ĠI d
Ġt rad
ĠR E
Ġà¥©à¥ª à¥¬
Ġ5 000
à¤¤à¤ļ à¤°à¤ķ
Ġà¥Ńà¥© à¥®
Ġà¥¬à¥¬ à¥¦
Ġà¥¬à¥¬ à¥¬
Ġ9 7
à¥ĩâĢ¦ .
ab al
à¤°à¤¬à¤¦ à¤²à¤²
ash ion
ham ro
à¤¤à¤¨à¤Ĺà¤° à¤¸
Ġà¤ķà¤¨à¤ķ à¤®
av ator
Ġà¤ľà¤¯à¤¨à¤Ĺà¤° à¤¸à¤®
Ã¤ r
han i
ĠInd ust
ĠBh att
vent ion
Ġ37 001
ett ing
à¤ıà¤¸à¤ĩ à¤ĩ
Ġbel ow
Ġbel ie
ĠDes ign
ĠTest ament
Ġbec ause
- '
A Y
c ast
d om
e h
k sh
p ad
à¤¨ à¤¡à¤°
à¤¨ à¤Ĩà¤ķà¤°
Ġà¤ª à¤¤à¤°
à¤¹ à¤£à¤¸
à¤¦ à¤ªà¤¨
à¤Ĺ à¤°à¤¤
à¤Ĺ à¤°à¤£à¤²
Ġà¤¨ à¤īà¤ķ
Ġà¤Ń à¤ļ
Ġà¤Ń à¤¯à¤¨
Ġà¤¤ à¤°à¤£
Ġà¤² à¤µà¤°
à¤ī à¤ıà¤ķ
à¤ī à¤Ĺà¤°
Ġà¤¸à¤® à¤¥
à¤ĩ à¤ľà¤¨à¤ķ
à¤« à¤®à¤®
à¤°à¤¸ à¤¦
Ġà¤²à¤Ĺ à¤¤à¤®
Ġà¤¸à¤¦ à¤®
Ġà¥¬ à¥§à¥¦
Ġà¤Ĩà¤ľ à¤¸
Ġà¤ķà¤² à¤¹à¤®
Ġà¤¸à¤¤ à¤¹à¤²
Ġà¤¦à¤¶ à¤²à¤®
à¤ķà¤Ł à¤µ
Ġà¥¦ à¥§à¥¬
an o
Ġà¤ħà¤¡ à¤ķà¤²à¤¬
Ġà¤ªà¤² à¤ªà¤²à¤®
st ate
Ġm ember
ĠS EO
à¤Ĭ à¤²à¤²
Ġp np
ou ch
Ġà¤ķà¤®à¤² à¤ľ
Ġs ocial
Ġa v
à¤ıà¤« à¤ıà¤®
le ar
Ġà¥Ńà¥« à¥«
Ġà¥©à¥© à¥¯
ing bo
ĠB rowser
Ġo ch
Ġ19 42
Ġw omen
ag er
à¤µà¤¸à¤® à¤ķ
Ġin dust
Ġà¥ªà¥® à¥Ń
Ġh ard
Ġà¥«à¥ª à¥¯
à¤¡à¤¹à¤° à¤®
tt e
à¤¬à¤¢ à¤®
Ġà¤ħà¤µà¤¤à¤°à¤£ à¤®
Ñĥ Ð¼
Ġg l
Ġv ari
ãĤ ģ
Ġà¤¸à¤¦à¤¨ à¤¦
ĠCh inese
Ġà¤ħà¤¹à¤® à¤¦à¤ķ
Ġà¤ıà¤ħ à¤°à¤¬à¤¸
ĠÑģ Ð°Ð¹ÑĤ
à¥«à¥« à¥«
Ġcom e
Ġun s
Ġun t
ide os
und ai
à¤¨à¤ªà¤Łà¤ķ à¤¸à¤®
Ð°ÑĢ ÑĤ
Ġ196 7
å® ī
Ġ75 0
åĪ Ĩ
Ð°Ð± ÐµÑĤ
Ġà¤ķà¤Łà¤ķ à¤Ł
ĠRoad s
ãģĭ ãĤī
ĠExc avator
è¦ ģ
à¥¨à¥¯à¥« à¥¦à¥Ńà¥¨
vir on
Ġà¥¯à¥®à¥¦à¥Ń à¥¨à¥¯à¥«à¥¦à¥Ńà¥¨
Ġpnp khabar
A I
l à¤²
m ary
r ay
æ ¸
à¤¿ âĢĺ
à¤² à¤Ļà¤ķ
à¤¸ à¤¸à¤¬
à¤¸ à¤ľà¤°
à¤ª à¤ĸà¤²
à¤µ à¤®à¤²
Ġà¤¨ à¤Ļà¤®
Ġà¤® à¤ªà¤¨
à¤· à¤®à¤¨
à¤· à¤¸à¤¤
à¤§ à¤¤à¤²
à¤Ĥ à¥ĩ
à¤Ľ à¤¡à¤ķ
à¥Į "
Ġà¤¥ à¤¹
Ġà¤ªà¤° à¤µà¤°
à¥ĥ à¥¤
à¤ĺ à¤łà¤¨
à¤¤à¤° à¤Ń
à¤¤à¤° à¤¸à¤¹
Ġà¤¸à¤¹ à¤²à¤Ĺ
à¤ªà¤¤ à¤¯
à¤®à¤ķ à¤¹à¤°
à¥« à¥¨à¥¦à¥¨
Ġà¤ħà¤¸ à¤°à¤¦
à¤²à¤¨ à¤Ńà¤¨
à¥® à¥ªà¥®
Ġà¥Ń à¥¦à¥«
à¤²à¤Ĺ à¤£
Ġà¤ħà¤¬ à¤¸à¤°à¤ķ
à¤¦à¤ķ à¤¸à¤®
à¤°à¤¨ à¤ª
Ġà¤ħà¤² à¤ļ
Ġà¤ħà¤² à¤ĸ
Ġ... à¥¤
Ġà¤¨à¤Ń à¤¯à¤ķ
à¤ĩà¤ķ à¤Łà¤¹à¤°
Ġà¤ıà¤¨ à¤«
Ġà¥§à¥® à¥ªà¥Ń
à¤Ĩà¤° à¤ıà¤«
Ġà¥¦ à¥©à¥ª
Ġ20 29
à¤ĸà¤² à¤Ļ
Ġà¥¨à¥Ń à¥¦à¥¦
Ġà¤Ĭ à¤Ń
à¤Ĺà¤łà¤¨ à¤¸à¤®
à¤°à¤° à¤°
à¤µà¤Ł à¤¸
Ġà¤¸à¤ª à¤¥à¤ķ
Ġà¤Ĩà¤ĩà¤ª à¤¡
ĠS C
Ġl as
it iz
ĠA udio
ĠP ark
ĠP OWER
Ġà¤Ĩà¤¸ à¤¯à¤ªà¤¤
à¥§à¥¯ à¥¦
Ġc ryptocurrenc
à¤ĸà¤¤ à¤Ń
Ġ19 68
Ġn am
id er
Ñģ Ð»
Ġà¥©à¥Ń à¥¬
ĠG SM
lo y
ak h
ri al
Ġà¤¬à¤¦ à¤²à¤¨
eb han
ber g
Ġà¤ľà¤¯ à¤Ĺà¤¢
à¤µà¤Ĺ à¤£à¤ķ
Ġch ange
Â» ,
Ġà¤²à¤ĸà¤¨ à¤īà¤¸
du ce
Ġad ams
ain ing
Ġ197 4
?' |
ĠðŁĻ Ĥ
LO G
yt ics
ĠHot el
ĠSer ies
ĠLove ofqueen
E ng
S ub
h er
m à¤²à¤®
m à¤¸à¤²
r at
v ille
w ik
Ð ĵ
å Ģ
è ī
à¤¨ à¤§à¤°
à¤ķ à¤¬à¤²
à¤¤ à¤¡à¤¬
Ġà¤¸ à¤Īà¤ķ
à¤¦ à¤®à¤²
Ġà¥ ľ
Ġà¤ķ à¤¨à¤¸
à¤Ĺ à¤Ĺà¤¤
à¤Ĺ à¤¡à¤ķ
Ġà¤¹ à¤¦à¤²
Ġà¤µ à¤Ĺà¤°
à¤¥ à¤Ĺà¤¤
Ġà¤Ĩ à¤¤à¤ķ
à¤ļ à¤¡à¤²
Ġà¤² à¤µà¤¦
à¤ĩ à¤µà¤¸
Ġà¤ļ à¤°à¤®à¤®
à¤Ļ à¤ķà¤®
à¤Ŀ à¤¸
à¤ªà¤® à¤²
à¤µà¤¨ à¤Ńà¤¨
à¤Ĩ à¤Ĭ
à¤Ĩ à¤ªà¤¤à¤ķ
à¤²à¤¨ à¤ħà¤ĺ
à¤¸à¤¨ à¤¤
à¤°à¤¬ à¤²à¤ķ
Ġà¥« à¥¦à¥¬
Ġà¥« à¥¦à¥¯
à¤®à¤¨ à¤¹
à¤®à¤¨ à¤¬à¤¹
Ġà¥¬ à¥©à¥¦
à¤¨à¤¸ à¤°à¤ķ
Ġ? âĢĵ
Ġà¤¨à¤Ĺà¤°à¤ª à¤ŀ
à¤¹à¤¨ à¤¶
Ġà¤¬à¤² à¤ľ
Ġà¤ħà¤¤ à¤ıà¤µ
Ġà¤ħà¤ª à¤ľà¤¸à¤ķ
à¤ľà¤² à¤¸à¤ķ
Ġà¥§à¥§ à¥®à¥®
à¤ĩà¤Ł à¤°à¤®
Ġà¤¨à¤° à¤Ĺ
Ġà¤ķà¤ª à¤Łà¤ª
Ġà¥§à¥® à¥¯à¥«
Ġà¤Ĩà¤Ī à¤¡à¤²à¤®
Ġà¤Ĭ à¤·
à¤¨à¤¦ à¤£
Ġà¤®à¤¦ à¤¨à¤¨
Ġl ast
ĠÐ Ĺ
ĠD ie
à¥§à¥¯ à¥«à¥¦
ĠM O
à¥ĭâĢĻ âĢĻ
Ġf ore
ur ance
Ġo d
Ġà¤ķà¤¦à¤® à¤ªà¤Ľ
ĠE V
Ġre ally
Ġ6 9
ist ics
à¤¨à¤¶ à¤Ł
Ġk b
iv en
Ġpost date
Ð¼ ÐµÐ½
à¥¯à¥® à¥«à¥§
Ġare a
ge ther
ïģ Ń
Ð°ÑĤ ÐµÐ»ÑĮ
ert ific
Ø§Ø ¨
ĠInd ian
Ñī Ðµ
ä» ¶
Ð¸Ð½ Ð°
ĠWh ite
Ġà¤ħà¤¬à¤¶ à¤°à¤®
Wh ite
OC AL
spl it
à¥§à¥©à¥« à¥¯à¥¦
ĠTib raKhabar
display style
D ec
G u
H D
r an
à¤¾ ă...
à¤² à¤¦à¤°
Ġà¤¸ à¤²à¤ķà¤ª
à¤¹ à¤µà¤¸
à¤µ à¤Ľà¤¨
à¤µ à¤ħà¤Ń
à¤Ĺ à¤Ī
à¤Ł à¤ªà¤²
à¤§ à¤ľà¤²
à¤§ à¤°à¤£à¤¸à¤Ń
à¤¥ à¤¸à¤¹à¤¯
à¤ģ à¥ĩ,
à¤ģ à¥Īà¤Ĥ
à¤ļ à¤ħà¤²
à¤Ń à¤²à¤¤
à¤ĸ à¤¡à¤ķ
à¤ĸ à¤¡à¤²
à¥¤ âĢĶ
à¤ĩ à¤¯à¤ķ
Ġà¤ļ à¤¹à¤°
à¤« à¤®à¤°
Ġà¤¶ à¤µà¤µ
à¤ł à¤ªà¤Ľ
à¤¸à¤® à¤·
à¤ªà¤° à¤Ł
à¤ªà¤° à¤«
Ġà¤ıà¤ķ à¤ªà¤Ł
à¤Ĺà¤° à¤¦
à¤ħ à¤°à¤µ
à¤ħ à¤ķà¤¸
à¤°à¤¦ à¤¹à¤ķ
... ,
à¥« à¥©à¥¨
à¥§ à¥¦à¥©
à¤²à¤¯ à¤²à¤ķ
à¥Īà¤Ĥ âĢĻ
à¤¡à¤ķ à¤°à¤²
à¤¦à¤¨ à¤¯
Ġà¤ĵ à¤ªà¤¨à¤®
Ġà¥Ń à¥¦à¥©
Ġà¥Ń à¥¨à¥Ń
à¥įâĢ ĺ
Ġà¤¦à¤² à¤¦à¤²à¤¬
Ġà¥¤âĢĻ -
Ġà¤¬à¤ļ à¤¨à¤²
re g
at ured
Ġà¤²à¤¡ à¤¦
à¤ıà¤² à¤ıà¤¸
Ġm ar
à¤Łà¤µ à¤¯à¤°
ĠS pe
ĠS oftware
ic ro
à¤¶à¤¨à¤² à¤®
Ġà¤¤à¤²à¤¬ à¤¸à¤®
à¥§à¥¨ à¥¬
Ġt echn
ur o
ĠB ul
à¤·à¤Ń à¤°à¤®
Ġ4 000
Ġà¥©à¥¯ à¥¯
Ġà¥ªà¥© à¥¨
ĠK ey
Ġà¥ªà¥¯ à¥§
ip l
à¦ ĩ
âĢ¦âĢ¦ ..
Ġ= =
Ø± Ø¯
ĠÃ ¤
à¤¸à¤Ĺà¤¢ à¤ķ
FA Q
rig ation
olog ical
Ġupd ated
empor ary
viron ment
; à¥¤
I f
O ne
c s
e ver
m et
s l
Ð ĳ
Ð Ķ
æ Ļ
Ġ ÑĪ
à¥į ....
à¤¨ à¤°à¤¦
à¥ĩ à¥ĩ,
à¥ģ âĢĺ
Ġà¤ª à¤«à¤°
à¤µ à¤ĩ
Ġà¤Ĺ à¤¹à¤°
Ġà¤° à¤¨à¤¬
à¤ı à¤ĵ
à¤¬ à¤ļà¤¨
Ġà¤¤ à¤ľà¤µ
à¤¥ à¤°à¤¹
à¤¥ à¤²à¤¨
à¤¡ à¤¸à¤¨à¤²
Ġà¤² à¤¤à¤²
Ġà¤² à¤¸à¤ª
à¤ĸ à¤°à¤µ
Ġà¤ļ à¤®à¤°
à¤¯à¤ķ à¤¸à¤¹
à¤ł à¤ĸ
Ġà¤ħà¤¨ à¤°à¤¸
Ġà¤ľà¤¨ à¤¸à¤¹à¤¯
à¤¯à¤¸ à¤Ĺ
à¤°à¤¸ à¤°à¤¹
à¤ķà¤² à¤ª
Ġà¤²à¤Ĺ à¤²à¤Ĺ
Ġ( (
à¥§ à¥§à¥¦
à¤Łà¤° à¤ľà¤¤
à¤¤à¤® à¤ľ
à¤·à¤ķ à¤Ń
Ġà¥ª à¥§à¥¬
à¤¯à¤° à¤ªà¤Ľ
Ġ? âĢĿ,
à¤ħà¤¨ à¤°
Ġà¤ĩà¤¨ à¤Ń
à¤ıà¤¨ à¤ĵà¤¸
Ġà¥¯ à¥¨à¥¯
Ġà¤īà¤® à¤Ł
Ġà¤Ĩà¤ĩ à¤¤à¤°
Ġà¥§à¥« à¥¦à¥¦à¥¦
à¤Ĺà¤¦ à¤¹
Ġ20 35
Ġà¥¨à¥ª à¥¦à¥¦
Ġà¤¬à¤® à¤µà¤°
ad emy
Ġm ach
ĠS anchar
Ġà¤īà¤ªà¤° à¤ĸ
ou p
ĠD ata
is ions
Ġf ield
Ġt u
ĠG TA
ãģ Ķ
à¤ĩà¤« à¤²à¤ķ
à¥¨à¥¬ à¥«
Ð» Ð¾
ĠJ im
Ġà¥¯à¥¯ à¥¬
áĥ ĵ
à¤Ńà¤ļ à¤·
?? ?
à¨ ²
Ġà¤ıà¤ħ à¤°à¤¬
Ġad v
Ġà¤ľà¤Ĺà¤® à¤Ĺ
Ġ206 7
ell a
ark i
Ġà¤ħà¤®à¤¨ à¤ļà¤¯
200 4
200 7
à¤¹à¤ļ à¤°à¤£à¤ķ
han al
Ġà¤Ĩà¤ĩà¤ĵ à¤ıà¤®à¤®
ph one
Ġdo es
à¤ĸà¤¬à¤°à¤ķ à¤°
tr ans
ĠGu ide
ĠHimal aya
Ġrel ated
Ð°ÐµÑĤ ÑģÑı
âĪ Ļ
éģ ĵ
vo ices
ĠPH P
Fl ash
Go al
global voices
ersh ip
6 00
F T
H appy
J an
d i
m orang
u v
Ã ¦
Ú º
Ġ ïģ
à¤¾ à¤¾à¤ģ
à¤° à¤ıà¤°
à¤¨ à¤ĵà¤ķ
à¤¯ à¤Łà¤°à¤ķ
Ġà¤Ĺ à¤ľà¤¨
Ġà¤° à¤¡à¤ķ
Ġà¤¨ à¤ĸà¤°
Ġà¤¬ à¤¡à¤²
Ġà¤¹ à¤łà¤²
Ġà¤Ĩ à¤°à¤£
Ġà¤² à¤Ńà¤®
à¤ĩ à¤Ĺà¤®
Ġà¤¥ à¤Ł
à¤°à¤£ à¤ķà¤°
à¤ľà¤¨ à¤Ĺà¤°
Ġà¤ıà¤ķ à¤Łà¤ķà¤²
à¤²à¤ķ à¤°à¤ķ
à¤²à¤ķ à¤®à¤²
Ġà¤ľà¤¨ à¤¤à¤ķ
à¤¯à¤¸ à¤ªà¤²
à¤ħ à¤²à¤®
à¥§ à¥§à¥«
à¤¸à¤² à¤¦
à¥įà¥¤ à¥¤
Ġà¤ĵ à¤®à¤®
Ġà¤ĵ à¤®à¤¶
Ġà¥¬ à¥¨à¥«
à¤§à¤¨ à¤Ĺà¤°à¤ķ
à¤µà¤® à¤ŀ
Ġà¤Ķ à¤¶à¤¤
à¤Ĺà¤® à¤Ĺà¤¢
à¤Łà¤² à¤Ĺà¤¤
à¤ªà¤² à¤ª
à¤¤à¤µ à¤¨à¤²à¤Ĺ
Ġ: (
Ġà¥§à¥¯ à¥¨à¥¬
Ġà¤ıà¤¸ à¤ı
à¤ļà¤² à¤Ńà¤°
à¤¯à¤£ à¤¤
à¤µà¤¤à¤¨ à¤¸
Ġà¤Ĩà¤Ī à¤¸à¤²
Ġà¤Ĺà¤² à¤¤à¤²
Ġm ul
ĠS ecurity
à¤§à¤µ à¤¬
Ġà¥©à¥« à¥®
à¤ħà¤® à¤°à¤¸
à¥Ńà¥« à¥Ń
ĠC ouncil
à¤ĩà¤ķà¤² à¤¸à¤®
à¤Ĺà¤ľ à¤°à¤¹
Ġà¤īà¤ªà¤¨ à¤¯à¤¨
ĠM ov
le ft
ĠB ro
Ġà¥«à¥« à¥®
ĠâĢ¦ âĢ¦.
à¤¾âĢ¦ ..
ĠR FP
Ġà¥ªà¥ª à¥¯
à¤ªà¤¨à¤® à¤§
Ġà¤ªà¤ļ à¤Ń
Ġà¥©à¥Ń à¥§
ĠH A
ĠH ang
Ġà¥ªà¥© à¥®
Ġà¥«à¥® à¥ª
Ġà¥¬à¥© à¥©
Â« à¤¾
ut ure
à¦ ¯
ä¸ ĭ
à¤ľà¤¡ à¤Łà¤ķà¤®à¤²
ech an
au cha
ĠYou th
ddc morang
à¤²à¤°à¤¸ à¤¨à¤²
Ġhere in
ĠĠĠĠĠĠĠĠ ĠĠĠĠĠĠĠĠ
tain ment
ĠRob ot
Ġoak ley
osp ital
Ġà¤¥à¤Ļ à¤¥à¤°
C opyright
H O
S w
b ucks
c z
l t
m argin
o in
y r
ä ¾
à¤¨ à¤Īà¤ķ
à¤¨ à¤ĺà¤£
à¤ķ à¤Ľà¤¨
à¤® à¤°à¤£à¤²
à¤¤ ÅĴà¤µ
à¤¯ à¤Ńà¤ķ
à¤¸ à¤ªà¤ķ
Ġà¤¸ à¤ªà¤ķ
à¤¹ à¤«
à¤¦ à¤ķà¤®à¤§
à¤µ à¤Ĩà¤ĩà¤ľ
Ġà¤ķ à¤°à¤²à¤Ĺ
Ġà¤° à¤¨à¤¤
Ġà¥¤ --
Ġà¤¤ à¤µà¤°à¤ķ
à¤¶ à¤¸à¤¸
à¤ļ à¤°à¤ª
à¤Ī à¤ľà¤®
à¤Ī à¤ĵà¤²
à¤°à¤® à¤ľà¤¸
à¤¾à¤ģ ?
à¤°à¤£ à¤¯à¤ķ
à¤ľà¤¨ à¤®à¤§
à¤°à¤¸ à¤µà¤ķ
Ġà¤ķà¤° à¤¯
à¥ģà¤ģ à¥¤âĢĿ
Ġ( #
à¤²à¤¯ à¤¨à¤ķ
à¤·à¤£ à¤¤à¤°
à¥ĭà¥¤ âĢľ
à¤¤à¤® à¤µ
Ġà¥« à¥§à¥«
Ġà¤Ĩà¤° à¤ıà¤ķ
à¤¨à¤¨ à¤¦
Ġà¥ª à¥¦à¥¨
Ġà¤ªà¤ķ à¤¨
à¤¯à¤° à¤ªà¤°
Ġ? &
à¤ķà¤°à¤£ à¤ķà¤°
à¤¸à¤¦ à¤°
Ġà¤¬à¤² à¤¸
à¤ľà¤® à¤ľ
Ġà¤ıà¤¸ à¤µ
à¤Īà¤ķ à¤Łà¤¹à¤°
à¤®à¤¬ à¤¤
à¤Īà¤¨ à¤ĸà¤¬à¤°
Ġ20 23
à¥ĩà¤Ĥ à¤ģ,
Ġà¤Ĺà¤ł à¤¨à¤²à¤Ĺ
à¤ĩà¤¸ à¤Ķ
Ġà¤ĸà¤¬à¤° à¤ħà¤¨
à¤¯à¤¯ à¤¨à¤®à¤¨
à¤ıà¤² à¤ĩà¤¡
ad os
Ġà¤ªà¤² à¤Ł
com m
à¤°à¤Ĺ à¤Ł
ĠA BC
Ġà¤¢à¤ķ à¤¬à¤¹
Ġp Ã¥
ĠM ot
Ġs aid
Ġà¥Ńà¥« à¥§
Ġc all
Ġd om
Ġd ating
Ġd aily
Ġà¤¡à¤² à¤°à¤¦
Ġ19 17
Ġ19 46
Ġ19 54
ĠR SS
à¤¦à¤¬ à¤Ļ
Ġà¤®à¤ľ à¤Ń
Ġà¥«à¥¬ à¥ª
Ġà¥ªà¥© à¥§
à¤ıà¤ļ à¤ıà¤«
à¤ıà¤ļ à¤Ĩà¤Īà¤Ń
Ġà¤ķà¤²à¤® à¤ľ
res p
im ate
Ġ9 3
Ġy ang
Ġch ang
Ġde velop
Â» .
ash ar
ard en
ĠY our
ĠÙ Ħ
à¥¯à¥¯ à¥¯
AT A
ator y
ÐµÐ» Ñı
ES T
à© °
çĶ »
ïĢ ¼
de fault
ãģ§ ãģĻ
ä½ ł
Ġvi ew
ĠSem ily
éĿ ¢
ĠSER P
K rishna
S C
b id
j pg
k arn
o bs
p ang
s et
w iki
Ð Ĺ
à º
å ī
æ ĭ
Ġ Ø§Ù
à¤¨ à¤ī
à¤¨ à¤ĸà¤°
à¤® à¤Ĺà¤²
à¤¯ à¤ħà¤µà¤§
à¤¹ à¤¦à¤°
Ġà¥ Ľ
à¤Ł à¤µà¤¨
Ġà¤¬ à¤«à¤°
Ġà¤ħ à¤¯à¤¨
à¤¶ à¤µà¤®
à¤ļ à¤¬à¤²
à¤¡ à¤¸à¤µ
à¤Ī à¤ł
à¥Ĥ ),
à¤ĸ à¤²à¤¨à¤®
Ġà¤ı à¤¹à¤¸
à¤°à¤£ à¤ľ
Ġà¤¬à¤¨ à¤¬à¤¸
Ġà¤ľà¤¨ à¤¦à¤µ
à¤¤à¤° à¤²à¤Ĺ
Ġà¤®à¤¨ à¤ľ
à¤ķà¤² à¤¶
Ġà¤Ĩà¤¯ à¤¨
à¥« à¥¨à¥¦à¥ª
à¤Ĺà¤¤ à¤¤
à¥ĩ, âĢĵ
Ġà¤Ĩà¤° à¤ıà¤®à¤¸
à¤°à¤®à¤® à¤§
Ġà¤ĺà¤° à¤ªà¤Ľ
à¤Łà¤² à¤Ńà¤¨
Ġà¥§à¥¦ à¥¦à¥¦à¥¦
à¤ķà¤ª à¤°à¤®
à¤ªà¤² à¤¤
Ġà¤¨à¤Ń à¤ķ
Ġà¤Ľà¤²à¤«à¤² à¤ªà¤¶
Ġà¤ħà¤ķ à¤¬à¤°à¤ķ
Ġà¤Ĩà¤ł à¤¸à¤®
Ġà¤¸à¤« à¤Ł
à¤Ĩà¤Ī à¤ıà¤«
ĠS he
ĠM r
Ġs on
Ġs pr
à¥ĭâĢĻ à¥¤
Ġa ff
à¤®à¤°à¤£ à¤°à¤¹
Ġf act
ĠB ab
as c
ĠF amily
Ġ19 58
Ġà¤ĥ -
à¥§à¥© à¥ª
à¥¦à¥« à¥¦
à¤Ĩà¤ĩ à¤°à¤¨
Ġà¥«à¥¨ à¥ª
à¥¦à¥ª à¥¦
à¤¾à¤ĥ âĢĵ
te le
à¤Īà¤ĵ à¤®
Ġà¤°à¤£ à¤¦
iz ing
à¤Īà¤ªà¤Łà¤ķ à¤¸à¤®
ĠPro ject
IN E
ĠÐ´ Ð°Ð½
Ġcon nect
Ġ205 3
Ġen c
200 9
Ġres earch
ful ly
cap tion
Ġir rigation
à¤Ķà¤· à¤§à¤®
d as
h h
Â ķ
å ģ
æ Ľ
é ĥ½
Ġ ide
Ġ Ûģ
Ħ ¢
à¥ĭ !!
à¤¯ à¤«à¤²
Ġà¤¸ à¤ªà¤®
Ġà¤¸ à¤ľà¤ķà¤¤
à¤¦ à¤Ļà¤µ
à¤Ĺ à¤ļà¤¨
à¤Ĺ à¤¶à¤¤
Ġà¤¨ à¤Łà¤°
Ġà¤¬ à¤¹à¤°à¤ķ
à¤¬ à¤¬à¤°
Ġà¤¤ à¤µà¤²
Ġà¤¤ à¤¬à¤¦
à¤ļ à¤ĺà¤°à¤ķ
à¤£ à¤µà¤¹à¤°
à¤°à¤ķ à¤£à¤²
Ġà¤ı à¤ıà¤Ĩà¤°
à¤¾à¤ģ (
Ġà¤¯à¤¸ à¤ħà¤µà¤§
à¤ħ à¤ªà¤¨
à¤°à¤¸ à¤«
Ġà¤¬à¤¢ à¤ķ
à¤ĩà¤¨ à¤µ
Ġà¤ĩ à¤¦à¤Ĺ
à¤¤à¤ķ à¤¸à¤¹
à¤Ĺà¤¤ à¤¸à¤¹
à¥ĩ, âĢĵâĢĺ
à¤¸à¤¨ à¤ªà¤Ł
à¤Łà¤¨ à¤¸à¤®
à¥ĭ, ,
à¥® à¥§à¥«
à¤®à¤® à¤®
à¤¿à¤ģ âĢĻ
à¤ĵ à¤¸à¤®
Ġà¥® à¥¦à¥¯
à¤µà¤¤ à¤¨à¤²
Ġà¤Ĳ à¤¨à¤ª
Ġà¥§à¥® à¥©à¥¦
à¤Ĩà¤° à¤ıà¤®à¤¸
Ġà¤ĸà¤¡ à¤Ĺà¤¬à¤¹
Ġ20 24
Ġà¥¨à¥Ń à¥Ń
Ġà¤ķà¤Ł à¤¨à¤ķ
Ġà¤¸à¤¹à¤° à¤®à¤§
à¤ļà¤¯ à¤ªà¤¨
Ġm usic
ĠS um
Ġl and
Ġl ive
à¤²à¤¦ à¤Ļ
Ġà¥©à¥« à¥¯
Ġp as
Ġs ay
Ġa u
Ġc am
Ġà¤¨à¤¸ à¤¡
ĠB a
ĠB udd
ent ry
Ġà¤°à¤Ļ à¤¬
ĠF OCAL
Ġb ig
id o
Ġà¥ªà¥ª à¥Ń
ĠG en
Ġà¤ħà¤°à¤¬ à¤²à¤Ĺ
Ġà¤¨à¤Ĺ à¤ĩà¤ķà¤¨
à¤¼ à¥Ģ,
Ġà¥«à¥© à¥¨
à¤¹à¤£ à¤ªà¤Ľ
im a
11 1
Ġde f
ĠNepali Goal
ell ing
Ġà¥§à¥¦à¥® à¥¦
rad er
ĠSh iva
ĠÃ ¶
Ġi OS
NE W
Ð°ÑĢ Ð°ÑĤ
ä» ĸ
Ð¾Ñģ Ñģ
Ð¶ Ðµ
ĠMB BS
Ø³ Øª
Ġà¤¹à¤¤à¤ķ à¤£
Ġph ys
ĠChe ap
da utari
Ð°Ñİ Ñī
ĠAnal ytics
Ġcook ies
Ã¸ à¤¯
Vi ew
Not ice
clus ive
é« ĺ
ĠWebs oft
Ġà¤¦à¤¶à¤²à¤® à¤µ
ertific ate
) âĢĿ
/ )
R C
d ashar
× Ļ×
ç Ł
à¤¾ à¥°
à¤¨ à¤°à¤¨
à¤² à¤²à¤®
à¤² à¤Ĩà¤¯
à¤® m
à¤¤ à¤Ĩà¤¤
à¤¤ à¤Łà¤¬à¤¨
à¤¸ à¤ªà¤²
à¤¸ Facebook
à¤ª à¤µà¤¤
à¤ª à¤¥à¤ķ
à¤ª à¤ķà¤®à¤§
à¤¦ à¤®à¤®
à¤Ĺ à¤¸à¤ķ
à¤Ĺ à¤¦à¤²
à¤ı à¤¹
à¤ľ à¤µà¤ķ
Ġà¤Ĺà¤° à¤¸
à¤¬ à¤Ĺà¤¡
à¤¶ à¤§
à¤¡ à¤°à¤¤
à¤ĸ à¤¦à¤°
à¤« à¤ļ
à¥Į à¥ĩ
à¤°à¤£ à¤ªà¤Ľ
Ġà¤¸à¤¹ à¤¬à¤¦
à¤ķà¤® à¤²à¤°
Ġà¤ªà¤¹ à¤²à¤¸
à¤Łà¤ķ à¤ª
... '
Ġà¥© à¥Ńà¥ª
à¤°à¤¬ à¤ļà¤¨
à¤¤à¤¨ à¤°
Ġà¤¸à¤¨ à¤¤à¤ķ
à¤īà¤Ł à¤²
à¤¶à¤¨ à¤ĸ
Ġà¤ĵ à¤«
à¤«à¤² à¤Ĺ
Ġà¥¬ à¥§à¥¨
à¤¤à¤² à¤µ
à¤¶à¤® à¤£
Ġà¥® à¥¦à¥Ń
à¥įâĢ ķ
à¤¤à¤ª à¤¶
à¤¸à¤° à¤ļà¤¨
à¤¸à¤¹ à¤¸
Ġà¤¸à¤¡à¤ķ à¤µ
à¤¦à¤² à¤ª
Ġà¥¤âĢĻ âĢĺ
à¤®à¤§ à¤°
à¤®à¤¹ à¤¸
Ġà¤ķà¤ª à¤¬
re qu
Ġà¤¨à¤ķ à¤ļà¤°
at ara
à¥ĩà¤ģ à¥¤'
Ġà¤ľà¤² à¤ļà¤°à¤¹à¤°
à¤¦à¤¶ à¤¹à¤°
ic ial
ĠN ow
à¤Ĭ à¤¬
à¤¸à¤¤ à¤¹à¤ķ
ore d
il a
ĠC V
Ġs w
Ġà¤Ĺà¤ľ à¤µà¤ķ
Ġà¥Ńà¥« à¥¨
Ġc e
à¥§à¥¨ à¥ªà¥¬
ur ali
ent ial
et ing
et te
Ġ19 51
un k
Ġà¤¹à¤® à¤°à¤ľ
ig e
um e
11 9
ab il
Ġà¤¸à¤¦à¤¨ à¤¸à¤®
à¥Īà¥Ī à¥Ī
Ġk B
iv il
Ġde g
à¥ĩÂ« à¥ĩ
ĠØ ¹
ath chand
Ġan al
ĠSh arma
à¹ ĥ
Ð³ ÑĢ
Ġà¤§à¤°à¤ªà¤ķ à¤¡à¤ķ
ĠDe urali
ĠAs ian
ĠAm ended
Ġà¤¸à¤¨à¤ķ à¤ķ
Ġhe ad
ĠBo ya
ĠMH P
Ġet c
à¤Ńà¤²à¤ªà¤° à¤¹à¤°
ĠÚ© ÛĮ
à¤¡à¤°à¤¶ à¤Łà¤®
ĠIs lands
Ð°ÑĨ Ð¸Ñı
ĠCO PD
ĠKh ola
ĠØ¯ Ø±
à¤¶à¤°à¤® à¤¹à¤²
Pin terest
ĠSan pang
ĠIm age
jay ang
ĠHel aucha
ĠSik tel
ĠâĪ ķ
ĠHil ebhan
à¥«à¥¨à¥¦à¥§ à¥Ńà¥§
Twitter Google
à¥«à¥¨à¥¦à¥¨ à¥ªà¥§
ĠHang lung
à¥«à¥¨à¥¦à¥ª à¥Ńà¥§
dashar athchand
ĠHilebhan jayang
dasharathchand mun
T o
U L
i D
Æ °
Ġ Ú¯
à¥Ģ à¥°
à¤¸ à¤ħà¤ĺ
à¤¸ à¤Łà¤ª
Ġà¤ķ à¤µà¤²
Ġà¤ķ à¤ıà¤²
à¤Ł à¤ļà¤¨à¤ķ
Ġà¤® à¤¯à¤²
Ġà¤® à¤«à¤²
Ġà¤ħ à¤µà¤¨
Ġà¤ħ à¤ľà¤¸
à¤¬ à¤¶à¤ķ
à¤Ĥ à¤ĥ
à¤Ń à¤ĩà¤°à¤¹
à¤ĸ à¤·
âĢ ¬
à¤°à¤ķ à¤°à¤£à¤¹à¤°
à¤ĩ à¤Ļà¤®
Ġà¤ı à¤¡à¤ķ
à¤ł à¤Ńà¤¨
à¤ł à¤ķà¤ª
à¤°à¤¤ à¤¹
à¤¨à¤® à¤Ĺà¤°à¤ķ
Ġà¤ıà¤ķ à¤¦à¤¶
Ġà¤Ł à¤ªà¤²
à¤¤à¤° à¤Ĺà¤Ļ
Ġà¤ħà¤° à¤Ĺà¤°
à¤ķà¤² à¤ªà¤¹à¤°
à¤łà¤® à¤¨
à¥ģà¤ģ "
Ġà¤īà¤¤ à¤ª
à¤Ĩ à¤Ĺà¤®
à¤Łà¤¨ à¤µ
à¥Įà¤ģ à¤ģ
Ġà¥ª à¥Ńà¥¬
Ġà¥ª à¥¦à¥®
Ġà¥¬ à¥¨à¥¦
Ġà¥¬ à¥§à¥¬
Ġà¥¬ à¥¦à¥©
Ġà¤ĩà¤¨ à¤¡
Ġà¤ĩà¤¨ à¤Łà¤°à¤¨
Ġà¥® à¥¨à¥«
à¤ıà¤¨ à¤Ń
Ġà¥¯ à¥Ńà¥©
Ġà¥¯ à¥§à¥¬
âĢ¦ ,
à¤µà¤°à¤£ à¤²à¤Ĺ
à¤°à¤®à¤£ à¤¦
à¤°à¤®à¤£ à¤ªà¤¶
à¤§à¤ķ à¤¬
à¤ĩà¤Ł à¤²à¤ķ
à¤¨à¤ª à¤¢
à¤īà¤¦ à¤¥
Ġà¤ıà¤¨ à¤ıà¤ķ
Ġà¥§à¥® à¥ªà¥¦
Ġà¤Ĺà¤łà¤¨ à¤ħà¤ĺ
Ġ20 31
Ġ20 49
Ġà¤Ĭ à¤ĸ
à¥ĩà¤ģ âĢĻ,
Ġà¤Ĺà¤® à¤¬à¤¹
à¤¡à¤° à¤«
ad esh
Ġm er
Ġm iss
ĠC are
ĠP rem
Ġà¥ªà¥« à¥§
Ġà¤¨à¤Ĩ à¤ĩà¤¦
Ġf il
Ġf amily
Ġt em
Ġt ake
ĠB etter
à¤µà¤¯à¤® à¤ª
Ġà¤ħà¤¸à¤® à¤¯à¤®
Ġà¤°à¤Ĺà¤¤ à¤ªà¤ļ
Ġà¥¬à¥« à¥Ń
Ġb ook
Ġn ous
Ġà¥ªà¥ª à¥ª
Ġà¥©à¥® à¥®
ov ers
ct ure
à¤Ĩà¤ĩ à¤ıà¤«
ĠL os
à¤ıà¤ļ à¤Ĩà¤ĩà¤Ń
ak i
à¤Ķà¤·à¤§ à¤²
Ġ6 3
à¥Įà¥¤ '
ul i
ot os
à¤ıà¤¸à¤¨ à¤¬
Ġà¥¬à¥® à¥¦
ist ic
à¤¾? âĢĿ
Ġà¥®à¥¬ à¥¦
Ġk e
Ġ* **
ĠÐ² Ð¾Ð·
ï¼ ģ
ĠÐ½ Ð¾
ĠSh ri
Ġsp ir
Ġart icles
fe ctions
à¤®à¤µà¤¤ à¤ĸà¤£
åı ¯
Ġed uc
æĹ ¶
atur al
................ ................
à¤ĵà¤Ń à¤°à¤¸
ÐµÐ³ Ð¾
Ð°Ñħ Ð°ÑĢ
ãģ£ ãģ¦
ĠComm ons
ĠÐ´Ð¸ Ð°Ð±ÐµÑĤ
( '
E le
F C
H amro
M ar
c y
p ublic
p atra
u i
Ġ om
à¤¾ =
à¤¾ âĢĭ
à¥į à¥įà¥¤
à¤ķ à¤¸à¤®à¤ķ
à¤² à¤¶à¤¨
à¥ģ à¥ģ,
à¥Ģ ......
Ġà¤¸ à¤£
à¤µ à¤µà¤¸
à¤µ à¤Łà¤°
à¤µ à¤µà¤°à¤£
à¤Ĺ à¤¶à¤®à¤¶
à¤ı à¤¥à¤²
Ġà¤µ à¤¯à¤ķ
à¤§ à¤ªà¤¶
à¤¶ à¤®à¤®
Ġà¤² à¤°à¤¤à¤°
Ġà¤¸à¤® à¤µà¤¨
à¤« à¤¹
Ġà¤ı à¤īà¤¤
Ġà¤ħà¤¨ à¤¤à¤°
Ġà¤« à¤µ
Ġà¤®à¤¹ à¤·
Ġà¤ıà¤ķ à¤Ń
à¤¯à¤® à¤°à¤¤
Ġà¤¸à¤¹ à¤ķà¤®
à¤¯à¤¤ à¤¸à¤¹
à¤ķà¤² à¤µ
Ġà¤ªà¤¹ à¤¨
à¤·à¤£ à¤ªà¤¶
à¤¸à¤¨ à¤¶
à¥Īà¤Ĥ -
Ġà¤¸à¤° à¤°à¤°
Ġà¤ªà¤¤ à¤²
Ġà¤Ĩà¤§ à¤°
à¤ĵ à¤ĸà¤°
Ġà¤ĸà¤° à¤°
à¤Łà¤® à¤¸à¤ķ
à¤Ĺà¤® à¤¦
à¤¸à¤¦ à¤¨à¤ķ
Ġà¤¥à¤ª à¤¥
Ġà¤¸à¤Ļ à¤ĺà¤°
Ġà¥§à¥¯ à¥©à¥§
à¤¨à¤Ĺà¤° à¤¦
re aking
Ġà¥§à¥® à¥§à¥®
Ġà¥¦ à¥©à¥¦
Ġà¥¦ à¥©à¥¨
at ri
à¤¦à¤¶ à¤°à¤£
ha g
ĠC r
ĠC am
à¤Łà¤µà¤² à¤¦
à¥§à¥¨ à¥©
ĠB ib
à¤¬à¤¤ à¤¤à¤°
à¥§à¥® à¥¦
Ġb ar
Ġw elcome
Ġà¤Ńà¤ĩ à¤ıà¤¨
Ġà¥ªà¥® à¥«
ÑĢ Ð¸
Ġà¤· à¤Ł
ĠG reen
ĠG erman
ĠL in
ch i
ãģ ¡
10 5
Ð» Ð°Ð´
ĠJ apan
Ġà¥Ńà¥© à¥«
à¤¾? '
os is
Ġv ol
Ġà¥¯à¥Ń à¥Ń
Ġà¤®à¤Ŀ à¤§
ab les
ãĤ ·
Ġà¤¨à¤°à¤® à¤ªà¤¨
ess ional
Ġà¤µà¤ļà¤¨ à¤µà¤¦
Ġà¤¬à¤¬ à¤£
iv id
ĠAn t
Ġpost s
AT H
ĠZ e
ek antipur
Ġà¤¦à¤¸à¤ķ à¤®
å¤ ļ
Ġout let
à¤ĵà¤ªà¤¨ à¤°
ĠRes erved
ĠPr act
Ð¾Ð»ÑĮ ÐºÐ¾
ĠComp uter
ues day
Ġà¤ļà¤¹à¤²à¤ªà¤¹ à¤²à¤²
ĠAf ric
Ġpop ular
$ $
? âĢĻ,
C lick
E NT
O M
g ium
h z
h ib
p ol
æ ´
ç Ń
ì Ĺ
à¤¾ Â»
à¤® à¤Ĩà¤²
à¤® à¤ħà¤¶
à¤¯ à¤ħà¤µà¤¸
à¤¸ à¤°à¤¤à¤ķ
Ġà¤ª à¤¡à¤°
à¤¹ à¤®à¤¤
à¤Ĺ à¤«à¤®
Ġà¤° à¤®à¤²
Ġà¤¨ à¤¹à¤¨
à¤ı à¤²à¤°
Ġà¤ħ à¤¦à¤²
Ġà¤¹ à¤®à¤¦
à¤¬ à¤·
à¤§ à¤ªà¤¨
à¤¥ à¤°à¤¥
à¤¡ à¤ľà¤°
à¤Ī à¤ħà¤¡
à¤ĸ à¤¤à¤²
à¤ĸ à¤¤à¤¹à¤°
à¤ĩ à¤®à¤¹
à¤ĩ à¤µà¤°à¤ķ
à¤« à¤ªà¤¨
à¤°à¤£ à¤ªà¤¨
Ġà¤¸à¤ķ à¤°à¤ª
à¤Ŀ à¤²à¤ķ
à¤ĩà¤¨ à¤ħà¤ª
Ġà¤ĩ à¤®à¤²
à¤¤à¤ķ à¤µ
à¤µà¤° à¤¥
à¤µà¤° à¤ļ
Ġà¤Ĩà¤° à¤ıà¤®
Ġà¤ħà¤® à¤°à¤¦
à¤ĵ à¤ķà¤°
à¤¸à¤¦ à¤¸à¤¹
à¤ķà¤¤ à¤¬
à¤¦à¤° à¤ļà¤¨
Ġà¥® à¥¦à¥§
à¤¤à¤°à¤£ à¤¸à¤¹
à¤ªà¤² à¤§
à¤°à¤®à¤£ à¤²à¤Ĺà¤¤
Ġà¤Ĩà¤ķ à¤¶
Ġà¤Ī à¤ĸ
Ġà¤Ī à¤«
Ġà¤ķà¤¥ à¤¨à¤¹à¤°
Ġà¥§à¥® à¥Ńà¥©
Ġà¥¦ à¥¦à¥¯
Ġ20 26
Ġà¤ĭà¤£ à¤¸à¤®
Ġm ut
ĠS ociety
Ġà¤Ĩà¤ı à¤¯à¤¤
Ġl os
Ġl ess
ĠÂ Ń
ĠA ff
Ġp ast
ou rist
à¥ĩ... âĢĻ
ĠM art
Ġs earch
ing er
Ġf acebook
Ġc a
à¤¦à¤¯ à¤¶
Ġà¤ħà¤¸à¤® à¤¨
et a
à¤ĩà¤¬ à¤°à¤¬
Ġ19 57
Ġin ternet
ĠE nepal
Ġre d
Ġà¥«à¥ª à¥¬
à¤¸à¤« à¤°à¤²
ĠK offee
Ġ6 000
Ġà¥®à¥ª à¥®
Ġ12 5
Ðº Ð¾Ð²
Ñĭ Ñħ
Ġst yle
48 00
[...]
