{"!":0,"\"":1,"#":2,"$":3,"%":4,"&":5,"'":6,"(":7,")":8,"*":9,"+":10,",":11,"-":12,".":13,"/":14,"0":15,"1":16,"2":17,"3":18,"4":19,"5":20,"6":21,"7":22,"8":23,"9":24,":":25,";":26,"<":27,"=":28,">":29,"?":30,"@":31,"A":32,"B":33,"C":34,"D":35,"E":36,"F":37,"G":38,"H":39,"I":40,"J":41,"K":42,"L":43,"M":44,"N":45,"O":46,"P":47,"Q":48,"R":49,"S":50,"T":51,"U":52,"V":53,"W":54,"X":55,"Y":56,"Z":57,"[":58,"\\":59,"]":60,"^":61,"_":62,"`":63,"a":64,"b":65,"c":66,"d":67,"e":68,"f":69,"g":70,"h":71,"i":72,"j":73,"k":74,"l":75,"m":76,"n":77,"o":78,"p":79,"q":80,"r":81,"s":82,"t":83,"u":84,"v":85,"w":86,"x":87,"y":88,"z":89,"{":90,"|":91,"}":92,"~":93,"¡":94,"¢":95,"£":96,"¤":97,"¥":98,"¦":99,"§":100,"¨":101,"©":102,"ª":103,"«":104,"¬":105,"®":106,"¯":107,"°":108,"±":109,"²":110,"³":111,"´":112,"µ":113,"¶":114,"·":115,"¸":116,"¹":117,"º":118,"»":119,"¼":120,"½":121,"¾":122,"¿":123,"À":124,"Á":125,"Â":126,"Ã":127,"Ä":128,"Å":129,"Æ":130,"Ç":131,"È":132,"É":133,"Ê":134,"Ë":135,"Ì":136,"Í":137,"Î":138,"Ï":139,"Ð":140,"Ñ":141,"Ò":142,"Ó":143,"Ô":144,"Õ":145,"Ö":146,"×":147,"Ø":148,"Ù":149,"Ú":150,"Û":151,"Ü":152,"Ý":153,"Þ":154,"ß":155,"à":156,"á":157,"â":158,"ã":159,"ä":160,"å":161,"æ":162,"ç":163,"è":164,"é":165,"ê":166,"ë":167,"ì":168,"í":169,"î":170,"ï":171,"ð":172,"ñ":173,"ò":174,"ó":175,"ô":176,"õ":177,"ö":178,"÷":179,"ø":180,"ù":181,"ú":182,"û":183,"ü":184,"ý":185,"þ":186,"ÿ":187,"Ā":188,"ā":189,"Ă":190,"ă":191,"Ą":192,"ą":193,"Ć":194,"ć":195,"Ĉ":196,"ĉ":197,"Ċ":198,"ċ":199,"Č":200,"č":201,"Ď":202,"ď":203,"Đ":204,"đ":205,"Ē":206,"ē":207,"Ĕ":208,"ĕ":209,"Ė":210,"ė":211,"Ę":212,"ę":213,"Ě":214,"ě":215,"Ĝ":216,"ĝ":217,"Ğ":218,"ğ":219,"Ġ":220,"ġ":221,"Ģ":222,"ģ":223,"Ĥ":224,"ĥ":225,"Ħ":226,"ħ":227,"Ĩ":228,"ĩ":229,"Ī":230,"ī":231,"Ĭ":232,"ĭ":233,"Į":234,"į":235,"İ":236,"ı":237,"Ĳ":238,"ĳ":239,"Ĵ":240,"ĵ":241,"Ķ":242,"ķ":243,"ĸ":244,"Ĺ":245,"ĺ":246,"Ļ":247,"ļ":248,"Ľ":249,"ľ":250,"Ŀ":251,"ŀ":252,"Ł":253,"ł":254,"Ń":255,"à¤":256,"à¥":257,"Ġà¤":258,"à¤¾":259,"à¥į":260,"à¤°":261,"à¤¨":262,"à¤ķ":263,"à¤¿":264,"à¥ĩ":265,"à¥ĭ":266,"à¤²":267,"à¤®":268,"à¤¤":269,"à¤¯":270,"à¥ģ":271,"à¥Ģ":272,"à¤¸":273,"Ġà¤¸":274,"Ġà¤ª":275,"à¤¹":276,"à¤ª":277,"à¤¦":278,"à¤µ":279,"Ġà¥":280,"Ġà¤ķ":281,"à¤Ĺ":282,"Ġà¤Ĺ":283,"Ġà¤°":284,"à¤Ł":285,"à¥Ī":286,"Ġà¤¨":287,"à¤ı":288,"Ġà¤¬":289,"Ġà¥¤":290,"Ġà¤®":291,"Ġà¤Ń":292,"à¤ľ":293,"Ġà¤ħ":294,"Ġà¤¹":295,"Ġà¤Ĺà¤°":296,"à¤¬":297,"Ġà¤µ":298,"à¤·":299,"à¤§":300,"Ġà¤Ľ":301,"Ġà¤¤":302,"Ġà¤¦":303,"à¤¶":304,"à¤¥":305,"à¤ıà¤ķ":306,"à¤ģ":307,"à¤Ĥ":308,"Ġà¤Ĩ":309,"à¤ļ":310,"Ġà¤ľ":311,"à¤¡":312,"à¤Ī":313,"Ġà¤²":314,"à¤£":315,"à¤Ľ":316,"à¥Ĥ":317,"à¤Ń":318,"à¤ĸ":319,"à¤ī":320,"âĢ":321,"Ġà¤ī":322,"à¤¹à¤°":323,"Ġà¤¯":324,"Ġà¤¸à¤®":325,"à¥¤":326,"à¤°à¤ķ":327,"à¤ĩ":328,"à¤°à¤®":329,"Ġà¤ļ":330,"Ġà¤Ńà¤¨":331,"à¤«":332,"à¥Į":333,"Ġà¤¶":334,"à¤¯à¤ķ":335,"Ġà¤ĸ":336,"Ġà¤¥":337,"Ġà¤ı":338,"à¤īà¤¨":339,"à¤¾à¤ģ":340,"à¤ł":341,"Ġà¤ªà¤¨":342,"à¤¨à¤ķ":343,"Ġà¤Ńà¤ıà¤ķ":344,"Ġà¤ħà¤¨":345,"Ġà¤ªà¤°":346,"à¤°à¤¤":347,"à¥ĥ":348,"à¥¦":349,"à¤Ļ":350,"à¤°à¤£":351,"Ġà¤«":352,"à¤¸à¤ķ":353,"à¤ľà¤¨":354,"Ġà¤Ľà¤¨":355,"à¤¢":356,"Ġà¥¨":357,"à¤¸à¤®":358,"Ġà¥§":359,"à¤ªà¤°":360,"à¤ĺ":361,"à¤¨à¤®":362,"Ġà¤°à¤¹":363,"..":364,"à¤µà¤¸":365,"Ġà¤®à¤¹":366,"Ġà¤ıà¤ķ":367,"à¤²à¤ķ":368,"ĠâĢ":369,"Ġà¤ĺ":370,"Ġà¤¬à¤¨":371,"Ġà¤§":372,"à¤¨à¤²":373,"Ġà¤ľà¤¨":374,"à¤¯à¤®":375,"à¤Ĺà¤°":376,"à¤ŀ":377,"Ġà¤¯à¤¸":378,"à¤ªà¤¨":379,"Ġà¤Ł":380,"Ġà¤¸à¤ķ":381,"Ġà¤¤à¤¥":382,"à¤°à¤¹":383,"Ġà¤Ĩà¤«":384,"à¤¯à¤¸":385,"à¤¤à¤°":386,"Ġà¤ħà¤§":387,"âĢ¯":388,"à¤°à¤²":389,"Ġà¤¸à¤¹":390,"Ġà¤µà¤°":391,"Ġà¤¡":392,"âĢĻ":393,"à¤²à¤®":394,"Ġà¥§à¥":395,"à¤Ŀ":396,"à¤ħ":397,"à¥Įà¤Ĥ":398,"à¤°à¤¸":399,"à¤ªà¤Ľ":400,"à¤¯à¤¤":401,"Ġà¤īà¤ª":402,"Ġà¤¤à¤°":403,"ĠâĢĺ":404,"Ġà¤®à¤¨":405,"à¤¾,":406,"à¤ıà¤°":407,"Ġà¤¬à¤¢":408,"à¤ªà¤¤":409,"à¤°à¤¦":410,"Ġà¤ħà¤°":411,"à¤Ľà¤¨":412,"Ġà¤ķà¤®":413,"à¥¦à¥":414,"Ġà¤¬à¤¤":415,"à¤ĩà¤¨":416,"à¤ķà¤²":417,"à¤ªà¤®":418,"Ġà¤¸à¤°à¤ķ":419,"Ġà¤ķà¤°":420,"âĢĵ":421,"à¤łà¤®":422,"Ġà¤ł":423,"Ġà¤²à¤Ĺ":424,"à¤ķà¤®":425,"à¤®à¤ķ":426,"à¤°à¤¹à¤°":427,"Ġà¤ĩ":428,"à¥ģà¤ģ":429,"à¤¤à¤ķ":430,"à¤ļà¤¨":431,"à¤¬à¤¨":432,"à¤Łà¤ķ":433,"Ġà¤¸à¤¬":434,"Ġà¤ªà¤¹":435,"Ġà¤Ĩà¤¯":436,"...":437,"Ġ(":438,"à¤µà¤°":439,"à¤µà¤ķ":440,"à¥«":441,"à¤¯à¤¨":442,"Ġà¤ħà¤¸":443,"à¤¯à¤µà¤¸":444,"à¤Ĺà¤¤":445,"à¤µà¤¨":446,"Ġà¤īà¤¨":447,"Ġà¤Ńà¤ı":448,"Ġà¤īà¤¤":449,"à¤Ĩ":450,"à¤²à¤²":451,"Ġà¤¬à¤¸":452,"à¥¨":453,"à¤¾à¤Ĥ":454,"à¥§":455,"à¤²à¤¯":456,"à¤·à¤£":457,"Ġà¥¨à¥¦à¥":458,"à¤¸à¤²":459,"Ġà¤īà¤¨à¤²":460,"à¤²à¤¨":461,"Ġà¤Ĺà¤¤":462,"à¥Ģ,":463,"Ġà¥©":464,"à¤²à¤¬":465,"à¤°à¤µ":466,"à¤¸à¤¨":467,"à¤°à¤¬":468,"à¥ĩ,":469,"à¤Łà¤¨":470,"Ġà¤¨à¤Ĺà¤°":471,"à¤¶à¤ķ":472,"à¥įà¥¤":473,"Ġà¤ħà¤µà¤¸":474,"Ġà¤Ĩà¤ıà¤ķ":475,"à¤ķà¤ķ":476,"Ġà¤ħà¤Ń":477,"à¥ĭà¥¤":478,"à¤Łà¤°":479,"Ġà¤¬à¤ľ":480,"à¤¤à¤®":481,"Ġà¤Ŀ":482,"à¥ĭ,":483,"Ġà¤Ĩà¤°":484,"à¥ª":485,"Ġà¥«":486,"à¥Īà¤Ĥ":487,"Ġà¤¹à¤ľ":488,"à¤¤à¤¨":489,"à¤°à¤§":490,"à¤®à¤¨":491,"à¤®à¤¤":492,"à¤Ńà¤¨":493,"Ġà¤īà¤¦":494,"à¤ķà¤°":495,"à¤·à¤ķ":496,"à¥©":497,"Ġà¤¸à¤°":498,"Ġà¤ħà¤¹":499,"à¥Įà¤ģ":500,"à¤°à¤¯":501,"à¤¯à¤²":502,"à¥Ń":503,"à¤¡à¤ķ":504,"à¤ªà¤ķ":505,"Ġà¤¸à¤¨":506,"Ġà¤Ĩà¤µ":507,"Ġà¤¸à¤ŀ":508,"à¤¨à¤¨":509,"à¤ľà¤ķ":510,"Ġà¥ª":511,"à¤īà¤Ł":512,"à¤¦à¤¨":513,"Ġà¤ļà¤²":514,"à¤¶à¤¨":515,"Ġà¤ªà¤¤":516,"à¤Ĺà¤²":517,"Ġà¤¨à¤¯":518,"Ġà¤ĵ":519,"à¤¬à¤°":520,"à¤Ńà¤ıà¤ķ":521,"Ġà¤¸à¤¦":522,"à¤Ńà¤¯":523,"à¥¬":524,"à¤®à¤²":525,"à¤°à¤®à¤®":526,"Ġà¤Ĩà¤§":527,"Ġà¤ªà¤ķ":528,"à¤µà¤²":529,"Ġà¤ľà¤¸":530,"à¤°à¤¶":531,"à¤Ĺà¤ķ":532,"Ġà¤¬à¤°":533,"à¤¨à¤¸":534,"à¥®":535,"à¤¿à¤Ĥ":536,"Ġà¤¹à¤°":537,"à¤ĩà¤ıà¤ķ":538,"à¤«à¤²":539,"Ġà¥¬":540,"à¤¨à¤®à¤¨":541,"Ġà¤ķà¤¸":542,"à¤¯à¤°":543,"à¤§à¤¨":544,"Ġà¤ıà¤īà¤Ł":545,"à¤ĸà¤°":546,"Ġà¤ªà¤Ľ":547,"à¤¤à¤²":548,"à¥¯":549,"à¤ĩà¤°à¤¹":550,"Ġà¤¢":551,"Ġà¤¸à¤¯":552,"Ġ|":553,"Ġà¤¯à¤¹":554,"Ġà¤ħà¤®":555,"à¤ĥ":556,"Ġà¤īà¤¨à¤ķ":557,"à¤®à¤®":558,"Ġà¤¸à¤®à¤¯":559,"Ġà¤Ńà¤¯":560,"à¤¿à¤ģ":561,"Ġà¤ħà¤Ĺ":562,"à¤ķà¤°à¤£":563,"Ġ?":564,"Ġà¤¦à¤°":565,"à¤ĵ":566,"à¥į,":567,"Ġà¤¤à¤ª":568,"Ġà¤Ĩà¤ľ":569,"à¤¯à¤¹":570,"Ġà¤ªà¤¦":571,"Ġà¤¤à¤¯":572,"Ġà¤ķà¤²":573,"à¤µà¤®":574,"à¤°à¤Ń":575,"Ġà¤ĸà¤°":576,"à¤Łà¤®":577,"à¤ħà¤¨":578,"Ġà¤Ķ":579,"Ġà¤¨à¤Ĺà¤°à¤ª":580,"Ġà¥Ń":581,"Ġà¤¸à¤¹à¤¯":582,"Ġà¤®à¤§":583,"à¤¹à¤ķ":584,"à¤Ĺà¤®":585,"à¤ľà¤¸":586,"Ġà¤īà¤¹":587,"Ġà¤¸à¤®à¤¸":588,"à¤²à¤Ĺ":589,"Ġà¤ĺà¤°":590,"à¤ķà¤¤":591,"Ġà¤ħà¤¬":592,"Ġà¤ķà¤¤":593,"à¤¸à¤¦":594,"à¤¦à¤°":595,"Ġà¥¨à¥¦à¥Ń":596,"à¤¾à¥ĩ":597,"Ġà¤ľà¤¨à¤¤":598,"à¤·à¤®":599,"Ġà¤ĩà¤¨":600,"Ġà¤¸à¤¦à¤¸":601,"Ġà¤Ĩà¤īà¤¨":602,"Ġà¤ħà¤µ":603,"à¤¶à¤®":604,"Ġà¤®à¤²":605,"Ġà¤īà¤ķ":606,"Ġà¤ħà¤ĺ":607,"âĢĿ":608,"Ġà¥®":609,"Ġà¤ªà¤¢":610,"à¤Łà¤²":611,"à¤µà¤ľà¤¨":612,"à¤ıà¤¨":613,"Ġà¤Ĩà¤µà¤¶":614,"à¤¹à¤¨":615,"à¤¾.":616,"à¤¿,":617,"à¤µà¤¤":618,"à¤£à¤ķ":619,"Ġà¤¬à¤¹":620,"Ġà¤¯à¤¸à¤ķ":621,"Ġà¤¬à¤²":622,"Ġà¤Ĩà¤Ĺ":623,"Ġà¥§à¥¦":624,"Ġà¤¸à¤Ń":625,"Ġà¥¯":626,"à¤Ńà¤°":627,"Ġà¤Ĩà¤®":628,"Ġà¤īà¤®":629,"Ġà¤ħà¤¤":630,"à¤¦à¤ķ":631,"Ġà¤¶à¤°":632,"Ġà¤ħà¤ª":633,"Ġà¤Ĩà¤ĩ":634,"Ġà¤Ĺà¤ıà¤ķ":635,"Ġà¤ļà¤°":636,"à¤ľà¤®":637,"à¤¯à¤µ":638,"Ġà¤¨à¤®":639,"ĠâĢľ":640,"à¤ĩà¤²":641,"à¥įâĢ":642,"Ġà¤«à¤°":643,"à¤ķà¤ª":644,"Ġà¤ıà¤®":645,"Ġà¤¨à¤¸à¤ķ":646,"à¤ķà¤¨":647,"Ġà¤Ĩà¤¨":648,"Ġà¤¥à¤ª":649,"Ġà¤ķà¤¹":650,"à¤¶à¤¤":651,"Ġà¤īà¤²":652,"à¤ıà¤ªà¤Ľ":653,"à¤ħà¤ĺ":654,"à¤Ļà¤ķ":655,"Ġà¤īà¤ļ":656,"à¤¥à¤®":657,"Ġà¤Ńà¤°":658,"Ġà¤²à¤ķ":659,"Ġà¤®à¤¤":660,"à¤°à¤ļ":661,"à¤ļà¤ķ":662,"à¥įâĢį":663,"Ġà¤Ĩà¤¦":664,"Ġà¤¦à¤²":665,"Ġà¤ªà¤Łà¤ķ":666,"à¤¬à¤²":667,"à¤®à¤ļ":668,"âĢ¦":669,"Ġà¤¨à¤¹":670,"à¤²à¤¯à¤ķ":671,"à¤µà¤°à¤£":672,"Ġà¤¸à¤¤":673,"Ġà¤®à¤¹à¤¤":674,"à¤£à¤¯":675,"à¤ĵà¤µ":676,"Ġà¤¸à¤Ļ":677,"à¤¦à¤Ľ":678,"Ġà¤°à¤¹à¤¨":679,"Ġà¥¨à¥¦":680,"à¤°à¤¨":681,"à¤¨à¤µ":682,"Ġ,":683,"à¤¤à¤°à¤£":684,"Ġà¤µà¤Ł":685,"à¤¡à¤²":686,"à¤¬à¤¹":687,"Ġà¤¸à¤¹à¤Ń":688,"Ġà¤§à¤°":689,"Ġà¤¯à¤¸à¤²":690,"à¤ªà¤²":691,"à¤¯à¤¸à¤ķ":692,"à¤°à¤ª":693,"à¤¤à¤µ":694,"Ġà¤¸à¤«à¤²":695,"Ġà¤¨à¤¦":696,"Ġà¤¹à¤¤":697,"Ġà¤¸à¤ļ":698,"Ġà¤ĺà¤Łà¤¨":699,"Ġà¤µà¤¡":700,"à¤«à¤¤":701,"à¤łà¤¨":702,"Ġà¤¤à¤¤":703,"ĠĠ":704,"Ġà¤Ĳ":705,"Ġà¤ħà¤²":706,"à¤¡à¤®":707,"Ġà¤Ńà¤ĩà¤°à¤¹":708,"à¤·à¤¤":709,"à¤°à¤®à¤£":710,"à¤ľà¤Ĺ":711,"à¤µà¤ª":712,"Ġà¤ľà¤®":713,"à¤¸à¤¹":714,"à¥ģ,":715,"à¤¸à¤°":716,"à¤ĩà¤¸à¤ķ":717,"à¤ľà¤²":718,"Ġà¤ªà¤¶":719,"Ġà¤¸à¤¡à¤ķ":720,"à¤¤à¤ª":721,"Ġà¥§à¥«":722,"Ġà¤¸à¤®à¤¯à¤®":723,"à¤µà¤¯":724,"Ġ:":725,"à¤·à¤¯à¤®":726,"Ġà¤¸à¤µ":727,"Ġà¤Ĩà¤¶":728,"à¤²à¤¤":729,"Ġà¤ħà¤Ŀ":730,"Ġà¤ĵà¤²":731,"Ġà¤Ńà¤ıà¤°":732,"à¤¯à¤¤à¤ķ":733,"à¤°à¤ªà¤¤":734,"Ġà¤īà¤ł":735,"à¤¸à¤Ń":736,"Ġà¤¤à¤¹":737,"Ġà¤ıà¤¸":738,"Ġà¥§à¥¯":739,"Ġà¤°à¤ķà¤®":740,"à¤¾âĢĵ":741,"Ġ...":742,"Ġà¥§à¥§":743,"Ġ'":744,"à¤łà¤ķ":745,"à¤¦à¤²":746,"Ġà¥§à¥¨":747,"à¤¨à¤¬":748,"Ġà¤ħà¤¦":749,"Ġà¤Ĩà¤ī":750,"Ġà¤¯à¤¤":751,"à¤§à¤ķ":752,"à¤²à¤¯à¤²":753,"Ġà¥¤âĢĻ":754,"à¤¤à¤¬":755,"Ġ!":756,"Ġà¤¶à¤ķ":757,"à¤Īà¤²":758,"Ġà¤īà¤ªà¤ļ":759,"Ġà¤¨à¤Ń":760,"Ġà¤Ĩà¤ķ":761,"à¤·à¤¦":762,"Ġà¤§à¤¨":763,"à¤§à¤®":764,"à¤·à¤¯":765,"âĢĺ":766,"à¤¨à¤Ĺà¤°":767,"Ġà¤®à¤°":768,"Ġà¤īà¤ªà¤²à¤¬":769,"à¤ıà¤¸":770,"Ġà¤ļà¤²à¤ļ":771,"Ġà¤Ĩà¤¤":772,"Ġà¤Ľà¤²":773,"à¤®à¤§":774,"à¤¨à¤°":775,"à¤¦à¤µ":776,"à¤¯à¤ª":777,"Ġà¥¨à¥¦à¥§":778,"à¤ĩà¤¦":779,"Ġà¤ħà¤«":780,"Ġ-":781,"Ġà¤ľà¤°":782,"à¤°à¤ľ":783,"à¤ĩà¤Ł":784,"à¤ĺà¤ķ":785,"à¤¹à¤²":786,"Ġà¤¨à¤Ńà¤ıà¤ķ":787,"Ġà¤ªà¤ł":788,"Ġà¤¨à¤ľ":789,"à¤®à¤¦":790,"à¤²à¤¸":791,"à¤®à¤¹":792,"à¤ªà¤¯":793,"à¤ıà¤®":794,"à¥Īà¤ģ":795,"Ġà¤¦à¤¶":796,"ĠâĢĵ":797,"à¤¨à¤¤":798,"à¤Īà¤ķ":799,"à¥ĩà¥¤":800,"Ġà¤¬à¤ļ":801,"Ġà¤ľà¤Ĺ":802,"à¤°à¤¦à¤°":803,"Ġà¤Ńà¤ıà¤ªà¤Ľ":804,"à¤ĩà¤ķ":805,"à¤¸à¤¬":806,"Ġà¤¨à¤ª":807,"à¤¨à¤ª":808,"à¤ļà¤®":809,"à¤¥à¤²":810,"à¤²à¤¨à¤®":811,"à¤¯à¤¸à¤®":812,"Ġà¤ıà¤µ":813,"Ġà¤Ĺà¤£":814,"à¤®à¤¬":815,"à¤¿.":816,"à¥¦à¥Ń":817,"à¤²à¤¯à¤®":818,"Ġà¤¸à¤¹à¤®à¤¤":819,"à¥Įà¤Ĥ,":820,"à¤²à¤µ":821,"Ġà¤¹à¤¸":822,"à¤¦à¤®":823,"Ġà¥¨à¥«":824,"à¤ļà¤²":825,"Ġà¤ķà¤¸à¤°":826,"Ġà¤ıà¤¨":827,"à¤Ńà¤µ":828,"Ġà¥«à¥¦":829,"Ġà¤Ī":830,"à¤īà¤¦":831,"Ġà¤¨à¤°":832,"à¤¯à¤¯à¤¨":833,"Ġà¤ĺà¤Ł":834,"à¥ģà¤Ĥ":835,"Ġà¤¦à¤ķ":836,"à¤°à¤¤à¤ķ":837,"Ġà¤¸à¤ľ":838,"à¤¯à¤¹à¤°":839,"Ġà¤ķà¤ª":840,"à¤ªà¤¦":841,"à¤®à¤¸":842,"à¤°à¤£à¤®":843,"à¤ĺà¤Łà¤¨":844,"à¤¯à¤Łà¤ķ":845,"Ġà¤ħà¤ªà¤°":846,"à¤°à¤®à¤ķ":847,"à¤Ĺà¤¦":848,"à¤¯à¤¸à¤²":849,"à¤ªà¤Łà¤ķ":850,"à¤Ļà¤²":851,"Ġà¤¸à¤¹à¤ķ":852,"à¤®à¤°":853,"à¤Ĥ.":854,"à¤§à¤¤":855,"à¤¬à¤¸":856,"Ġà¤Ńà¤µ":857,"à¤ľà¤¯":858,"à¤¶à¤²":859,"Ġ||":860,"Ġà¤Ńà¤ĩà¤¸à¤ķ":861,"à¤ľà¤§":862,"Ġà¤ĺà¤°à¤®":863,"Ġà¤ķà¤µ":864,"Ġà¤Ńà¤Ł":865,"à¤¬à¤¦":866,"Ġà¤Ľà¤²à¤«à¤²":867,"à¤ľà¤¦":868,"Ġà¤ľà¤¤":869,"Ġà¥¨à¥¦à¥Ńà¥«":870,"Ġà¥§à¥©":871,"à¤°à¤·":872,"à¤Ńà¤ķ":873,"à¤ķà¤¸":874,"Ġà¥©à¥¦":875,"re":876,"Ġà¤¸à¤¹à¤ľ":877,"à¤ľà¤¨à¤ķ":878,"Ġà¥§à¥ª":879,"à¤¸à¤¹à¤°":880,"Ġà¤ıà¤ķà¤¤":881,"Ġà¤Ńà¤Ī":882,"à¤¨à¤¹à¤°":883,"à¤¨à¤¸à¤ķ":884,"Ġà¤®à¤¸":885,"à¤¯à¤¦":886,"à¤ĸà¤ķ":887,"ĠĊ":888,"Ġà¤ħà¤µà¤§":889,"à¤§à¤°":890,"Ġà¤ķà¤¥":891,"à¤ĩà¤°":892,"Ġà¥§à¥¬":893,"Ġà¤¹à¤Ł":894,"Ġà¤ªà¤°à¤®":895,"à¤¯à¤£":896,"à¤²à¤°":897,"à¤ľà¤°":898,"Ġà¤°à¤ķ":899,"à¤µà¤¦":900,"Â¥":901,"Ġà¥§à¥®":902,"Ġà¤¸à¤²":903,"Ġà¤ľà¤¸à¤²":904,"âĢľ":905,"Ġà¤°à¤®":906,"Ġà¤Ńà¤£":907,"Ġà¤īà¤ªà¤¯":908,"à¤¸à¤¸":909,"Ġà¤¯à¤¦":910,"à¤ķà¤Ł":911,"Ġà¤ĭ":912,"à¤µà¤µ":913,"à¤·à¤®à¤¤":914,"à¤Īà¤¨":915,"à¤¯à¤¸à¤ªà¤Ľ":916,"Ġà¤īà¤ªà¤¸":917,"on":918,"à¤ĩà¤¤":919,"à¤ĺà¤°":920,"à¤°à¤ļà¤¨":921,"à¤Ĩà¤°":922,"à¤¤à¤¤":923,"Ġà¤ľà¤¹":924,"à¤²à¤¨à¤ķ":925,"à¤ķà¤¹à¤°":926,"à¤¤à¤¹à¤°":927,"à¤·à¤²":928,"à¤¾)":929,"à¤§à¤¬":930,"er":931,"à¤·à¤§":932,"in":933,"à¤¨à¤¯":934,"Ġà¤Ĺà¤łà¤¨":935,"Ġà¤µà¤¨":936,"Ġà¤Ńà¤¦":937,"Ġà¤«à¤°à¤ķ":938,"à¤¨à¤Ĺà¤°à¤ª":939,"Ġà¤īà¤¡":940,"Ġà¤¶à¤¬":941,"Ġà¤ĸà¤¡":942,"Ġà¤¨à¤ķ":943,"Ġà¥§à¥Ń":944,"Ġà¤īà¤¸à¤²":945,"âĢĬ":946,"à¤¹à¤®":947,"à¤Ļà¤®":948,"à¤°à¤£à¤²":949,"à¤µà¤¤à¤¨":950,"Ġà¥¦":951,"Ġà¤¯à¤¸à¤°":952,"à¤ªà¤£":953,"à¤ļà¤°":954,"Ġà¤¤à¤¹à¤ķ":955,"Ġà¤Ŀà¤¨":956,"à¤°à¤ļà¤£":957,"ĉĊ":958,"Ġà¤ļà¤¨":959,"à¤®à¤Ĺ":960,"Ġà¤Ĩà¤ª":961,"Ġà¤¤à¤¸":962,"à¤¯à¤¬":963,"à¥Ī,":964,"Ġà¤¶à¤¨":965,"à¤¹à¤¤":966,"à¥¤âĢĻ":967,"à¤ħà¤°":968,"Ġ\"":969,"à¤¯à¤Łà¤¨":970,"Ġà¤µà¤¸":971,"à¤¯à¤ķà¤¤":972,"al":973,"à¤°à¤£à¤ķ":974,"Ġà¤Ĩà¤Ī":975,"à¤Ĺà¤²à¤¬":976,"à¤¯à¤ķà¤°":977,"Ġà¤ĩà¤¤":978,"à¤¯à¤®à¤¨":979,"Ġà¤¤à¤²":980,"Ġà¤®à¤¤à¤¦":981,"à¤ĸà¤²":982,"Ġà¤¸à¤¡":983,"Ġà¤¹à¤²":984,"à¤¸à¤ļ":985,"à¤¯à¤µà¤¹":986,"à¤µà¤¯à¤¨":987,"Ġà¥¨à¥§":988,"à¤ĩà¤®":989,"à¤¾âĢĻ":990,"Ġà¤Ĭ":991,"Ġà¤ķà¤®à¤ľ":992,"à¤ķà¤²à¤¨":993,"à¥ĩà¤Ĥ":994,"Ġà¥¨à¥Ń":995,"Ġà¥¨à¥¦à¥Ńà¥ª":996,"Ġà¤Ĺà¤ł":997,"à¤¸à¤µ":998,"ar":999,"à¥ĩà¤ģ":1000,"Ġà¤¯à¤¸à¤®":1001,"an":1002,"à¤¨à¤¦":1003,"à¤§à¤¨à¤ķ":1004,"à¥¦à¥¦":1005,"Ġà¤Ĺà¤®":1006,"Ġà¤ħà¤µà¤¸à¤°à¤®":1007,"à¤Ĩà¤«":1008,"Ġà¤ĸà¤¨":1009,"à¤¸à¤°à¤ķ":1010,"Ġà¤Ĩà¤²":1011,"Ġà¤Ńà¤ķ":1012,"Ġà¤ķà¤ķ":1013,"à¤ªà¤·":1014,"Ġ[":1015,"Ġ2":1016,"à¤īà¤ķ":1017,"Ġà¤ķà¤¨":1018,"Ġà¥¤âĢĿ":1019,"à¤¥à¤ķ":1020,"Ġà¤Ĩà¤ľà¤ķ":1021,"at":1022,"à¤ľà¤µ":1023,"à¥Ģ)":1024,"om":1025,"à¤Ĺà¤¢":1026,"Ġà¤Ķà¤·à¤§":1027,"à¤£à¤®":1028,"Ġà¤¸à¤®à¤°":1029,"Ġà¤Ĳà¤¨":1030,"à¤īà¤¨à¤ķ":1031,"Ġà¤ħà¤¨à¤²":1032,"à¤°à¤ĸ":1033,"Ġà¤ħà¤ķ":1034,"Ġà¤¦à¤²à¤ķ":1035,"à¤¬à¤°à¤ķ":1036,"Ġà¤īà¤ľ":1037,"Ġà¥¨à¥ª":1038,"à¤¡à¤°":1039,"à¤Ĺà¤łà¤¨":1040,"à¥Įà¤ģ,":1041,"à¤Ĺà¤¨":1042,"Ġà¤Ĩà¤ļ":1043,"Ġà¤ľà¤¬":1044,"à¤ķà¤°à¤£à¤ķ":1045,"Ġà¥¨à¥¨":1046,"à¤łà¤ķà¤²":1047,"à¤ħà¤§":1048,"Ġà¤ħà¤µà¤¸à¤°":1049,"à¤¾...":1050,"à¤°à¤°":1051,"à¤®à¤ª":1052,"Ġà¤«à¤²":1053,"Ġà¤Ńà¤¤":1054,"Ġà¤ľà¤µ":1055,"à¥ĢâĢĻ":1056,"Ġà¤²à¤¡":1057,"à¤Łà¤¬":1058,"à¤ĸà¤®":1059,"à¤ĩà¤¨à¤²":1060,"Ġà¤īà¤ªà¤Ń":1061,"à¤łà¤²":1062,"Ġà¥¨à¥®":1063,"Ġà¤¸à¤®à¤¨":1064,"Ġà¤Ĩà¤ĩà¤¤à¤¬":1065,"Ġà¥¨à¥¯":1066,"à¤ĩà¤¸":1067,"à¤°à¤¹à¤¨":1068,"à¤ĸà¤¨":1069,"Ġà¥¨à¥¦à¥¬":1070,"Ġà¤ľà¤¨à¤¸":1071,"à¤īà¤µ":1072,"Ġà¤ķà¤Ł":1073,"Ġà¤Ĺà¤¨":1074,"Ġà¤īà¤¸à¤ķ":1075,"à¤¸à¤ª":1076,"à¤Ķ":1077,"à¤£à¤¸":1078,"à¤¤à¤°à¤ķ":1079,"Ġà¤¬à¤®":1080,"Ġà¤®à¤¦":1081,",âĢĻ":1082,"Ġà¤¤à¤¨":1083,"Ġà¤ĺà¤£":1084,"Ġà¤Ĩà¤ķà¤°":1085,"Ġà¤¸à¤§":1086,"à¤Ĺà¤®à¤¨":1087,"à¤īà¤¨à¤²":1088,"à¤ķà¤µ":1089,"Ġà¤ĩà¤²":1090,"Ġà¤ĸà¤¬à¤°":1091,"Ġà¤¯à¤¸à¤ħà¤ĺ":1092,"Ġà¤ªà¤¸":1093,"Ġà¤¤à¤¹à¤®":1094,"à¤¯à¤¯":1095,"Ġà¥¨à¥©":1096,"à¤ļà¤¨à¤®":1097,"à¤Ńà¤®":1098,"Ġà¤¬à¤Ĺ":1099,"à¤Ĺà¤¬":1100,"à¤Ĺà¤ł":1101,"à¤ıà¤²":1102,"à¤¶à¤¸":1103,"Ġà¤¸à¤ªà¤¨":1104,"à¤µà¤Ł":1105,"à¤ªà¤ļ":1106,"Ġà¤Ĩà¤ł":1107,"à¤¨à¤¸à¤®":1108,"Ġà¤ļà¤¢":1109,"à¤£à¤¨":1110,"à¤łà¤ķà¤®":1111,"à¤ľà¤ª":1112,"Ġà¥ªà¥¦":1113,"à¤°à¤¥à¤®":1114,"Ġà¤¶à¤¹à¤°":1115,"Ġà¤¨à¤¤":1116,"à¤µà¤§":1117,"Ġà¤Ńà¤µà¤¨":1118,"Ġà¤Ńà¤ıà¤¨":1119,"à¥ĢâĢĵ":1120,"Ġà¤¨à¤µ":1121,"Ġà¤ªà¤¦à¤®":1122,"à¤µà¤¨à¤ķ":1123,"Ġà¥¨à¥¬":1124,"à¤Łà¤°à¤¨":1125,"ad":1126,"à¤²à¤¸à¤®":1127,"à¤ĩà¤¡":1128,"à¤°à¤Ĺà¤¤":1129,"à¤ĩà¤ľ":1130,"Ġà¤¸à¤ª":1131,"Ġà¤ĭà¤£":1132,"à¤«à¤¬":1133,"Ġà¤Ĺà¤²":1134,"Ġà¤¦à¤²à¤¹à¤°":1135,"à¤°à¤µà¤ķ":1136,"à¤°à¤¬à¤¹":1137,"Ġà¤ľà¤²":1138,"à¤Łà¤¬à¤²":1139,"Ġà¤¸à¤«":1140,"Ã·":1141,"Ġà¤ħà¤¡":1142,"Ġà¤¸à¤¹à¤°":1143,"Ġà¤Ĺà¤ıà¤°":1144,"à¤¬à¤®":1145,"Ġà¤ĸà¤¸":1146,"Ġ1":1147,"Ġà¤Ĩà¤«à¤¨":1148,"Ġà¤ħà¤ĸ":1149,"Ġà¤ĩà¤®":1150,"Ġà¤ªà¤²":1151,"à¤¾à¥¤":1152,"Ġà¤ļà¤°à¤£à¤®":1153,"en":1154,"à¤µà¤¶":1155,"Ġà¤Ńà¤Ĺ":1156,"ĠĠĠĊ":1157,"à¤°à¤¸à¤®":1158,"à¤¡à¤¨":1159,"à¤ªà¤¹":1160,"à¤Ĺà¤¤à¤ķ":1161,"Ġ[âĢ¦":1162,"Ġà¤¨à¤²":1163,"Ġà¤¯à¤¸à¤¬":1164,"à¤ķà¤¬":1165,"à¤Ĩà¤Ī":1166,"Ġ[âĢ¦]":1167,"Ġà¤ªà¤ŀ":1168,"à¤ķà¤¤à¤¨":1169,"01":1170,"Ġà¤°à¤¸":1171,"à¤ļà¤¯":1172,"Ġà¤īà¤ªà¤¤":1173,"Ġà¤ıà¤ľ":1174,"Ġà¤¸à¤«à¤²à¤¤":1175,"à¤®à¤£":1176,"à¤¦à¤Ľà¤¨":1177,"à¤ħà¤¹":1178,"Ġà¤ķà¤ł":1179,"à¤·à¤°":1180,"Ġà¤ķà¤¡":1181,"à¥ĭ...":1182,"à¤Ŀà¤¨":1183,"Ġà¤¦à¤¸":1184,"à¤Łà¤¹à¤°":1185,"st":1186,"à¤¸à¤¨à¤²":1187,"à¤ħà¤¸":1188,"à¤¸à¤¨à¤ķ":1189,"à¥ģà¤ĥ":1190,"à¤°à¤®à¤£à¤ķ":1191,"à¤ªà¤¸":1192,"Ġ/":1193,"à¤¶à¤¬":1194,"ĠĠĊ":1195,"à¤Ĺà¤°à¤®":1196,"Ġà¤ĸà¤Ł":1197,"à¤¤à¤°à¤®":1198,"Ġà¤¨à¤¬":1199,"à¥Įà¤Ĥà¥¤":1200,"à¤Ĺà¤°à¤ķ":1201,"à¤¨à¤¸à¤Ń":1202,"à¤Īà¤®":1203,"à¤·à¤£à¤ķ":1204,"à¤ķà¤®à¤²":1205,"à¤°à¤¤à¤²":1206,"or":1207,"à¤īà¤®":1208,"Ġà¤ľà¤¸à¤ķ":1209,"Ġà¥¬à¥¦":1210,"à¤¬à¤ķ":1211,"à¤Łà¤µ":1212,"Ġà¤Ĩà¤ĩà¤ª":1213,"à¤¾-":1214,"à¤ļà¤¨à¤ķ":1215,"Ġà¤Ĺà¤²à¤¤":1216,"à¤¹à¤°à¤£":1217,"à¤¯à¤°à¤¤":1218,"Ġà¤ıà¤²":1219,"Ġà¤¦à¤¶à¤ķ":1220,"Ġà¤Ĺà¤łà¤¬à¤¨":1221,"à¤Ĩà¤ľ":1222,"),":1223,"Ġà¤ıà¤ª":1224,"à¤ĩà¤¯":1225,"Ġà¤ħà¤¸à¤°":1226,"à¤¯à¤¸à¤¬":1227,"à¤¥à¤¨":1228,"Ġà¤¸à¤¸":1229,"à¤Ĺà¤¤à¤®":1230,"à¤¬à¤ľ":1231,"à¤°à¤Ĺ":1232,"Ġà¤®à¤ŀ":1233,"Ġà¤ľà¤¨à¤ľ":1234,"Ġà¤¯à¤¥":1235,"com":1236,"Ġà¤¡à¤Ł":1237,"Ġà¤Ĩà¤ı":1238,"Ġà¤ľà¤²à¤µ":1239,"à¤¡à¤¬":1240,"à¤µà¤Ń":1241,"à¥ģÂ¥":1242,"à¤¥à¤µ":1243,"Ġm":1244,"à¤§à¤µ":1245,"à¥Ĥ,":1246,"à¤īà¤¸":1247,"à¤°à¤¥":1248,"à¤¦à¤¶":1249,"à¤Łà¤ª":1250,"Ġà¤īà¤°":1251,"Ġà¤¦à¤¬":1252,"ĠS":1253,"Ġà¤ľà¤¨à¤ķ":1254,"à¤²à¤ª":1255,"Ġà¤Ĳà¤¤":1256,"à¤īà¤¤":1257,"à¤ĺà¤²":1258,"Ġà¤ªà¤¦à¤ķ":1259,"it":1260,"Ġà¤¹à¤ª":1261,"à¤¤à¤µà¤¨":1262,"Ġà¤°à¤¨":1263,"à¤Łà¤°à¤®":1264,"à¤Łà¤°à¤ķ":1265,"Ġà¤ĸà¤£":1266,"Ġà¤¸à¤¦à¤°à¤®":1267,"ĠN":1268,"Ġà¤²à¤®":1269,"âĢĻ,":1270,"à¤Ĭ":1271,"à¥¨à¥¦à¥Ń":1272,"Ġl":1273,"à¤ıà¤¨à¤¨":1274,"à¤¥à¤°":1275,"à¤¶à¤¸à¤Ń":1276,"à¤ľà¤¤":1277,"Ġà¤Ŀà¤£":1278,"à¤°à¤ŀ":1279,"Ġ201":1280,"à¤¹à¤¦":1281,"à¤ļà¤¨à¤ª":1282,"Ġà¤¡à¤²à¤°":1283,"à¥¨à¥¦à¥":1284,"Ġà¤¹à¤Ļà¤ķ":1285,"Ġà¤Ńà¤ıà¤ªà¤¨":1286,"ic":1287,"Ġà¤¸à¤¡à¤ķà¤®":1288,"ĠâĢĶ":1289,"à¤¥à¤²à¤®":1290,"à¤¶à¤¨à¤ķ":1291,"à¤¨à¤Ńà¤¨":1292,"Ġ)":1293,"à¤¶à¤¨à¤®":1294,"à¤¸à¤¤":1295,"Ġà¤ĸà¤¤":1296,"Ġà¥©à¥«":1297,"à¤¶à¤¹à¤°":1298,"à¤ľà¤¬":1299,"à¤°à¤¤à¤®":1300,"Ġà¥©à¥§":1301,"Ġà¤¹à¤ķ":1302,"à¤µà¤¨à¤®":1303,"à¤«à¤ķ":1304,"Ġà¤¤à¤°à¤ķ":1305,"à¤²à¤¦":1306,"Ġà¤ħà¤µà¤°":1307,"à¤Ĺà¤¹à¤°":1308,"Ġt":1309,"ĠA":1310,"à¤¦à¤¨à¤®":1311,"à¤īà¤ª":1312,"Ġà¥¨à¥¦à¥Ńà¥©":1313,"Ġà¥¨à¥¦à¥«":1314,"Ġà¤¸à¤°à¤¸":1315,"Ġà¤¨à¤ªà¤°":1316,"à¤ħà¤®":1317,"Ġà¤¬à¤¡":1318,"Ġà¤ĩà¤ļ":1319,"à¤Ńà¤Ĺ":1320,"Ġà¤Ĩà¤ıà¤°":1321,"Ġà¤®à¤Ĺà¤°":1322,"Ġà¤īà¤ªà¤°":1323,"Ġà¤ľà¤¡":1324,"Ġà¤ľà¤¸à¤®":1325,"Ġà¤Ĩà¤¹":1326,"Ġà¤¨à¤Ńà¤Ī":1327,"Ġà¤¨à¤Ńà¤ı":1328,"à¥Ńà¥«":1329,"ĠÂ":1330,"Ġà¤®à¤¨à¤®":1331,"à¥ģà¥ģ":1332,"à¤°à¤®à¤²":1333,"ore":1334,"Ġà¤īà¤¸":1335,"Ġà¤¢à¤ķ":1336,"Ġà¤īà¤Ń":1337,"à¤¶à¤¨à¤²":1338,"à¤°à¤«":1339,"Ġà¤ıà¤µà¤®":1340,"Ġà¤¸à¤¶à¤¸":1341,"Ġà¤®à¤¹à¤¸":1342,"Ġà¤ħà¤·":1343,"Ġà¤®à¤Ļ":1344,"à¤¦à¤¤":1345,"à¤²à¤¹à¤°":1346,"ha":1347,"Ġà¤ļà¤ķ":1348,"Ġà¤ĺà¤¨":1349,"Ġà¤ľà¤¨à¤ª":1350,"à¤²à¤¤à¤²":1351,"à¤µà¤¹à¤°":1352,"ĠÐ":1353,"Ġà¤Ĺà¤£à¤¤à¤¨":1354,"à¤Łà¤¨à¤Ĺà¤°":1355,"Ġà¤ħà¤¶":1356,"à¤¤à¤¸":1357,"Ġà¥¨à¥¦à¥¦à¥":1358,"à¥Ĥà¤ģ":1359,"Ġà¤ħà¤¥à¤µ":1360,"à¤·à¤ħà¤ĺ":1361,"à¥Ģà¤ģ":1362,"Ġà¤Ĭà¤°":1363,"Ġà¤²à¤²":1364,"à¤¹à¤¸":1365,"à¤®à¤¹à¤°":1366,"Ġà¤ªà¤¹à¤²":1367,"Ġà¤ĸà¤¤à¤°":1368,"à¥ĭà¥ĩ":1369,"es":1370,"Ġà¤¶à¤¤":1371,"Ġà¤ħà¤ªà¤¨":1372,"Ġà¤¨à¤Ĺà¤¦":1373,"à¤°à¤®à¤£à¤®":1374,"à¤·à¤¹à¤°":1375,"ep":1376,"à¤Łà¤¸":1377,"à¤®à¤²à¤µ":1378,"Ġà¤¸à¤®à¤Ĺ":1379,"à¤ĩà¤ķà¤²":1380,"à¤¹à¤®à¤¨":1381,"Ġà¤¦à¤¶à¤®à¤²à¤µ":1382,"ĠD":1383,"à¤§à¤²":1384,"à¤ªà¤¶":1385,"à¤¶à¤µ":1386,"à¥ģà¥¤":1387,"Ġà¤Ĺà¤¹":1388,"à¤²à¤Ń":1389,"Ġà¤®à¤£":1390,"Ġà¤ķà¤ŀ":1391,"Ġà¤Ķà¤ªà¤ļ":1392,"à¤Īà¤ıà¤ķ":1393,"à¤«à¤°":1394,"à¥ĩ...":1395,"à¤Ĺà¤ľ":1396,"Ġà¤Ĺà¤ı":1397,"Ġà¤ļà¤²à¤¨":1398,"à¤¡à¤¸":1399,"à¤¯à¤Ł":1400,"Ġà¤ļà¤°à¤£à¤ķ":1401,"à¥ĩ.":1402,"Ġà¤§à¤®":1403,"Ġà¤Ĩà¤¸":1404,"Ġà¤®à¤¹à¤°":1405,"à¤Ńà¤²":1406,"Ġà¤ľà¤¨à¤ķà¤ª":1407,"il":1408,"Ġà¤¤à¤®":1409,"Ġà¤ıà¤ķà¤²":1410,"ĠP":1411,"Ġà¤µà¤ķ":1412,"à¤¥à¤¤à¤¨":1413,"ou":1414,"Ġp":1415,"ĠT":1416,"Ġà¤ĺà¤°à¤ķ":1417,"ĠC":1418,"Ġà¤ħà¤Ļ":1419,"à¤²à¤¤à¤®":1420,"Ġà¤°à¤µ":1421,"à¤ªà¤¨à¤ķ":1422,"à¤²à¤ªà¤¤":1423,"Ġà¤Ĺà¤¯":1424,"Re":1425,"Ġà¥¨à¥¦à¥Ńà¥¨":1426,"à¤£à¤¤":1427,"Ġà¤ıà¤¶":1428,"Ġà¤Ńà¤Ĺà¤µ":1429,"à¥§à¥¯":1430,"à¤ĸà¤¦":1431,"à¤Łà¤°à¤¸":1432,"Ġà¤ıà¤ķà¤ľà¤¨":1433,"à¤ªà¤¦à¤£":1434,"Ġà¤®à¤ľà¤¦":1435,"à¥ĩâĢĵ":1436,"Ġà¤ķà¤®à¤²":1437,"Ġà¤ľà¤¨à¤®":1438,"Ġà¤Ĩà¤ĩà¤°à¤¹":1439,"Ġà¥ªà¥«":1440,"à¤°à¤ķà¤°":1441,"à¤£à¤²":1442,"à¤Ĩà¤®":1443,"à¤µà¤ķà¤ª":1444,"à¥ģ.":1445,"à¤¤à¤°à¤¤":1446,"à¥ĭâĢĵ":1447,"he":1448,"à¤¯à¤¸à¤°":1449,"à¤ĩà¤ª":1450,"à¤¿à¤ĥ":1451,"--":1452,"à¤·à¤¸à¤®":1453,"Ġà¥©à¥¨":1454,"Ġà¤¦à¤®":1455,"à¤ªà¤ķà¤®à¤²":1456,"Ġà¤¬à¤¦à¤²":1457,"Ġà¥®à¥¦":1458,"Ġà¤īà¤ªà¤®à¤¹":1459,"à¤ĩà¤¨à¤²à¤®":1460,"ĠM":1461,"à¤¤à¤¹":1462,"à¤¯à¤®à¤¬":1463,"à¤·à¤ķà¤ķ":1464,"Ġà¥Ńà¥¦":1465,"à¤īà¤°":1466,"ion":1467,"à¤®à¤¬à¤¹":1468,"à¤¯à¤¤à¤²":1469,"à¤ŀà¤ª":1470,"Ð¾":1471,"à¤·à¤¯à¤²":1472,"à¤īà¤²":1473,"Ġà¤°à¤ļà¤¨":1474,"à¤¦à¤µà¤²":1475,"à¥Ģ...":1476,"Ġà¤Ńà¤ıà¤®":1477,"à¥ĭâĢĻ":1478,"Ġà¤īà¤ªà¤¨":1479,"Ġà¤ħà¤¸à¤¨":1480,"ĠÂ»":1481,"Ġà¤Ŀà¤°":1482,"ww":1483,"à¥Ģ.":1484,"à¤ıà¤«":1485,"Ġà¤¤à¤²à¤¬":1486,"Ġà¤°à¤£à¤¨":1487,"Ġà¤«à¤¸":1488,"Ġà¤Ľà¤°":1489,"à¤£à¤ªà¤¤":1490,"à¥ĩ)":1491,"Ġà¤¨à¤Ĩ":1492,"à¤¬à¤°à¤®":1493,"âĢĶ":1494,"à¤Ĺà¤¸":1495,"Ġà¤ħà¤¸à¤«à¤²":1496,"à¥§à¥¦":1497,"à¤ªà¤Ł":1498,"à¤µà¤°à¤®":1499,"à¤µà¤°à¤ķ":1500,"Ġà¤¶à¤µ":1501,"à¤¨à¤¸à¤°":1502,"Ġà¤¹à¤µ":1503,"Ġà¤ħà¤ļ":1504,"Ġà¥¨à¥¦à¥ª":1505,"Ġà¤Ńà¤°à¤¤":1506,"Ġà¤¨à¤Ńà¤ıà¤°":1507,"à¤°à¤®à¤¹à¤°":1508,"à¤ķà¤°à¤£à¤²":1509,"à¤¨à¤¤à¤®":1510,"à¤°à¤¬à¤¨":1511,"à¤¯à¤°à¤ķ":1512,"à¤ħà¤¬":1513,"à¤Ŀà¤¦":1514,"Ġs":1515,"à¤ģ,":1516,"Ġà¤Ĺà¤ľ":1517,"Ġà¤¡à¤°":1518,"à¤¦à¤¨à¤ķ":1519,"Ġà¤ľà¤¸à¤°":1520,"à¤¸à¤Ļ":1521,"Ġà¤īà¤ªà¤ª":1522,"Ġà¤Ĩà¤ıà¤ªà¤Ľ":1523,"Ġà¥Ńà¥«":1524,"Ġ.":1525,"Ġà¤ļà¤¯à¤¨":1526,"Ġà¥¨à¥¦à¥§à¥®":1527,"Ġmore":1528,"Ġà¤¦à¤°à¤¬":1529,"Ġà¥©à¥©":1530,"Ġà¤ħà¤ŀ":1531,"à¤·à¤¯à¤ķ":1532,"à¤Ĩà¤¯":1533,"Ġa":1534,"Ġà¥§à¥¯à¥¯":1535,"à¤µà¤¹":1536,"Ġà¥¨à¥¦à¥¨":1537,"à¤²à¤ĸ":1538,"à¤ľà¤¨à¤®":1539,"Ġà¤ªà¤¸à¤²":1540,"à¤°à¤µà¤¦":1541,"à¤µà¤¡":1542,"à¤¤à¤¨à¤ķ":1543,"le":1544,"Ġà¤¸à¤®à¤¯à¤¦":1545,"à¤®à¤°à¤£":1546,"à¤Ĺà¤¶":1547,"à¤Łà¤µà¤²":1548,"Ġà¤ħà¤²à¤Ĺ":1549,"Ġà¤¸à¤®à¤¯à¤ķ":1550,"Ġ2018":1551,"à¤ªà¤¬":1552,"à¤§à¤¨à¤®":1553,"à¤Ĺà¤£":1554,"is":1555,"Ġà¤¨à¤°à¤¹":1556,"Ġà¤ľà¤¨à¤¶à¤ķ":1557,"à¤²à¤¯à¤¹à¤°":1558,"à¤īà¤¹":1559,"à¤²à¤¤à¤ķ":1560,"Ġà¤Ĩà¤¨à¤¨":1561,"à¤°à¤¹à¤£":1562,"Read":1563,"à¥Ńà¥ª":1564,"à¤ıà¤ľ":1565,"à¤®à¤µ":1566,"à¤µà¤°à¤²":1567,"à¤®à¤¯":1568,"à¤Ńà¤¦":1569,"à¥¨à¥¦":1570,"à¥§à¥«":1571,"Ġà¤ĩà¤¸":1572,"à¥Į,":1573,"à¤Ĺà¤ķà¤°":1574,"Ġà¤łà¤Ĺ":1575,"à¤·à¤¬":1576,"à¤·à¤£à¤²":1577,"à¤²à¤¯à¤¬":1578,"Ġà¤ħà¤Ł":1579,"à¤®à¤¶":1580,"Ġà¤°à¤¤":1581,"à¤ħà¤²":1582,"Ġà¤łà¤¹à¤°":1583,"à¤Ĩà¤°à¤ıà¤¨":1584,"à¤®à¤ľ":1585,"Ġà¤Ńà¤²":1586,"....":1587,"Ġà¤Ľà¤ł":1588,"à¤·à¤£à¤®":1589,"à¤§à¤¨à¤²":1590,"epal":1591,"à¤¤à¤°à¤£à¤ķ":1592,"Ġà¤Ľà¤²à¤«":1593,"à¤ħà¤ª":1594,"Ġà¤¸à¤¡à¤ķà¤ķ":1595,"à¤¸à¤¨à¤®":1596,"à¤¨à¤ļ":1597,"Ðµ":1598,"à¤¡à¤«":1599,"Ġà¤ªà¤°à¤°":1600,"Ð°":1601,"à¥©à¥¦":1602,"ew":1603,"à¤¦à¤Ĺ":1604,"à¤īà¤£":1605,"Ġà¤ķà¤ªà¤¡":1606,"à¤·à¤ªà¤Ľ":1607,"Ġà¤ķà¤¸à¤²":1608,"Ġà¤¨à¤¸":1609,"Ġà¤ħà¤¸à¤¹":1610,"Ġà¥¯à¥¦":1611,"Ġà¤¦à¤²à¤²":1612,"à¤·à¤ķà¤¹à¤°":1613,"Ġà¤¬à¤¹à¤¸":1614,"à¤µà¤ļ":1615,"Ġà¤ıà¤«":1616,"à¥§à¥¨":1617,"à¤°à¤¤à¤¬":1618,"à¤°à¤®à¤¶":1619,"à¤·à¤Ń":1620,"à¤µà¤¯à¤¨à¤®":1621,"Ġà¤ķà¤¬":1622,"ing":1623,"à¤®à¤ķà¤¤":1624,"à¤·à¤ķà¤²":1625,"Ġà¤Ĩà¤¦à¤°":1626,"à¤ĺà¤°à¤®":1627,"à¤¥à¤²à¤ķ":1628,"à¤µà¤¯à¤®":1629,"à¤µà¤¸à¤ķ":1630,"à¤²à¤¨à¤²":1631,"Ġà¤¸à¤°à¤¸à¤«":1632,"à¤°à¤Ļ":1633,"à¤°à¤ªà¤¶":1634,"Ġà¤ıà¤£":1635,"Ġà¤¬à¤ķ":1636,"ĠI":1637,"à¤īà¤¡":1638,"Ġà¥«à¥«":1639,"à¤¦à¤¯":1640,"à¤£à¤ª":1641,"à¤¯à¤§":1642,"Ġf":1643,"à¤¨à¤¥":1644,"à¤ķà¤¦":1645,"à¤¥à¤®à¤¨":1646,"Ġà¤¨à¤µà¤²":1647,"Ġà¤²à¤ĺ":1648,"à¤²à¤ķà¤²":1649,"Ġà¤ľà¤Ł":1650,"ĠâĢ¦":1651,"à¤¿à¥į":1652,"Ġà¤¸à¤Ł":1653,"ĠB":1654,"à¤µà¤ľ":1655,"Ġà¤¨à¤ĸ":1656,"à¤¯à¤¸à¤ħà¤ĺ":1657,"07":1658,"à¤°à¤ķà¤Ł":1659,"Ġà¤Īà¤¨":1660,"à¤¶à¤¤à¤²":1661,"Ġà¤ıà¤ķà¤¦à¤®":1662,"Ġà¤Ĩà¤Ĺà¤²":1663,"à¤Łà¤°à¤²":1664,"à¤ĩà¤Ń":1665,"ur":1666,"Ġà¤¸à¤ĺ":1667,"à¤Łà¤ĺ":1668,"à¥ĩâĢĻ":1669,"Ġd":1670,"Ġà¤µà¤¹":1671,"ent":1672,"à¤·à¤ľ":1673,"à¥§à¥§":1674,"à¤ľà¤¨à¤²":1675,"à¤¿...":1676,"ĉĠĊ":1677,"Ġà¤ªà¤Ł":1678,"à¤ķà¤¹":1679,"Ġà¤¢à¤²":1680,"Ġc":1681,"âĢĮ":1682,"Ð¸":1683,"Ġà¤°à¤Ļ":1684,"Ġà¤ħà¤¸à¤®":1685,"à¤¦à¤¨à¤¶":1686,"Ġà¤łà¤ķ":1687,"Ġà¤²à¤Ĺà¤Ńà¤Ĺ":1688,"à¤¯à¤¤à¤®":1689,"ac":1690,"ed":1691,"à¤ĩà¤¬":1692,"Ġà¤Ķà¤¦":1693,"ĠF":1694,"Ġà¤īà¤ªà¤ķà¤°à¤£":1695,"Ġà¤ļà¤®":1696,"à¤¯à¤®à¤ķ":1697,"à¤ĸà¤£":1698,"à¤ıà¤¸à¤ª":1699,"âĢĿ,":1700,"à¤ĸà¤¤":1701,"à¤ªà¤¥":1702,"à¤¸à¤¦à¤®":1703,"à¥§à¥®":1704,"à¤Īà¤Ł":1705,"Ġà¤Ĩà¤ĸ":1706,"à¤łà¤ķà¤ķ":1707,"à¤¯à¤°à¤²":1708,"à¤īà¤Ľ":1709,"Ġà¤ĺà¤°à¤¬":1710,"à¥Įà¤ģà¥¤":1711,"à¤µà¤¯à¤¨à¤ķ":1712,"à¤¤à¤µà¤®":1713,"à¤¨à¤Ń":1714,"à¤Ĺà¤¡":1715,"à¤°à¤¶à¤¸":1716,"Ġà¤Ĩà¤ªà¤¤":1717,"à¤µà¤¬":1718,"ro":1719,"Ġà¤ħà¤µà¤²":1720,"à¤Ĩà¤¨":1721,"à¤¸à¤¦à¤¹à¤°":1722,"à¤ļà¤¸":1723,"à¤¯à¤¶":1724,"Ġà¤°à¤Ĺà¤¤":1725,"à¥Ģà¤Ĥ":1726,"Ġà¤ĩà¤ķ":1727,"à¤¯à¤®à¤²":1728,"Ġà¤¯à¤¸à¤ª":1729,"à¤Ĺà¤łà¤¨à¤ķ":1730,"à¥¦à¥Ńà¥ª":1731,"Ġà¤ħà¤¬à¤ķ":1732,"Ġà¤¨à¤·":1733,"à¤¶à¤Ńà¤°":1734,"à¤Īà¤¸":1735,"Ġà¤ıà¤¡":1736,"Ġà¤¸à¤Ĺà¤°à¤®":1737,"à¤Łà¤²à¤²":1738,"à¤Īà¤¦":1739,"Ġà¤¨à¤ļ":1740,"à¤¾à¥Ī":1741,"Ġà¤¦à¤«":1742,"à¤Īà¤µà¤Ł":1743,"à¥¦à¥¬":1744,"à¤¸à¤¦à¤ķ":1745,"à¤¶à¤Ń":1746,"Ġà¤®à¤ķ":1747,"Ġà¥©à¥¬":1748,"ÑĤ":1749,"Ġà¤¸à¤®à¤Ŀà¤¦":1750,"Ġà¤§à¤¨à¤Ĺà¤¢":1751,"à¤µà¤ķà¤°":1752,"à¥ĭ,âĢĻ":1753,"à¤¾âĢ¦":1754,"à¤ľà¤ķà¤¤":1755,"à¥Ģ-":1756,"Ġà¤ħà¤ľ":1757,"à¤Ńà¤µà¤¤":1758,"à¤¯à¤ľ":1759,"à¤¬à¤¤":1760,"à¤¤à¤¦":1761,"Ġà¤¤à¤¹à¤²":1762,"à¤¦à¤¹à¤°":1763,"Ġà¤¡à¤²":1764,"à¤ŀà¤µ":1765,"à¤¯à¤¬à¤¸":1766,"Ġà¤¬à¤ļà¤¤":1767,"à¤ħà¤Ń":1768,"el":1769,"Ġà¤¸à¤°à¤²":1770,"Ġà¤ĵà¤Ń":1771,"à¤¨à¤¹":1772,"à¤ģà¥ģ":1773,"Ġà¤ĵà¤°":1774,"Ġà¥¨à¥¦à¥©":1775,"Ġon":1776,"Ġà¥¨à¥¦à¥§à¥Ń":1777,"à¤ĩà¤¨à¤¨":1778,"à¤¤à¤°à¤²":1779,"à¤ĸà¤¹à¤°":1780,"ĠâĢĻ":1781,"ews":1782,"à¤Łà¤²à¤®":1783,"à¤ľà¤¹à¤°":1784,"à¤Īà¤¹à¤°":1785,"à¤Ĩà¤µ":1786,"Ġà¤Ńà¤°à¤¤à¤ª":1787,"as":1788,"Ġà¥¬à¥«":1789,"à¤Łà¤«":1790,"à¤ŀà¤¹à¤°":1791,"à¤ļà¤¬":1792,"Ġà¤ıà¤¨à¤Ĩà¤°à¤ıà¤¨":1793,"à¤ģà¥¤":1794,"Ġà¤īà¤ªà¤¹":1795,"à¥į...":1796,"à¤°à¤ªà¤Ľ":1797,"à¤¤à¤¡":1798,"Ġà¤ĩà¤°":1799,"à¤²à¤¬à¤²":1800,"Ð½":1801,"am":1802,"à¤¾à¤¾":1803,"Ġà¤¤à¤¬":1804,"à¤ĺà¤¨":1805,"Ġà¤¥à¤°":1806,"à¤¹à¤¬":1807,"Ġà¤ĩà¤ľ":1808,"à¤¤à¤ľ":1809,"Ġà¤ķà¤¦à¤®":1810,"ĠR":1811,"à¤®à¤¹à¤¤":1812,"__":1813,"Ġà¤ľà¤¬à¤°":1814,"oo":1815,"Ġà¤²à¤Ĺà¤¤":1816,"à¤¶à¤°":1817,"Ġà¥©à¥ª":1818,"Ġà¤¯à¤¸à¤ªà¤Łà¤ķ":1819,"à¤°à¤µà¤°":1820,"Ġà¥ªà¥¨":1821,"à¥Ĥ.":1822,"Ġà¤Ńà¤ĩ":1823,"Ġà¥§à¥¦à¥¦":1824,"à¤ķà¤°à¤£à¤®":1825,"à¤µà¤¸à¤®":1826,"Ġà¤Ĺà¤ĩà¤°à¤¹":1827,"à¤¤à¤®à¤²":1828,"et":1829,"Ġà¤¨à¤µà¤²à¤ªà¤°":1830,"à¥§à¥ª":1831,"à¤¯à¤ķà¤ķ":1832,"à¤®à¤ļà¤¨":1833,"à¤£à¤°":1834,"Ġà¤®à¤¦à¤¨":1835,"Ġà¥ªà¥ª":1836,"à¤²à¤ķà¤ķ":1837,"à¥ĭ)":1838,"Ġà¤¨à¤¬à¤¨":1839,"Ġà¤ħà¤¸à¤²":1840,"Ġà¤ļà¤°à¤£":1841,"à¤¾âĢľ":1842,"à¤¤à¤µà¤¨à¤ķ":1843,"Ġà¤¨à¤¨":1844,"Ġà¤®à¤ķà¤µ":1845,"Ġà¤¸à¤®à¤¯à¤¸à¤®":1846,"à¤¨à¤ľ":1847,"à¤¨à¤µà¤ħà¤§":1848,"à¤ĩà¤¨à¤®":1849,"à¥ĭâĢ¦":1850,"à¤°à¤¸à¤¹":1851,"à¤ªà¤¨à¤®":1852,"à¤¸à¤Ĺà¤°":1853,"à¥ģ:":1854,"à¤°à¤¯à¤¤":1855,"à¥Ńà¥©":1856,"Ġà¤µà¤²":1857,"Ġà¤īà¤ĸ":1858,"à¤¯à¤®à¤®":1859,"à¤«à¤®":1860,"Ġà¥ªà¥®":1861,"Ġà¤ķà¤ļ":1862,"Ġà¤ªà¤ļ":1863,"Ġn":1864,"à¥ĭà¤Ĥ":1865,"Ġà¤¸à¤¶à¤ķ":1866,"à¤Ĺà¤£à¤¨":1867,"Ġà¤Ĩà¤¬à¤¦":1868,"Ġà¤Łà¤¨":1869,"ot":1870,"à¤¹à¤¦à¤°à¤¬":1871,"Ġà¤¬à¤Ł":1872,"à¤°à¤ļà¤²à¤¨":1873,"Ġà¤®à¤ļ":1874,"id":1875,"em":1876,"à¤ĵà¤¸":1877,"Ġà¤§à¤¨à¤ķ":1878,"Ġà¥¨à¥¦à¥§à¥¬":1879,"Ġà¤ĥ":1880,"à¤¤à¤ķà¤ķ":1881,"ag":1882,"Ñģ":1883,"à¤ıà¤īà¤Ł":1884,"à¤¡à¤ªà¤°":1885,"Ġà¥©à¥Ń":1886,"Ġà¤¹à¤Ļà¤ķà¤Ļ":1887,"à¤Ĺà¤Ł":1888,"à¤¥à¤Ĺ":1889,"ÑĢ":1890,"Ġà¤ħà¤ļà¤®":1891,"à¤Ĺà¤²à¤®":1892,"un":1893,"Ġà¤¹à¤¨":1894,"Ġà¤Īà¤¶":1895,"à¥Ńà¥¬":1896,"Ġb":1897,"Ġà¥©à¥®":1898,"à¤¸à¤µà¤ķ":1899,"and":1900,"00":1901,"Ġà¤·":1902,"à¤Īà¤ķà¤²":1903,"ï¿":1904,"à¤¦à¤¬":1905,"Ġà¤¹à¤ķà¤®":1906,"Ġà¤«à¤²à¤«":1907,"ation":1908,"ï¿½":1909,"Ġà¤ıà¤Ł":1910,"à¤¯à¤°à¤®":1911,"Ġà¤¹à¤¦":1912,"à¤ĺà¤¸":1913,"à¤Īà¤¤":1914,"à¥¨à¥«":1915,"Ġà¤¬à¤¯":1916,"Ġo":1917,"à¤¯à¤¯à¤¨à¤ķ":1918,"à¤¯à¤Łà¤ķà¤ķ":1919,"Ġà¤Łà¤°":1920,"à¤¤à¤°à¤¦":1921,"Ġà¤²à¤¨":1922,"à¤ľà¤¶":1923,"ate":1924,"Ġà¤Ĩà¤¸à¤ª":1925,"à¤¨à¤µà¤Ł":1926,"à¥Ģà¥¤":1927,"Ġà¤¹à¤®":1928,"Ġà¥«à¥§":1929,"à¤¯à¤¥":1930,"à¤¿âĢĵ":1931,"à¥ĥà¤Ĥ":1932,"à¤¡à¤²à¤ķ":1933,"à¥¦à¥§":1934,"Ġw":1935,"Ġà¤ľà¤¨à¤¯":1936,"à¤·à¤ķà¤®":1937,"Ġà¤¦à¤°à¤²":1938,"à¤¦à¤°à¤²":1939,"Ġà¤ľà¤¯à¤¨":1940,"Ð¾Ð":1941,"à¤¨à¤ªà¤Ľ":1942,"Ġà¤®à¤ľ":1943,"à¤¯à¤¸à¤Ń":1944,"Ġà¤¶à¤°à¤£":1945,"à¤Ļà¤¬":1946,"à¥§à¥©":1947,"à¤ªà¤ª":1948,"à¤¸à¤ķà¤¹à¤°":1949,"à¤®à¤ªà¤¨":1950,"à¥Įà¤ģâĢĵ":1951,"ĠE":1952,"à¤°à¤ľà¤¨":1953,"Ġà¤ıà¤ķà¤¦":1954,"Ġà¤ľà¤¨à¤µ":1955,"à¤¤à¤¸à¤®":1956,"Ġ11":1957,"à¥ĩ-":1958,"Ġà¤ªà¤µ":1959,"ail":1960,"à¥¦à¥«":1961,"Ġà¤¤à¤¨à¤¹":1962,"Ġà¤ħà¤«à¤Ĺ":1963,"à¤µà¤Ńà¤°":1964,"à¤Ĩà¤ĩ":1965,"à¤Ĺà¤®à¤²":1966,"à¤¯à¤¨à¤¸":1967,"à¤°à¤Ńà¤¨":1968,"Ġà¤ıà¤¯à¤°":1969,"Ġà¤Ĺà¤¹à¤¨":1970,"à¥ĩà¥į":1971,"Ġà¤Ńà¤°à¤®":1972,"à¤ľà¤°à¤ķ":1973,"Ġà¤ıà¤ķà¤®":1974,"à¤¸à¤®à¤ķ":1975,"Ġà¥§à¥¯à¥®":1976,"Ġà¥¨à¥¦à¥¨à¥¦":1977,"à¤¯à¤¨à¤ķ":1978,"à¤ªà¤¹à¤°":1979,"Ġà¤¸à¤®à¤ķ":1980,"à¤¸à¤°à¤®":1981,"074":1982,"ov":1983,"Ġà¤Ľà¤ķ":1984,"Ġà¤Ńà¤ıà¤¸":1985,"à¤ķà¤¨à¤ķ":1986,"Ġà¤Ŀà¤²":1987,"Ġin":1988,"Ġà¤°à¤¹à¤¸":1989,"Ġà¤ĵà¤Ŀ":1990,"à¤¶à¤ķà¤²":1991,"qu":1992,"Ġà¤¬à¤§":1993,"à¤£à¤µ":1994,"www":1995,"à¤ķà¤¥":1996,"à¤¦à¤¸":1997,"Ġà¤®à¤¨à¤ķ":1998,"à¤¦à¤¥":1999,"Ġà¤ªà¤£":2000,"à¤īà¤ľ":2001,"à¤°à¤®à¤¨":2002,"Ġà¤°à¤¨à¤ķ":2003,"ĠG":2004,"à¤ĩà¤¨à¤ķ":2005,"à¤ĩà¤Łà¤®":2006,"à¥ģâĢĻ":2007,"Ġà¤Ĺà¤Ī":2008,"Ġà¤ħà¤¨à¤¶à¤¨":2009,"Ġà¤Ĩà¤Ń":2010,"Ġà¤°à¤¹à¤°":2011,"Ġà¤ıà¤ķà¤ªà¤Łà¤ķ":2012,"ĠO":2013,"Ġà¤§à¤ķ":2014,"75":2015,"à¤ĩà¤«":2016,"Ġà¥©à¥¯":2017,"à¤¯à¤ľà¤¨":2018,"à¤°à¤¤à¤¸":2019,"Ġà¤Ńà¤ĩà¤¨":2020,"Ġà¤¡à¤Łà¤ķà¤®":2021,"à¤¸à¤¦à¤²":2022,"Ġà¤Ĺà¤ľà¤²":2023,"ct":2024,"à¥¨à¥¦à¥Ńà¥«":2025,"Ġà¤°à¤ľ":2026,"Ġà¤Ĩà¤ĩà¤¸à¤ķ":2027,"Ġà¤ĭà¤·":2028,"ĠL":2029,"Ġà¤¹à¤¡":2030,"à¤Łà¤µà¤°":2031,"Ġà¥«à¥¬":2032,"Ġà¤¨à¤Ĺà¤°à¤ķ":2033,"à¥įâĢĵ":2034,"Ġà¤Ľà¤µ":2035,"Ġà¤ķà¤°à¤ķ":2036,"Ġà¤ĸà¤²":2037,"Ġ?âĢĻ":2038,"à¤ķà¤¤à¤®":2039,"à¥Įà¤ĤâĢĵ":2040,"Ġà¤ħà¤µà¤¶":2041,"à¤ıà¤ļ":2042,"Ġà¤¤à¤¸à¤°":2043,"Ġà¥«à¥¨":2044,"!!":2045,"Ġà¤ķà¤®à¤°":2046,"Ġà¤ħà¤µà¤ķ":2047,"Ġà¤®à¤¨à¤¸":2048,"à¤Ļà¤Ĺ":2049,"à¤²à¤Ĺà¤ŀ":2050,"ter":2051,".....":2052,"à¤Łà¤²à¤ķ":2053,"Ġà¤Ĺà¤ıà¤ªà¤Ľ":2054,"Ġà¤¨à¤Ĺ":2055,"à¤µà¤ķà¤²":2056,"Ġà¤¶à¤¹":2057,"Ġà¥ªà¥©":2058,"à¤®à¤¸à¤®":2059,"à¤°à¤§à¤¨":2060,"Ġà¥«à¥ª":2061,"à¤¥à¤ª":2062,"Ġre":2063,"Ġà¤ħà¤°à¤¬":2064,"à¤¿à¥¤":2065,"à¤łà¤Ń":2066,"ãģ":2067,"à¤¾à¥Īà¤Ĥ":2068,"Ġà¤¥à¤²":2069,"à¤¾/":2070,"à¥ĭ-":2071,"à¤¸à¤«":2072,"Ġà¤ĵà¤¸":2073,"à¤ľà¤¨à¤¤":2074,"à¤·à¤¸":2075,"à¥¨à¥¦à¥§":2076,"à¥§à¥¬":2077,"à¥«à¥¦":2078,"à¤¾:":2079,"à¤¬à¤Ī":2080,"à¤¤à¤ļ":2081,"Ġà¤¬à¤Ļ":2082,"Ġà¤¸à¤¹à¤¸à¤ļ":2083,"à¤¡à¤µ":2084,"à¤Łà¤¬à¤²à¤ķ":2085,"à¤¦à¤¨à¤²":2086,"Ġà¤¬à¤²à¤®":2087,"à¤¡à¤¯à¤¨":2088,"à¤²à¤¬à¤¹":2089,"à¤Ĺà¤®à¤ķ":2090,"à¤¡à¤¹à¤°":2091,"à¤ıà¤ªà¤¨":2092,"à¤ľà¤ķà¤²":2093,"à¤¾),":2094,"à¤°à¤Ńà¤°":2095,"Ġà¤ĺà¤¡":2096,"ĠH":2097,"bs":2098,"Ġà¤µà¤¤":2099,"Ġà¥«à¥®":2100,"Ġà¤ĵà¤Ł":2101,"Ġà¤µà¤ľ":2102,"à¤ķà¤¡":2103,"Ġà¤®à¤¨à¤ªà¤°":2104,"à¥¦à¥¨":2105,"à¤µà¤¨à¤²":2106,"à¥ĭ?":2107,"à¤¨à¤Ńà¤°":2108,"à¤£à¤¬à¤¹":2109,"Ġà¤ĩà¤ľà¤°":2110,"Ġà¤ķà¤«":2111,"Ġà¤Ĩà¤ªà¤¸":2112,"Ġà¥ªà¥¯":2113,"ĠâĢĿ":2114,"à¤¸à¤ķà¤²":2115,"à¤ļà¤¨à¤²":2116,"ch":2117,"Ġà¥®à¥«":2118,"Ġà¥¨à¥¦à¥Ńà¥§":2119,"à¤ļà¤¯à¤ªà¤¤":2120,"ĠK":2121,"Ġà¤ıà¤ļ":2122,"à¤ķà¤Łà¤ķ":2123,"à¤ĸà¤¬":2124,"Ġà¥¨à¥¦à¥§à¥ª":2125,"Ġà¤ªà¤¬":2126,"Ġà¤Ľà¤²à¤«à¤²à¤®":2127,"Ġà¥¨à¥¦à¥§à¥«":2128,"à¤Ĩà¤ıà¤ķ":2129,"Ġà¤ļà¤°à¤®":2130,"à¤¼":2131,"Ġà¤¸à¤°à¤¹":2132,"Ġà¤ĩà¤Ł":2133,"Ġà¤¦à¤£":2134,"à¤°à¤¹à¤µ":2135,"à¤°à¤Ĩà¤µ":2136,"à¤·à¤¦à¤ķ":2137,"à¤¶à¤¦":2138,"à¤¶à¤ª":2139,"Ġà¤¨à¤µà¤¨":2140,"à¤Ĩà¤¤":2141,"Ġà¤ĩà¤ľà¤²":2142,"Ġà¥¦à¥¬":2143,"Ġà¤ľà¤Ĺà¤¤":2144,"Ġà¥ªà¥Ń":2145,"à¤²à¤µà¤¸":2146,"à¤°à¤¸à¤°":2147,"à¤ıà¤Ł":2148,"Ġà¤ıà¤°":2149,"à¤°à¤¸à¤°à¤ķ":2150,"Ġà¤Ĩà¤°à¤ķ":2151,"à¤²à¤ķà¤¹à¤°":2152,"à¥ĤâĢĵ":2153,"Ġà¤ħà¤²à¤ªà¤¤":2154,"à¤ĩà¤°à¤²":2155,"Ġà¥ªà¥§":2156,"à¤¹à¤°à¤£à¤ķ":2157,"Ġà¥«à¥©":2158,"Ġà¥ªà¥¬":2159,"Ġà¤¦à¤°à¤¬à¤¨":2160,"à¤¨à¤¡":2161,"à¤Łà¤¸à¤®":2162,"Ġà¤ľà¤®à¤°":2163,"à¤²à¤¬à¤ķ":2164,"Ġà¤Ĺà¤£à¤¨":2165,"à¤£à¤¯à¤¹à¤°":2166,"Ġà¤µà¤¸à¤¨":2167,"Ġà¤ķà¤°à¤£":2168,"à¤µà¤²à¤®":2169,"Ġh":2170,"à¤°à¤ļà¤²":2171,"Ġà¤Ĩà¤®à¤¨":2172,"à¤ľà¤¤à¤¨":2173,"à¤µà¤¨à¤¸":2174,"Ġà¤Ńà¤°à¤ªà¤°":2175,"à¤¦à¤Ń":2176,"à¤¶à¤ķà¤ķ":2177,"à¤ĩà¤°à¤¹à¤¨":2178,"ay":2179,"Ġà¤ħà¤¯":2180,"Ġ&":2181,"à¤ħà¤Ĺ":2182,"Ġà¥¬à¥©":2183,"Ġof":2184,"à¤¡à¤ª":2185,"Ġthe":2186,"Ġà¤ıà¤¸à¤ª":2187,"Ġà¤ľà¤¥":2188,"à¥¦à¥ª":2189,"à¥ģà¥į":2190,"à¤ĺà¤®":2191,"ĠâĢ¢":2192,"à¤®à¤Ĺà¤°":2193,"Ġà¤¸à¤¤à¤°":2194,"à¥§à¥Ń":2195,"à¤¯à¤Łà¤ķà¤²":2196,"Ġà¤ĵà¤Ńà¤°à¤®":2197,"à¥¨à¥¬":2198,"ol":2199,"à¤Ļà¤¸":2200,"à¤¿âĢĻ":2201,"à¤ªà¤¸à¤®":2202,"à¤µà¤°à¤£à¤®":2203,"Ġà¤¦à¤¹":2204,"à¥¦à¥©":2205,"à¤Ķà¤·à¤§":2206,"Ġà¤ħà¤Ľ":2207,"à¤¾'":2208,"Ġà¤¸à¤¬à¤Ńà¤¨":2209,"à¤µà¤ķà¤ªà¤®":2210,"Ġà¤¸à¤¹à¤¨":2211,"à¥¦à¥®":2212,"à¤µà¤£":2213,"Ġà¤¹à¤²à¤®":2214,"Ġà¤īà¤¦à¤¯à¤ª":2215,"à¤¹à¤£":2216,"Ġà¤¬à¤¦":2217,"à¥¨à¥®":2218,"Ġà¥¬à¥ª":2219,"Ġà¤µà¤¢":2220,"Ġà¤Ĩà¤īà¤Ł":2221,"Ġà¤¶à¤²":2222,"à¤¨à¤ħà¤¨":2223,"ak":2224,"à¤¯à¤ķà¤®":2225,"Ġà¤°à¤¦":2226,"Ġà¤ĩà¤Łà¤¹à¤°":2227,"à¤ıà¤²à¤¸":2228,"Ġà¤Ńà¤Īà¤°à¤¹":2229,"à¤ĵà¤²":2230,"nd":2231,"à¤µà¤¸à¤¨":2232,"Ġà¤īà¤ªà¤ķ":2233,"à¤¨à¤ķà¤°":2234,"à¤Īà¤ľ":2235,"à¤°à¤Ĺà¤¨":2236,"à¥¤âĢĿ":2237,"à¥į,âĢĻ":2238,"Ġà¤Ĩà¤¬":2239,"Ġà¤łà¤®":2240,"Ġà¤Ĺà¤¦":2241,"à¤¦à¤£":2242,"à¤¹à¤ķà¤²":2243,"à¥¨à¥¯":2244,",âĢĿ":2245,"ri":2246,"à¤£à¤¬":2247,"à¤¤à¤ķà¤²":2248,"Ġà¤ĵà¤²à¤®":2249,"à¤²à¤Ļ":2250,"Ġà¤Ńà¤¬":2251,"à¥ģâĢĵ":2252,"Ġà¤¹à¤Ļà¤ķà¤Ļà¤®":2253,"à¤¹à¤µ":2254,"à¤·à¤Ĺà¤°":2255,"Ġà¥¨à¥¦à¥Ńà¥¦":2256,"Ġà¤ľà¤Ļ":2257,"Ġ3":2258,"Ġà¤ıà¤¨à¤¸":2259,"Ġà¤ĵà¤®":2260,"à¤·à¤¯à¤¹à¤°":2261,"à¤°à¤Ĺà¤ŀ":2262,"Ġà¤¦à¤µ":2263,"à¥¨à¥Ń":2264,"à¤¯à¤¤à¤¯":2265,"Ġà¤ĩà¤£":2266,"Ġà¤ķà¤¦":2267,"à¤¾à¤ĥ":2268,"à¤Ĺà¤²à¤ķ":2269,"Ġà¤ĩà¤ŀ":2270,"Ġà¤ıà¤®à¤¬":2271,"Ġà¤ħà¤ªà¤¹à¤°à¤£":2272,"à¤¯à¤²à¤ķ":2273,"Ġà¥¤...":2274,"Ġà¤¸à¤Ĺ":2275,"à¤²à¤ļ":2276,"à¥Ī...":2277,"ment":2278,"à¤µà¤ķà¤ªà¤ķ":2279,"Ġà¤²à¤®à¤ľ":2280,"à¥įâĢĮ":2281,"Ġà¤Ĺà¤«":2282,"ir":2283,"Ġà¤ľà¤¨à¤ļ":2284,"à¥¦à¥¦à¥¦":2285,"à¤¤à¤°à¤Ĺà¤¤":2286,"à¤¯à¤ķà¤²":2287,"Ġà¤¨à¤µà¤°":2288,"à¤¯à¤®à¤¹à¤°":2289,"Ġà¤¡à¤°à¤²":2290,"us":2291,"Ġà¤¦à¤®à¤ķ":2292,"à¥¦à¥Ńà¥«":2293,"Ġà¤Ĳà¤¨à¤ķ":2294,"Ġà¥Ńà¥¨":2295,"à¤°à¤£à¤¸à¤Ń":2296,"à¤¶à¤¤à¤ķ":2297,"à¤¦à¤¶à¤¨":2298,"à¤¥à¤¸":2299,"Ġà¥«à¥Ń":2300,"à¤Ĩà¤īà¤Ł":2301,"Ġà¤ıà¤¯à¤°à¤²":2302,"hab":2303,"à¤¶à¤ķà¤¹à¤°":2304,"à¤²à¤¬à¤¨":2305,"à¤ĸà¤²à¤¢":2306,"Ġà¤Ĩà¤µà¤¦":2307,"Ġà¥¨à¥¦à¥¦":2308,"Ġà¤®à¤¤à¤Ĺà¤£à¤¨":2309,"à¤µà¤¤à¤ķ":2310,"à¤°à¤Ļà¤ķ":2311,"à¤®à¤¤à¤ķ":2312,"à¤ķà¤¶":2313,"Ġà¤ĸà¤¬":2314,"Ġà¤¶à¤¹à¤°à¤®":2315,"à¤¯à¤Ń":2316,"Ġà¤¨à¤Ľ":2317,"à¤¨à¤Ĺà¤°à¤ķ":2318,"à¤¨à¤ħà¤ĺ":2319,"à¤¹à¤ķà¤¹à¤°":2320,"Ġà¤Ĩà¤°à¤®":2321,"à¤Ĺà¤µ":2322,"à¥¨à¥¨":2323,"à¥ĩà¤ģ,":2324,"mail":2325,"à¥Įà¥¤":2326,"à¤Ĺà¤®à¤¨à¤ķ":2327,"Ġà¥¯à¥«":2328,"10":2329,"Ġà¤ªà¤¹à¤²à¤®":2330,"lo":2331,"à¤īà¤Ľà¤¨":2332,"Ġà¤ļà¤Ł":2333,"Ġà¤Ĩà¤ľà¤¦":2334,"à¤Łà¤°à¤«":2335,"à¤ľà¤°à¤²":2336,"Ġà¥¨à¥¦à¥§à¥©":2337,"Ġà¥¯à¥®":2338,"Ġà¥«à¥¯":2339,"à¤ıà¤Ľ":2340,"Ġà¤¡à¤ķ":2341,"à¤¸à¤ķà¤ķ":2342,"habar":2343,"Ġà¥¦à¥Ń":2344,"Ġà¤²à¤¤":2345,"à¤¸à¤µà¤®":2346,"Ġà¤¨à¤Ńà¤ıà¤ªà¤Ľ":2347,"à¥¨à¥§":2348,"à¤·à¤¯à¤µà¤¸":2349,"Ġà¥«à¥¦à¥¦":2350,"à¤ªà¤ªà¤Ľ":2351,"Ġà¤¥à¤ķ":2352,"à¤µà¤¨à¤¶":2353,"Ġà¤ľà¤¨à¤µà¤°":2354,"Ġà¥Ńà¥ª":2355,"eb":2356,"à¤²à¤Ĺà¤¨":2357,"Ġà¤ıà¤ķà¤¸":2358,"Ġà¤ħà¤µà¤²à¤®":2359,"à¤īà¤¨à¤®":2360,"Ġà¤ªà¤ª":2361,"à¤¤à¤°à¤µ":2362,"à¤·à¤¯à¤Ĺà¤¤":2363,"Ġà¤Ŀà¤Ĺà¤¡":2364,"à¤§à¤¸":2365,"à¤°à¤®à¤¬":2366,"à¤ĺà¤Ł":2367,"Ġ115":2368,"Ġà¤ĺà¤²":2369,"Ġà¤¢à¤Ļ":2370,"Ġà¤Ĩà¤Īà¤ª":2371,"Ġà¤ĺà¤°à¤ªà¤°":2372,"Ġà¤¦à¤¶à¤®":2373,"Ġà¤ħà¤¬à¤¸":2374,"Ġà¤ľà¤¨à¤Ĩà¤¨":2375,"à¤Ńà¤°à¤¤":2376,"Ġ\"\"":2377,"ĠW":2378,"à¤Łà¤°à¤¹à¤°":2379,"Ġà¤ħà¤ªà¤®":2380,"à¤¤à¤¨à¤²":2381,"quo":2382,"Ġà¤ħà¤®à¤°":2383,"Ġà¤ıà¤¸à¤ıà¤²à¤¸":2384,"Ġà¤ķà¤²à¤®":2385,"Ġà¤Ķà¤ļ":2386,"Ġà¤¹à¤ķà¤ª":2387,"Ġà¥¤à¥¤":2388,"Ġà¥¬à¥¨":2389,"Ġà¤ķà¤·":2390,"Ġà¤Ĩà¤ĩà¤¸":2391,"Ġà¤ħà¤£":2392,"à¤¨à¤¸à¤¹":2393,"Ġà¤¨à¤Ńà¤¨":2394,"à¤Ĩà¤Ĺ":2395,"Ġà¤Ńà¤Ĺà¤µà¤¤":2396,"Ġà¤®à¤¨à¤²":2397,"à¤ªà¤¯à¤²":2398,"à¤¿:":2399,"à¤®à¤¦à¤¤":2400,"à¥¨à¥¦à¥Ńà¥ª":2401,"à¤§à¤ª":2402,"Ġà¤Ńà¤µà¤¨à¤®":2403,"à¤¨à¤Ĺ":2404,"à¤Ĺà¤łà¤¨à¤²":2405,"à¥įâĢĻ":2406,"Ġà¥Ńà¥Ń":2407,"ĠDate":2408,"Ġà¤ľà¤¨à¤¸à¤®":2409,"à¤ĵà¤¬":2410,"squo":2411,"Ð»":2412,"à¤ıà¤¸à¤¨":2413,"Ġà¤ĸà¤ªà¤¤":2414,"à¥¨à¥©":2415,"ber":2416,"ĠNepal":2417,"à¤ªà¤°à¤ķ":2418,"Ġà¤ľà¤¯":2419,"à¤°à¤¨à¤Ĺà¤°":2420,"à¥ģ-":2421,"à¤¦à¤ª":2422,"à¤ıà¤Ī":2423,"Ġà¥Ńà¥©":2424,"Ġ]":2425,"Ġà¤Īà¤®":2426,"nbs":2427,"à¤¦à¤¦":2428,"à¤ľà¤¹":2429,"à¤¨à¤ľà¤¨":2430,"à¥Įà¤Ĥ,âĢĻ":2431,"à¤¯à¤¯à¤¨à¤°à¤¤":2432,"Ġà¤Ķà¤¸à¤¤":2433,"à¤īà¤ļ":2434,"à¤²à¤¹":2435,"Ġà¤Ńà¤µà¤¨à¤ķ":2436,"à¥ĩ?":2437,"à¤ļà¤²à¤ķ":2438,"à¤°à¤¸à¤Ļ":2439,"à¤Ĩà¤ľà¤ķ":2440,"ul":2441,"à¤īà¤¥":2442,"à¤¬à¤ľà¤¨":2443,"Ġà¤®à¤¹à¤¶":2444,"Ġà¤¯à¤ľ":2445,"à¤²à¤Ł":2446,"Ġà¤ħà¤¸à¤ķ":2447,"à¥¦à¥¯":2448,"Ġà¥¬à¥¬":2449,"Ġà¤ªà¤łà¤¨":2450,"à¤¸à¤Ł":2451,"à¤īà¤¤à¤²":2452,"à¤¹à¤²à¤ª":2453,"à¤«à¤°à¤ķ":2454,"à¤ĩà¤¹à¤°":2455,"à¤ľà¤¨à¤ķà¤ª":2456,"à¤Łà¤°à¤¬":2457,"ĠJ":2458,"Ġà¤Ĺà¤ļ":2459,"à¤¸à¤¤à¤®":2460,"Ġwww":2461,"à¤¿)":2462,"Ġà¤ħà¤¨à¤®":2463,"Ġà¥¬à¥®":2464,"à¤Īà¤°à¤¹":2465,"nbsp":2466,"à¤¯à¤Łà¤ķà¤¹à¤°":2467,"Ġà¤¡à¤¡":2468,"Ġà¥Ńà¥¬":2469,"Ġand":2470,"à¤¯à¤¸à¤¹":2471,"à¥Ĥ-":2472,"Ġà¤¬à¤¸à¤¨":2473,"à¤¯à¤¨à¤ľà¤°":2474,"Ġà¥¨à¥¦à¥¬à¥ª":2475,"à¤²à¤Ĺà¤¤":2476,"à¤ªà¤°à¤¬":2477,"à¤¨à¤¬à¤¹":2478,"à¤Ĩà¤§":2479,"Ġà¤ıà¤ķà¤ħà¤°":2480,"Ġà¤Ĩà¤ķà¤¸":2481,"Ġà¤¯à¤®":2482,"res":2483,"Ġà¤®à¤Ĺà¤°à¤²":2484,"à¤ľà¤¯à¤ķ":2485,"à¤ıà¤£":2486,"âĢį":2487,"à¤¤à¤°à¤°":2488,"à¤°à¤¸à¤ķ":2489,"à¤Īà¤ª":2490,"Ġà¤Ĩà¤¯à¤²":2491,"Ġà¤¦à¤¯":2492,"Ġto":2493,"à¤µà¤ķà¤ķ":2494,"à¤ļà¤¤":2495,"à¤¾à¤ģà¥Ī":2496,"à¤¡à¤¤":2497,"à¤¹à¤ľ":2498,"Ġà¤¸à¤²à¤®":2499,"Ġà¤īà¤ªà¤¸à¤®":2500,"Ġà¤¹à¤¦à¤¸à¤®":2501,"Ġà¤Ĺà¤¡à¤¬":2502,"Ġà¤¸à¤¡à¤ķà¤ĸà¤£":2503,"à¸":2504,"Ġà¤¡à¤²à¤°à¤ķ":2505,"Ġà¤²à¤£":2506,"Ġà¤īà¤ªà¤¸à¤Ń":2507,"à¤ľà¤Ń":2508,"à¤¤à¤ķà¤¹à¤°":2509,"Ġà¥¯à¥¯":2510,"à¤łà¤ķà¤¹à¤°":2511,"à¤¤à¤Ĺà¤¤":2512,"Ġà¤ĸà¤Ĺ":2513,"à¤ķà¤ŀ":2514,"Ġà¤¸à¤¹à¤°à¤®":2515,"à¤ªà¤ķà¤²":2516,"à¤¾à¤ģ,":2517,"à¤Ĺà¤²à¤µ":2518,"Ġà¤ªà¤Łà¤ķà¤ªà¤Łà¤ķ":2519,"à¤¶à¤Ńà¤°à¤ķ":2520,"à¤¯à¤¯à¤¨à¤²":2521,"à¤ľà¤ķà¤ķ":2522,"à¤£à¤¯à¤²":2523,"Ġà¤®à¤ľà¤¬":2524,"Ġà¤īà¤ªà¤µ":2525,"à¤¦à¤µà¤ķ":2526,"à¤ĩà¤µ":2527,"Ġà¤«à¤¡":2528,"à¤¨à¤Ľ":2529,"à¤Łà¤ªà¤Ł":2530,"Ġà¤¶à¤Ļ":2531,"Ġà¤ªà¤¸à¤²à¤®":2532,"ig":2533,"à¥Ģ'":2534,"Ġà¤Ĩà¤ľà¤¸à¤®":2535,"à¤¤à¤ķà¤®":2536,"à¥įà¤¾":2537,"à¥ĩ,âĢĺ":2538,"Ġà¤ļà¤²à¤ĸ":2539,"Ġà¤¹à¤®à¤²":2540,"ow":2541,"Ġà¥¨à¥¦à¥§à¥§":2542,"Ġà¥®à¥ª":2543,"à¤Īà¤¬":2544,"à¤ķà¤°à¤²":2545,"à¤¹à¤ª":2546,"Ġà¥¬à¥Ń":2547,"Ġà¤Ĩà¤ªà¤¸à¤®":2548,"à¤°à¤µà¤Ł":2549,"Ġà¥®à¥®":2550,"à¤£à¤¹à¤°":2551,"ine":2552,"à¤Łà¤¤":2553,"à¤°à¤«à¤²":2554,"à¤Ĩà¤¬":2555,"à¤¸à¤ŀ":2556,"ost":2557,"à¤ľà¤Ĺà¤¢":2558,"Ġà¤ªà¤Łà¤ķà¤ķ":2559,"à¤Łà¤¨à¤ķ":2560,"à¤ĩà¤Łà¤¹à¤°":2561,"Ġà¤²à¤¹à¤°":2562,"à¤ķà¤®à¤ķ":2563,"à¤ĩà¤²à¤®":2564,"ve":2565,"Ġà¤Ńà¤ıà¤¤":2566,"Ġà¤ļà¤ª":2567,"à¤°à¤¹à¤ķ":2568,"à¤ĸà¤¸à¤®":2569,"Ġà¤ªà¤®":2570,"Ġà¤Ľà¤¤":2571,"à¤¦à¤°à¤¤":2572,"im":2573,"Ġà¥Ńà¥®":2574,"à¤²à¤§":2575,"à¤Ŀà¤®":2576,"à¤ıà¤¨à¤ı":2577,"Ġà¤ĺà¤°à¤¦":2578,"à¥¨à¥ª":2579,"à¤°à¤ķà¤²":2580,"à¤Ĺà¤ª":2581,"à¥¦à¥Ńà¥©":2582,"Ġà¤°à¤ķà¤®à¤ķ":2583,"Ġà¤¤à¤°à¤²":2584,"à¤ĩà¤ı":2585,"Ġà¥¨à¥¦à¥§à¥¨":2586,"à¤ĩà¤¬à¤°":2587,"à¤Łà¤¯":2588,"Ġà¥¬à¥§":2589,"th":2590,"à¤¿-":2591,"Ġà¤ıà¤Ńà¤°":2592,"Ġà¤īà¤ªà¤¶":2593,"à¤£à¤¯à¤ķ":2594,"à¤²à¤¯à¤¨":2595,"à¤¾âĢĿ":2596,"à¤¨à¤¶":2597,"Ġà¤ľà¤²à¤¸":2598,"à¤ľà¤¦à¤°":2599,"à¤¸à¤¸à¤®":2600,"Ġà¤ĵà¤ĸà¤²à¤¢":2601,"à¤°à¤®à¤£à¤²":2602,"Ġà¤Ĩà¤Ĺà¤®à¤¨":2603,"Ġà¤¨à¤Ĩà¤ıà¤ķ":2604,"à¤Ĺà¤¬à¤¹":2605,"Ġà¤ĩà¤Ń":2606,"Ġà¥®à¥©":2607,"Ġà¤²à¤¸":2608,"à¤ªà¤¡":2609,"à¤¡à¤¦":2610,"à¤¯à¤£à¤Ĺà¤¢":2611,"ĠU":2612,"Ġà¥¨à¥¦à¥¦à¥Ń":2613,"Ġà¥§à¥¯à¥¬":2614,"à¤¨à¤¯à¤¨":2615,"à¤ıà¤¸à¤®":2616,"Ġà¥¤'":2617,"à¤¤à¤°à¤¬":2618,"à¤¬à¤¢":2619,"à¥¦à¥Ńà¥¬":2620,"ĠV":2621,"à¥į)":2622,"à¤¤à¤ľà¤¨":2623,"Ġà¤ľà¤¬à¤ķ":2624,"Ġà¤¦à¤¶à¤ķà¤¦":2625,"Ġà¤ĩà¤¶":2626,"à¤¯à¤Łà¤¨à¤ķ":2627,"à¤ļà¤²à¤ļ":2628,"Ġà¤īà¤ªà¤®":2629,"à¤²à¤¡":2630,"à¤¥à¤¤":2631,"Ġà¥¨à¥¦à¥¬à¥®":2632,"à¥¨à¥¦à¥¬":2633,"Ġà¥Ńà¥§":2634,"à¤¥à¤²à¤Ĺà¤¤":2635,"Ġà¥¬à¥¯":2636,"à¤¤à¤¹à¤¤":2637,"gmail":2638,"à¤°à¤£à¤¹à¤°":2639,"à¤Ľà¤¦":2640,"Ġà¤¸à¤¬à¤²":2641,"à¤ķà¤Łà¤®":2642,"à¤ıà¤ª":2643,"Ġà¤«à¤¨":2644,"Ġà¤ħà¤Ĺà¤¸":2645,"à¤Īà¤ľà¤¨":2646,"Ġà¤ĸà¤ª":2647,"Ġà¤łà¤ª":2648,"Ġà¤ķà¤¯":2649,"tt":2650,"à¤·à¤Ńà¤¨":2651,"Ġà¤Ĳà¤¨à¤®":2652,"à¤ªà¤µ":2653,"ers":2654,"Â«":2655,"Ġà¤Ĩà¤īà¤¦":2656,"Ġà¤īà¤¬":2657,"Ġà¤ľà¤¨à¤¸à¤Ļ":2658,"Ġà¤¨à¤¹à¤°":2659,"Ġà¤²à¤ľ":2660,"à¤¤à¤ķà¤°":2661,"ist":2662,"à¤ªà¤¨à¤²":2663,"Ġà¤Ĩà¤ľà¤Ń":2664,"à¤ĺà¤°à¤ķ":2665,"à¤°à¤¤à¤°":2666,"ÅĴ":2667,"Ġà¥¨à¥¦à¥¬à¥¯":2668,"____":2669,"à¤¾(":2670,"à¤«à¤¦":2671,"à¤Ĺà¤ıà¤ķ":2672,"à¤²à¤¶":2673,"Ġà¤īà¤ªà¤¦":2674,"à¤¦à¤°à¤Ĺ":2675,"à¤¶à¤¤à¤Ńà¤¨":2676,"Ġà¤ĵà¤Ĺà¤Ł":2677,"?âĢĻ":2678,"à¤Īà¤¡":2679,"à¥Ģ/":2680,"Ġà¤Ĩà¤µà¤ķ":2681,"Ġà¤ĺà¤°à¤¹à¤°":2682,"à¤ķà¤¸à¤®":2683,"Ġà¤¹à¤Ļà¤ķà¤Ļà¤ķ":2684,"à¤¯à¤Ļ":2685,"Ġà¤Ĩà¤ĩà¤¤à¤µ":2686,"Ġà¤ķà¤£":2687,"à¤ĵà¤ķ":2688,"ia":2689,"pp":2690,"à¤Łà¤¬à¤²à¤®":2691,"à¥įà¥į":2692,"à¤°à¤¸à¤ŀ":2693,"Ġà¥¨à¥¦à¥¦à¥®":2694,"à¤²à¤ħà¤§":2695,"à¤¶à¤¯":2696,"Ġà¤ıà¤¯à¤°à¤ķ":2697,"à¤ĸà¤¨à¤¨":2698,"Ġe":2699,"Ġà¤Ĩà¤Ĩà¤«":2700,"à¤¹à¤¨à¤¤":2701,"Ġà¤·à¤¡":2702,"à¤ķà¤Ń":2703,"à¤²à¤ľ":2704,"Ġà¤ħà¤µà¤¤à¤°à¤£":2705,"à¤ķà¤¬à¤¹":2706,"à¤Ĥà¤ģ":2707,"Ġà¥¨à¥¦à¥§à¥¦":2708,"à¤¸à¤¡à¤ķ":2709,"à¤Ńà¤¤":2710,"à¤¡à¤Ńà¤¨":2711,"ĠIn":2712,"à¤°à¤²à¤Ĺ":2713,"à¤¥à¤²à¤¬":2714,"Ġà¤ľà¤¨à¤®à¤¤":2715,"Ġà¤¬à¤¸à¤ª":2716,"à¤¡à¤²à¤®":2717,"Ġà¤Ľà¤²à¤«à¤²à¤ķ":2718,"ook":2719,"à¤¡à¤¨à¤ķ":2720,"à¤¶à¤¤à¤®":2721,"à¤¶à¤Ńà¤ķ":2722,"à¤²à¤®à¤²":2723,"Ġà¤¨à¤Ńà¤ıà¤¸à¤®":2724,"Ġà¤¤à¤Ł":2725,"Ġà¤ħà¤ł":2726,"à¤ªà¤ķà¤°":2727,"her":2728,"Ġà¤¬à¤ŀ":2729,"Ġà¥®à¥Ń":2730,"Ġà¤Ĺà¤Ńà¤°":2731,"um":2732,"à¤°à¤ķà¤°à¤£à¤®":2733,"Ġà¤Ĩà¤Īà¤¤à¤¬":2734,"ĠNews":2735,"à¤¿à¤¾":2736,"Ġà¤ªà¤¦à¤¯":2737,"à¤ªà¤ŀ":2738,"Ġà¤¶à¤¹à¤°à¤ķ":2739,"Ġà¤¨à¤¬à¤¸":2740,"Ġà¤Īà¤²":2741,"à¤¯à¤£à¤ķ":2742,"à¤Ļà¤¦":2743,"à¤¾?":2744,"Ġà¥®à¥¬":2745,"Ġà¤µà¤¨à¤¸":2746,"à¤¯à¤¨à¤²":2747,"Ġà¤Ķà¤²":2748,"Ġread":2749,"à¤Ĺà¤²à¤²":2750,"à¥¤...":2751,"à¤¹à¤¹à¤°":2752,"à¤§à¤¹à¤°":2753,"à¤¯à¤ķà¤µ":2754,"Ġà¤ħà¤ĸà¤£":2755,"à¤«à¤¸":2756,"à¤Ĥ,":2757,"Ġà¤Ĩà¤ĩà¤«":2758,"à¤Ńà¤ıà¤¨":2759,"Ġà¥¦à¥Ńà¥ª":2760,"à¤¤à¤®à¤ķ":2761,"à¥į-":2762,"Ġà¤¨à¤ľà¤°":2763,"Ġà¤¬à¤Ŀ":2764,"Ġà¤īà¤ªà¤²à¤ķ":2765,"Ñĥ":2766,"Ġà¤ķà¤¸à¤ķ":2767,"Ġà¤¤à¤¹à¤¬":2768,"à¤Ĩà¤Īà¤ľ":2769,"Ġà¤ħà¤«à¤°":2770,"à¤¡à¤¨à¤®":2771,"à¤¡à¤²à¤²":2772,"à¤ħà¤ķ":2773,"Ġà¤°à¤¨à¤®":2774,"Ġà¤¶à¤®":2775,"Ðº":2776,"ut":2777,"à¥ªà¥«":2778,"à¤Īà¤°":2779,"à¤¶à¤¤à¤¸à¤®":2780,"Ġà¤ĺà¤°à¤§":2781,"à¤¦à¤¨à¤¹à¤°":2782,"----":2783,"à¤°à¤£à¤¬":2784,"à¤¤à¤¯":2785,"à¤£à¤¯à¤®":2786,"Ġà¤ħà¤¸à¤¹à¤®à¤¤":2787,"Ġà¤¨à¤Ĩà¤īà¤¨":2788,"Ġà¤®à¤®":2789,"//":2790,"Ġà¤ĵà¤Ńà¤°":2791,"Ġà¤ĸà¤¤à¤°à¤¨":2792,"Ġà¤¯à¤ķ":2793,"Ġà¤²à¤¯":2794,"Ġà¤Ĩà¤Īà¤¸":2795,"out":2796,"à¤·à¤°à¤¤":2797,"Ġà¥®à¥¨":2798,"à¤°à¤®à¤£à¤¬":2799,"Ġà¤²à¤¹":2800,"Ġà¥§à¥¯à¥¯à¥¦":2801,"à¤Ĺà¤¸à¤®":2802,"à¤§à¤¨à¤Ĺà¤¢":2803,"à¤Ĺà¤ħà¤¨":2804,"à¥ģ)":2805,"Ġà¥¨à¥¦à¥ªà¥¬":2806,"à¤·à¤¯à¤¤":2807,"Ġà¥¨à¥¦à¥¬à¥©":2808,"Ġà¤ıà¤¸à¤ıà¤¸à¤ª":2809,"Ġà¤¶à¤°à¤¦":2810,"à¤Ĳ":2811,"à¤ĩà¤ļ":2812,"à¤Ŀà¤ķ":2813,"à¤®à¤ĺ":2814,"Ġà¤°à¤¬":2815,"à¤®à¤ľà¤¯à¤¨":2816,"Ġfor":2817,"Ġà¤ĺà¤°à¤Ń":2818,"à¤¸à¤¯":2819,"à¥ĭ.":2820,"ttp":2821,"Ġà¤īà¤§":2822,"à¤Łà¤¨à¤Ĺà¤°à¤®":2823,"à¥ªà¥¦":2824,"à¤ĸà¤Ńà¤¨":2825,"Ġà¥§à¥§à¥©":2826,"Ġà¤®à¤¤à¤ªà¤¤":2827,"Ġà¤¸à¤¹à¤ľà¤¤":2828,"://":2829,"Ġà¤ªà¤°à¤¦":2830,"à¤°à¤¹à¤®":2831,"à¤¶à¤¨à¤¬":2832,"op":2833,"Ġà¥¯à¥Ń":2834,"à¤·à¤ª":2835,"Ġà¤¶à¤¶":2836,"à¤¯à¤¬à¤¹":2837,"à¥įà¥ģ":2838,"Ġà¤°à¤¹à¤¦":2839,"Ġà¤®à¤Ŀ":2840,"Ġà¤¸à¤¹à¤°à¤ķ":2841,"Ġà¤¸à¤¯à¤Ńà¤¨":2842,"Ġà¤®à¤¡":2843,"Ġà¤¸à¤®à¤¯à¤¸":2844,"ments":2845,"ra":2846,"à¤¬à¤²à¤ķ":2847,"Ġà¤ħà¤¸à¤¹à¤ľ":2848,"Ġà¤¡à¤®":2849,"à¥ĩâĢ¦":2850,"à¤°à¤¬à¤°":2851,"à¤ļà¤¥":2852,"à¤ķà¤°à¤ķ":2853,"à¤¹à¤ķà¤ķ":2854,"Ġà¥¨à¥¦à¥©à¥¦":2855,"à¤µà¤°à¤£à¤ķ":2856,"Ġà¤¸à¤®à¤¯à¤ªà¤Ľ":2857,"à¤¨à¤µà¤²":2858,"à¤¯à¤¦à¤²à¤²":2859,"à¤²à¤²à¤Ĺ":2860,"Ġà¤ľà¤¬à¤°à¤ľà¤¸":2861,"à¤¤à¤¹à¤Ł":2862,"Ġà¥Ńà¥¯":2863,"Ġà¤µà¤ŀ":2864,"à¤Ńà¤ªà¤¤":2865,"ember":2866,"Ġà¤ķà¤¦à¤°":2867,"Ġà¤Ńà¤ĩà¤°à¤¹à¤¨":2868,"áĥ":2869,"à¤²à¤¯à¤¸":2870,"Ġà¤Łà¤ķ":2871,"Ġà¤īà¤Ĺ":2872,"Ġà¥¯à¥©":2873,"Ġà¤ıà¤ķà¤Ľ":2874,"Ġà¤¥à¤¨":2875,"à¥Įà¤Ĥ-":2876,"Ġà¤¸à¤ĸ":2877,"Ġ!!":2878,"à¤¦à¤²à¤ķ":2879,"Ġà¥¨à¥¦à¥¬à¥«":2880,"Â¸":2881,"à¥Ģ),":2882,"Ġà¤°à¤ľà¤¤":2883,"os":2884,"ĠRead":2885,"Ġà¤°à¤ļ":2886,"à¥ĩà¤Ĥ,":2887,"Ġà¤¸à¤®à¤¯à¤²":2888,"à¤¸à¤®à¤®":2889,"à¤ħà¤¤":2890,"Ġà¤¦à¤°à¤ĸ":2891,"Ġà¤¶à¤ªà¤¥":2892,"à¤ħà¤«":2893,"à¤Ĺà¤®à¤¤":2894,"à¤ľà¤Ļ":2895,"à¤Ĺà¤łà¤¨à¤¹à¤°":2896,"à¤Ĺà¤°à¤£":2897,"à¤¸à¤ħà¤¨":2898,"Ġà¤īà¤ªà¤²à¤µ":2899,"Ġà¤Ĩà¤Ļ":2900,"Ġà¥¯à¥¬":2901,"à¥¤'":2902,"Ġà¤¬à¤ĸà¤¤":2903,"Ġv":2904,"Ġà¤¨à¤²à¤Ĺ":2905,"à¤¤à¤¹à¤¤à¤ķ":2906,"à¥ĭà¥¤âĢĻ":2907,"Ġà¤¦à¤¶à¤ķà¤®":2908,"Ġ5":2909,"Ġà¤Ĳà¤¨à¤²":2910,"à¤°à¤®à¤¸":2911,"oc":2912,"wit":2913,"à¤īà¤¬":2914,"Ġg":2915,"Ġà¤ªà¤¦à¤¬":2916,"à¤¯à¤¦à¤²":2917,"à¤Ńà¤¸":2918,"à¤¥à¤¹à¤°":2919,"Ġà¤®à¤¹ÅĴ":2920,"Ġà¤®à¤Ĺ":2921,"Ġà¤ĩà¤Ļ":2922,"Ġà¤ħà¤Ĺà¤·":2923,"Ġ2017":2924,"à¤Łà¤¦":2925,"Ġà¥®à¥§":2926,"à¥ĭ'":2927,"à¤ªà¤°à¤®":2928,"Ġ1151":2929,"à¤ĩà¤²à¤ķ":2930,"Ġà¥¯à¥ª":2931,"Ġà¤Ĺà¤¢":2932,"à¤¥à¤¶":2933,"Ġà¤ľà¤¸à¤®à¤§":2934,"à¤ªà¤¸à¤ķ":2935,"Ġà¤ķà¤®à¤ķ":2936,"à¤Ļà¤Ł":2937,"à¥ĩà¤ģà¥¤":2938,"à¤ªà¤¢":2939,"à¤µà¤Ĺ":2940,"à¤ıà¤®à¤Ī":2941,"Ġà¤ªà¤łà¤¨à¤ª":2942,"Ġà¤ªà¤ĸ":2943,"à¤ĸà¤ķà¤²":2944,"Ġà¤Ĩà¤µà¤®":2945,"à¤ħà¤¸à¤ķ":2946,"ok":2947,"Ġà¤ħà¤µà¤¸à¤°à¤ķ":2948,"Ġà¤§à¤°à¤¹à¤°":2949,"Ġà¤ıà¤ķà¤ķ":2950,"à¤ªà¤¨à¤ªà¤¤":2951,"Ġà¤ħà¤¨à¤¸à¤¨":2952,"Ġà¤°à¤ĺ":2953,"Ġà¤ªà¤¡":2954,"à¥¨à¥¦à¥Ńà¥©":2955,"Ġà¤Ľà¤Łà¤ªà¤Ł":2956,"à¤¶à¤®à¤¨":2957,"Ġà¤ķà¤®à¤¨":2958,"Ġà¤Ĺà¤Ĺà¤¨":2959,"Ġ4":2960,"Ġà¤Ĩà¤¸à¤¨":2961,"à¥ĢâĢĿ":2962,"à¤ĩà¤ľà¤°":2963,"ik":2964,"Ġà¤Łà¤ª":2965,"Ġà¤¤à¤ªà¤¸":2966,"à¤ķà¤ħà¤ª":2967,"à¤ªà¤ĸ":2968,"à¤ĸà¤¸":2969,"Ġà¤¯à¤¨":2970,"Ġà¥¯à¥§":2971,"Ġà¤Ĺà¤ľà¤²à¤ķ":2972,"Ġà¤°à¤ŀ":2973,"à¤ķà¤Ńà¤°":2974,"Ġà¤¬à¤¦à¤¨":2975,"à¤¯à¤¸à¤®à¤§":2976,"Ġà¤¨à¤Ł":2977,"à¤Łà¤ķà¤ķ":2978,"Ġà¥®à¥¯":2979,"Ġà¤ħà¤ªà¤¡":2980,"Ġà¤²à¤ĸ":2981,"Ġà¤«à¤ķ":2982,"witter":2983,"Ġà¤īà¤ªà¤¸à¤ļ":2984,"à¤ķà¤ħà¤¨":2985,"Ġ?âĢĿ":2986,"à¥ģà¤ģ,":2987,"à¤¾à¤Ĥà¥Ī":2988,"Ġà¤Ĩà¤ªà¤°":2989,"Ġà¤ĵà¤ª":2990,"Ġà¤¨à¤ļà¤²":2991,"Ġà¤µà¤°à¤ªà¤°":2992,"Ġà¤ħà¤¨à¤¨":2993,"mà¤¨":2994,"Ġà¤ļà¤¤":2995,"à¤¯à¤¸à¤¤":2996,"Ġà¤Ńà¤Īà¤¸à¤ķ":2997,"à¤§à¤¨à¤¬":2998,"Ġà¤¨à¤¬à¤¢":2999,"à¤ıà¤¡":3000,"à¤²à¤¨à¤¬":3001,"à¤Ļà¤¹à¤°":3002,"à¤¨à¤°à¤®":3003,"Ġà¥¦à¥«":3004,"Ġà¥§à¥¯à¥«":3005,"Ġà¥¯à¥¨":3006,"ĠCom":3007,"à¤¯à¤¯à¤¨à¤®":3008,"other":3009,"à¤ķà¤ľ":3010,"Ġhttp":3011,"art":3012,"line":3013,"à¥ĭâĢĿ":3014,"Ġà¤¸à¤ªà¤¥":3015,"ome":3016,"à¤¡à¤ªà¤®":3017,"Ġà¥§à¥¯à¥Ń":3018,"à¤µà¤ķà¤¹à¤°":3019,"à¤ŀà¤ķ":3020,"Ġà¤¤à¤¹à¤¸à¤®":3021,"à¤ķà¤¤à¤°":3022,"à¤Ľà¤¡":3023,"ip":3024,"à¤¯à¤ªà¤¤":3025,"à¤¯à¤®à¤¯":3026,"Nepal":3027,"à¤²à¤¤à¤¬":3028,"à¤ħà¤ªà¤°":3029,"à¤Ŀà¤Ł":3030,"à¤¨à¤²à¤®":3031,"à¤Ĩà¤¶":3032,"à¤¤à¤µà¤¨à¤®":3033,"Ġy":3034,"à¤¬à¤¹à¤°":3035,"Ġà¤ķà¤²à¤ķ":3036,"à¤§à¤°à¤²":3037,"à¤ĩà¤¹":3038,"à¤īà¤¡à¤®":3039,"à¤ķà¤²à¤¨à¤ķ":3040,"à¤Ĩà¤¦":3041,"Ñı":3042,"Ġà¤ľà¤¨à¤°à¤²":3043,"à¤ĩà¤ıà¤¨":3044,"à¤ļà¤¥à¤°":3045,"our":3046,"à¤¤à¤°à¤£à¤®":3047,"Ġà¤Ĩà¤Ĺà¤ľà¤¨":3048,"Ġà¤ħà¤¥":3049,"Ġà¤¦à¤¨":3050,"ity":3051,"à¤¤à¤¬à¤¹":3052,"Ġà¥¨à¥¦à¥§à¥¯":3053,"ebook":3054,"nepal":3055,"à¤ľà¤¸à¤®":3056,"Ġà¤ĭà¤¤":3057,"à¤²à¤ķà¤£":3058,"à¤Ĩà¤ł":3059,"Ġà¤®à¤¤à¤²":3060,"Ġà¤ĸà¤®":3061,"Ġà¤ĵà¤¬":3062,"Ġà¤®à¤¸à¤²":3063,">>":3064,"à¤ıà¤¤":3065,"Ġà¤Ĺà¤łà¤¨à¤ķ":3066,".),":3067,"Ġà¤Ńà¤ıà¤Ľ":3068,"Ġth":3069,"à¤¤à¤°à¤ª":3070,"Ġà¤ĸà¤¬à¤°à¤ķ":3071,"à¤¨à¤²à¤Ĺ":3072,"à¤¤à¤Ńà¤°":3073,"à¤°à¤ľà¤¨à¤¨":3074,"Ġà¤¸à¤¯à¤ªà¤¤":3075,"Ġà¤µà¤¨à¤ķ":3076,"Ġà¤Ńà¤ĩà¤¹":3077,"à¤²à¤Ĺà¤°":3078,"à¤ħà¤·":3079,"à¤Ńà¤²à¤ªà¤®":3080,"Ġà¥©à¥¦à¥¦":3081,"Ġà¤Ĩà¤µà¤¤à¤ľ":3082,"Ġà¤ħà¤ªà¤²":3083,"Ġà¤¸à¤¹à¤ķà¤°":3084,"Ġà¤¦à¤®à¤¨":3085,"à¤ıà¤¨à¤Ĩà¤°à¤ıà¤¨":3086,"Ġà¤Ĳà¤¶":3087,"à¤Īà¤Ń":3088,"à¤°à¤«à¤²à¤®":3089,"Ġà¤ľà¤¸à¤¬":3090,"à¥Īà¥¤":3091,"Ġà¤¤à¤°à¤²à¤¤":3092,"à¥ĩà¤Ĥà¥¤":3093,"à¤¬à¤¡":3094,"à¤īà¤¡à¤ķ":3095,"Ġà¥¨à¥¦à¥¬à¥¨":3096,"Ġà¤ĵà¤ªà¤¨":3097,"Ġà¤¬à¤²à¤°":3098,"acebook":3099,"à¤¶à¤¶":3100,"à¤°à¤¸à¤¨":3101,"à¤²à¤¸à¤¹":3102,"à¤°à¤µà¤¨":3103,"à¤łà¤ķà¤¬":3104,"à¤®à¤°à¤¤":3105,"à¤¾à¥į":3106,"Ġà¥¨à¥¦à¥«à¥ª":3107,"Ġ6":3108,"Ġà¤¬à¤¸à¤®":3109,"à¤²à¤¬à¤®":3110,"ort":3111,"ãĤ":3112,"à¤¨à¤ªà¤°":3113,"Ġà¤¸à¤¦à¤¨":3114,"à¤®à¤ķà¤µ":3115,"Ġà¤ªà¤¥":3116,"Ġà¤Ĩà¤ıà¤¨":3117,"Ġà¤ĺà¤°à¤ľà¤Ĺ":3118,"11":3119,"Ġà¤¦à¤°à¤®":3120,"Ġà¤ıà¤ķà¤ľ":3121,"Ġà¤¤à¤¹à¤¹à¤°":3122,"Ġà¤¨à¤¶":3123,"à¤ļà¤²à¤®":3124,",,":3125,"Ġà¥¨à¥¦à¥¦à¥¯":3126,"Ġ0":3127,"à¤ĩà¤¨à¤¬":3128,"à¤¯à¤ªà¤¹":3129,"Ġà¤ĺà¤°à¤ĺà¤°à¤®":3130,"Ġà¤Ĩà¤¤à¤Ļ":3131,"à¤¤à¤Ń":3132,"à¤¥à¤¯":3133,"Ġà¤¨à¤°à¤®":3134,"à¤Łà¤ķà¤°":3135,"à¤Łà¤µà¤²à¤®":3136,"Ġà¤®à¤Ĺà¤°à¤ķ":3137,"Ġà¤īà¤Ľ":3138,"à¤ĩà¤°à¤¸":3139,"Ġà¤¡à¤¢":3140,"à¤µà¤°à¤¬":3141,"ang":3142,"Ġà¤¬à¤¸à¤ķ":3143,"à¤¯à¤ķà¤¹à¤°":3144,"Ġà¥¦à¥Ńà¥©":3145,"Ġà¤µà¤°à¤ªà¤°à¤ķ":3146,"Ġà¤īà¤¦à¤¯":3147,"',":3148,"Ø§":3149,"à¤Ĩà¤ĩà¤¤à¤¬":3150,"Ġà¤ıà¤¨à¤Ĩà¤°à¤ıà¤¨à¤ı":3151,"Ġà¤ıà¤ªà¤ķ":3152,"à¤Ľà¤ķ":3153,"âĢ¦âĢ¦":3154,"à¤ħà¤¦":3155,"Ð°Ð":3156,"ce":3157,"à¤°à¤ħà¤¨":3158,"à¤¥à¤¬":3159,"à¤®à¤Ń":3160,"te":3161,"Ñĭ":3162,"à¤Ĺà¤ļ":3163,"à¤¯à¤¨à¤®":3164,"à¤ģà¤Ĥ":3165,"Ġà¤¸à¤®à¤¯à¤ħà¤ĺ":3166,"à¤¹à¤Ł":3167,"à¥¬à¥©":3168,"Ġà¥§à¥«à¥¦":3169,"à¥ģ...":3170,"à¥¬à¥¦":3171,"à¤Łà¤¨à¤®":3172,"à¤¬à¤°à¤£":3173,"ab":3174,"ous":3175,"Ġà¤¸à¤¤à¤¹":3176,"Ġà¤Ĩà¤īà¤²":3177,"à¤°à¤ªà¤¸":3178,"à¤¯à¤°à¤§à¤¨":3179,"à¤Ĺà¤¨à¤®":3180,"Ġà¤®à¤¹à¤¤à¤²":3181,"Ġà¤¬à¤¦à¤°":3182,"Ġà¤°à¤®à¤£":3183,"à¤Īà¤¯":3184,"à¤ªà¤¤à¤ķ":3185,"Ġà¤ıà¤¯à¤°à¤ª":3186,"à¤Łà¤µà¤²à¤ķ":3187,"akhabar":3188,"à¤¨à¤ĸ":3189,"Ġà¤¸à¤Łà¤¹":3190,"à¥ĢâĢ¦":3191,"à¤ĩà¤ķà¤²à¤®":3192,"Ġà¥¨à¥¦à¥ªà¥¯":3193,"âĢ¢":3194,"ub":3195,"Ġà¤¦à¤¶à¤®à¤²à¤¬":3196,"ĠNov":3197,"Ġà¤°à¤¶":3198,"à¥Ģà¥ĩ":3199,"à¤ĸà¤¬à¤°":3200,"à¤µà¤¸à¤°":3201,"Ġà¤®à¤¨à¤Ĺ":3202,"à¤¸à¤¡":3203,"à¤§à¤µà¤ķ":3204,"à¤¯à¤¸à¤¨":3205,"à¤µà¤²à¤²":3206,"Ġà¤Ńà¤¡":3207,"à¤¯à¤°à¤¬":3208,"à¤ıà¤Īà¤ķ":3209,"Ġà¤ıà¤ķà¤ªà¤Ľ":3210,"Ġà¤Ĩà¤¡à¤®":3211,"à¥Īà¥Ī":3212,"à¤¾à¥Īà¤ģ":3213,"à¤ĭ":3214,"à¤¸à¤®à¤¨":3215,"Ġà¥¤\"":3216,"à¤ĸà¤¨à¤ķ":3217,"Ġà¤Ĩà¤ľà¤¬":3218,"Ġà¤µà¤ļà¤¨":3219,"à¤ľà¤ªà¤¤":3220,"à¤²à¤®à¤ľ":3221,"à¤°à¤ľà¤¸":3222,"Ġà¤ĩà¤¨à¤°":3223,"à¤¾\"":3224,"Ġà¤®à¤¤à¤²à¤¬":3225,"à¤ľà¤Ńà¤£":3226,"Ġà¤²à¤Ń":3227,"lsquo":3228,"à¤Ĥà¥Ī":3229,"ff":3230,"Ġà¤Ŀà¤°à¤¨":3231,"à¤®à¤ĸ":3232,"Ġà¤®à¤¤à¤Ń":3233,"à¤Ĺà¤®à¤¨à¤®":3234,"ãĢ":3235,"Ġà¤Łà¤¸":3236,"à¤·à¤Ńà¤°":3237,"Ġà¤ĵà¤¢":3238,"ĠThe":3239,"à¤Ĺà¤Ń":3240,"à¤Łà¤¨à¤Ĺà¤°à¤ķ":3241,"à¤ĩà¤²à¤Ł":3242,"à¤®à¤²à¤ķ":3243,"à¤ļà¤µ":3244,"à¤Ńà¤Ł":3245,"à¤¡à¤²à¤Ĺ":3246,"à¤¯à¤¤à¤¨":3247,"à¤ıà¤®à¤ıà¤¸":3248,"à¤ªà¤²à¤ķ":3249,"Ġà¤ħà¤ªà¤µ":3250,"Ġà¤ħà¤¸à¤«à¤²à¤¤":3251,"):":3252,"Ġà¤¦à¤¤":3253,"à¤ķà¤°à¤®":3254,"à¤¡à¤Ń":3255,"à¤¤à¤¹à¤Łà¤ķ":3256,"ap":3257,"Ġà¤¬à¤¬":3258,"à¤ŀà¤¤":3259,"Ġà¤¡à¤¬":3260,"Ġà¤®à¤ĸ":3261,"à¥įà¥ĩ":3262,"à¥Ģ(":3263,"à¤°à¤®à¤§":3264,"à¤·à¤§à¤°":3265,"\"\"":3266,"à¤Ĺà¤¬à¤¨":3267,"à¤ļà¤ª":3268,"Ġà¤Łà¤¹à¤°":3269,"à¥ģâĢľ":3270,"à¤Łà¤°à¤ª":3271,"à¤Ĩà¤ĩà¤ľ":3272,"Ġà¤Ĺà¤¡à¤¬à¤¢":3273,"Ġà¥Ĳ":3274,"Ġà¤¨à¤®à¤¸":3275,"à¥¨à¥¦à¥Ńà¥¨":3276,"à¤°à¤ķà¤°à¤£":3277,"à¤ĸà¤ķà¤ķ":3278,"ĠAnd":3279,"ess":3280,"Ġà¤ĵà¤¹":3281,"à¥¨à¥¦à¥«":3282,"à¤ıà¤«à¤¸":3283,"à¥ĭâĢĻ,":3284,"Ġà¤¦à¤°à¤Ń":3285,"Ġà¤Ńà¤ľà¤¨":3286,"à¤Ĩà¤Īà¤¸":3287,"à¤®à¤¤à¤²":3288,"Ġà¤²à¤°":3289,"Ġà¥¦à¥ª":3290,"à¤ķà¤Ĺ":3291,"Ġà¤ªà¤°à¤¨":3292,"à¤Ńà¤ķà¤°":3293,"à¤¥à¤¨à¤®":3294,"Ġà¤ıà¤ķà¤ªà¤²":3295,"à¤²à¤ªà¤Ľ":3296,"à¤¤à¤µà¤Ł":3297,"à¥¨à¥¦à¥¨":3298,"à¤ĩà¤Ļ":3299,"à¤¸à¤²à¤®":3300,"Ġà¤Ľà¤ª":3301,"Ġà¥¨à¥¦à¥¦à¥¬":3302,"Ġà¤Ĩà¤ĩà¤ıà¤ķ":3303,"à¤¨à¤Ĺà¤°à¤²":3304,"ĠRe":3305,"à¥ĩ/":3306,"à¤ĸà¤°à¤®":3307,"à¥©à¥§":3308,"à¤Īà¤ĵ":3309,"à¤īà¤ł":3310,"à¤Ľà¤°":3311,"Ġà¤Ĺà¤¥":3312,"Ġà¤ľà¤¨à¤¹":3313,"à¤°à¤ķà¤®":3314,"à¤·à¤¤à¤°":3315,"à¤ľà¤¨à¤¬":3316,"à¤¸à¤Ĺ":3317,"à¤ļà¤¥à¤°à¤ķ":3318,"à¤Ńà¤ļ":3319,"à¤Ńà¤ªà¤¤à¤¨":3320,"à¤ªà¤°à¤µ":3321,"Ġ12":3322,"Ġà¤Ĺà¤ĩà¤¸à¤ķ":3323,"à¤°à¤ĺ":3324,"à¤µà¤¤à¤®":3325,"Ġà¤¤à¤²à¤ķ":3326,"ly":3327,"ÐµÐ":3328,"à¥ĩà¤¾":3329,"à¤®à¤«":3330,"Ġà¤¨à¤°à¤¹à¤¨":3331,"Ġà¤Ŀà¤²à¤¨":3332,"à¤§à¤¨à¤¹à¤°":3333,"ction":3334,"Ġà¤ľà¤¨à¤¨":3335,"à¤ķà¤°à¤£à¤¬":3336,"Ġà¤«à¤²à¤¸":3337,"à¤®à¤¥":3338,"à¥¨à¥¦à¥§à¥®":3339,"Ġà¥¨à¥¦à¥«à¥©":3340,"Ġà¤Ĩà¤ĩà¤¨":3341,"ĠFacebook":3342,"à¤¿âĢ¦":3343,"à¤µà¤²à¤ķ":3344,"à¤ħà¤µ":3345,"Ġà¤®à¤¨à¤¨":3346,"201":3347,"Ġà¤Ńà¤ıà¤¨à¤¨":3348,"à¤ıà¤ľà¤¸":3349,"à¤¤à¤¨à¤®":3350,"à¤¯à¤®à¤¶":3351,"à¤īà¤ªà¤¤":3352,"ury":3353,"Ġà¤Ŀà¤Ł":3354,"Ġk":3355,"Ġà¤ªà¤¹à¤°":3356,"à¤¡à¤¸à¤®":3357,"à¤ľà¤¨à¤¶":3358,"Ġà¤¸à¤¡à¤ķà¤²":3359,"end":3360,"à¤ıà¤¸à¤ķ":3361,"Ġà¥¦à¥Ńà¥¨":3362,"à¥©à¥«":3363,"à¤ıà¤¶":3364,"à¤°à¤¬à¤¦":3365,"Ġà¤¨à¤Ĺà¤°à¤¸à¤Ń":3366,"à¤ķà¤°à¤¹à¤°":3367,"à¤ĸà¤¨à¤®":3368,"à¤¤à¤µà¤¨à¤²":3369,"à¤Łà¤ķà¤®":3370,"à¤°à¤®à¤ľ":3371,"à¥ĤâĢĻ":3372,"à¥ĪâĢĵ":3373,"à¤īà¤ªà¤°":3374,"à¤ĩà¤Łà¤ķ":3375,"ec":3376,"à¤ļà¤¹à¤°":3377,"ug":3378,"à¤Ńà¤µà¤¬":3379,"à¤¯à¤²à¤¯":3380,"à¤¤à¤¥":3381,"ont":3382,"Ġà¤īà¤·":3383,"Ġà¤ıà¤¬":3384,"ĠÐ¿":3385,"vi":3386,"Ġà¤®à¤Ł":3387,"Ġà¤Ĩà¤Īà¤°à¤¹":3388,"à¤¡à¤¡":3389,"à¥ī":3390,"Ġà¤¸à¤°à¤¦":3391,"ant":3392,"Ġà¤ľà¤¨à¤Ĺà¤£à¤¨":3393,"à¤ķà¤°à¤¬":3394,"Ġà¤ľà¤ª":3395,"Ġà¤°à¤¨à¤°":3396,"à¤¨à¤µà¤¤":3397,"Ġà¤ıà¤ķà¤°":3398,"Ġà¤Ńà¤°à¤ª":3399,"à¤ıà¤¤à¤ķ":3400,"Ġà¤Ĩà¤£à¤µ":3401,"Ã¬":3402,"à¤·à¤£à¤¹à¤°":3403,"à¤²à¤Ĺà¤ķ":3404,"à¤Ĺà¤¦à¤°":3405,"Ġà¤¨à¤Ńà¤ĩ":3406,"Ġà¤¦à¤²à¤¬":3407,"Ġà¤§à¤®à¤²":3408,"à¤²à¤ĸà¤£":3409,"Ġà¤°à¤£à¤µ":3410,"à¤¤à¤°à¤¹":3411,"Ġà¤¹à¤ķà¤ķ":3412,"à¤¸à¤®à¤¯":3413,"à¤²à¤Ĺà¤¢":3414,"Ġà¤Ĩà¤ĩà¤²":3415,"à¤¯à¤ļ":3416,"à¤²à¤ľà¤¸":3417,"Ġà¤ªà¤µà¤¨":3418,"Ġà¤Ĺà¤Ļ":3419,"Ġ..":3420,"ĠMore":3421,"à¤¥à¤²à¤¹à¤°":3422,"Ġà¤Ŀà¤®":3423,"Ġà¤ıà¤¨à¤Ĩà¤°":3424,"Ġà¤Ľà¤łà¤ķ":3425,"Ġà¤Ĩà¤µà¤¸":3426,"Ġà¤°à¤Ĺà¤¤à¤ķ":3427,"Ġà¤Ĺà¤¸":3428,"Ġà¤Ĩà¤ĩà¤ªà¤°":3429,"Ġà¤ıà¤ªà¤¬":3430,"Ġà¤¸à¤¦à¤¨à¤®":3431,"à¤®à¤Ļ":3432,"à¤¯à¤¸à¤¤à¤°":3433,"roid":3434,"Ġà¤ĩà¤ª":3435,"à¤ľà¤¨à¤Ńà¤¨":3436,"Ġ!!!":3437,"Ġà¤ıà¤ĺ":3438,"à¤¹à¤¯":3439,"ÑģÑĤ":3440,"ĠÂ¥":3441,"Ġà¤Ĩà¤²à¤®":3442,"à¤°à¤ķà¤ķ":3443,"ast":3444,"Ġà¤®à¤®à¤¤":3445,"Ġà¤°à¤¨à¤²":3446,"arm":3447,"à¤ıà¤®à¤¬":3448,"à¥ĩà¥ĩ":3449,"à¤¯à¤¡":3450,"à¤Łà¤°à¤Ł":3451,"à¤ıà¤«à¤ª":3452,"ĠAndroid":3453,"iv":3454,"à¤¯à¤ªà¤¶":3455,"à¤¸à¤¨à¤¬":3456,"à¤¶à¤®à¤¶":3457,"à¤Łà¤¨à¤²":3458,"Ġà¤ĵà¤Ľ":3459,"à¤¤à¤ľà¤¸":3460,"à¤°à¤®à¤ħà¤¨":3461,"Ġà¤ħà¤ĸà¤¬":3462,"à¤ļà¤µà¤Ł":3463,"âĢĭ":3464,"à¤Łà¤ļ":3465,"à¤ģâĢĵ":3466,"Ġà¤ľà¤Ĺà¤¦":3467,"Ġà¤ļà¤¹":3468,"ÑĮ":3469,"à¥į:":3470,"Ġà¥§à¥¯à¥ª":3471,"Ġà¤¸à¤ľà¤Ĺ":3472,"uryakhabar":3473,"à¤²à¤µà¤ķ":3474,"Ġà¤¸à¤®à¤¤":3475,"Â»":3476,"Ġà¤ªà¤¦à¤¹à¤°":3477,"à¤īà¤¸à¤²":3478,"à¤Ńà¤¬":3479,"à¤¯à¤¸à¤ļ":3480,"Ġà¤Ŀà¤¡à¤ª":3481,"Ġà¤ĩà¤®à¤°":3482,"à¤ļà¤Ĺ":3483,"à¤Ĺà¤¬à¤ľ":3484,"Ġà¤Ķà¤ľ":3485,"ational":3486,"à¤¹à¤°à¤²":3487,"Ġà¤®à¤¤à¤ķ":3488,"Ġà¤ıà¤Ń":3489,"np":3490,"à¤²à¤«":3491,"à¤Ļà¤µ":3492,"ï¿½...":3493,"à¤µà¤®à¤¨":3494,"à¤µà¤°à¤£à¤²":3495,"à¤Ńà¤°à¤ķ":3496,"Ġ#":3497,"à¤ĩà¤Łà¤²":3498,"à¤¹à¤°à¤ķ":3499,"Ġà¤¸à¤¯à¤ķ":3500,"Ġst":3501,"à¤Ĥà¤Ĥ":3502,"Ġà¤¡à¤¬à¤²":3503,"à¤ķà¤¸à¤¹":3504,"à¤Īà¤¸à¤ķ":3505,"Ġ10":3506,"12":3507,"Ġà¤¦à¤°à¤ķ":3508,"à¤°à¤µà¤¹à¤¨":3509,"à¤¡à¤ķà¤ª":3510,"à¤¯à¤¸à¤ª":3511,"à¤¯à¤²à¤®":3512,"Ġà¤ļà¤®à¤¤":3513,"Ġà¤¯à¤¸à¤µà¤°":3514,"Ġà¤¦à¤¶à¤ķà¤Ńà¤¨":3515,"à¤Ńà¤µà¤²":3516,"Ġà¤¦à¤°à¤°":3517,"à¤ħà¤Ŀ":3518,"à¤¨à¤Ł":3519,"à¤¸à¤¦à¤¬":3520,"ĠTwitter":3521,"Ġà¤Ĩà¤ļà¤°à¤£":3522,"à¤²à¤°à¤ķ":3523,"à¥¨à¥¦à¥ª":3524,"are":3525,"à¤Ļà¤ľ":3526,"Ġà¤Īà¤¤":3527,"à¤²à¤£":3528,"à¥Ģ:":3529,"à¤¸à¤°à¤²":3530,"Ġà¤®à¤¹à¤¨":3531,"Ġà¥§à¥¬à¥«":3532,"à¤īà¤¸à¤ķ":3533,"à¤¹à¤Ļà¤ķ":3534,"à¤ıà¤²à¤Ĺà¤¤":3535,"à¤Ĺà¤«":3536,"à¤¨à¤¨à¤Ĺà¤°":3537,"à¤°à¤Ĩà¤®":3538,"Ġà¤ħà¤²à¤®à¤²":3539,"ord":3540,"ãĥ":3541,"à¤ľà¤¸à¤²":3542,"ĠNovember":3543,"à¤µà¤¸à¤¹":3544,"à¤¨à¤¤à¤°":3545,"ite":3546,"Ġ19":3547,"à¥©à¥©":3548,"ĠâĢĺâĢĺ":3549,"à¤¦à¤ķà¤¤":3550,"à¥ĩ'":3551,"bout":3552,"Ġ9":3553,"à¤¸à¤®à¤¸":3554,"Ġà¤ĭà¤£à¤ķ":3555,"ong":3556,"à¤°à¤¸à¤²":3557,"Ġà¤Ĺà¤¤à¤µà¤°":3558,"ĠSt":3559,"à¤¤à¤°à¤¸à¤®":3560,"Ġch":3561,"Ġà¤¸à¤®à¤ķà¤ķ":3562,"à¥įà¥¤âĢĻ":3563,"ĠTV":3564,"à¤ĵà¤®":3565,"Ġà¤ħà¤¢":3566,"Ġà¤Īà¤¸":3567,"à¤ļà¤¨à¤ªà¤Ľ":3568,"à¤ĩà¤Ĺ":3569,"à¤µà¤²à¤¨":3570,"à¤·à¤¦à¤²":3571,"à¤łà¤¸":3572,"Ġà¥¦à¥Ńà¥«":3573,"Ġà¥ªà¥¦à¥¦":3574,"30":3575,"rsquo":3576,"Ġà¤ħà¤ľà¤¯":3577,"Ġà¤µà¤¨à¤®":3578,"à¤¯à¤Ńà¤¨":3579,"Ġà¤¯à¤¸à¤ªà¤Ľ":3580,"à¥Īà¤Ĥ,":3581,"Suryakhabar":3582,"à¤®à¤ķà¤°":3583,"Ġde":3584,"à¤¸à¤¹à¤ķ":3585,"Ġà¥¨à¥¦à¥«à¥®":3586,"Home":3587,"à¤Ĩà¤ĩà¤¸":3588,"Ġà¤ĺà¤¨à¤¶":3589,"à¤²à¤µà¤²":3590,"à¤Ĩà¤ķ":3591,"à¤Łà¤°à¤¸à¤®":3592,"Ġà¤¤à¤°à¤Ļ":3593,"à¤ļà¤¨à¤¬":3594,"Ġà¤ķà¤°à¤¦":3595,"Ġà¤Ńà¤ĩà¤¦":3596,"Ġà¥¨à¥¦à¥¬à¥Ń":3597,"à¤Ĭà¤¨":3598,"à¥©à¥¨":3599,"atha":3600,"à¤°à¤ĸà¤°":3601,"Ġà¤¤à¤µà¤°à¤²":3602,"Ġà¤¸à¤¡à¤ķà¤¬":3603,"à¤ģà¥Ī":3604,"Ġà¤ķà¤¹à¤²":3605,"Ġà¤ħà¤µà¤¤":3606,"à¤ĩà¤ªà¤²":3607,"à¤¸à¤«à¤°":3608,"à¤ıà¤Īà¤®":3609,"à¥Ńà¥¨":3610,"à¤¡à¤¹":3611,"Ġà¤¨à¤ľà¤°à¤®":3612,"ash":3613,"Ġà¤²à¤ļ":3614,")à¥¤":3615,"à¤¸à¤ľ":3616,"à¤īà¤¸à¤®":3617,"à¥ĩÂ«":3618,"Ġà¤¶à¤®à¤¶":3619,"fo":3620,"own":3621,"à¥©à¥ª":3622,"20":3623,"à¥į?":3624,"à¤¯à¤²à¤²":3625,"à¤Ńà¤°à¤ª":3626,"ht":3627,"à¤ªà¤²à¤²":3628,"à¥§à¥¯à¥§à¥®":3629,"if":3630,"Ġà¤īà¤ªà¤§":3631,"à¤ªà¤°à¤Ń":3632,"à¥«à¥§":3633,"Ġà¤īà¤ªà¤ķà¤°à¤£à¤¹à¤°":3634,"Ġà¤ħà¤¶à¤ķ":3635,"à¤ħà¤Ļ":3636,"Ġà¤īà¤ªà¤²":3637,"Ġà¤¯à¤®à¤ª":3638,"à¤¤à¤¹à¤¤à¤®":3639,"Ġà¤ľà¤Ĺà¤¤à¤®":3640,"à¥§à¥¯à¥§à¥«":3641,"à¤µà¤°à¤¸":3642,"à¤ĩà¤ıà¤ªà¤Ľ":3643,"à¤¦à¤¹":3644,"à¤¡à¤°à¤ķ":3645,"Ġà¥¨à¥¦à¥¬à¥¬":3646,"age":3647,"à¤¯à¤¸à¤µ":3648,"à¤«à¤¨":3649,"Ġà¤ħà¤®à¤²":3650,"à¤¯à¤¦à¤²à¤ķ":3651,"Ġà¤ĸà¤¬à¤°à¤²":3652,"co":3653,"Ġà¤¹à¤ķà¤¹":3654,"à¤·à¤£à¤¬":3655,"Ġà¤¥à¤ªà¤²":3656,"Ġ--":3657,"à¤ĩà¤Ńà¤°":3658,"à¤ĩà¤¨à¤°":3659,"à¤¬à¤Īà¤®":3660,"à¤·à¤ľà¤¨à¤ķ":3661,"Ġhttps":3662,"à¥Įà¤ĤâĢĻ":3663,"à¤¯à¤¸à¤¯à¤¤":3664,"Ġ\"\"\"\"":3665,"à¤¯à¤¨à¤¹à¤°":3666,"à¤²à¤¨à¤°à¤¤":3667,"à¤¨à¤µà¤ķ":3668,"à¤¸à¤µà¤°":3669,"gle":3670,"à¤¨à¤Ĺà¤°à¤®":3671,"Ġà¤ķà¤ªà¤ķ":3672,"à¤¯à¤°à¤¹à¤°":3673,"à¥ĭà¤ģ":3674,"à¤ķà¤Łà¤²":3675,"Ġà¤īà¤ªà¤ľ":3676,"à¤µà¤ĺ":3677,"Ġà¤¯à¤¶":3678,"Ġà¤ķà¤Ńà¤°":3679,"à¤ķà¤ªà¤¡":3680,"à¤ľà¤ķà¤¹à¤°":3681,"Ġpro":3682,"Ġà¤°à¤ķà¤®à¤²":3683,"load":3684,"à¤¨à¤ľà¤¸":3685,"Ġà¤Ĩà¤µà¤§":3686,"à¤ļà¤¦":3687,"à¤łà¤¤":3688,"Ġà¤ıà¤¸à¤ıà¤®à¤ıà¤¸":3689,"à¤¬à¤¬":3690,"à¥į.":3691,"Ġà¤ĸà¤¡à¤ķ":3692,"à¤¨à¤¬à¤®":3693,"à¤°à¤¬à¤²":3694,"Ġà¤Ĩà¤ĩà¤¡à¤²":3695,"à¤ıà¤¸à¤¬":3696,"à¤¦à¤¯à¤ĺ":3697,"Ġà¤ĸà¤ľ":3698,"Ð²":3699,"à¤¦à¤¦à¤°":3700,"mà¤²":3701,"à¤¥à¤ķà¤¤":3702,"Ġà¥§à¥¯à¥®à¥¯":3703,"news":3704,"Ġà¤¸à¤¹à¤ª":3705,"à¤ªà¤°à¤¸":3706,"oogle":3707,"à¤ħà¤ĸ":3708,"Ġà¤ľà¤¬à¤¸à¤®":3709,"ress":3710,"à¤ļà¤°à¤²":3711,"à¤¨à¤¢":3712,"Ġà¤¯à¤¸à¤¸":3713,"Ġà¤ħà¤ªà¤¹à¤°à¤£à¤ķ":3714,"Ġà¥¨à¥¦à¥«à¥¦":3715,"Ġà¤¬à¤¹à¤¨":3716,"à¤¬à¤²à¤®":3717,"Ġà¤Ĩà¤ĩà¤ľ":3718,"up":3719,"à¤®à¤¨à¤ķ":3720,"Ġà¤Ĩà¤¬à¤¸":3721,"à¤Ĺà¤łà¤¨à¤®":3722,"19":3723,"à¤ıà¤¨à¤ķ":3724,"Ġà¥¨à¥¦à¥¦à¥ª":3725,"ie":3726,"à¤¯à¤¤à¤¬":3727,"à¤Łà¤²à¤¹à¤°":3728,"Ġà¤īà¤ªà¤¦à¤«":3729,"à¤¦à¤ķà¤¹à¤°":3730,"aj":3731,"Ġà¤®à¤¹Ã¬":3732,"à¤¨à¤§":3733,"à¥®à¥®":3734,"Ġà¤Ĩà¤Ĺà¤¨":3735,"à¤ķà¤®à¤ľ":3736,"à¤¦à¤¶à¤®":3737,"à¤®à¤ķà¤¥":3738,"Ġà¤¯à¤®à¤ªà¤ŀ":3739,"Ġà¤Ĺà¤¡":3740,"à¤®à¤¸à¤¤":3741,"à¤µà¤¨à¤¯":3742,"Ġà¤īà¤¦à¤ĺ":3743,"Ġà¤¨à¤µà¤ľ":3744,"Ġà¥¨à¥¦à¥ªà¥®":3745,"ex":3746,"Ġà¤ħà¤¹à¤®":3747,"à¤¬à¤°à¤²":3748,"Ġà¤¬à¤ļà¤¨":3749,"à¤ķà¤²à¤ķ":3750,"à¤¦à¤ķà¤²":3751,"à¤²à¤¤à¤°":3752,"à¤Īà¤«":3753,"Ġà¤«à¤£":3754,"Ġà¤Łà¤®":3755,"Ġà¤ĵà¤¡":3756,"à¤¹à¤²à¤ªà¤¹à¤²":3757,"à¤ľà¤ķà¤®":3758,"à¤ļà¤°à¤£":3759,"Ġà¤Ĩà¤ĩà¤¡":3760,"??":3761,"à¤µà¤¯à¤ķ":3762,"à¤Łà¤ªà¤Ľ":3763,"Ġà¤ıà¤«à¤ı":3764,"à¤¹à¤¤à¤ķ":3765,"à¤Ńà¤µà¤ķ":3766,"à¤¦à¤ķà¤ķ":3767,"Ġà¤ıà¤¸à¤Ī":3768,"à¤łà¤¹à¤°":3769,"Ġà¤§à¤¨à¤°":3770,"Ġà¤ļà¤¹à¤²à¤ªà¤¹à¤²":3771,"Ġà¤¬à¤ĸ":3772,"Ġà¤¯à¤®à¤°":3773,"Ġà¤¬à¤²à¤ķ":3774,"à¤§à¤°à¤ķ":3775,"ies":3776,"à¤ķà¤¨à¤®":3777,"Ġà¤¤à¤¦à¤°":3778,"à¤µà¤°à¤¹à¤°":3779,"à¤µà¤¸à¤¬":3780,",'":3781,"Ġà¤Ĩà¤īà¤Ľ":3782,"à¤ıà¤²à¤ķ":3783,"à¤µà¤Ńà¤°à¤ķ":3784,"Ġà¤ľà¤²à¤®":3785,"od":3786,"à¤¨à¤µà¤²à¤ªà¤°":3787,"Ġà¤Ĳà¤°":3788,"à¤ŀà¤²":3789,"à¤¯à¤£à¤¹":3790,"à¤°à¤¹à¤²":3791,"à¤°à¤¸à¤¸":3792,"âĨ":3793,"à¤ľà¤¨à¤¸":3794,"Ġà¤°à¤¥":3795,"Ġà¤¬à¤¹à¤°":3796,"à¤Ńà¤µà¤¨":3797,"à¤°à¤¤à¤µ":3798,"ĠComments":3799,"Ġà¤Ĩà¤ĩà¤ıà¤®à¤Ī":3800,"all":3801,"Ġà¤¡à¤¨":3802,"Ġà¤¹à¤Ļà¤ķà¤Ļà¤²":3803,"Ġà¥§à¥¯à¥«à¥¦":3804,"à¤ķà¤®à¤°":3805,"à¤Ĩà¤¦à¤°":3806,"Ġà¤¨à¤µà¤²à¤ª":3807,"ud":3808,"à¤¥à¤²à¤²":3809,"à¤Īà¤¸à¤®":3810,"Ġà¤²à¤¬":3811,"ans":3812,"à¤ªà¤¸à¤²":3813,"ham":3814,"à¤µà¤ħà¤§":3815,"à¤¯à¤ľà¤¸":3816,"à¤¸à¤¸à¤¹":3817,"ah":3818,"à¤¯à¤Ĺ":3819,"à¥Ģà¤ĥ":3820,"à¤Īà¤ĺ":3821,"ue":3822,"à¤¤à¤ªà¤¤":3823,"Ġà¥§à¥¯à¥¯à¥®":3824,"à¤®à¤Ĺà¤°à¤²":3825,"Ġis":3826,"à¤¢à¤¤":3827,"à¤ıà¤¬":3828,"Ġà¤¦à¤°à¤µ":3829,"Ġà¤²à¤ĸà¤¨":3830,"ric":3831,"à¤¸à¤¶à¤¸":3832,"Ġà¤¦à¤¶à¤°à¤¥":3833,"à¤ħà¤¨à¤²":3834,"Ġà¥§à¥Ńà¥©":3835,"à¤ľà¤®à¤£":3836,"du":3837,"Ġà¤ĩà¤·":3838,"à¥ģ,âĢĻ":3839,"Ġà¥¨à¥¦à¥¦à¥¦":3840,"à¤®à¤¶à¤°à¤£":3841,"pan":3842,"à¤µà¤¤à¤²":3843,"ĠAn":3844,"à¤°à¤ļà¤¢":3845,"à¤īà¤ĸ":3846,"à¤Ľà¤µ":3847,"Ġà¤¤à¤Łà¤¬à¤¨":3848,"à¤¤à¤¨à¤ªà¤Ľ":3849,"à¥Įà¤Ĥ:":3850,"à¤°à¤µà¤²":3851,"Ġà¤°à¤ķà¤®à¤®":3852,"........":3853,"âĢį.":3854,"Ġà¤Ĩà¤®à¤ľà¤¨à¤¤":3855,"Ġà¤¨à¤īà¤ł":3856,"rt":3857,"à¤®à¤ŀ":3858,"à¥ĪâĢĻ":3859,"à¥Ĥ)":3860,"Ġà¤®à¤¨à¤¹à¤°":3861,"agarm":3862,"à¤µà¤¨à¤Ńà¤°":3863,"Ġà¤¸à¤®à¤²":3864,"à¤ĩà¤ķà¤°":3865,"à¤²à¤Ńà¤°":3866,"Ġà¤¨à¤Ĺà¤°à¤µ":3867,"agarmatha":3868,"à¤ľà¤¸à¤ķ":3869,"à¤¬à¤§":3870,"à¤¸à¤°à¤¸":3871,"Ġà¤ĺà¤°à¤²":3872,"Ġà¤Ĺà¤¡à¤¬à¤¡":3873,"à¤¯à¤£à¤ª":3874,"ĠCh":3875,"Ġà¤·à¤¡à¤¯à¤¨":3876,"Ġà¤¸à¤¡à¤ķà¤¹à¤°":3877,"Ġà¤¨à¤ĩ":3878,"Ġà¤¬à¤²à¤²":3879,"à¤Ĺà¤°à¤²":3880,"ard":3881,"à¤¯à¤µà¤°":3882,"Ġà¤ĸà¤¬à¤°à¤¦":3883,"Ġà¤ªà¤ķà¤¡":3884,"Ġà¤łà¤Ł":3885,"OR":3886,"à¤ªà¤Łà¤ª":3887,"Ġà¤Ńà¤¯à¤ķ":3888,"à¤ĸà¤¡":3889,"Ġà¤ªà¤¦à¤ª":3890,"Ġà¤¸à¤¶":3891,"Ġà¤Ĩà¤¯à¤Ĩà¤°":3892,"à¤¬à¤ļ":3893,"âĢĮà¤Ĥ":3894,"à¤ªà¤ķà¤ķ":3895,"Ġà¤¶à¤¹à¤°à¤¹à¤°":3896,"à¥§à¥¯à¥¯":3897,"à¤Ĩà¤Īà¤ª":3898,"à¤¦à¤®à¤ķ":3899,"Ñĩ":3900,"ownload":3901,"ÐµÐ½":3902,"Ġà¤Ĩà¤ıà¤®":3903,"Ġ+":3904,"Ġà¤ıà¤ķà¤¤à¤°":3905,"à¤¯à¤¸à¤Ńà¤¨":3906,"à¤ĩà¤ķà¤²à¤ķ":3907,"à¦":3908,"Ġà¤¦à¤²à¤®":3909,"Ġà¤ļà¤®à¤ķ":3910,"à¤ľà¤¦à¤°à¤®":3911,"Ġà¤Īà¤ļ":3912,"à¤°à¤ħ":3913,"à¤¤à¤¨à¤ª":3914,"à¤Īà¤ļ":3915,"has":3916,"Ġà¥¨à¥¦à¥«à¥¨":3917,"Ġà¤ħà¤µà¤¸à¤°à¤¹à¤°":3918,"Ġà¤®à¤²à¤ķ":3919,"Ġà¤īà¤¨à¤®":3920,"Ġà¤¹à¤¡à¤¤":3921,"Ã©":3922,"ĠÑģ":3923,"à¤·à¤µ":3924,"à¤¤à¤Ĺ":3925,"à¤²à¤¬à¤°":3926,"Ġà¤ķà¤¸à¤°à¤¤":3927,"à¨":3928,"à¤¦à¤²à¤²":3929,"Ġà¤ıà¤ħ":3930,"Ġà¤¶à¤¤à¤ª":3931,"à¤¹à¤ľà¤¨à¤ķ":3932,"Ġà¥¨à¥¦à¥¦à¥«":3933,"Ġà¤Ĩà¤ĩà¤°à¤¹à¤¨":3934,"Ġà¤ħà¤¬à¤°":3935,"à¥Įà¤Ĥà¥¤âĢĻ":3936,"à¤Łà¤Ń":3937,"à¤ĺà¤£":3938,"Ġà¤¤à¤²à¤®":3939,"Ġà¥¨à¥«à¥¦":3940,"à¤¥à¤ķà¤¹à¤°":3941,"Ġà¤¸à¤¤à¤¹à¤®":3942,"Ġà¤®à¤²à¤®":3943,"à¥Ńà¥¦":3944,"à¤¹à¤¨à¤ķ":3945,"ice":3946,"à¤¦à¤¬à¤¹":3947,"Ġà¤¸à¤¦à¤°":3948,"à¤°à¤ļà¤²à¤¨à¤®":3949,"à¤ħà¤²à¤Ĺ":3950,"ĠOn":3951,"à¤¨à¤ªà¤¤":3952,"à¤ķà¤«":3953,"à¤²à¤¨à¤ªà¤Ľ":3954,"à¥©à¥¬":3955,"48":3956,"à¤¦à¤ĺ":3957,"à¤Ĩà¤ĩà¤ª":3958,"Ġà¤¬à¤¹à¤¸à¤ķ":3959,"à¤ıà¤¨à¤Ĩà¤°à¤ıà¤¨à¤ı":3960,"Ġ*":3961,"Ġà¤¸à¤°à¤¦à¤°":3962,"Ġà¤ħà¤µà¤Ĺà¤¤":3963,"à¤¨à¤¯à¤®":3964,"à¤¯à¤ħà¤¨":3965,"à¤²à¤¬à¤¸":3966,"Ġpost":3967,"à¤¡à¤°à¤²":3968,"à¤ªà¤°à¤²":3969,"Ġà¤Ĩà¤¬à¤¶":3970,"à¥įà¤¾à¤¾":3971,"Ġapp":3972,"Ġà¤¯à¤¸à¤ªà¤Łà¤ķà¤ķ":3973,"à¤¾à¤ģâĢĵ":3974,"à¤ĵà¤Ł":3975,"Ġà¤ıà¤¨à¤ľ":3976,"à¤£à¤¯à¤¬":3977,"Ġà¤¨à¤ªà¤¢":3978,"Ġà¤Ŀà¤¸":3979,"à¥ĭâĢĿ,":3980,"Ð¾Ð²":3981,"Ġà¥¦à¥§":3982,"Ġà¤Ńà¤ıà¤¦":3983,"à¤°à¤ªà¤¥":3984,"Ġ18":3985,"à¤ıà¤Ľà¤¨":3986,"Ġà¤Ńà¤ıà¤ľà¤¸":3987,"à¤Ĺà¤®à¤¨à¤²":3988,"Ġà¤Ĩà¤®à¤°à¤£":3989,"Ġà¤īà¤«":3990,"Ġà¤«à¤¤":3991,"Ġà¤¬à¤¢à¤¨":3992,"à¤Ĩà¤²":3993,"Ġà¥§à¥§à¥¦":3994,"Ġà¤ļà¤²à¤¨à¤ļà¤²":3995,"Ġà¤Ĩà¤ĩà¤Ł":3996,"Ġà¤ıà¤«à¤ıà¤®":3997,"Ġà¤°à¤Ĺà¤¤à¤®":3998,"à¤Ĺà¤ªà¤¤":3999,"ĠÐ²":4000,"Ġà¤ľà¤ĺà¤¨":4001,"Ġà¤¨à¤«":4002,"à¤Ŀà¤£":4003,"à¤Ĩà¤ĩà¤Ń":4004,"à¥«à¥«":4005,"Ġà¤°à¤ķà¤®à¤¬":4006,"Ġad":4007,"à¤ļà¤ĸ":4008,"à¤°à¤®à¤¦":4009,"à¤¡à¤°à¤®":4010,"Ġà¤łà¤¡":4011,"Ġà¤®à¤¦à¤¤":4012,"à¤Ńà¤°à¤¤à¤ª":4013,"ĠY":4014,"à¥®à¥¦":4015,"à¤¤à¤ľà¤¨à¤¹à¤°":4016,"Ġà¤ľà¤¯à¤ª":4017,"à¤¨à¤µà¤°":4018,"Ġà¤ıà¤Ĺ":4019,"à¤ıà¤ħà¤¨":4020,"Ð¼":4021,"à¤¿?":4022,"Ġnews":4023,"à¤°à¤¡":4024,"à¤Ĺà¤ľà¤®":4025,"à¤Ĺà¤¯":4026,"à¤Ĺà¤ľà¤ªà¤¤":4027,"ack":4028,"à¤łà¤¶":4029,"Ġ24":4030,"à¥ģà¤¾":4031,"à¤Īà¤¨à¤²":4032,"Ġà¤ľà¤Ĺà¤®":4033,"à¤¸à¤¸à¤ķ":4034,"à¤µà¤ªà¤Ľ":4035,"à¤¶à¤ļà¤¨":4036,"à¤ľà¤¸à¤°":4037,"Ġà¤¯à¤¸à¤¤à¤°":4038,"à¤ªm":4039,"à¤ľà¤¬à¤¹":4040,"à¤īà¤ªà¤ª":4041,"NepalM":4042,"Ġà¤¤à¤²à¤µ":4043,"est":4044,"Ġà¤¨à¤°à¤¸":4045,"lic":4046,"à¥Ńà¥¯":4047,"Ġà¤Ĩà¤Īà¤ľ":4048,"Ġà¤¨à¤ķà¤Ĩà¤īà¤Ł":4049,"Ġà¤Ĺà¤°à¤ķ":4050,"à¤¸à¤®à¤¯à¤®":4051,"à¤¶à¤ķà¤®":4052,"à¤ļà¤²à¤¨":4053,"Ġà¤®à¤¹ÅĴà¤µà¤ª":4054,"à¤°à¤¤à¤¤":4055,"Ġà¤Īà¤ľ":4056,"NepalMother":4057,"Ġà¤¦à¤¶à¤ķà¤ķ":4058,"Ġà¤¸à¤¹à¤ļ":4059,"Ġà¤ĸà¤ļ":4060,"à¤Īà¤Łà¤®":4061,"Ġà¤µà¤¯à¤¸":4062,"à¤µà¤¨à¤¬":4063,"Ġ7":4064,"à¤Ĺà¤®à¤ŀ":4065,"Ġà¤¬à¤¹à¤¸à¤®":4066,"08":4067,"Ġà¤¹à¤µà¤²":4068,"________":4069,"à¥Ńà¥§":4070,"à¤ķà¤Łà¤¤":4071,"à¤·à¤¨":4072,"Ġà¤¸à¤¨à¤®":4073,"Ġà¤Ĩà¤ıà¤ªà¤¨":4074,"à¤ªà¤°à¤°":4075,"Ġà¤ªà¤¸à¤²à¤¹à¤°":4076,"Ġà¤ľà¤¸à¤ħà¤¨":4077,"à¤Łà¤®à¤ķ":4078,"à¤¤à¤°à¤¸":4079,"Ġà¤ªà¤¤à¤¨":4080,"à¤¹à¤²à¤®":4081,"Ġà¤¨à¤Ĺà¤°à¤®":4082,"Ġà¤¸à¤¤à¤¹à¤¬":4083,"à¤¡à¤¯":4084,"à¤®à¤ķà¤°à¤£":4085,"Ġà¥¨à¥¦à¥ªà¥Ń":4086,"à¤ıà¤¨à¤¸":4087,"Ġà¤§à¤¨à¤¬à¤¹":4088,"à¤¾âĢĻ,":4089,"ĠØ":4090,"à¤¯à¤ªà¤°":4091,"à¥ĭ,âĢĿ":4092,"ust":4093,"Ġà¤ħà¤¨à¤Ĺ":4094,"Ġà¤¤à¤¦":4095,"AR":4096,"à¤Īà¤ªà¤Łà¤ķ":4097,"Ġà¤¿":4098,"à¤ķà¤£":4099,"tern":4100,"à¤Īà¤¶":4101,"à¤ļà¤¶":4102,"Ġà¤«à¤Ł":4103,"à¤ıà¤¸à¤¨à¤ķ":4104,"Ġà¤ıà¤ļà¤ķ":4105,"Ġà¤Łà¤²":4106,"ĠÂ«":4107,"ya":4108,"ill":4109,"à¥ĭ!":4110,"à¤°à¤¸à¤°à¤¤":4111,"Ñħ":4112,"Ġà¤ĵà¤®à¤ª":4113,"à¤¨à¤°à¤²":4114,"à¤ıà¤®à¤ı":4115,"Ġà¤¹à¤ļ":4116,"à¤ıà¤®à¤¸":4117,"à¤ķà¤²à¤®":4118,"à¤¨à¤ľà¤¨à¤ķ":4119,"Ġà¤Ĳà¤ķ":4120,"Ġà¤¸à¤¦à¤Ń":4121,"à¤Ĩà¤Īà¤¬":4122,"Ġà¤ıà¤ıà¤«à¤¸":4123,"Ġà¤¬à¤¢à¤¦":4124,"ï¼":4125,"à¤²à¤Ńà¤¨":4126,"à¤¤à¤°à¤Ļ":4127,"Ġà¤ħà¤¬à¤¸à¤°à¤®":4128,"à¤¸à¤¹à¤Ń":4129,"à¤·à¤¯à¤°":4130,"à¤®à¤¥à¤²":4131,"Ġà¤¨à¤Ĩà¤ī":4132,"ĠOff":4133,"Ġà¤ħà¤²à¤®":4134,"à¥įà¥Ģ":4135,"Ġà¤ħà¤ķà¤²":4136,"à¤½":4137,"à¤§à¤¯":4138,"à¤¥à¤Ĺà¤¨":4139,"à¤¡à¤ķà¤²":4140,"Ġà¤¹à¤¨à¤¨":4141,"à¤ľà¤Ĺà¤ŀ":4142,"Ġà¤ļà¤£":4143,"Ġà¤¦à¤®à¤ķà¤²":4144,"iz":4145,"à¤²à¤¬à¤ļ":4146,"Ġà¤¥à¤®":4147,"à¤¯à¤ľà¤¨à¤ķ":4148,"Ġà¤ıà¤ļà¤Ĩà¤ĩà¤Ń":4149,"à¥ĭÂ¥":4150,"à¤ļà¤¤à¤®":4151,"Ġà¤ıà¤ķà¤ļ":4152,"à¤¸à¤¹à¤¯":4153,"nt":4154,"à¥¯à¥®":4155,"à¥ĩ,âĢĻ":4156,"à¤Ŀà¤¬":4157,"à¤ħà¤µà¤¸":4158,"à¤¨à¤®à¤§":4159,"Ġà¤īà¤ªà¤ķà¤°à¤£à¤ķ":4160,"Ġ20":4161,"à¤Ĺà¤²à¤®à¤¯":4162,"à¤²à¤ķà¤®":4163,"Ġinfo":4164,"à¤ıà¤ķà¤¤":4165,"Ġà¤¸à¤®à¤µ":4166,"ain":4167,"à¤ļà¤ķà¤ķ":4168,"Ġà¤®à¤¹à¤²":4169,"Ġà¤°à¤£":4170,"Ġà¤§à¤¨à¤®":4171,"Ġà¤Ķà¤§":4172,"à¤¬à¤¤à¤ķ":4173,"ith":4174,"à¤®à¤Ŀ":4175,"à¤Ĺà¤ŀ":4176,"Ġà¤¬à¤¸à¤²":4177,"Ġà¤Ĺà¤£à¤¤":4178,"Ġà¤ķà¤łà¤ĺà¤°":4179,"à¤¤à¤¨à¤Ĺà¤°":4180,"à¤¿/":4181,"Ġà¤ıà¤¬à¤®":4182,"à¤ļà¤°à¤ķ":4183,"à¤¡à¤ħà¤¨":4184,"à¤²à¤¯à¤ħà¤¨":4185,"Ġà¥¤)":4186,"Ġà¤ªà¤¹à¤²à¤ķ":4187,"Ġà¥¨à¥¦à¥«à¥¯":4188,"Ġà¤¸à¤ķà¤¸":4189,"à¤µà¤ªà¤¶":4190,"à¤ķà¤ľà¤¸":4191,"Ġà¤Ľà¤¦":4192,"à¤µà¤¸à¤¤":4193,"à¤Łà¤¸à¤²":4194,"à¥įà¥Ĥ":4195,"Ġà¤ªà¤Łà¤ķà¤¸à¤®":4196,"à¤¸à¤µà¤²":4197,"à¤¦à¤°à¤®":4198,"09":4199,"Ġà¤ıà¤¨à¤ª":4200,"Ġà¤Ĩà¤ľà¤ķà¤²":4201,"Ġà¤®à¤ĸà¤®à¤²":4202,"à¤ıà¤¸à¤ľ":4203,"Ġà¤ªà¤°à¤®à¤ª":4204,"à¤Ĺà¤¹à¤¨":4205,"Ġj":4206,"Ġà¤Ĩà¤¯à¤°à¤²":4207,"à¥¨à¥¦à¥¨à¥§":4208,"à¤łà¤®à¤£":4209,"à¤Ĺà¤¤à¤²":4210,"à¤¸à¤¸à¤²":4211,"2018":4212,"à¤Ľà¤¤":4213,"à¤ĩà¤¨à¤²à¤ķ":4214,"à¤°à¤µà¤ļà¤¨":4215,"à¤µà¤¦à¤²":4216,"Ġ!âĢĻ":4217,"à¤°à¤ªà¤Ł":4218,"ä¸":4219,"ry":4220,"à¤¡à¤ľ":4221,"Ġà¤¤à¤¬à¤¸à¤®":4222,"à¤¹à¤£à¤ķ":4223,"à¤µà¤°à¤¤":4224,"à¤ľà¤¯à¤¨":4225,"Ġà¤²à¤Ĺà¤¨à¤¶":4226,"Ġà¤«à¤²à¤¦":4227,"Ġà¥¨à¥¦à¥¬à¥¦":4228,"à¤¦à¤°à¤¬":4229,"Ġà¤Ĺà¤ĩà¤¨":4230,"à¤¶à¤²à¤¤":4231,"Ġcom":4232,"ĠOnline":4233,"Ġà¥¨à¥¦à¥«à¥¬":4234,"......":4235,"à¤¦à¤°à¤ķ":4236,"à¤¶à¤°à¤£":4237,"Ġà¤¹à¤Ĺ":4238,"Ġà¤¦à¤²à¤¸":4239,"ĠÐ¸":4240,"17":4241,"à¤¬à¤¨à¤®":4242,"à¤¨à¤µà¤®":4243,"à¤ļà¤ķà¤¹à¤°":4244,"irst":4245,"à¤°à¤Ł":4246,"à¤¸à¤°à¤¬":4247,"ĠSep":4248,"Ġà¤¡à¤²à¤°à¤®":4249,"à¥ģâĢĿ":4250,"Ġà¤ħà¤°à¤¨":4251,"Ġ!âĢĿ":4252,"18":4253,"Ġà¤¨à¤Ńà¤ıà¤ªà¤¨":4254,"à¤¯à¤ľà¤Ĺà¤¤":4255,"à¤ĸà¤ķà¤¹à¤°":4256,"Ġà¤ķà¤°à¤¬":4257,"Ġà¥¬à¥¦à¥¦":4258,"à¤¨à¤«":4259,"Ġà¤°à¤«":4260,"à¤°à¤¬à¤¦à¤²":4261,"à¤²à¤ĺ":4262,"à¤¯à¤¤à¤°":4263,"Ġà¤Īà¤ķ":4264,"Ġà¥¨à¥¦à¥¦à¥©":4265,"à¤¤à¤²à¤®":4266,"Ġà¤ıà¤Łà¤²":4267,"à¤ħà¤¶":4268,"Ġà¤ĵà¤ĩà¤°":4269,"icle":4270,"Ġà¥¨à¥¦à¥¦à¥¨":4271,"à¥ĭ|":4272,"Ġà¤Ĩà¤·":4273,"ass":4274,"ĠGoogle":4275,"ial":4276,"à¤Ĺà¤¨à¤ķ":4277,"à¤§à¤°à¤£":4278,"Ġà¤Ľà¤¡":4279,"Ġà¤°à¤ľà¤¨":4280,"Ġà¤ıà¤¸à¤Īà¤Ī":4281,"Ġà¤ķà¤¥à¤¨":4282,"Ġà¤ªà¤¦à¤¸":4283,"Ġà¤Ĺà¤ľà¤²à¤®":4284,"Ġà¤²à¤ł":4285,"Ġà¤¦à¤¶à¤ķà¤ħà¤ĺ":4286,"Ġà¤¨à¤Ńà¤ıà¤®":4287,"orm":4288,"à¤ıà¤ļà¤¡":4289,"à¥įâĢĿ":4290,"à¥ĭâĢĶ":4291,"à¤īà¤¹à¤°":4292,"à¥¤à¥¤":4293,"Ġà¤¸à¤¹à¤¸":4294,"à¤Ĺà¤µà¤¤":4295,"à¥ĩâĢĵâĢĺ":4296,"Ġà¤ªà¤Ļ":4297,"à¤°à¤¸à¤ĺ":4298,"Ġà¤ľà¤®à¤ĺà¤Ł":4299,"Ġà¤Ĩà¤īà¤ľ":4300,"à¤īà¤¨à¤¦":4301,"à¤Ĩà¤°à¤ķ":4302,"Ġà¤®à¤¤à¤ª":4303,"à¤¾à¥ĩà¥¤":4304,"Ġà¤Ľà¤Ł":4305,"à¤Ńà¤ı":4306,"à¥ĭà¤ĥ":4307,"Ġà¤ħà¤ªà¤¹à¤°":4308,"à¤¸à¤¶":4309,"à¤Ĺà¤¤à¤°":4310,"à¤¾à¤¿":4311,"à¤¸à¤ªà¤Ľ":4312,"Ġabout":4313,"à¤²à¤ħà¤¨":4314,"à¥©à¥®":4315,"à¤§à¤¨à¤Ĺà¤°":4316,"à¤ķà¤Łà¤¤à¤®":4317,"à¥ĩâĢĿ":4318,"à¤Łà¤¬à¤¨":4319,"Ġ>>":4320,"Ġ8":4321,"Ġà¥¤âĢ¦":4322,"à¤¸à¤¦à¤¸":4323,"à¤Łà¤¡":4324,"à¤ľà¤¡":4325,"à¤īà¤ªà¤¯":4326,"Ġà¤ħà¤¸à¤¹à¤¯":4327,"Ġà¤¸à¤ĺà¤¨":4328,"Ġà¤ĺà¤°à¤§à¤¨":4329,"**":4330,"Ġà¤ķà¤²à¤°":4331,"à¥«à¥¬":4332,"à¤²à¤¯à¤¦":4333,"Ġà¤²à¤µ":4334,"Ġà¤¸à¤ķà¤°":4335,"à¥Ī)":4336,"Ġà¤Ĩà¤¶à¤Ļ":4337,"à¤®à¤¦à¤¨":4338,"à¤¤à¤ľà¤¨à¤ķ":4339,"Ġà¤ļà¤ķà¤²":4340,"rom":4341,"à¥ĭ.....":4342,"Ġà¤ķà¤°à¤®":4343,"à¤¯à¤¸à¤¸":4344,"à¤¶à¤¨à¤ªà¤Ľ":4345,"Ġà¥¨à¥¦à¥¬à¥§":4346,"Ġà¤¬à¤ľà¤Ĺ":4347,"14":4348,"à¤·à¤¦à¤®":4349,"à¤ıà¤¨à¤ľ":4350,"à¤¨à¤°à¤ķ":4351,"à¤§à¤¶":4352,"Ġà¤ķà¤®à¤¸":4353,"Ġà¥¤,":4354,"à¤ĩà¤¡à¤ķ":4355,"à¤Ĺà¤²à¤¸":4356,"ĠÐ½":4357,"ĠNepali":4358,"à¤£à¤Ĺ":4359,"Ġà¤¯à¤°":4360,"à¥©à¥¯":4361,"und":4362,"à¤¾Ã·":4363,"ER":4364,"à¤¾!":4365,"à¤µà¤¦à¤¨":4366,"Ġà¤Ĩà¤®à¤®":4367,"à¤łà¤Ĺ":4368,"ĠDownload":4369,"à¥Ī-":4370,"ive":4371,"à¤¯à¤µà¤¶":4372,"Ð´":4373,"à¥¤\"":4374,"Ġà¤¸à¤®à¤¯à¤ħà¤¨":4375,"à¤Ĩà¤Īà¤ıà¤ļ":4376,"Ġà¥§à¥¦à¥§":4377,"Ġà¤Ĩà¤¯à¤ķ":4378,"Ġà¤ľà¤«à¤¤":4379,"à¤¸à¤°à¤¹":4380,"ide":4381,"à¤°à¤µà¤£":4382,"har":4383,"Ġà¤¹à¤Ļ":4384,"à¤¥à¤ķà¤°":4385,"à¤Ļà¤²à¤Ĺ":4386,"à¤īà¤¤à¤ķ":4387,"à¤Ĺà¤¤à¤¦":4388,"à¤¯à¤¤à¤ª":4389,"à¤īà¤¦à¤¯à¤ª":4390,"à¤²à¤°à¤®":4391,"à¤¤à¤¨à¤¹à¤°":4392,"à¤®à¤Ĺà¤ł":4393,"Ġà¤Ńà¤ıà¤²à¤Ĺà¤¤":4394,"à¤Ńà¤µà¤¹à¤°":4395,"Ġà¤ªà¤°à¤¸":4396,"à¤ĵà¤°":4397,"Ġà¤ķà¤²à¤ķà¤¤":4398,"à¤¯à¤¤à¤¸":4399,"---":4400,"ung":4401,"pr":4402,"à¤¬à¤Ńà¤¨":4403,"à¥Ĥà¥¤":4404,"à¤²à¤¨à¤ª":4405,"eric":4406,"Ġà¤®à¤¦à¤°":4407,"Ġà¤¦à¤¯à¤¨":4408,"à¤¯à¤®à¤¨à¤ķ":4409,"à¤ªà¤ķà¤¹à¤°":4410,"Ġà¤¨à¤Ļ":4411,"Ġà¤Ĺà¤°à¤Ĺà¤¹à¤¨":4412,"Ġà¤°à¤Ļà¤ķ":4413,"à¤ıà¤Łà¤°":4414,"à¤®à¤¸à¤®à¤°":4415,"à¤ľà¤°à¤®":4416,"à¤Ńà¤ħà¤Ļ":4417,"Ġà¤ĸà¤¶":4418,"à¤¤à¤¤à¤°":4419,"Ġà¤ķà¤Ļ":4420,"Ġà¤¬à¤®à¤ķ":4421,"à¤¨à¤ķà¤²":4422,"à¤®à¤¤à¤¦":4423,"Ġà¤¸à¤®à¤¯à¤Ń":4424,"à¤°à¤£à¤µ":4425,"à¤ļà¤ľà¤¨":4426,"Ġà¤¡à¤¸":4427,"Ġà¤Ĩà¤ªà¤¤à¤ķ":4428,"ear":4429,"Ġà¤ĺà¤Łà¤¸":4430,"Ġà¤ħà¤¸à¤®à¤Ŀà¤¦":4431,"Ġà¤Ĺà¤Īà¤°à¤¹":4432,"à¥¨à¥¦à¥§à¥Ń":4433,"à¤¡à¤§":4434,"Ġà¤Ļ":4435,"à¤īà¤Ĺ":4436,"à¤¾à¤ģ...":4437,"Ġà¤ªà¤Łà¤¨":4438,"Ġà¥¤[":4439,"à¥¬à¥§":4440,"het":4441,"à¤¨à¤²à¤²":4442,"Ġà¤Ĩà¤¶à¤¯":4443,"Ġ15":4444,"Ġfirst":4445,"à¥ľ":4446,"Ġas":4447,"ib":4448,"à¥Ģ\"":4449,"à¤Ńà¤°à¤®":4450,"ĠPl":4451,"à¤ŀà¤°":4452,"Ġà¤®à¤¨à¤®à¤¨":4453,"46":4454,"Ġà¤ħà¤ķà¤¸":4455,"à¥ģà¤ģà¥¤":4456,"Ġà¤¸à¤¯à¤®":4457,"à¤¬à¤Ĺà¤°":4458,"ĠNE":4459,"à¤ĩà¤¸à¤®":4460,"à¤ĺà¤¬":4461,"Ġà¤Ńà¤µà¤¨à¤¹à¤°":4462,"à¤ĩà¤ľà¤ķ":4463,"à¤¹à¤¸à¤®":4464,"Ġà¥¨à¥¦à¥«à¥§":4465,"à¤ļà¤¯à¤ķ":4466,"ĠÐ¾":4467,"à¤łà¤ª":4468,"à¤Ŀà¤²":4469,"Ġà¤¨à¤¹à¤Ł":4470,"à¤ıà¤¸à¤ıà¤®":4471,"Ġà¤µà¤°à¤¦":4472,"à¤£à¤ªà¤¨":4473,"à¥Ī;":4474,"Ġà¤¨à¤¸à¤°":4475,"81":4476,"à¤ľà¤¨à¤ª":4477,"Ġart":4478,"à¤Łà¤¸à¤¹":4479,"à¤¤à¤ļà¤°":4480,"à¤¯à¤¤à¤¥":4481,"à¤²à¤°à¤²":4482,"Ġà¥¤&":4483,"Ġà¤ªà¤Ĺ":4484,"à¥¬à¥¯":4485,"||":4486,"Ġ>>>":4487,"à¤¤à¤¶":4488,"à¤ħà¤Ľ":4489,"Ġà¤¡à¤Łà¤ķà¤®à¤®":4490,"à¤¹à¤¦à¤°à¤µ":4491,"à¤¨à¤¯à¤¤":4492,"Ġà¥¤âĢĺ":4493,"à¤²à¤¨à¤¸":4494,"à¥ĩâĢĮ":4495,"Ġà¤ĸà¤µà¤°":4496,"à¤°à¤¤à¤¤à¤°":4497,"Â·":4498,"à¤¤à¤®à¤§":4499,"à¤łà¤ķà¤ªà¤Ľ":4500,"Ġà¤ªà¤¥à¤°":4501,"à¤·à¤¦à¤°":4502,"à¤¨à¤¯à¤ķ":4503,"Ġà¤¡à¤£":4504,"05":4505,"Ġà¤ªà¤°à¤¶":4506,"Ġà¤ĺà¤ļ":4507,"Ġà¤ħà¤ªà¤Ń":4508,"og":4509,"à¤¯à¤®à¤¸":4510,"org":4511,"Ġ.....":4512,"à¤Ĩà¤¸":4513,"à¥¬à¥®":4514,"ft":4515,"Ġà¤²à¤¥":4516,"Ġà¤ħà¤ªà¤¨à¤¤":4517,"à¤¯à¤¡à¤Ńà¤¨":4518,"Ġà¤ľà¤¯à¤°":4519,"ure":4520,"Ġà¤µà¤¯":4521,"à¤¯à¤¸à¤ħà¤¨":4522,"à¤Ļà¤¯":4523,"Ġà¤¨à¤ªà¤ł":4524,"Ġà¤ķà¤ªà¤®":4525,"à¤īà¤¡à¤°":4526,"à¤Ĺà¤«à¤Ĺ":4527,"à¤§à¤¨à¤¸":4528,"dc":4529,"à¤Ļà¤¸à¤®":4530,"à¥Įà¤ĤâĢĶ":4531,"Ġà¤Ŀà¤²à¤ķ":4532,"Ġà¤ĵà¤ł":4533,"Ġyou":4534,"Ġà¤¨à¤°à¤¬à¤¹":4535,"à¤Ĺà¤¸à¤¹":4536,"à¤ĩà¤ĵ":4537,"Ġà¤ļà¤¸":4538,"Ġà¤Ĳà¤¨à¤ħà¤¨":4539,"Ġbe":4540,"gov":4541,"à¤¦à¤²à¤¯":4542,"à¤Ńà¤°à¤Ļ":4543,"alu":4544,"à¤ĩà¤²à¤¹à¤°":4545,"à¥¯à¥¦":4546,"à¤¾..":4547,"::":4548,"à¤¨à¤²à¤ķ":4549,"à¤µà¤°à¤ª":4550,"à¤¿'":4551,"à¤Łà¤¹":4552,"à¤¤à¤¨à¤¶":4553,"Ġà¤ĭà¤£à¤®":4554,"à¤ıà¤«à¤ķ":4555,"à¤Ĩà¤ĩà¤¬":4556,"DF":4557,"Ġà¤ħà¤¦à¤Ń":4558,"à¥¬à¥Ń":4559,"ared":4560,"à¤Ļà¤ª":4561,"à¤Ĩà¤ªà¤¸à¤®":4562,"ire":4563,"~~":4564,"Ġà¤¹à¤ł":4565,"à¤²à¤ķà¤¬":4566,"à¥ĭà¥¤âĢĿ":4567,"Ġà¤Ńà¤ŀ":4568,"Ġà¤Ľà¤²à¤«à¤²à¤ªà¤Ľ":4569,"à¤¸à¤ĸ":4570,"à¤ķà¤Ľ":4571,"à¤ĸà¤§à¤°":4572,"Ġà¤¬à¤Ĺà¤°":4573,"à¤Ĩà¤µà¤¶":4574,"Ġà¤Ŀà¤ķ":4575,"à¤ķà¤²à¤¨à¤®":4576,"Ġà¤¤à¤ķ":4577,"à¤°à¤ķà¤°à¤£à¤ķ":4578,"à¥¬à¥«":4579,"à¤§à¤ªà¤Ľ":4580,"Ġà¤®à¤ł":4581,"Ġ16":4582,"à¤®à¤¤à¤°":4583,"à¤¦à¤¯à¤ķ":4584,"à¥Īà¥į":4585,"Ġà¤®à¤¦à¤¨à¤ķ":4586,"Ġà¥§à¥¦à¥®":4587,"ĠÙ":4588,"ÛĮ":4589,"Ġà¤¨à¤«à¤°":4590,"à¥«à¥©":4591,"Ġà¤ıà¤ķà¤¥à¤°":4592,"ðŁ":4593,"Ġà¤¨à¤µà¤¦":4594,"à¤¸à¤²à¤Ĺ":4595,"Ġà¤ıà¤¨à¤Ł":4596,"à¤®à¤µà¤°à¤£":4597,"à¤īà¤ªà¤ļ":4598,"Ġà¤ľà¤Ĺà¤¤à¤ķ":4599,"à¤¿.),":4600,"à¤ĩà¤ķà¤²à¤²":4601,"à¤Ĥà¥¤":4602,"Ġà¤ħà¤µà¤¸à¤°à¤²":4603,"à¥įâĢĶ":4604,"à¤¨à¤®à¤¸":4605,"à¤¸à¤¨à¤¸":4606,"à¤ĩà¤ıà¤®":4607,"Ġà¤Ŀà¤¡à¤ªà¤®":4608,"Ġà¤ıà¤ķà¤¸à¤¯":4609,"à¥Ńà¥Ń":4610,"Ġà¥¨à¥ªà¥¦":4611,"à¥įà¤ģ":4612,"à¤°à¤Ļà¤®":4613,"à¤Ńà¤¨à¤®":4614,"Ġappe":4615,"à¤¤à¤ĸ":4616,"à¤ªà¤£à¤ķ":4617,"à¤Ĺà¤£à¤¤à¤¨":4618,"Ġà¤¨à¤Ĺà¤ıà¤ķ":4619,"à¥įâĢĮà¥¤":4620,"Ġà¤¹à¤ķà¤¸à¤®":4621,"à¤¦à¤¸à¤®":4622,"Ġà¤Ĩà¤®à¤¸à¤ŀ":4623,"Ġà¤µà¤¨à¤¬":4624,"à¤īà¤¨à¤¸à¤ķ":4625,"à¤Ĺà¤¹":4626,"à¤Ĺà¤Łà¤¨":4627,"âĢ¢âĢ¢":4628,"Ġappeared":4629,"à¤¤à¤¸à¤¹":4630,"Ġà¤«à¤Ľ":4631,"à¤®à¤Ĺà¤łà¤¬à¤¨":4632,"Ġà¤ħà¤¨à¤Ń":4633,"Ġà¥¦à¥¯":4634,"à¤Īà¤¨à¤²à¤®":4635,"à¤īà¤ªà¤Ń":4636,"à¤®à¤¨à¤Ĺà¤°":4637,"Ġà¤¸à¤¨à¤°":4638,"Ø±":4639,"à¤°à¤¹à¤¦":4640,"à¤¯à¤²à¤Ĺ":4641,"Ġà¤²à¤¯à¤®":4642,"Ġà¤ıà¤¡à¤®":4643,"Ġà¤®à¤¹à¤Ļ":4644,"à¤Łà¤«à¤°":4645,"à¤īà¤ªà¤®":4646,"ĠSagarmatha":4647,"à¤ľà¤¯à¤ª":4648,"Ġà¤ħà¤µà¤¹":4649,"à¤¬à¤ĸ":4650,"à¤²à¤Ĺà¤®":4651,"Ġ30":4652,"Ġà¤¸à¤®à¤¥à¤°":4653,"à¤®à¤ħà¤¨":4654,"à¤°à¤¶à¤¨":4655,"à¤ķà¤²à¤Ĺ":4656,"à¤ħà¤¬à¤ķ":4657,"Ð°Ð½":4658,"ver":4659,"à¤Łà¤²à¤Ĺ":4660,"Ġà¤ĵà¤ĸ":4661,"Ġà¤ļà¤°à¤£à¤¬":4662,"à¤ľà¤¤à¤²":4663,"Ġà¤ľà¤µà¤°":4664,"à¥ªà¥¬":4665,"à¥¦à¥Ńà¥¨":4666,"Ġà¤Ĩà¤ĩà¤¸à¤²":4667,"âĨĴ":4668,"Ġà¥¨à¥¦à¥¦à¥§":4669,"Ġà¥¨à¥¦à¥¨à¥¨":4670,"à¤ķà¤¡à¤Ń":4671,"Ġà¤ħà¤°à¤¬à¤ķ":4672,"à¤ķà¤®à¤§":4673,"à¤¸à¤¦à¤°à¤®":4674,"à¤¯à¤Ĺà¤¤":4675,"à¤¸à¤§":4676,"ĠRok":4677,"Ġà¤ĺà¤Łà¤ķ":4678,"à¤¤à¤®à¤¬":4679,"à¤¦à¤²à¤®":4680,"Ġà¤ľà¤²à¤ľà¤²":4681,"à¤²à¤ķà¤°":4682,"Ġ14":4683,"à¤¤à¤¨à¤¹":4684,"Ġà¤ªà¤¸à¤²à¤ķ":4685,"à¤Łà¤ķà¤²":4686,"Ġà¤¬à¤¦à¤®":4687,"à¤Īà¤µ":4688,"à¤Łà¤Ńà¤¨":4689,"à¤°à¤¨à¤Ĺà¤°à¤®":4690,"Ġ=":4691,"à¤ĩà¤ķà¤¨":4692,"à¤ĺà¤ļ":4693,"ight":4694,"ian":4695,"à¤Łà¤Ł":4696,"à¤°à¤¶à¤®à¤¶":4697,"à¤¡à¤°à¤¸":4698,"Ġà¤Ĩà¤¦à¤°à¤£":4699,"à¤ĸà¤ª":4700,"à¤¶à¤¨à¤¹à¤°":4701,"à¥¯à¥¯":4702,"à¤²à¤Ŀ":4703,"esin":4704,"à¤¯à¤¸à¤¦":4705,"amp":4706,"à¤Łà¤®à¤®":4707,"à¤¯à¤£à¤²":4708,"one":4709,"à¤µà¤Łà¤ķ":4710,"Ġà¤¨à¤ķà¤°":4711,"Ġà¤¹à¤¬":4712,"Ġà¤®à¤¤à¤ªà¤°":4713,"à¤ıà¤¸à¤¸":4714,"hetri":4715,"à¤ļà¤¸à¤®":4716,"à¤£à¤¸à¤®":4717,"à¥ªà¥§":4718,"à¤Ĺà¤ľà¤ķ":4719,"Ġà¤ħà¤¨à¤ª":4720,"21":4721,"Ġà¤µà¤·":4722,"Ġà¤Ĩà¤¯à¤¸":4723,"resham":4724,"Ø§Ù":4725,"!!!":4726,"Ġà¤ķà¤¦à¤®à¤²":4727,"lalu":4728,"à¥Įà¤ģ-":4729,"Ġà¤ĵà¤ķ":4730,"Ġà¥®à¥¦à¥¦":4731,"à¤µà¤ªà¤Ł":4732,"rad":4733,"à¤¶à¤¸à¤®":4734,"Yesin":4735,"Ġà¤§à¤¸":4736,"à¥«à¥®":4737,"Ġchhetri":4738,"ĠRoka":4739,"Ġà¤ĩà¤¬":4740,"à¤ľà¤¯à¤²":4741,"à¤ģâĢĻ":4742,"à¤īà¤¨à¤¸à¤®":4743,"Ġà¤µà¤®":4744,"à¤¶à¤¬à¤¹":4745,"à¤¯à¤ªà¤¦":4746,"ld":4747,"Ġà¤Ńà¤ĩà¤°":4748,"Ġà¤¦à¤ĸ":4749,"ËĨ":4750,"à¥įâĢĻ,":4751,"à¥ĭ:":4752,"erica":4753,"à¤°à¤°à¤¤":4754,"à¤°à¤¨à¤®":4755,"Ġà¤ĸà¤¬à¤°à¤®":4756,"à¤ıà¤ıà¤«à¤ª":4757,"à¤¾à¤Ĥà¤ģ":4758,"ĠPost":4759,"à¤ĩà¤¡à¤®":4760,"à¤²à¤¯à¤¸à¤®":4761,"Ġà¤«à¤°à¤µ":4762,"à¤µà¤¸à¤Ń":4763,"ÐµÑĤ":4764,"à¤Ļà¤Łà¤¨":4765,"à¤Ĩà¤Īà¤Ń":4766,"à¤ĭà¤·":4767,"ll":4768,"Ġà¤Ĩà¤ķà¤²à¤¨":4769,"à¤®à¤µà¤°":4770,"Ġà¤¸à¤¯à¤¦":4771,"Ġà¤ħà¤¨à¤°":4772,"Ġà¤ıà¤¤":4773,"à¤īà¤Ń":4774,"Ġà¤Ńà¤¯à¤µ":4775,"Ġà¤®à¤¹ÅĴà¤µ":4776,"Ġ200":4777,"Ġà¤¬à¤²à¤¤":4778,"à¤®à¤°à¤ķ":4779,"Ġà¤ħà¤²à¤®à¤²à¤®":4780,"à¤ľà¤²à¤µ":4781,"Ġï¿½":4782,"à¤·à¤¸à¤¹":4783,"Ġà¤µà¤§":4784,"à¥¬à¥¬":4785,"Ġà¤ħà¤µà¤®":4786,"AN":4787,"à¤µà¤¸à¤²":4788,"Ġà¤ĵà¤ĸà¤°":4789,"Ġ1148":4790,"aster":4791,"à¥Ĥà¥Ĥ":4792,"à¤¶à¤ªà¤Ľ":4793,"Ġà¤¨à¤Ĺà¤°à¤¬":4794,":-":4795,"Ġà¤ķà¤¶":4796,"à¤¡à¤ķà¤ªà¤ķ":4797,"Ġà¥¨à¥¦à¥«à¥«":4798,"ee":4799,"à¤²à¤¢":4800,"Ġà¤ľà¤²à¤¯":4801,"ĠĠĠĠ":4802,"ary":4803,"à¤£à¤¤à¤°":4804,"Ġà¤Ŀà¤¡":4805,"à¤¨à¤¤à¤²":4806,"à¤¬à¤¨à¤ķ":4807,"Ġà¤ķà¤®à¤®":4808,"Ġà¤®à¤¯":4809,"Ġà¤«à¤°à¤ķà¤«à¤°à¤ķ":4810,"Ġà¤¨à¤¥":4811,"ck":4812,"Ġà¤ĸà¤µ":4813,"à¥ĭâĢĮ":4814,"à¤ļà¤²à¤²":4815,"à¤łà¤¬":4816,"à¤Ĩà¤ī":4817,"arpan":4818,"Ġà¥§à¥¦à¥«":4819,"ÐµÑĢ":4820,"Ġà¤ıà¤¨à¤Ĩà¤°à¤ıà¤¨à¤ķ":4821,"à¥ĭ/":4822,"à¤¶à¤ľ":4823,"az":4824,"Ġà¤Ĩà¤ľà¤Ńà¤¨":4825,"Ġà¤ļà¤Ļ":4826,"à¥ªà¥®":4827,"Ġor":4828,"ish":4829,"à¤¿à¥ĩ":4830,"Ġà¤µà¤ľà¤¨":4831,"à¤Ĺà¤¬à¤£":4832,"à¤µà¤¶à¤ķ":4833,"à¤¬à¤Īà¤ķ":4834,"à¤«à¤¸à¤²à¤®":4835,"à¥ģà¥¤âĢĻ":4836,"à¤Łà¤ħà¤¨":4837,"à¤¯à¤£à¤Ĺ":4838,"Ð¿":4839,"Ġ@":4840,"à¤¸à¤¤à¤ķ":4841,"à¤¯à¤¬à¤¦":4842,"à¤ıà¤Ŀ":4843,"ndash":4844,"Ġà¤ıà¤¨à¤ıà¤®à¤¬":4845,"Ġà¥ģ":4846,"ĠNational":4847,"à¤īà¤ªà¤¡":4848,"à¥ĢâĢĻ,":4849,"à¤£à¤¦":4850,"Ġwith":4851,"ys":4852,"Ġà¤Ĩà¤ıà¤¸":4853,"Ġà¤¸à¤¨à¤¸à¤¨":4854,"ĠPDF":4855,"Ġà¥§à¥¯à¥¯à¥Ń":4856,"Ġà¤¦à¤¶à¤ķà¤¸à¤®":4857,"à¤łà¤°":4858,"à¤¯à¤¸à¤ªà¤Łà¤ķ":4859,"Ġà¤ħà¤¬à¤¦":4860,"à¥©à¥Ń":4861,"pl":4862,"Ġà¤ļà¤¯à¤¨à¤ķ":4863,"Ġà¤ľà¤¨à¤ħà¤§":4864,"Ġà¤ħà¤ªà¤¹à¤°à¤£à¤®":4865,"ind":4866,"aw":4867,"à¤ķà¤Ńà¤¨":4868,"à¤§à¤ľà¤¨":4869,"à¥ģâĢ¦":4870,"à¤®à¤¦à¤°":4871,"à¤¦à¤¨à¤ħà¤¨":4872,"Ġà¤µà¤¨à¤²":4873,"à¤Ĩà¤ĸ":4874,"à¤µà¤°à¤£à¤¹à¤°":4875,"à¤¹à¤Ļà¤ķà¤Ļ":4876,"à¤¨à¤ļà¤°":4877,"à¤®à¤¨à¤²":4878,"à¤¯à¤ĺ":4879,"à¤¸à¤Ĺà¤°à¤®":4880,"Ġà¤ľà¤ķ":4881,"à¤Ĺà¤®à¤¸":4882,"16":4883,"à¥Īà¤ĥ":4884,"à¤°à¤ľà¤¹":4885,"IN":4886,"Ġà¥Ńà¥¦à¥¦":4887,"IT":4888,"Ġà¤ķà¤¸à¤®":4889,"à¤¯à¤ķà¤°à¤£":4890,"à¥ªà¥¨":4891,"Ġà¤Ĺà¤łà¤µà¤¨":4892,"Nov":4893,"à¤µà¤¤à¤°":4894,"à¤ıà¤«à¤ı":4895,"à¤²à¤¬à¤ľ":4896,"Ġà¥§à¥§à¥©à¥¯":4897,"ĠPro":4898,"Ġà¤ĵà¤Ńà¤°à¤ķ":4899,"Ġà¤®à¤¹Ã¬à¤µà¤ª":4900,"ïģ":4901,"à¤ĸà¤²à¤¨":4902,"Ġà¤¤à¤¹à¤¸":4903,"ĠÐº":4904,"Ġà¤ħà¤¨à¤¶à¤¨à¤°à¤¤":4905,"à¤ĩà¤Ĺà¤°":4906,"ĠÃ":4907,"à¤¡à¤Ĺ":4908,"Ġà¤ıà¤®à¤ı":4909,"à¤·à¤£à¤¸à¤®":4910,"à¤ĩà¤¬à¤²":4911,"à¥ģ'":4912,"Ġà¥§à¥¨à¥¦":4913,"ĠÐ´":4914,"ĠDis":4915,"ebs":4916,"Ġà¤ªà¤°à¤ķ":4917,"Ġà¤¾":4918,"Ġà¤§à¤ª":4919,"à¤®à¤ªà¤¤":4920,"à¤«à¤Ł":4921,"Ġà¤Ľà¤łà¤ªà¤°":4922,"Ġr":4923,"à¤¬à¤ĸà¤¤":4924,"Ġà¤¦à¤Ļ":4925,"io":4926,"à¤¯à¤Łà¤¨à¤®":4927,"à¤Ĩà¤°à¤¸":4928,"à¤ħà¤«à¤Ĺ":4929,"Ġà¥§à¥¦à¥¦à¥¦":4930,"à¤°à¤Ĺà¤¢":4931,"ss":4932,"à¤ıà¤ĩà¤ķ":4933,"Ġà¤Łà¤¯":4934,"à¤°à¤ľà¤¹à¤°":4935,"à¤¸à¤¹à¤®à¤¤":4936,"à¤Ĩà¤ª":4937,"Ġà¤ĵà¤¶":4938,"Ġà¤ħà¤ªà¤¹":4939,"à¤¾Â¥":4940,"Ġà¤¨à¤®à¤¨":4941,"Ġà¤ĩà¤«":4942,"Ġà¤ħà¤¸à¤ľ":4943,"ave":4944,"Ġà¤Ĩà¤¡":4945,"à¤®à¤Ĺà¤°à¤ķ":4946,"Ġnar":4947,"ËĨà¤¨":4948,"ere":4949,"à¤¤à¤ªà¤Ľ":4950,"Ġà¤Ĩà¤°à¤¤":4951,"à¤Ĺà¤£à¤®":4952,"Ġà¤ĸà¤°à¤²":4953,"à¤ĵà¤ĸà¤²à¤¢":4954,"à¤·à¤¶":4955,"urb":4956,"à¤ĩà¤ıà¤²":4957,"04":4958,"Ġà¤Ŀà¤²à¤ķà¤¹à¤°":4959,"à¤°à¤¤à¤ķà¤¥":4960,"24":4961,"à¥į!":4962,"Ð¾ÑĢ":4963,"Ġà¤Ľà¤¨à¤ķ":4964,"ath":4965,"Ġà¤Ĩà¤ĺ":4966,"à¤²à¤¨à¤¹à¤°":4967,"à¤®à¤¨à¤¸":4968,"à¤§à¤¨à¤µ":4969,"Ġà¤Ĩà¤Īà¤¤à¤µ":4970,"Ġà¤ıà¤¯à¤°à¤¬":4971,"Ġà¤°à¤¹à¤ķ":4972,"à¤¯à¤²à¤¯à¤®":4973,"Ġà¤¸à¤®à¤·":4974,"à¤®à¤¤à¤¸à¤®":4975,"Ġà¤¸à¤µà¤²":4976,"à¤¶à¤Ļ":4977,"AL":4978,"à¤Īà¤Ĺ":4979,"à¤ªà¤¯à¤ķ":4980,"Ġà¤ªà¤Łà¤ķà¤¥":4981,"av":4982,"à¤¨à¤Ńà¤ıà¤ķ":4983,"à¤¹à¤¡":4984,"à¤¬à¤®à¤ķ":4985,"à¤£à¤¯à¤ħà¤¨":4986,"à¥īà¤Ĥ":4987,"idarpan":4988,"Ġnaridarpan":4989,"à¤ħà¤Ł":4990,"?)":4991,"à¹":4992,"Ġhe":4993,"à¥ĩâĢĶ":4994,"à¤£à¤ļà¤¨":4995,"Ġà¤¨à¤Ĺà¤°à¤²":4996,"Ġà¤ıà¤«à¤ª":4997,"ell":4998,"à¤Ĺà¤®à¤®":4999,"à¤¤à¤°à¤¤à¤°":5000,"Ġà¤¤à¤Łà¤¸":5001,"à¤°à¤¬à¤ķ":5002,"à¤°à¤Ľ":5003,"à¥įà¤Ĥ":5004,"à¤ľà¤¨à¤¯":5005,"Ġà¤ıà¤¯":5006,"à¤«à¤ª":5007,"à¥ªà¥ª":5008,"à¤¸à¤¢":5009,"à¤¸à¤®à¤Ĺ":5010,"à¤Łà¤¨à¤°":5011,"à¤¶à¤ħà¤¨":5012,"Ġà¤²à¤®à¤¹":5013,"Ġà¤ĸà¤ķ":5014,"Ġà¤ĺà¤®à¤£":5015,"à¤¤à¤¨à¤¸":5016,"à¥®à¥©":5017,"à¤²à¤Ĺà¤¬":5018,"Ġà¤ħà¤µà¤¸à¤°à¤µ":5019,"Ġà¤ıà¤ļà¤Ĩà¤Īà¤Ń":5020,"à¤§à¤¨à¤ªà¤Ľ":5021,"à¤¹à¤ªà¤Ľ":5022,"à¤¤à¤°à¤¨":5023,"Ġà¤¸à¤¦à¤¨à¤ķ":5024,"ĠMar":5025,"à¤¸à¤Ĺà¤¢":5026,"Ġà¤ħà¤¸à¤®à¤°":5027,"Ġà¤Ĺà¤Ľ":5028,"à¤·à¤¦à¤¬":5029,"Ġ2016":5030,"à¤Ľà¤²":5031,"à¤ħà¤¡":5032,"Ġle":5033,"Ġan":5034,"à¤¤à¤Ĺà¤°":5035,"à¤¥à¤ķà¤²":5036,"à¤Ĺà¤§à¤¨":5037,"Ġà¤ıà¤ķà¤Ĩà¤ªà¤¸à¤®":5038,"à¤ķà¤ļ":5039,"Ġà¤Ĺà¤²à¤ķ":5040,"Ġà¤ıà¤¥":5041,"à¥¨à¥¦à¥©":5042,"ĠâĢł":5043,"à¤¸à¤°à¤¤":5044,"Ġà¤Ĩà¤µà¤°à¤£à¤®":5045,"à¤£à¤¤à¤¯":5046,"Ġà¤¬à¤¬à¤Ī":5047,"Ġà¤®à¤·":5048,"à¤¾.),":5049,"Ġà¤²à¤Ł":5050,"à¤·à¤£à¤µ":5051,"à¤¦à¤ķà¤°":5052,"à¤¢à¤ķ":5053,"à¤¯à¤Łà¤¨à¤²":5054,"à¤ıà¤Łà¤°à¤®":5055,"à¤¥à¤¨à¤ķ":5056,"à¤Ńà¤ŀ":5057,"ĠSh":5058,"à¤²à¤ł":5059,"à¤ıà¤¨à¤²":5060,"à¤ıà¤Īà¤²":5061,"à¤¦à¤°à¤¹à¤°":5062,"à¤¼à¤¾":5063,"à¤§à¤¸à¤®":5064,"Ġà¤¯à¤¸à¤¸à¤®":5065,"Ġà¥§à¥¬à¥¯":5066,"ags":5067,"à¤ľà¤«":5068,"à¥ªà¥Ń":5069,"à¤£à¤§":5070,",...":5071,"ĠAug":5072,"à¤Ļà¤¤à¤°":5073,"à¤Ĩà¤°à¤Ĩà¤Ī":5074,"à¤¹à¤°à¤£à¤¹à¤°":5075,"à¤ĩà¤£":5076,"à¤°à¤«à¤²à¤ķ":5077,"rticle":5078,"ym":5079,"à¤Ľà¤¸":5080,"à¤¸à¤ªà¤¨":5081,"à¤¸à¤ľà¤¸":5082,"Ġà¤ļà¤¡":5083,"à¥Įà¤ģâĢĻ":5084,"khabar":5085,"Ġà¤ıà¤¨à¤Ĩà¤Īà¤¸":5086,"ile":5087,"à¤°à¤®à¤ª":5088,"Ġà¤Ĳà¤²":5089,"à¤Ĭà¤°":5090,"Ġà¤ľà¤²à¤¬":5091,"à¤ıà¤¶à¤¨":5092,"à¤«à¤¸à¤²à¤ķ":5093,"Ġà¤ıà¤ķà¤¨":5094,"Ġà¤°à¤¹à¤°à¤²":5095,"Ġà¤ĩà¤Łà¤²":5096,"à¥ĭà¥¤'":5097,"à¤¸à¤Ńà¤¨":5098,"à¤Ńà¤ıà¤Ľ":5099,"à¤¨à¤²à¤¹à¤°":5100,"Ġà¤ķà¤®à¤²à¤ª":5101,"Ġà¥§à¥¨à¥®":5102,"Ġà¤Īà¤¯":5103,"Ġà¤ķà¤¦à¤®à¤ķ":5104,"ink":5105,"act":5106,"Ġ$":5107,"à¥į,'":5108,"à¤ľà¤Ĺà¤¨":5109,"à¤Ńà¤Ĺà¤µ":5110,"ĠVi":5111,"áŀ":5112,"à¤ķà¤¸à¤Ń":5113,"à¤ĺà¤°à¤¬":5114,"à¤ıà¤¸à¤ı":5115,"ĠKhabar":5116,"à¤Łà¤°à¤Ńà¤¨":5117,"Ġà¥¨à¥¦à¥«à¥Ń":5118,"Ð°ÑĤ":5119,"ai":5120,"Ġà¤µà¤¹à¤¨":5121,"à¤§à¤µà¤ª":5122,"Ġà¤ħà¤¬à¤§":5123,"à¥įâĢ¦":5124,"à¤£à¤¯à¤ª":5125,"Ġadd":5126,"06":5127,"à¤Łà¤®à¤²":5128,"à¤¨à¤¬à¤¤":5129,"Ġà¤Īà¤ª":5130,"à¤ļà¤¯à¤ķà¤°":5131,"à¤Ļà¤ļ":5132,"à¤¸à¤°à¤£":5133,"\",":5134,"Ġ:-":5135,"à¤®à¤Ł":5136,"à¤°à¤ķà¤µ":5137,"Ġà¤¶à¤¸à¤ķ":5138,"Ġà¥§à¥¬à¥¦":5139,"Ð±":5140,"à¤¬à¤®à¤®":5141,"à¥ªà¥©":5142,"Ġà¤Ńà¤Ļ":5143,"à¤§à¤ķà¤°":5144,"à¤°à¤Ńà¤ķ":5145,"à¤ĺà¤¦":5146,"à¤²à¤®à¤£":5147,"Ġà¥§à¥©à¥¨":5148,"form":5149,"à¤ĩà¤¨à¤¸":5150,"à¤·à¤§à¤ķ":5151,"eng":5152,"à¤ıà¤ĩ":5153,"Ġà¤ªà¤¦à¤Ń":5154,"Ġby":5155,"Ġà¤ĨËĨà¤¨":5156,"à¤ªà¤¨à¤¬":5157,"ens":5158,"Ġà¤Ľà¤²à¤«à¤²à¤²":5159,"à¤ľà¤®à¤°":5160,"à¤®à¤£à¤²":5161,"à¤¶à¤¨à¤¸à¤®":5162,"à¥įà¤¿":5163,"à¤¯à¤µà¤§":5164,"Ġà¤¸à¤¹à¤¨à¤¶":5165,"à¤Ĩà¤«à¤¨":5166,"à¤ķà¤°à¤£à¤¸":5167,"Ġà¥§à¥ªà¥¦":5168,"Ġà¥¤-":5169,"Ġà¤¨à¤Ĩà¤ıà¤ªà¤Ľ":5170,"15":5171,"pe":5172,"à¤¾âĢĶ":5173,"à¤°à¤¦à¤¤":5174,"à¤Łà¤¨à¤Ĺà¤°à¤²":5175,"mother":5176,"able":5177,"à¥įà¤ĥ":5178,"Ġà¤ķà¤¨à¤ķ":5179,"Ġà¤°à¤¡":5180,"à¤¬à¤°à¤¬":5181,"Ġà¤¨à¤Ŀ":5182,"Ġà¤¨à¤°à¤¹à¤°":5183,"à¤µà¤¨à¤¦":5184,"à¤¸à¤®à¤µ":5185,"à¥ªà¥¯":5186,"à¥į,âĢĿ":5187,"ĠSam":5188,"Ġà¤ıà¤Ĩà¤Īà¤ľ":5189,"Ġà¤ĩà¤¥":5190,"Ġà¤ķà¤Łà¤¹à¤°":5191,"à¤²à¤°à¤¹":5192,"ontin":5193,"Ġà¤Ĺà¤ıà¤®":5194,"à¥įà¥¤âĢĿ":5195,"br":5196,"à¤°à¤®à¤£à¤ªà¤Ľ":5197,"ork":5198,"isk":5199,"AT":5200,"ebsite":5201,"075":5202,"Ð¾Ð¼":5203,"à¤Ĺà¤²à¤Ĺ":5204,"à¤ĩà¤²à¤¬":5205,"à¤¾à¤ģ)":5206,"Ġà¤ľà¤¨à¤§à¤¨à¤ķ":5207,"Ġà¤ĭà¤£à¤ªà¤¤":5208,"Ġare":5209,"Ġà¤¬à¤«":5210,"à¤ľà¤¤à¤ªà¤¤":5211,"à¤°à¤¡à¤ķ":5212,"à¤£à¤ķà¤¦à¤ķ":5213,"âĢ¦.":5214,"à¤ĩà¤Łà¤°":5215,"à¤²à¤®à¤¨":5216,"Ġà¤Ńà¤ıà¤¸à¤®":5217,"Ġal":5218,"Ġwh":5219,"à¤ªà¤¬à¤¹":5220,"à¤Īà¤¬à¤°":5221,"Ġà¤ľà¤¨à¤ĺ":5222,"nepalmother":5223,"à¤ĸà¤ļ":5224,"28":5225,"Ñİ":5226,"à¤ħà¤ļ":5227,"Ġà¤ħà¤°à¤¬à¤®":5228,"Ð½Ñĭ":5229,"à¤¾à¥ĩ,":5230,"à¤ıà¤²à¤²":5231,"à¤Īà¤¨à¤®":5232,"Ġà¥¦à¥Ńà¥¦":5233,"Ġà¤ĩà¤¯":5234,"Ġà¤ħà¤¸à¤°à¤²":5235,"Ġà¤¸à¤°à¤¸à¤®":5236,"Ġà¤Ĩà¤ĩà¤ıà¤®":5237,"Ġà¤ªà¤¹à¤²à¤ķà¤¦à¤®":5238,"à¤¸à¤ªà¤°":5239,"à¤°à¤£à¤®à¤§":5240,"Ġpric":5241,"Ð¾Ð»":5242,"Ġà¤¨à¤¯à¤¨":5243,"Ġà¤¯à¤¸à¤®à¤§":5244,"Ġà¤ľà¤²à¤ª":5245,"ob":5246,"Ġi":5247,"à¥ħ":5248,"Ġà¤Ńà¤ıà¤ħà¤¨":5249,"ĠIntern":5250,"Ġà¤ħà¤¥à¤ķ":5251,"Ġà¤ªà¤Łà¤ķà¤®":5252,"à¤¬à¤¦à¤¨":5253,"Ġà¤ıà¤²à¤°":5254,"Ġà¥§à¥¦à¥ª":5255,"à¤ķà¤°à¤¶":5256,"à¤ķà¤ł":5257,"à¤Ŀà¤Ĺà¤¡":5258,"à¥¬à¥¨":5259,"Ġthis":5260,"ĠÐ¿ÑĢ":5261,"Ġà¤¨à¤µà¤¯":5262,"à¤ļà¤µà¤°":5263,"Ġà¤¦à¤®à¤ķà¤®":5264,"Ġà¤ľà¤¨à¤Ĺ":5265,"Ġà¥§à¥¯à¥¯à¥¬":5266,"elist":5267,"Ġà¤¦à¤¸à¤®":5268,"à¥į,âĢĺ":5269,"à¤ļà¤¨à¤¸à¤®":5270,"à¤¯à¤¶à¤ķ":5271,"à¤Łà¤ªà¤Łà¤ķ":5272,"Ġà¤¦à¤Ĺ":5273,"à¤¤à¤Ĺà¤¤à¤ķ":5274,"Ġà¤Ĩà¤°à¤ľ":5275,"à¤ķà¤°à¤ª":5276,"à¥ĭ\"":5277,"Ġà¤¸à¤¤à¤¹à¤¦":5278,"Ġà¥§à¥¨à¥«":5279,"ĠâĨĴ":5280,"Ġà¤¤à¤µà¤°à¤¬":5281,"à¤ļà¤ķà¤¨":5282,"à¤¾à¤ģà¤Ĥ":5283,"Ġà¤īà¤ªà¤Ĺ":5284,"pd":5285,"à¤ıà¤Ń":5286,"Ġà¤Ķà¤¸à¤¤à¤®":5287,"Ġà¤¦à¤¶à¤ķà¤ªà¤Ľ":5288,"Ð¾Ð´":5289,"à¤ıà¤²à¤®":5290,"à¤¸à¤¨à¤°":5291,"à¤¬à¤°à¤¸à¤®":5292,"à¤¿à¤Ĥà¤ģ":5293,"Ġfrom":5294,"Ġà¥§à¥¯à¥®à¥¦":5295,"ru":5296,"Ġà¤Ĩà¤µà¤¤":5297,"Ġcon":5298,"à¤ıà¤«à¤²":5299,"à¤īà¤¨à¤¬":5300,"à¥¬à¥ª":5301,"à¤īà¤ªà¤®à¤¹":5302,"à¤¹à¤²à¤¤":5303,"ari":5304,"à¤Ńà¤²à¤ķ":5305,"à¤Ĩà¤īà¤¨":5306,"à¤ıà¤¸à¤¨à¤²":5307,"Ġà¥§à¥¯à¥¯à¥¯":5308,"à¤īà¤¦à¤²":5309,"Ġà¥§à¥¯à¥¯à¥ª":5310,"000":5311,"?âĢĿ":5312,"Ġà¤¨à¤¸à¤®":5313,"à¤¶à¤¹":5314,"à¤¯à¤®à¤£":5315,"Ġà¤ħà¤¸à¤¤":5316,"à¤ģ,âĢĻ":5317,"à¤Ļà¤¹":5318,"à¤¯à¤®à¤µ":5319,"Ġà¤Ĩà¤Īà¤Ł":5320,"Ġà¤¯à¤¸à¤Ńà¤¨":5321,"à¤°à¤¹à¤£à¤ķ":5322,"à¤Īà¤°à¤¹à¤¨":5323,"revi":5324,"ï¼Į":5325,"Ġà¤¹à¤ķà¤²":5326,"Ġà¤ĭà¤ļ":5327,"à¥ĭ..":5328,"à¤¤à¤Ńà¤¨":5329,"Ġà¤Ĩà¤¯à¤ķà¤°":5330,"Ġà¤ľà¤Ĺà¤¨":5331,"à¤¸à¤¤à¤°":5332,"ÑĨ":5333,"ĠOct":5334,"à¤¬à¤ªà¤¤":5335,"à¤¯à¤Łà¤¨à¤®à¤¨":5336,"à¥įâĢĿ,":5337,"à¥Ī/":5338,"à¤ľà¤¨à¤ľ":5339,"Ġ13":5340,"à¤¤à¤µà¤¨à¤¬":5341,"à¤Ļà¤ĸ":5342,"à¤ľà¤¨à¤¹à¤°":5343,"Ġà¤Ĩà¤ĩà¤°":5344,"Ġà¤µà¤Ĺ":5345,"Ġà¤ĺà¤°à¤µ":5346,"duction":5347,"Ġà¤®à¤łà¤®":5348,"Ġà¤Ľà¤¥à¤°":5349,"à¤®à¤Ńà¤¨":5350,"Ġà¤ĺà¤®":5351,"Ġà¤Ĩà¤łà¤µà¤Ł":5352,"Ġà¤¸à¤¹à¤°à¤¹à¤°":5353,"à¤¢à¤²":5354,"Ġà¤Ĩà¤¯à¤®":5355,"Ġpricelist":5356,"à¤§à¤ķà¤ķ":5357,"cc":5358,"Ġà¥§à¥¦à¥©":5359,"Ġà¤§à¤µà¤²":5360,"Ð³":5361,"Ġà¤ħà¤°à¤µ":5362,"Ġà¤¬à¤Łà¤¨":5363,"à¤ľà¤¬à¤ķ":5364,"à¥ĩ\"":5365,"à¥«à¥Ń":5366,"à¤·à¤ķà¤¬":5367,"à¤ĵà¤ª":5368,"Ġ''":5369,"à¥Įà¤ģ,âĢĻ":5370,"à¤īà¤ªà¤¨":5371,"Ġà¤ĩà¤¡":5372,"à¤¯à¤²à¤¯à¤ķ":5373,"Ġà¤ħà¤¬à¤¸à¤°":5374,"Ġà¤Ńà¤Łà¤®":5375,"à¥ĭ,...":5376,"Ġà¤ĺà¤°à¤ª":5377,"Ġà¤Ĩà¤ĩà¤¡à¤²à¤ķ":5378,"revious":5379,"No":5380,"à¤Ĺà¤¨à¤²":5381,"à¤¦à¤¨à¤ª":5382,"Ð¹":5383,"Ġ17":5384,"Ġà¤¶à¤¯":5385,"à¥Įà¤ĤâĢĻ,":5386,"à¥§à¥¦à¥®":5387,"à¤ķà¤§":5388,"Ġà¤īà¤ĺ":5389,"à¤ĺà¤¬à¤¹":5390,"Ġà¥¦à¥Ńà¥§":5391,"ext":5392,"29":5393,"Ġà¤Ĩà¤Ĭ":5394,"à¤²à¤¬à¤¹à¤°":5395,"Ġà¤ħà¤Ńà¤¦":5396,"à¤ªà¤²à¤Ł":5397,"Ġà¤īà¤¸à¤®":5398,"à¤°à¤µà¤¤":5399,"à¤Łà¤²à¤¬":5400,"à¤¬à¤¸à¤®":5401,"Ġà¥¤âĢĻâĢĻ":5402,"à¤Ļà¤°":5403,"ank":5404,"Ġà¤ķà¤®à¤¸à¤²":5405,"ach":5406,"à¥į|":5407,"Ġà¤§à¤¡":5408,"ortal":5409,"Ġat":5410,"à¤½à¤½":5411,"à¤¾]":5412,"à¤ıà¤ķà¤ľà¤¨":5413,"à¤¹à¤°à¤®":5414,"à¤¨à¤¸à¤¹à¤¨":5415,"eli":5416,"ÑģÐº":5417,"ontinue":5418,"ĠQ":5419,"à¤¶à¤¯à¤¯":5420,"à¤Ŀà¤¸à¤®":5421,"à¤ľà¤²à¤¸":5422,"Ġà¤¸à¤®à¤Ŀ":5423,"à¤¦à¤¨à¤¬":5424,"à¤īà¤ªà¤Ĺ":5425,"Ġà¤ħà¤ĸà¤¡":5426,"à¤¤à¤²à¤Ĺ":5427,"à¤µà¤¦à¤¹":5428,"à¥¦à¥¬à¥©":5429,"Ġà¤µà¤¹à¤¸":5430,"à¤ĩà¤®à¤°":5431,"ator":5432,"à¤®à¤²à¤Ł":5433,"à¤Łà¤¨à¤Ĺà¤°à¤¬":5434,"à¤¡à¤¨à¤¸":5435,"à¥¨à¥¦à¥Ńà¥§":5436,"à¥į'":5437,"Ġà¤ħà¤¨à¤µà¤°à¤¤":5438,"à¥ĩ!":5439,"à¤·à¤°à¤®":5440,"à¤ıà¤¸à¤Ł":5441,"Ġà¤ªà¤¸à¤²à¤¬":5442,"Ġun":5443,"ace":5444,"Ġà¤Ĩà¤Ĺà¤®à¤¨à¤¸":5445,"à¤°à¤ķà¤¹à¤°":5446,"à¤®à¤ļà¤²":5447,"ĠRisk":5448,"Ġà¤Ĺà¤£à¤ªà¤¤":5449,"à¤ĩà¤«à¤²":5450,"Ġà¤¨à¤Ĺà¤¦à¤¸à¤¹":5451,"à¤°à¤µà¤¹":5452,"Ġà¤ľà¤¯à¤¨à¤Ĺà¤°":5453,"ĠDisaster":5454,"--------":5455,"à¤¤à¤«":5456,"Ġà¥¦à¥¨":5457,"Ġà¤ıà¤¡à¤Ń":5458,"Ġà¤ľà¤¨à¤¶":5459,"anc":5460,"à¤ķà¤ķà¤²":5461,"à¤ĩà¤µà¤Ł":5462,"Ġ(?)":5463,"Ġà¤¡à¤Łà¤ķà¤®à¤ķ":5464,"à¤µà¤ħà¤¨":5465,"à¤Ĺà¤Ļ":5466,"Ġà¤²à¤ª":5467,"Ġà¤¸à¤°à¤¹à¤ķ":5468,"à¤²à¤µà¤¨":5469,"Ġà¤®à¤²à¤ľà¤²":5470,"Ġà¤Ľà¤°à¤Ľ":5471,"ĠEmail":5472,"à¤ķà¤¸à¤°":5473,"à¤Ĩà¤°à¤ıà¤²":5474,"Ġà¥§à¥¯à¥¯à¥«":5475,"Ð»Ð¸":5476,"ne":5477,"à¥ĪâĢ¦":5478,"Ġà¤®à¤ľà¤ª":5479,"à¤°à¤ªà¤°":5480,"à¤ıà¤®à¤ķ":5481,"Ġthat":5482,"Ġà¥¦à¥ªà¥¬":5483,"Ġà¤ıà¤ħà¤°":5484,"à¤Ĩà¤Īà¤ķ":5485,"Ġà¤ħà¤¹à¤®à¤¦":5486,"Ġà¤Ĩà¤ĩà¤°à¤¨":5487,"13":5488,"à¤Ļà¤¤":5489,"Ġà¤ıà¤ķà¤®à¤¤":5490,".)":5491,"à¤ķà¤¸à¤²":5492,"à¤¦à¤¯à¤®":5493,"ĠReduction":5494,"Ġà¤¬à¤²à¤¬à¤¹":5495,"Ġà¥§à¥¯à¥¯à¥©":5496,"Ġ....":5497,"Ġà¤²à¤Ļ":5498,"Ġà¤ľà¤²à¤¶":5499,"à¤®à¤ªà¤Ľ":5500,"ĠTr":5501,"Ġà¤ľà¤¨à¤ĺà¤¨à¤¤":5502,"à¤®à¤¨à¤®":5503,"à¤ĸà¤Ĺ":5504,"Ġà¤ªà¤¢à¤¨":5505,"Ġit":5506,"à¤ĸà¤ľ":5507,"Ġsend":5508,"okar":5509,"à¤Łà¤ħà¤ª":5510,"à¤ģ'":5511,"à¤Ĩà¤°à¤ª":5512,"à¥«à¥ª":5513,"à¤®à¤°à¤®":5514,"à¤®à¤¤à¤®":5515,"Ġà¤¯à¤®à¤¨":5516,"à¤¡à¤²à¤¹à¤°":5517,"à¤ĺà¤¨à¤ķ":5518,"Ġà¤°à¤¹à¤¨à¤¸à¤¹à¤¨":5519,"à¤¶à¤¤à¤¬":5520,"US":5521,"à¤²à¤¥":5522,"Ġà¤ħà¤Łà¤²":5523,"à¤ªà¤ľ":5524,"Ġà¤¶à¤¸à¤¸":5525,"Ġà¤ĸà¤¹à¤°":5526,"Ġà¥§à¥¯à¥Ńà¥¦":5527,"Ġreading":5528,"Ġà¤¹à¤¯":5529,"à¤ľà¤¨à¤²à¤Ĺ":5530,"Ġà¤¸à¤¹à¤ľà¤°":5531,"Tags":5532,"à¤®à¤²à¤²":5533,"à¤·à¤£à¤ªà¤Ľ":5534,"Ġaddress":5535,"ult":5536,"ĠUS":5537,"à¤§à¤ĸ":5538,"ON":5539,"Ġà¤ħà¤µà¤ľ":5540,"Ġà¤ķà¤Ľ":5541,"à¤¼à¥į":5542,"à¤Łà¤ľà¤°à¤²":5543,"Ġà¤¹à¤²à¤ķ":5544,"à¤¡à¤ªà¤¤":5545,"Ġà¤¨à¤Ĺà¤°à¤ªà¤°":5546,"Ġà¤ĵà¤¨à¤¸à¤°":5547,"à¤¿âĢĿ":5548,"à¤°à¤Ńà¤°à¤ķ":5549,"à¤®à¤Ľ":5550,"à¤Īà¤ªà¤ķ":5551,"Ġà¤ĩà¤Ļà¤²":5552,"Ġà¤Ľà¤²à¤«à¤²à¤¬":5553,"Ġà¥¦à¥¬à¥¨":5554,"Ġà¤«à¤Ĺà¤¤":5555,"ĠEx":5556,"à¤°à¤ļà¤¨à¤ķ":5557,"Ġà¤ıà¤²à¤ª":5558,"Ġà¤µà¤ļ":5559,"à¤Łà¤®à¤§":5560,"Ġà¥¨à¥¨à¥¦":5561,"Ġà¤¦à¤¸à¤®à¤²à¤µ":5562,"views":5563,"...]":5564,"à¤¸à¤ĺ":5565,"à¤ªà¤°à¤¹":5566,"à¤Ĺà¤¤à¤µà¤°":5567,"à¤ıà¤¸à¤ıà¤²":5568,"à¥Īà¤ģ,":5569,"à¤¨à¤¯à¤¨à¤®":5570,"à¤ķà¤¨à¤²":5571,"à¥¤âĢĵ":5572,"Ġà¤ķà¤²à¤¶":5573,"Ġà¤Ĩà¤®à¤¸à¤Ń":5574,"Ġà¤¨à¤Ĩà¤ı":5575,"Ġà¤ĵà¤ªà¤¨à¤°":5576,"à¤¨à¤²à¤¬":5577,"Ġà¤Ľà¤¬":5578,"à¤¦à¤¨à¤¸":5579,"à¤°à¤Ĺà¤°":5580,"à¤¤à¤²à¤ķ":5581,"Ġà¤¨à¤µà¤®":5582,"Ġà¤ħà¤¨à¤¶à¤¨à¤®":5583,"Ġà¤Ķà¤·à¤¤":5584,"Ġà¤ıà¤ªà¤®":5585,"ipur":5586,"pt":5587,"à¤¯à¤®à¤§":5588,"onym":5589,"à¤ĩà¤¨à¤¹à¤°":5590,"à¤¤à¤¨à¤¬":5591,"à¤ĩà¤ľà¤¨":5592,"à¤ĸà¤°à¤ķ":5593,"Ġà¤²à¤«":5594,"à¤ĩà¤¡à¤²":5595,"ond":5596,"ĠÐ¼":5597,"Ð¸ÑĤ":5598,"à¤ķà¤ķà¤®":5599,"Ġà¤ĩà¤¯à¤°":5600,"à¤¯à¤¯à¤¨à¤¬":5601,"à¤«à¤ķà¤¨":5602,"à¤ıà¤¸à¤²":5603,"à¤ĩà¤²à¤²":5604,"à¤«à¤µ":5605,"à¤ħà¤ľ":5606,"à¤¤à¤ľà¤¨à¤²":5607,"Ġà¤Ĩà¤¯à¤¤à¤°":5608,"Ġex":5609,"Ġà¥§à¥®à¥¦":5610,"Ġà¥§à¥¯à¥¬à¥¬":5611,"onymous":5612,"à¥ĢÃ·":5613,"Ġà¤ķà¤°à¤²":5614,"à¤ľà¤ªà¤°":5615,"à¤ıà¤¨à¤¡":5616,"ĠPlan":5617,"Ġ25":5618,"Ġà¤°à¤£à¤¬":5619,"à¤®à¤¬à¤²":5620,"à¤¨à¤ªà¤Łà¤ķ":5621,"à¤¸à¤¨à¤µ":5622,"ĠX":5623,"Ġà¤Īà¤Ł":5624,"Ġà¤ıà¤ħà¤°à¤ª":5625,"à¤°à¤£à¤¯":5626,"Ġà¤¬à¤Ĺà¤°à¤®":5627,"ube":5628,"à¥ĩ:":5629,"à¤Łà¤¬à¤²à¤°":5630,"Ġà¤¬à¤®à¤²":5631,"Ġà¤¸à¤¬à¤¸":5632,"con":5633,"vel":5634,"Ġà¤ªà¤°à¤µ":5635,"à¤ĩà¤¨à¤²à¤¸à¤®":5636,"Ġà¤ĺà¤°à¤¸à¤®":5637,"Ġà¤ļà¤Łà¤ķ":5638,"ert":5639,"cted":5640,"à¤ķà¤Ńà¤°à¤ķ":5641,"à¤Łà¤¸à¤ķ":5642,"Ġà¤¨à¤ľà¤¨":5643,"à¤¾à¤ģà¤ģ":5644,"à¥«à¥¦à¥¦":5645,"oft":5646,"à¤¸à¤®à¤²":5647,"Ġà¥§à¥¦à¥¯":5648,"ĠPol":5649,"tember":5650,"Ð¾Ð³":5651,"à¤¯à¤¯à¤ķ":5652,"à¤²à¤¬à¤¬":5653,"ĠÑĤ":5654,"à¤²à¤¨à¤¸à¤®":5655,"Ġà¤Ĩà¤ĩà¤®":5656,"Ġà¤¹à¤²à¤¹à¤°":5657,"Ġà¤¯à¤¸à¤ªà¤²":5658,"à¤ĩà¤Ľ":5659,"à¤¯à¤®à¤¦":5660,"à¤¯à¤·":5661,"Article":5662,"à¥ģâĢĮ":5663,"Ġà¤¡à¤Łà¤ķà¤®à¤²":5664,"Ġà¤Ĩà¤łà¤¬":5665,"à¤°à¤¨à¤Ĺà¤°à¤ķ":5666,"Ġà¤°à¤£à¤¬à¤¹":5667,"Ġà¤Ĩà¤°à¤¸":5668,"Ġà¥§à¥¦à¥¨":5669,"25":5670,"à´":5671,"à¤Łà¤°à¤¦":5672,"à¤Ńà¤£":5673,"Ġà¤ıà¤¸à¤ıà¤¸à¤¬":5674,"Ġà¤®à¤ľà¤¸":5675,"Ġà¤¤à¤®à¤²":5676,"oh":5677,"Ġag":5678,"ĠAnonymous":5679,"à¤¤à¤¸à¤°":5680,"EE":5681,"Ġup":5682,"ĠðŁ":5683,"à¤¡à¤¨à¤²":5684,"Ġà¤ıà¤ķà¤ıà¤ķ":5685,"âĢĻâĢĻ":5686,"Ġà¤Ĩà¤Īà¤ıà¤®à¤Ī":5687,"ĠPurb":5688,"Ġà¤¦à¤®à¤ķà¤ķ":5689,"iaf":5690,"Ġà¤°à¤ľà¤¸":5691,"Ġà¤¸à¤®à¤¶":5692,"ical":5693,"Ġà¤¹à¤ķà¤¦":5694,"ĠPurbeli":5695,"à¤¨à¤µà¤ľ":5696,"Ġà¥¯à¥®à¥«à¥§":5697,"Ġà¤®à¤łà¤®à¤¨":5698,"à¥ģ/":5699,"à¤¶à¤Ńà¤°à¤¬":5700,"à¤¨à¤µà¤¶":5701,"comments":5702,"Ġà¥¨à¥¦à¥©à¥«":5703,"à¤·à¤¯à¤¸":5704,"Ø§Ø":5705,"Ð·":5706,"à¤·à¤¯à¤¬":5707,"Ġà¥¨à¥¦à¥¨à¥®":5708,"Ġà¥¨à¥¦à¥©à¥¬":5709,"à¤§à¤¶à¤¤à¤ķ":5710,"à¤°à¤®à¤°":5711,"à¤¸à¤®à¤°":5712,"Ġà¤ħà¤²à¤µ":5713,"à¤ļà¤°à¤®":5714,"Ġà¤ĸà¤Ĺà¤°":5715,"à¤µà¤¯à¤²":5716,"email":5717,"à¤Ĳà¤¤":5718,"à¤Īà¤Ńà¤¨":5719,"à¤¯à¤®à¤¤":5720,"Ġà¤¦à¤®à¤¨à¤ķ":5721,"Ġà¤ħà¤¨à¤§":5722,"æľ":5723,"à¤°à¤ªà¤¨":5724,"à¤łà¤ķà¤¸à¤®à¤ķ":5725,"Ġà¥¤à¥¤à¥¤":5726,"à¥Įà¤Ĥ...":5727,"à¥®à¥«":5728,"à¤¯à¤¯à¤¤à¤°":5729,"Ġà¤ıà¤«à¤¥":5730,"à¤¶à¤¶à¤°à¤£":5731,"Ġà¤Ķà¤°":5732,"Ġà¥¯à¥¦à¥¦":5733,"Ġà¤Ĺà¤®à¤²":5734,"à¥¤[":5735,"à¤°à¤£à¤¤à¤¯":5736,"à¤ªà¤°à¤¤":5737,"à¤®à¤²à¤Ĺ":5738,"ĠâĢĵâĢĺ":5739,"Ġà¤®à¤Ļà¤ª":5740,"Ġà¤¥à¤°à¤ķ":5741,"Ġà¤ķà¤®à¤²à¤°":5742,"Ġà¤Ĩà¤ĩà¤¹":5743,"à¤Ńà¤²à¤®":5744,"à¤ŀà¤®":5745,"Ġà¤¹à¤²à¤ļà¤²":5746,"Ġà¤ķà¤¦à¤®à¤¹à¤°":5747,"Ġà¤ľà¤µà¤°à¤ľà¤¸":5748,"sh":5749,"à¤¨à¤µà¤¨":5750,"Ġà¤Ńà¤·":5751,"à¤ªà¤ķà¤¤":5752,"Ġà¤¸à¤¹à¤ľà¤ķà¤°":5753,"Ġyour":5754,"mà¤¯":5755,"Ġà¤ĸà¤¬à¤°à¤¹à¤°":5756,"à¥į&":5757,"à¤¬à¤Ĺ":5758,"à¤ĩà¤¤à¤®":5759,"à¤¯à¤£à¤®":5760,"Ġà¤Ńà¤ıà¤¯à¤¤":5761,"Ġ?,":5762,"à¤¡à¤°à¤¹à¤°":5763,"Ġà¤ħà¤®à¤°à¤¸":5764,"à¤¯à¤°à¤¸":5765,"à¤¹à¤Ĺà¤¤":5766,"Ġà¤¨à¤Ĺà¤¨":5767,"Ġà¤ħà¤ªà¤¤":5768,"Ġà¤¸à¤·":5769,"Ġà¤ħà¤¦à¤ķ":5770,"à¥«à¥¯":5771,"à¤µà¤¤à¤¯":5772,"Ġà¥§à¥¯à¥¬à¥¦":5773,"à¤§à¤¨à¤ª":5774,"Ġ[...]":5775,"Previous":5776,"à¥§à¥¦à¥¦":5777,"Ġà¥¨à¥¦à¥©à¥ª":5778,"à¤¬à¤Ŀ":5779,"à¤°à¤®à¤¸à¤®":5780,"ual":5781,"à¤ıà¤Ĺ":5782,"Ġà¤«à¤¹à¤°":5783,"Ġsp":5784,"à¤Ĳà¤¨":5785,"NE":5786,"log":5787,"à¥®à¥¯":5788,"à¤µà¤°à¤£à¤ħà¤¨":5789,",âĢ¦":5790,"ĠÑĢ":5791,"Ġqu":5792,"à¤¹à¤®à¤¦":5793,"à¤¦à¤¨à¤¨":5794,"Ġà¤ľà¤¨à¤¸à¤¹à¤Ń":5795,"à¥į;":5796,"à¤ıà¤ļà¤ķ":5797,"Ġà¤®à¤ª":5798,"Ġà¤Ĺà¤łà¤¨à¤®":5799,"Ñį":5800,"arokar":5801,"Ð½Ð¾":5802,"Ġà¤Ĭà¤¸":5803,"à¤§à¤Ń":5804,"Ġà¤°à¤¹à¤¯":5805,"Ġà¤Ńà¤ĩà¤¨à¤¸à¤ķ":5806,"à¤¨à¤ĩ":5807,"à¥ĩà¤ĥ":5808,"Ġà¤¬à¤¹à¤¸à¤²":5809,"Ġà¥§à¥¯à¥®à¥¬":5810,"à¤īà¤ľà¤°":5811,"Ġà¤Łà¤¡":5812,"à¤µà¤®à¤¹":5813,"Ġà¤Ĩà¤īà¤¨à¤¸à¤ķ":5814,"à¤¨à¤ªà¤¨":5815,"Ġà¤Ĺà¤ıà¤¨":5816,"Ġà¤®à¤¥":5817,"Ġà¤®à¤°à¤£":5818,"à¤·à¤ħà¤Ĺ":5819,"à¤ĺà¤¹à¤°":5820,"à¤ıà¤¨à¤ª":5821,"alk":5822,"Ġà¤Ĺà¤¹à¤¤à¤°":5823,"à¤Ńà¤ıà¤ªà¤Ľ":5824,"Ġà¤ıà¤¥à¤²":5825,"à¤ıà¤ķà¤²":5826,"à¤Ńà¤¹à¤°":5827,"à¥«à¥§à¥¯à¥¯":5828,"hasarokar":5829,"à¥Ńà¥¯à¥§à¥ª":5830,"Ġà¥¯à¥®à¥«à¥§à¥¦à¥§":5831,"Ã¡":5832,"Ġà¤Ľà¤¤à¤®":5833,"à¤Łà¤¨à¤¸":5834,"Ġà¥§à¥¯à¥¯à¥§":5835,"à¤µà¤¨à¤ª":5836,"à¥«à¥§à¥¯à¥¯à¥§à¥¦à¥®":5837,"Ġà¥¯à¥®à¥«à¥§à¥¦à¥§à¥Ńà¥¯à¥§à¥ª":5838,";&":5839,"Ġà¤¬à¤¹à¤®":5840,"à¤®à¤¸à¤¹":5841,"Ġà¤ħà¤ķà¤°":5842,"Ġarthasarokar":5843,"Ġarthasarokarnews":5844,"'s":5845,"Ġà¤ħà¤ļà¤²":5846,"Ġà¤¤à¤¹à¤®à¤§":5847,"à¤¸à¤¡à¤ķà¤ķ":5848,"à¤¯à¤¸à¤²à¤Ĺà¤¤":5849,"america":5850,"à¤£à¤ªà¤Ľ":5851,"à¤łà¤¨à¤®":5852,"Ġà¤ľà¤®à¤ĺ":5853,"erv":5854,"ÐµÐ»":5855,"na":5856,"à¤¦à¤¤à¤²":5857,"Ġà¤Ĺà¤§":5858,"à¤°à¤ķà¤°à¤£à¤²":5859,"Ġà¤®à¤¹à¤®":5860,"Ġà¤®à¤¹à¤²à¤ķ":5861,"iafamerica":5862,"à¥Ģ?":5863,"Ġà¤ľà¤Ĺà¤¦à¤®":5864,"ÙĪ":5865,"Ġà¤īà¤¥à¤²":5866,"à¤¹à¤¨à¤¬à¤¹":5867,"ĠSeptember":5868,"à¤¯à¤ªà¤Ľ":5869,"Ġpl":5870,"à¤°à¤¦à¤²":5871,"à¤¿\"":5872,"à¤£à¤¸à¤Ń":5873,"à¤¤à¤°à¤Ĺà¤¤à¤ķ":5874,"Ġen":5875,"à¥Īà¤¾":5876,"DP":5877,"à¥Įà¤ģâĢĿ,":5878,"Ġà¤¤à¤¹à¤¸à¤¨":5879,"à¤·à¤°à¤ķ":5880,"à¤µà¤µà¤°":5881,"Ġà¤ıà¤ķà¤ª":5882,"à¤£à¤¯à¤¸":5883,"à¤¿âĢľ":5884,"Ġà¤¸à¤ķà¤Ńà¤°":5885,"Ġà¤¤à¤¹à¤¦":5886,"à¤Ĺà¤ľà¤¸":5887,"à¤ĩà¤¡à¤°":5888,"à¤¯à¤¯à¤¨à¤ħà¤¨":5889,"Ġà¥¨à¥¦à¥ªà¥«":5890,"ĠUn":5891,"à¤¸à¤¡à¤ķà¤®":5892,"Ġà¤Īà¤°":5893,"Ġà¤ıà¤ļà¤¡":5894,"Ġà¤¨à¤Łà¤Ĩà¤īà¤Ł":5895,"Ġà¤ıà¤®à¤¸":5896,"Ġà¥¦à¥©":5897,"âĢĮà¤Ĥ.":5898,"Ġà¤®à¤¶":5899,"Ġà¤¸à¤®à¤¯à¤Ńà¤¨":5900,"Ġà¥¦à¥¬à¥«":5901,"Ġ%":5902,"à¤¿!":5903,"Ġà¤Łà¤ķà¤°":5904,"Ġà¤¶à¤¤à¤ķ":5905,"Ġà¤¨à¤µà¤ª":5906,"Ġà¤īà¤µ":5907,"Ġà¤ľà¤¨à¤ħà¤ª":5908,"à¤ĩà¤¨à¤ĸà¤¬":5909,"Ġà¤ķà¤ľ":5910,"à¤¿à¤ģà¤Ĥ":5911,"à¤ķà¤¦à¤°":5912,"à¤µà¤ķà¤¤":5913,"Ġà¤°à¤¤à¤¨":5914,"à¥¨à¥¦à¥¦":5915,"à¤Ķà¤·à¤§à¤¸à¤¹":5916,"Ġà¤¤à¤¹à¤¸à¤¨à¤¹à¤¸":5917,"äº":5918,"Ġà¥¤.":5919,"à¤ģ-":5920,"à¤µà¤ªà¤ķ":5921,"à¤Łà¤²à¤°":5922,".,":5923,"à¥Įà¤¾":5924,"à¤¦à¤²à¤¹à¤°":5925,"à¤¹à¤ķà¤®":5926,"Ġà¤¤à¤¦à¤¨":5927,"Ġà¤¤à¤°à¤ªà¤¨":5928,"Ġà¤Ĺà¤ľà¤¬à¤ķ":5929,"à¤ĩà¤Ńà¤°à¤²":5930,"Ġà¤¨à¤¹à¤°à¤®":5931,"Ġha":5932,"à¤§à¤ķà¤²":5933,"Ġà¤Ĺà¤«à¤ķ":5934,"à¤ĩà¤®à¤¨":5935,"à¤Ĩà¤¹":5936,"pdf":5937,"à¤Īà¤®à¤¤":5938,"à¤ķà¤Łà¤¹à¤°à¤²":5939,"ng":5940,"Ġà¤ħà¤®à¤¨":5941,"Ġà¤Ĩà¤Ĺà¤®":5942,"Ġà¤¶à¤°à¤£à¤®":5943,"à¥¨à¥¦à¥Ńà¥¦":5944,"à¤ķà¤¨à¤ķà¤°":5945,"à¤°à¤¦à¤®":5946,"à¤¾à¥Īà¤Ĥ,":5947,"à¤¤à¤ħà¤¨":5948,"Ġà¤¸à¤®à¤¯à¤¯à¤¤":5949,"Ġà¤Ĩà¤ıà¤¨à¤¨":5950,"Ġà¤¸à¤¹à¤ħà¤§":5951,"à¤Īà¤ľà¤¹":5952,"pril":5953,"ÑĪ":5954,"Ġà¤¯à¤ļ":5955,"Ġà¤§à¤¨à¤²":5956,"à¤¤à¤°à¤Ĩà¤§":5957,"ance":5958,"Ġà¥§à¥¯à¥¯à¥¨":5959,"à¥į..":5960,"à¤¯à¤Łà¤°":5961,"à¤¡à¤¨à¤¬":5962,"à¤¸à¤ķà¤¸":5963,"Ġà¤¬à¤¸à¤¹à¤°":5964,"ree":5965,"à¤°à¤¸à¤®à¤ķ":5966,"à¥Įà¤Ĥà¤ĥ":5967,"à¤Ĺà¤¤à¤¤à¤°":5968,"ood":5969,"Ġ;":5970,"à¤²à¤ļà¤¨":5971,"à¥§à¥Ńà¥©":5972,"Ġà¤ľà¤Ĺà¤ľ":5973,"à¥ĥ.":5974,"à¤ĩà¤°à¤¸à¤ķ":5975,"ateg":5976,"Ġà¤¶à¤µà¤²":5977,"à¥ĮâĢĻ":5978,"ãĢĢ":5979,"Ġà¤¤à¤Ļ":5980,"à¤Īà¤µà¤°":5981,"à¤Īà¤ķà¤¨":5982,"Ġà¥§à¥©à¥¦":5983,"Ġà¤µà¤¨à¤Ń":5984,"ated":5985,"ĠSamac":5986,"à¤°à¤Ļà¤²":5987,"Ġnepal":5988,"à¤¶à¤µà¤°":5989,"à¤Ĩà¤ĩà¤¡":5990,"Ġprote":5991,"à¤Ŀà¤ªà¤ĸ":5992,"à¤£à¤¸à¤¹":5993,"à¤¨à¤Ľà¤¨":5994,"à¤§à¤Ńà¤¤":5995,"à¤Ľà¤²à¤«":5996,"à¥¯à¥«":5997,"Ġà¤ķà¤Łà¤µ":5998,"à¤¯à¤ķà¤¬":5999,"à¤²à¤¯à¤Ń":6000,"à¥Ńà¥®":6001,"Ġà¤ħà¤µà¤¤à¤°à¤£à¤ķ":6002,"Ġà¤Ĺà¤ľà¤²à¤¹à¤°":6003,"IV":6004,"Ġà¤°à¤¹à¤²":6005,"Ġà¤Ĩà¤ĩà¤Łà¤®":6006,"à¤ķà¤Ļ":6007,"à¤ĺà¤¡":6008,"à¥«à¥¨":6009,"à¤°à¤ļà¤¨à¤²":6010,"Ġà¤ľà¤¨à¤ªà¤ķ":6011,"à¤¯à¤®à¤ħà¤¨":6012,"à¤Łà¤Ĩà¤īà¤Ł":6013,"Ġà¤µà¤¨à¤µ":6014,"à¤¾à¥Ģ":6015,"à¤Ńà¤°à¤£":6016,"à¤®à¤¤à¤¬":6017,"à¤«à¤¹à¤°":6018,"à¤µà¤¯à¤¨à¤²":6019,"à¤Łà¤¬à¤ľ":6020,"Ġà¤ĵà¤Ńà¤°à¤¸":6021,"à¤®à¤®à¤¨":6022,"Ġà¤¯à¤¸à¤µ":6023,"ĠFor":6024,"à¤ķà¤ħ":6025,"à¤Ńà¤§":6026,"à¤«à¤²à¤¤":6027,"min":6028,"se":6029,"Ġà¤¯à¤¸à¤ħà¤¨":6030,"Ġà¤°à¤¨à¤µ":6031,"Ġà¤ľà¤Ĺà¤¤à¤²":6032,"à¤¶à¤¨à¤ħà¤¨":6033,"à¤ķà¤Łà¤¬":6034,"ark":6035,"ĠÂ©":6036,"Ġà¤°à¤Ł":6037,"à¤ķà¤²à¤²":6038,"Ġà¤Ńà¤ĩà¤¯":6039,"à¤ĩà¤µà¤°":6040,"ĠJul":6041,"Ġà¤¤à¤¡":6042,"âĢ¦âĢ¦âĢ¦âĢ¦":6043,"à¤Ĺà¤Ĺ":6044,"à¤ļà¤ķà¤®":6045,"Ġà¤ĵà¤ľ":6046,"hak":6047,"Ġà¤°à¤ĸ":6048,"Ġà¤ıà¤²à¤ľ":6049,"Ġà¤¨à¤ľà¤°à¤ħà¤¨":6050,"à¤¯à¤ªà¤ķ":6051,"à¤¯à¤¶à¤¨":6052,"Ġà¥Ńà¥«à¥¦":6053,"à¤Łà¤Ńà¤Ł":6054,"Ġà¤®à¤Ľ":6055,"à¤ľà¤¬à¤°":6056,"à¤²à¤®à¤§":6057,"Ġà¤§à¤°à¤ªà¤ķ":6058,"à¤£à¤ªà¤ķ":6059,"Ġà¤Łà¤Ł":6060,"à¤ĩà¤¬à¤¹":6061,"Ġ??":6062,"Ġà¥§à¥§à¥§":6063,"à¤Ķà¤·à¤§à¤ķ":6064,"Ġà¤«à¤·":6065,"à¤§à¤ķà¤¹à¤°":6066,"à¥ģâĢĻ,":6067,"à¤ļà¤¡":6068,"Ġà¥¨à¥¦à¥¨à¥§":6069,"][":6070,"Ġà¤ıà¤¯à¤°à¤µ":6071,"IS":6072,"Ġà¤µà¤·à¤°":6073,"à¤¶à¤¸à¤¹":6074,"âĢĵâĢĺ":6075,"Ġà¤ĩà¤¦":6076,"Ġà¤ıà¤®à¤¡":6077,"Ġpic":6078,"Ġà¥¨à¥¦à¥¨à¥«":6079,"Ġà¤°à¤¹à¤®":6080,"Ġ?\"":6081,"à¤ªà¤¦à¤¸":6082,"Ġà¤¦à¤¸à¤ķ":6083,"Ġà¤ħà¤²à¤Ĩà¤īà¤Ł":6084,"Ġà¤ıà¤«à¤¸":6085,"Ġà¤Ĩà¤²à¤Ł":6086,"à¥¨à¥¦à¥ªà¥¬":6087,"FA":6088,"Ð°ÑĢ":6089,"ram":6090,"Ġà¤Ĩà¤łà¤®":6091,"Ġà¤¤à¤²à¤¬à¤®":6092,"Ġà¤¸à¤¹à¤µ":6093,"à¤ľà¤¦à¤°à¤¬":6094,"Ġà¤Ĩà¤¹à¤µ":6095,"à¥įâĢĵâĢĺ":6096,"Ġà¤¬à¤¬à¤°à¤®":6097,"à¤¯à¤°à¤¬à¤ľ":6098,"/-":6099,"Ġà¥ĩ":6100,"à¥ģ?":6101,"à¤ĵà¤¯":6102,"Ġà¤Ĩà¤ĩà¤ķ":6103,"Ġà¤§à¤¨à¤§":6104,"à¤Ĩà¤Īà¤¡":6105,"ge":6106,"Ġà¤ĸà¤²à¤²":6107,"à¤¬à¤°à¤¦":6108,"à¤£à¤µà¤¤":6109,"Ġà¤Ńà¤Īà¤¨":6110,"à¥ĩ(":6111,"à¥ĭ;":6112,"à¥ĩ),":6113,"à¤ķà¤·":6114,"à¤°à¤£à¤¸à¤®":6115,"Ð¾Ð½":6116,"Ġà¤Ķà¤°à¤¹":6117,"Ġà¤²à¤ļà¤ķà¤¤":6118,"à¤ıà¤¨à¤ıà¤¸":6119,"ãĢģ":6120,"à¤¶à¤µà¤ķ":6121,"à¤®à¤ķà¤¹":6122,"à¤Ĩà¤Īà¤²":6123,"ory":6124,"Ð¸Ñı":6125,"ms":6126,"Ġà¤ļà¤ŀ":6127,"à¤ķà¤°à¤£à¤¸à¤®":6128,"Ġà¤¨à¤ĺà¤Ł":6129,"Ġà¥¨à¥¦à¥ªà¥¦":6130,"à¤Ĩà¤Īà¤ıà¤ļà¤ıà¤²":6131,"à¤Ĩà¤Īà¤ıà¤ļà¤Ĩà¤°à¤ıà¤²":6132,"The":6133,"à¤¦à¤µà¤¸":6134,"Ġà¤ĸà¤°à¤¬":6135,"Ġà¤¸à¤¹à¤®à¤¹":6136,"Ġà¤Ķà¤ªà¤¨":6137,"Ġà¥¨à¥«à¥¬":6138,"NA":6139,"Ġà¤Ĺà¤ĩ":6140,"à¤ªà¤¤à¤®":6141,"Ġus":6142,"ãģ®":6143,"Ġprotected":6144,"eet":6145,"Ġà¥©à¥«à¥¦":6146,"à¤¹à¤²à¤ķ":6147,"à¤¬à¤Īà¤¬":6148,"à¤Ĩà¤ļ":6149,"à¤¤à¤®à¤¨":6150,"Ã¤":6151,"à¤ªà¤¦à¤®":6152,"mun":6153,"à¤±":6154,"à¤Ŀà¤ľà¤¸":6155,"à¤¯à¤¯à¤¨à¤ªà¤Ľ":6156,"à¤¡à¤·":6157,"à¤Łà¤Ĺ":6158,"à¤¬à¤Ł":6159,"Ġà¤¥à¤ªà¤ķ":6160,"zw":6161,"Ġà¥¦à¥®":6162,"ĠApp":6163,"Ġà¤ķà¤¬à¤¡":6164,"Ġà¤®à¤¨à¤Ń":6165,"Ġà¤«à¤°à¤ķà¤ªà¤¨":6166,"Ġà¥¨à¥¦à¥©à¥©":6167,"à¥ģà¥ĥ":6168,"à¤Ĩà¤Ĺà¤²":6169,"Ġsu":6170,"Ġdis":6171,"ign":6172,"Ġà¤¨à¤ªà¤¤":6173,"ĠDec":6174,"à¤¨à¤¯à¤¨à¤ķ":6175,"ĠAd":6176,"çļ":6177,"Ġ2015":6178,").":6179,"Ġà¤ĩà¤Ĺ":6180,"Ġà¤¶à¤µà¤ķ":6181,"ple":6182,"twitter":6183,"à¤ĵà¤ıà¤¸":6184,"à¤¤à¤¸à¤ŀ":6185,"à¤°à¤¨à¤²":6186,"OS":6187,"Â´":6188,"à¤¸à¤¨à¤¹à¤°":6189,"ĠArt":6190,"Ġà¥¤(":6191,"Ġà¥¨à¥¦à¥Ńà¥¬":6192,"à¥ĩà¤ģ,...":6193,"à¤°à¤ľà¤¨à¤²":6194,"Ġà¥§à¥§à¥ª":6195,"à¤Ĺà¤ļà¤²à¤¨":6196,"à¥į]":6197,"à¤¤à¤®à¤¸":6198,"Ġ29":6199,"à¤¶à¤¨à¤¸":6200,"Ġà¤¸à¤¦à¤¨à¤²":6201,"In":6202,"au":6203,"à¤°à¤¨à¤ķ":6204,"Ġà¤īà¤ªà¤¬":6205,"à¥ĭ,'":6206,"Ġà¤¦à¤¶à¤Ĺà¤ľ":6207,"à¤®à¤¯à¤ķ":6208,"Ġà¤ĵà¤łà¤®":6209,"à¤·à¤¯à¤¬à¤¸":6210,"à¤ļà¤ªà¤¦à¤¸":6211,"à¤Łà¤¬à¤²à¤²":6212,"à¤ıà¤Ńà¤°":6213,"à¤¬à¤¤à¤®":6214,"Ġà¤¸à¤®à¤ª":6215,"à¤°à¤ªà¤ŀ":6216,"Ġà¤£":6217,"Ġà¤¦à¤®à¤¦":6218,"à¤°m":6219,"à¤¡à¤®à¤ķ":6220,"Ġà¤ľà¤¨à¤®à¤¤à¤ķ":6221,"Ġà¤°à¤¨à¤°à¤ħà¤ª":6222,"à¥Īà¥ĩ":6223,"Ġà¤¥à¤µ":6224,"à¤°à¤¸à¤¬":6225,"Ġà¤¦à¤²à¤¬à¤¹":6226,"à¤īà¤¦à¤Ľ":6227,"Ġà¤®à¤¹à¤²à¤®":6228,"Ġà¤¸à¤¬à¤ķ":6229,"à¤¯à¤¸à¤¸à¤®":6230,"Ġà¤¦à¤²à¤Ń":6231,"Ġà¤ľà¤¨à¤¸à¤Ń":6232,"Ġà¤Łà¤¨à¤ķ":6233,"Ġà¤Ĩà¤µà¤°à¤£":6234,"sp":6235,"Ġà¤Ńà¤ıà¤ªà¤¶":6236,"à¤ĵà¤¤":6237,"Ġà¤°à¤Ĺà¤¤à¤²":6238,"à¤°à¤°à¤¹":6239,"à¤ĩà¤ªà¤Ľ":6240,"à¤¤à¤°à¤£à¤²":6241,"Ġà¤ħà¤®à¤°à¤Ĺà¤¢":6242,"Ġà¤ľà¤¨à¤¸à¤°":6243,"à¥®à¥§":6244,"22":6245,"à¤¶à¤ľà¤ķ":6246,"CC":6247,"à¤¾.....":6248,"à¤¬à¤¸à¤¨":6249,"âĢĿâĢĵ":6250,"Ġâ":6251,"à¤ĸà¤Ń":6252,"Ġà¤ĸà¤²à¤¬à¤²":6253,"Ġà¤¬à¤²à¤¦":6254,"à¤łà¤¦":6255,"à¤ļà¤¨à¤ľ":6256,"Ġà¤Ĩà¤Īà¤¸à¤ķ":6257,"çļĦ":6258,"ma":6259,"à¤¤à¤²à¤¨":6260,"à¤µà¤¬à¤¹":6261,"à¤Ĩà¤ĩà¤Ł":6262,"Ġ::":6263,"ĠÃ·":6264,"à¤¶à¤¯à¤®":6265,"Ð¾ÑĤ":6266,"Åĵ":6267,"à¤¨à¤µà¤¸":6268,"à¤ļà¤°à¤¹à¤°":6269,"à¥Įà¤Ĥà¤ģ":6270,"Ġà¤ľà¤²à¤®à¤Ĺ":6271,"me":6272,"à¤°à¤ľà¤ķ":6273,"à¥ĮâĢĵ":6274,"Ġà¤°à¤¯":6275,"à¤¨à¤Ĺà¤¢":6276,"à¤Ĺà¤Ńà¤¨":6277,"à¤ıà¤ķà¤¦":6278,"Ġà¤¨à¤¹à¤°à¤ķ":6279,"ÙĨ":6280,"Ġà¤²à¤ŀ":6281,"ES":6282,"han":6283,"à¤²à¤ķà¤¤":6284,"Ġà¤Ńà¤Ĺà¤¤":6285,"Ġà¤Ľà¤¹à¤°":6286,"à¤°à¤®à¤®à¤¨":6287,"Ġà¤ıà¤¸à¤ĩ":6288,"à¤Łà¤µà¤²à¤¬":6289,"à¤«à¤²à¤ķ":6290,"Ġà¥§à¥¦à¥¬":6291,"Ġà¤ħà¤¬à¤²à¤®":6292,"à¤¯à¤µà¤¦":6293,"à¥¦à¥Ńà¥§":6294,"Ġà¤²à¤«à¤¡":6295,"Ġà¤¦à¤²à¤Ĺà¤¤":6296,"31":6297,"à¤¤à¤²à¤¹à¤°":6298,"Ġà¤ķà¤²à¤Ļ":6299,"Ġà¤¤à¤°à¤ĸà¤°à¤®":6300,"Ġà¥§à¥§à¥«":6301,"à¤¯à¤®à¤µà¤°":6302,"à¤µà¤ķà¤¸":6303,"Ġz":6304,"Ġà¤ļà¤Łà¤ªà¤Ł":6305,"Ġ<":6306,"à¤§à¤ļ":6307,"à¤¥à¤°à¤ķ":6308,"Ġà¤«à¤ľ":6309,"Ġà¤ıà¤ķà¤Ńà¤¨":6310,"à¤Łà¤¨à¤Ĺà¤°à¤¸":6311,"ĠPolic":6312,"ech":6313,"à¤¨à¤°à¤¸":6314,"à¥¯à¥¨":6315,"Ġà¤¸à¤°à¤¸à¤²":6316,"ros":6317,"Ġà¤¹à¤²à¤¬":6318,"Ġà¤Ĩà¤¶à¤®":6319,"à¥Ĥà¤Ĥ":6320,"à¤°à¤¹à¤¤":6321,"Ġà¥§à¥¬à¥«à¥©à¥¦":6322,"à¤Ńà¤µà¤®":6323,"à¤¤à¤¹à¤Łà¤®":6324,"à¤¨à¤¯à¤²":6325,"Ġà¤¨à¤®à¤°":6326,"Ġà¤¶à¤¹à¤°à¤²":6327,"rou":6328,"à¤¸à¤ļà¤¨":6329,"à¤ĩà¤ķà¤®":6330,"Ġà¤ħà¤¨à¤¶à¤¨à¤ķ":6331,"Ġà¥§à¥§à¥©à¥®":6332,"à¤Ĺà¤¸à¤¬":6333,"nc":6334,"à¤¦à¤¯à¤²":6335,"Ġà¤Ĩà¤ĵà¤¸":6336,"à¤ĩà¤°à¤¨":6337,"à¤°à¤¹à¤¬":6338,"Ġà¤Īà¤Ń":6339,"\\'":6340,"à¤¤à¤¬à¤®":6341,"Ġà¤ıà¤«à¤ıà¤®à¤®":6342,"à¤ģà¥ĩ":6343,"Ġà¤Ĩà¤ĩà¤ıà¤¸":6344,"à¤§à¤ªà¤¤":6345,"Ġà¤§à¤ľ":6346,"Ġà¤ĵà¤¤":6347,"alo":6348,"à¤¹à¤ļ":6349,"à¤ļà¤ķà¤²":6350,"Ġà¤¶à¤¸":6351,"Ġà¥§à¥¯à¥Ńà¥«":6352,"Ġà¤ľà¤¨à¤ķà¤²":6353,"Ġà¤ıà¤¨à¤Ĩà¤°à¤ıà¤¨à¤ıà¤ķ":6354,"cal":6355,"à¤ĩà¤ľà¤®":6356,"Ġà¤¬à¤¸à¤¬":6357,"iel":6358,"Ġà¤ľà¤¯à¤ķ":6359,"à¤¨à¤¸à¤ªà¤Ł":6360,"Ġà¤ħà¤ķà¤¬à¤°":6361,"Åĵà¤¯":6362,"Ġim":6363,"à¤¾âĢĺ":6364,"Ġ?'":6365,"à¤¯à¤¯à¤¨à¤¹à¤°":6366,"Ġà¤Ĺà¤ľà¤®":6367,"Ġà¤«à¤²à¤ķ":6368,"ãĢĤ":6369,"Ġà¤§à¤¨à¤ľà¤¨à¤ķ":6370,"à¤·à¤°à¤²":6371,"à¤ļà¤¨à¤°":6372,"à¤¸à¤¨à¤²à¤ķ":6373,"ĠDe":6374,"à¤¾Â¸":6375,"Ġà¤Ĩà¤Ł":6376,"à¤·à¤£à¤¸":6377,"Ġà¤ħà¤µà¤¸à¤°à¤¬":6378,"à¤Ĺà¤łà¤¨à¤Ń":6379,"more":6380,"à¤ªà¤Ĺ":6381,"à¤Ĺà¤°à¤£à¤ķ":6382,"Ġà¤ªà¤°à¤ª":6383,"à¤ľà¤¨à¤®à¤¤":6384,"à¥įà¥¤'":6385,"à¤¤à¤¨à¤Ĺà¤°à¤ª":6386,"ect":6387,"à¤¿à¥ĭ":6388,"à¤ªà¤ļà¤¨":6389,"Ġà¤ıà¤ķà¤ªà¤ķ":6390,"à¤ķà¤°à¤¦":6391,"hare":6392,"à¤ĩà¤²à¤Łà¤²":6393,"Ġà¤Ĩà¤ķà¤·":6394,"Ġà¤¹à¤¸à¤¨":6395,"Ġà¤¸à¤®à¤¬à¤¨":6396,"Ġà¤¨à¤ľà¤°à¤²":6397,"Ġà¤ıà¤¨à¤Ĩà¤ĩà¤¸":6398,"Ġà¤¸à¤ªà¤°":6399,"à¤ľà¤ľ":6400,"Ġà¤īà¤®à¤Ļ":6401,"ĠJan":6402,"Ġà¤īà¤¥à¤²à¤ª":6403,"à¤¹à¤¸à¤ļ":6404,"Ġà¤ĸà¤²à¤¨":6405,"à¤¦à¤¤à¤°":6406,"à¤¯à¤¨à¤°à¤¤":6407,"Ġà¥¨à¥¦à¥®":6408,"à¤ªmà¤¤":6409,"Ġ~~":6410,"Ġà¤¸à¤¹à¤°à¤²":6411,"à¤ľà¤Ĺà¤¢à¤®":6412,"à¥¨à¥¦à¥¬à¥®":6413,"à¤ıà¤µ":6414,"à¤¡à¤¸à¤¹":6415,"Ġà¤®à¤¨à¤¬à¤¹":6416,"Ġ23":6417,"cri":6418,"Ġà¤ıà¤¸à¤Īà¤ĵ":6419,"à¤¨à¤Ĺà¤°à¤¬":6420,"à¤ķà¤Łà¤¸":6421,"Ġà¤ıà¤Ĩà¤ĩà¤ľ":6422,"à¤ħà¤¸à¤²":6423,"Ġà¤Ĩà¤Īà¤¡":6424,"ĠÐ±":6425,"à¤µà¤¥":6426,"Ġà¤ıà¤ıà¤«à¤ª":6427,"à¤¸à¤ķà¤°":6428,"à¤ħà¤µà¤§":6429,"à¤µà¤°à¤°":6430,"à¤¸à¤²à¤Ł":6431,"Ġà¤Ĺà¤£à¤ķ":6432,"Ġà¤¨à¤°à¤ķ":6433,"Ġà¤Ľà¤µà¤Ł":6434,"jya":6435,"Ġà¤§à¤°à¤¤":6436,"à¤¶à¤¨à¤°":6437,"int":6438,"ount":6439,"uk":6440,"à¤¯à¤Ĺà¤°":6441,"à¤¸à¤¸à¤¹à¤°":6442,"Ġà¤ľà¤¯à¤µ":6443,"à¤°à¤¤à¤¬à¤¨":6444,"à¤µà¤¨à¤°à¤ķ":6445,"Ġà¤ħà¤²à¤°":6446,"à¤Ĩà¤°à¤ıà¤¸":6447,"à¤¹à¤¨à¤²":6448,"Ġà¤ıà¤®à¤ª":6449,"ĠZ":6450,"à¤°à¤£à¤¸":6451,"88":6452,"Ġà¤«à¤²à¤¤":6453,"à¤ľà¤¨à¤µ":6454,"74":6455,"Ġà¤Ĺà¤Ĺà¤¨à¤ķ":6456,"Ġà¤ĸà¤°à¤¨":6457,"à¤¸à¤¨à¤®à¤¨":6458,"à¤¡à¤¯à¤¨à¤®à¤¨":6459,"ek":6460,"à¥ĩâĢĻ,":6461,"à¤ªà¤§":6462,"Ġà¤¤à¤Ĺ":6463,"à¤ªà¤¨à¤¹à¤°":6464,"ĠCo":6465,"à¤¯à¤ŀ":6466,"à¤īà¤ľà¤¨":6467,"Ġà¤ıà¤Ļ":6468,"à¥ĥà¥ĥ":6469,"à¤Ļà¤¸à¤¹":6470,"Ġà¤Łà¤ļ":6471,"IVE":6472,"Ø¯":6473,"Ġà¤¸à¤Łà¤°":6474,"ĠYou":6475,"à¤¸à¤¨à¤²à¤²":6476,"Ġà¤Ĩà¤īà¤Łà¤²":6477,"ime":6478,"Ġà¤Łà¤Ļ":6479,"Ġà¤ĵà¤¹à¤¦":6480,"à¤Ĳà¤¶":6481,"à¥Ĭ":6482,"Ġà¤Ĩà¤¥":6483,"à¤ľà¤¨à¤¸à¤¹":6484,"âĢĻ-":6485,"Ġà¤²à¤Ĺà¤¨à¤ĸ":6486,"Ð°Ð»":6487,"à¤Ļà¤ķà¤¨":6488,"à¤Ĺà¤®à¤§":6489,"Ġà¥¦à¥¬à¥¯":6490,"ĠTVS":6491,"à¤¬à¤ª":6492,"à¤ľà¤¸à¤¹":6493,"à¤¦à¤ķà¤ª":6494,"à¤¿.,":6495,"ati":6496,"Ġà¤Ńà¤µà¤¨à¤²":6497,"à¤ĩà¤¡à¤¬à¤¡":6498,"à¤ķà¤Łà¤¨":6499,"à¤¦à¤ªà¤Ľ":6500,"à¤µà¤Łà¤²":6501,"Ġà¤¬à¤°à¤¦":6502,"à¤Łà¤µà¤²à¤²":6503,"ĠTh":6504,"Ġonline":6505,"Ġà¥¦à¥¬à¥©":6506,"jyaalo":6507,"à¥Ī.":6508,"Ġà¤ľà¤¨à¤Ń":6509,"à¤ĺà¤°à¤²":6510,"Ġ2075":6511,"Ġla":6512,"ese":6513,"Ġà¤ıà¤ķà¤Ľà¤¤":6514,"à¤Īà¤®à¤§":6515,"Ġà¤®à¤¹à¤¤à¤ķ":6516,"Ġà¥§à¥®à¥¯":6517,"à¤Ĩà¤°à¤Ł":6518,"ality":6519,"ition":6520,"ĠLe":6521,"02":6522,"AM":6523,"Ġà¤¹à¤°à¤£":6524,"à¤¡à¤°à¤ª":6525,"à¤ļà¤²à¤°":6526,"Ġà¤¦à¤¶à¤ķà¤¯à¤¤":6527,"Ġsh":6528,"à¤Ĺà¤ľà¤²":6529,"à¤īà¤ªà¤ķ":6530,"à¥¤-":6531,"à¤Ļà¤«":6532,"atus":6533,"Ġà¥¨à¥¦à¥©à¥¨":6534,"Ġà¤®à¤¤à¤²à¤µ":6535,"à¥ģ\"":6536,"à¤·à¤Ĺ":6537,"ĠMay":6538,"à¤®à¤ľà¤¸":6539,"Ġà¤ĵà¤®à¤¨":6540,"Ġà¥¦à¥¬à¥ª":6541,"Ġà¤ıà¤«à¤ıà¤®à¤ķ":6542,"à¤ªà¤ħà¤¨":6543,"Ġà¤µà¤¶":6544,"ĠTVSagarmatha":6545,"à¤Ľà¤¯":6546,"iness":6547,"Ġà¥¨à¥¦à¥ªà¥¨":6548,"Ġà¤ªà¤°à¤ķà¤®":6549,"Ġà¤Ĩà¤Īà¤«":6550,"ĠAs":6551,"53":6552,"à¤ªà¤¨à¤¸à¤®":6553,"à¤°à¤¹à¤¹à¤°":6554,"à¤ĩà¤¨à¤Ń":6555,"à¤¸à¤¬à¤°":6556,"à¤£à¤¯à¤µ":6557,"à¤ķà¤²à¤¬":6558,"à¤ĵà¤Ńà¤°":6559,"==":6560,"Ġà¤¤à¤µ":6561,"Ġà¤ªà¤¦à¤ķà¤ķ":6562,"Ġà¥Ńà¥«à¥©":6563,"à¤¼à¥Ģ":6564,"rig":6565,"Ġà¤®à¤¬":6566,"à¤Ĺà¤°à¤ª":6567,"à¤¸à¤¨à¤¸à¤®":6568,"Ġ...|":6569,"ĠSave":6570,"ĠContinue":6571,"Ġà¤ľà¤¯à¤¬à¤¹":6572,"haar":6573,"à¤¸à¤²à¤²":6574,"Ġà¤ıà¤ķà¤µà¤°":6575,"à¤°à¤µà¤¶":6576,"Ġà¤¸à¤¹à¤°à¤¬à¤ľ":6577,"ĠUjyaalo":6578,"ĠSamachaar":6579,"03":6580,"Ġà¤ħà¤¸à¤°à¤ķ":6581,"yst":6582,"Ã¼":6583,"à¤¥à¤¸à¤®":6584,"Ġà¤®à¤¨à¤Ńà¤°":6585,"itt":6586,"à¥ĩÃ·":6587,"à¤¬à¤¸à¤ķ":6588,"âĢ¦)":6589,"à¤ķà¤¸à¤ķ":6590,"à¤²à¤¯à¤¤":6591,"à¤²à¤ļà¤ķ":6592,"à¤¶à¤¨à¤¶":6593,"Ġà¤Ĩà¤ıà¤Ľ":6594,"à¥¨à¥¦à¥¬à¥¨":6595,"Ġà¤¸à¤Ī":6596,"Ġà¤ļà¤¶":6597,"Ġà¤Īà¤·":6598,"Ġà¤Ĩà¤Īà¤¡à¤²":6599,"ann":6600,"à¥ĭ(":6601,"Ġà¤Ĩà¤²à¤¸":6602,"à¤łà¤¯":6603,"Ġ---":6604,"ĠRo":6605,"Ġà¤¨à¤ħ":6606,"à¤¡à¤ªà¤ķ":6607,"Ġà¤Ĩà¤Īà¤ıà¤¸":6608,"arg":6609,"à¤Ĺà¤¤à¤°à¤¤":6610,"ons":6611,"Ð¾Ð¹":6612,"Ġà¤Ĳà¤¸":6613,"à¤¥à¤²à¤¸à¤®":6614,"à¤Łà¤ľà¤¸":6615,"à¥®à¥ª":6616,"à¤Łà¤Ĩà¤īà¤Łà¤®":6617,"à¤¿à¥Ģ":6618,"à¤ľà¤°à¤Ń":6619,"Ġà¤ĺà¤¸":6620,"à¤¤à¤°à¤ªà¤¶":6621,"Ġà¥§à¥¯à¥®à¥ª":6622,"à¤ķà¤¯":6623,"à¤ķà¤¢":6624,"Ġà¤Ĩà¤īà¤Ľà¤¨":6625,"à¤ªà¤¸à¤Ļ":6626,"Ġà¤¤à¤²à¤¬à¤Ńà¤¤":6627,"ĠFOR":6628,"à¤Łà¤¤à¤¨":6629,"Ġà¤¹à¤°à¤ķ":6630,"à¤µà¤¨à¤°":6631,"à¤°à¤ĸà¤ª":6632,"Ġà¥©à¥©à¥¦":6633,"23":6634,"hi":6635,"à¤¬à¤²à¤²":6636,"à¤Ļà¤Ĺà¤¤":6637,"Ġà¤Ĩà¤ĩà¤¦":6638,"Ġ!\"":6639,"ick":6640,"iss":6641,"à¤¡à¤¬à¤²":6642,"à¤ľà¤¦à¤°à¤ķ":6643,"Ġà¤¨à¤ĸà¤¸":6644,"IA":6645,"Ġà¤¯à¤®à¤¦":6646,"à¥®à¥¬":6647,"à¤ĵà¤¨":6648,"Ġà¤¯à¤¸à¤Ń":6649,"Ġà¤Ĺà¤¢à¤µ":6650,"à¤¨à¤¸à¤ªà¤Łà¤²à¤®":6651,"à¤ķà¤ĺ":6652,"à¤ľà¤²à¤Ĺ":6653,"à¤µà¤£à¤ķ":6654,"à¤¯à¤¦à¤²à¤®":6655,"à¥ĢÂ¸":6656,"à¤µà¤°à¤¹":6657,"à¤µà¤µà¤¤":6658,"à¥Ī!":6659,"Ġà¤Ńà¤¨à¤¸":6660,"à¤·à¤£à¤¯":6661,"Ġà¤ĵà¤¤à¤ª":6662,"à¤ķà¤·à¤ķ":6663,"à¤¯à¤µà¤¤":6664,"à¤¶à¤¯à¤ķ":6665,"Ġà¤ļà¤¤à¤°":6666,"à¤Ĺà¤¤à¤¯":6667,"Ġà¤¯à¤®à¤²":6668,"à¤ľà¤¨à¤µà¤°":6669,"Ġà¤Ĺà¤ıà¤ªà¤¨":6670,"Ġà¤ħà¤¨à¤¸à¤¨à¤°à¤¤":6671,"UR":6672,"à¤¶à¤®à¤§":6673,"à¤ĩà¤Ńà¤¨":6674,"à¥¦à¥Ńà¥¯":6675,"Ġà¤ļà¤¹à¤²":6676,"à¤¡à¤²à¤¸":6677,"Ġà¤ĺà¤Łà¤¬à¤¢":6678,"à¤£à¤¨à¤Ĺà¤°":6679,"Ġà¤¬à¤¨à¤¸":6680,"Ġà¤®à¤¹Ã¬à¤µ":6681,"à¤ľà¤¨à¤°":6682,"à¤ķà¤°à¤£à¤ªà¤Ľ":6683,"Ġà¥ªà¥«à¥¦":6684,"dcnepal":6685,"à¤¦à¤®à¤¨":6686,"Ġà¥«à¥«à¥¦":6687,"Ġà¨":6688,"à¤¬à¤¦à¤¬":6689,"Ġà¥¨à¥¦à¥©à¥¯":6690,"à¤®à¤¸à¤¨":6691,"à¥ĩâĢį.":6692,"Ġà¤Ńà¤°à¤ķ":6693,"ople":6694,"à¤¸à¤°à¤¹à¤°":6695,"Ġà¤®à¤ķà¤°":6696,"à¥ĩ-âĢĺ":6697,"à¤¤à¤°à¤ľ":6698,"ÃŃ":6699,"Ġent":6700,"à¤¾âĢį.":6701,"à¤°à¤²à¤ķ":6702,"ich":6703,"Ä±":6704,"Ġà¤¬à¤¥":6705,"à¤Īà¤²à¤Ĺ":6706,"Ġà¤²à¤Ńà¤¸":6707,"âĢĺâĢĺ":6708,"Ġà¤ħà¤«à¤µ":6709,"à¥Ŀ":6710,"Ġà¤Ńà¤°à¤ĸà¤°":6711,"antipur":6712,"Ġà¤¦à¤¬à¤¦à¤¬":6713,"à¤ĸà¤µ":6714,"ĠAm":6715,"Ġà¤ıà¤¨à¤Ĩà¤°à¤ıà¤¨à¤²":6716,"ien":6717,"à¤¦à¤¬à¤²":6718,"Ġà¤Ńà¤ľ":6719,"à¤ľà¤¨à¤¸à¤®":6720,"Ġà¤¤à¤²à¤¬à¤ķ":6721,"ool":6722,"usiness":6723,"zwj":6724,"TW":6725,"à¤¹à¤¹":6726,"Ġà¤¶à¤¹à¤°à¤¬":6727,"Ġà¥¦à¥¬à¥®":6728,"à¤°à¤µà¤¸":6729,"à¤®à¤®à¤¤":6730,"Ġà¤¸à¤¶à¤°":6731,"à¤ªà¤Łà¤¨":6732,"Ġà¤¸à¤¹à¤ħà¤¸":6733,"Ġà¤ħà¤¸à¤°à¤¬":6734,"Ġà¥§à¥«à¥¦à¥¦":6735,"Ġà¤¦à¤§":6736,"à¤Ĺà¤®à¤ª":6737,"à¤µà¤ķà¤®":6738,"à¤ĩà¤Łà¤¨":6739,"à¤łà¤¨à¤ķ":6740,"à¤Łà¤¨à¤¹":6741,"ÐµÐ¼":6742,"ĠInternational":6743,"Ñī":6744,"Ġà¤Ĩà¤Ĺà¤®à¤¨à¤²":6745,"à¤«à¤°à¤²":6746,"à¤ħà¤µà¤°":6747,"à¤¨à¤¨à¤°à¤¸":6748,"à¤ĩà¤ľà¤¹":6749,"word":6750,"à¤¤à¤°à¤ĺ":6751,"à¤¯à¤ļà¤ķ":6752,"à¤¯à¤²à¤¯à¤²":6753,"Ġà¤ľà¤¨à¤®à¤¤à¤¸":6754,"à¤ıà¤¦":6755,"Ġ~":6756,"Ġ........":6757,"à¥Ģ.....":6758,"à¤µà¤ļà¤¨":6759,"à¤ĸà¤¸à¤¹":6760,"Ġà¤Ńà¤¯à¤°à¤¹":6761,"à¤ķà¤Łà¤¹à¤°":6762,"Ġà¤ļà¤°à¤£à¤¬à¤¦":6763,"à¤¡à¤¶":6764,"à¥Įà¤Ĥ,âĢĿ":6765,"Ġà¤Ĩà¤łà¤°":6766,"Ð½Ð¸":6767,"ID":6768,"à¤ıà¤Łà¤¹à¤°":6769,"à¥Īà¤Ĥà¤ģ":6770,"à¤®à¤Ńà¤ķ":6771,"à¤Ķà¤¦":6772,"Ġ11520":6773,"Ġ11518":6774,"Ġ11519":6775,"à¤¤à¤¥à¤²":6776,"Ġà¤ħà¤ľà¤®":6777,"à¤¥à¤¹":6778,"Ġà¤Ńà¤ıà¤¬":6779,"à¤²à¤µà¤¦":6780,"ORK":6781,"Ġà¤ªà¤¥à¤®":6782,"à¤¾)Â¸":6783,"Ġà¤ĵà¤Ńà¤°à¤¹":6784,"à¥ĪâĢĮ":6785,"à¤µà¤¸à¤ļ":6786,"Ġ21":6787,"lick":6788,"à¤¡à¤ļ":6789,"Ġà¥§à¥©à¥¦à¥Ńà¥¯":6790,"ata":6791,"ĠFeb":6792,"Ġ11521":6793,"ugu":6794,"à¤Īà¤Łà¤¹à¤°":6795,"à¤ĵà¤Ī":6796,"Ġ11517":6797,"Ġà¤ªà¤Ĺà¤°":6798,"Ġà¤¡à¤Ĺ":6799,"à¤°à¤®à¤£à¤¹à¤°":6800,"Ġà¤ĭà¤Ĺ":6801,"à¤µà¤¯à¤¨à¤¸":6802,"TC":6803,"à¤®à¤°à¤£à¤®":6804,"à¤·à¤°à¤¹à¤°":6805,"à¤ħà¤¯":6806,"à¥¨à¥¦à¥¬à¥©":6807,"à¤µà¤Ī":6808,"Ġà¤ªà¤¦à¤ļ":6809,"39":6810,"à¤¦à¤°à¤¬à¤ľ":6811,"à¤ıà¤Ńà¤¨":6812,"à¤ªà¤¨à¤¸":6813,"Ġà¤²à¤Ĺà¤¨":6814,"à¤ªà¤Łà¤ķà¤ķ":6815,"Ġà¤ıà¤¯à¤°à¤¬à¤¸":6816,"Ġà¤¤à¤°à¤¬":6817,"ĠSp":6818,"ock":6819,"à¤¹à¤ħà¤¨":6820,"Ġà¤«à¤Ĺ":6821,"à¤°à¤¬à¤ľ":6822,"à¤·à¤ķà¤¤":6823,"Ġà¥§à¥¯à¥®à¥«":6824,"à¥¨à¥¦à¥§à¥¬":6825,"ansar":6826,"à¤ĸà¤¨à¤²":6827,"Ġà¤ħà¤ªà¤¦à¤¸":6828,"à¤®à¤Ĺà¤¢":6829,"ÐµÐ´":6830,"à¤Īà¤¨à¤ķ":6831,"à¤¯à¤¨à¤¬":6832,"à¤Łà¤°à¤µ":6833,"Ġà¤¤à¤¡à¤ķ":6834,"epcal":6835,"Ġà¤¹à¤¡à¤ª":6836,"Âº":6837,"à¤¿à¥ģ":6838,"à¤Īà¤¹":6839,"à¥Įà¤ģà¥¤âĢĻ":6840,"Ġ28":6841,"Ġà¤§à¤°à¤ªà¤ķà¤¡":6842,"Ġà¤¨à¤ł":6843,"Ġà¤¬à¤¹à¤ķ":6844,"à¤§à¤¦":6845,"à¤¯à¤£à¤ĺ":6846,"ĠNETW":6847,"ĠNETWORK":6848,"à¤Łà¤¤à¤°":6849,"Ġà¤µà¤ļà¤¤":6850,"à¤¥à¤ķà¤ķ":6851,"à¤¥à¤¸à¤ļ":6852,"Ġà¤Ĩà¤ªà¤¨":6853,"Ġà¤ķà¤²à¤¹":6854,"Ġ27":6855,"Ġà¤¨à¤¯à¤¨à¤°":6856,"ield":6857,"Øª":6858,"Ùħ":6859,"à¤¤à¤°à¤Ĺ":6860,"à¤¡à¤°à¤Ĺ":6861,"à¤ĩà¤ªà¤°":6862,"à¤ļà¤¨à¤¹à¤°":6863,"à¤Ńà¤¨à¤°":6864,"ina":6865,"à¤²à¤ļà¤²à¤¨":6866,"ele":6867,"à¤ĩà¤ªà¤ķ":6868,"à¤ħà¤°à¤ķ":6869,"à¤ħà¤µà¤¸à¤°à¤®":6870,"à§":6871,"Ġà¥§à¥¨à¥¦à¥¦":6872,"Ġà¤Īà¤Łà¤¹à¤°":6873,"Ġ22":6874,"Ġcont":6875,"à¤¾à¥ĪâĢĮ":6876,"à¤¬à¤°à¤¬à¤¹":6877,"ĠâĢĭ":6878,"Ġà¤ªà¤¦à¤²":6879,"ism":6880,"Ġ11516":6881,"bo":6882,"Ġà¥į":6883,"à¤¯à¤ĸ":6884,"à¤°à¤¦à¤¶":6885,"Ġà¤Ĩà¤¶à¤¯à¤ķ":6886,"Ġà¤¨à¤µà¤Ĺà¤ł":6887,"à¥¨à¥¦à¥Ńà¥¬":6888,"à¤¨à¤¨à¤²":6889,"à¤ķà¤·à¤£":6890,"à¤łà¤¸à¤®":6891,"à¤ļà¤¨à¤¸":6892,"à¤ĩà¤Łà¤¬":6893,"Ġà¥¨à¥¦à¥ªà¥©":6894,"Ġà¤ľà¤²à¤ķ":6895,"ating":6896,"ities":6897,"à¤¹à¤Ļà¤ķà¤Ļà¤®":6898,"à¤¤à¤²à¤¬":6899,"à¤ªà¤®à¤¤à¤®":6900,"EC":6901,"à¤ıà¤®à¤²":6902,"à¤ģà¤ģ":6903,"low":6904,"PAL":6905,"à¤®à¤ľà¤¦":6906,"à¤¤à¤¨à¤µ":6907,"rest":6908,"ery":6909,"edia":6910,"hone":6911,"à¤ķà¤¤à¤²":6912,"Ġà¤¯à¤²":6913,"Ġà¤¸à¤¯à¤¸à¤®":6914,"Ġà¤ıà¤¸à¤¡":6915,"Ġ100":6916,"atch":6917,"alkot":6918,"%)":6919,"à¤¬à¤¶":6920,"Ġ26":6921,"Ġà¤®à¤Ĺà¤°à¤¹à¤°":6922,"CL":6923,"à¤ıà¤¯à¤°":6924,"à¤§à¤ĺ":6925,"Ġà¤ļà¤²à¤¨à¤²":6926,"Ġà¤®à¤¨à¤¤":6927,"hap":6928,"à¤¡à¤²à¤¬":6929,"Ġà¤¨à¤Ĺà¤°à¤Ń":6930,"Ġà¤§à¤¨à¤ª":6931,"Ġà¥§à¥©à¥§":6932,"Ġ2014":6933,"ase":6934,"26":6935,"à¤Łà¤Ĺà¤¤":6936,"à¤ļà¤Ńà¤¨":6937,"à¤Ĩà¤Īà¤Ł":6938,"Ġpass":6939,"Ø§ÙĦ":6940,"uck":6941,"Ġà¤ĺà¤°à¤¤":6942,"Ġà¤Īà¤£":6943,"Ġà¤Ĭà¤¨":6944,"ĠGalkot":6945,"Ġà¤Ĩà¤Īà¤ķ":6946,"à¤ħà¤°à¤¬":6947,"Ġà¤ĵà¤ĸà¤¤":6948,"Ġà¤Ĩà¤¯à¤¤":6949,"à¤°à¤®à¤Ń":6950,"ĠâĢĮ":6951,"Ġà¤Łà¤£":6952,"à¤¨à¤¸à¤²":6953,"Ġà¤Ĺà¤°à¤¯":6954,"à¤¡à¤ªà¤Ľ":6955,"Ġà¤¹à¤ķà¤ħà¤§":6956,"ĠInd":6957,"à¤¬à¤Ļ":6958,"à¤°à¤ªà¤¥à¤®":6959,"olog":6960,"58":6961,"à¤µà¤ıà¤®":6962,"à¤µà¤ħà¤°":6963,"à¤¾,âĢĻ":6964,"à¤ľà¤Ĺà¤¦":6965,"Ġà¤ªà¤¸à¤²à¤²":6966,"à¤·à¤¤à¤µ":6967,"à¤ŀà¤¸":6968,"Ġà¤¤à¤¹à¤Ĺà¤¤":6969,"att":6970,"Ġà¤ħà¤¸à¤¹à¤ľà¤¤":6971,"Ġà¤ļà¤°à¤£à¤ħà¤¨":6972,"à¤Łà¤¨à¤¬":6973,"à¤°à¤ĸà¤¨":6974,"Ġmin":6975,"ĠJun":6976,"à¤ĵà¤²à¤®":6977,"Ġ31":6978,"à¤²à¤ªà¤ķ":6979,"à¤Īà¤Łà¤²":6980,"à¥®à¥Ń":6981,"ĠMin":6982,"Ð°Ð¼":6983,"RA":6984,"cl":6985,"Ã¶":6986,"Ú©":6987,"Ġà¤°à¤¥à¤¯":6988,"Ġà¤¬à¤¨à¤ķ":6989,"Ġà¤ħà¤¨à¤¸à¤¨à¤®":6990,"à¤µà¤°à¤£à¤®à¤¨":6991,"Ġà¤¨à¤Ĩà¤ĵà¤¸":6992,"à¥¨à¥¦à¥¬à¥ª":6993,"ĠView":6994,"27":6995,"à¥Ģ.,":6996,"à¤Īà¤¸à¤¯":6997,"à¤Ľà¤²à¤«à¤²à¤®":6998,"Ġà¤Ľà¤¹":6999,"à¤Īà¤°à¤²":7000,"à¤¸à¤¨à¤ª":7001,"à¤·à¤®à¤£":7002,"à¤¯à¤¯à¤Ń":7003,"ĠStr":7004,"à¤¨à¤ĺ":7005,"à¤ĸà¤°à¤²":7006,"âĢĻâĢĵ":7007,"Ġà¤ķà¤®à¤¬":7008,"à¤¬à¤¹à¤¸":7009,"))":7010,"ĠÑĥ":7011,"à¤Ĩà¤Īà¤ıà¤¸":7012,"Ġà¤ħà¤Ļà¤Ĺ":7013,"Ġà¥§à¥¯à¥Ńà¥¯":7014,"Ġà¥§à¥¯à¥ªà¥Ń":7015,"à¤µà¤¯à¤®à¤¸":7016,"ĠID":7017,"irl":7018,"ÙĦ":7019,"à¤¶à¤ķà¤¸":7020,"à¤Ĩà¤Īà¤ı":7021,"à¤Ĩà¤ľà¤Ń":7022,"esh":7023,"Ġà¤¸à¤°à¤²à¤¤":7024,"à¥Ģ..":7025,"red":7026,"à¤°à¤ıà¤ķ":7027,"à¤Ĺà¤ıà¤°":7028,"Ġà¥§à¥§à¥Ń":7029,"à¤Ļà¤ĸà¤²":7030,"Ġà¤ħà¤²à¤Ĺà¤ħà¤²à¤Ĺ":7031,"Ġhave":7032,"Ġà¤ķà¤°à¤µ":7033,"TM":7034,"à¤¾&":7035,"Ġà¤Łà¤ªà¤°":7036,"à¤µà¤°à¤¸à¤®":7037,"ordin":7038,"à¤¨à¤¬à¤°":7039,"Ġà¤¶à¤ª":7040,"à¤ĺà¤·":7041,"Ġà¥§à¥©à¥ª":7042,"à¤Ĺà¤łà¤¨à¤¬":7043,"à¥ŀ":7044,"Ġà¤¸à¤¹à¤¦":7045,"Ġà¤¡à¤®à¤°":7046,"Ġà¤ķà¤°à¤¨":7047,"à¤Łà¤ķà¤¹à¤°":7048,"à¤ıà¤¸à¤ıà¤¸à¤¬":7049,"ists":7050,"?'":7051,"à¤¹à¤²à¤Ĺ":7052,"à¤µà¤ľà¤¸":7053,"Ġà¤®à¤²à¤ĸ":7054,"Ð°Ð·":7055,"à¤¯à¤¸à¤¨à¤ķ":7056,"à¤¯à¤¸à¤¬à¤ĸà¤¤":7057,"à¤¤à¤£":7058,"Ġà¥Ĥ":7059,"Ġà¥¨à¥¬à¥¦":7060,"ĠMic":7061,"erson":7062,"à¤¬à¤¦à¤²":7063,"Ġà¤łà¤£":7064,"à¥¯à¥ª":7065,"ĠSEE":7066,"à¤ªà¤¸à¤¬":7067,"à¤ĩà¤ķà¤ķ":7068,"ern":7069,"Ġdo":7070,"Ġà¤¨à¤Ĺà¤Ī":7071,"Ġà¤ķà¤ķà¤¨":7072,"Ġà¤¤à¤Łà¤®":7073,"à¤ĸà¤Ĺà¤ŀ":7074,"à¤ĩà¤¤à¤²":7075,"Ġà¤ĩà¤µ":7076,"à¥®à¥¨":7077,"icip":7078,"Ġà¥§à¥¯à¥¬à¥¨":7079,"Ġà¤ıà¤²à¤¬":7080,"à¤Ĩà¤°à¤²":7081,"à¤ĸà¤¬à¤¹":7082,"à¥¤.":7083,"Ġà¤Ŀà¤®à¤ķ":7084,"à¤ıà¤¨à¤ıà¤¨":7085,"Ġà¥¨à¥¦à¥ªà¥§":7086,"Ġnot":7087,"Ð°Ðº":7088,"Ġà¥§à¥¯à¥®à¥¨":7089,"à¤¬à¤ĸà¤¤à¤®":7090,"à¤²à¤¸à¤²":7091,"à¤ªà¤¸à¤¹":7092,"Ġà¤Ĩà¤²à¤®à¤²":7093,"Ġà¤ĵà¤®à¤ķ":7094,"Ġse":7095,"à¤ªà¤¦à¤ķ":7096,"Ġà¤ªà¤°à¤ľ":7097,"Ġà¤¡à¤Ļ":7098,"ove":7099,"à¥ģà¥Įà¤ģ":7100,"à¥¯à¥§":7101,"ocu":7102,"Ġà¤¨à¤°à¤¦":7103,"à¤ĸà¤ªà¤¢":7104,"à¤ĩà¤¨à¤ĸà¤¬à¤°":7105,"à¤¸à¤¦à¤µ":7106,"Ġà¤¸à¤²à¤¹":7107,"ĠNA":7108,"day":7109,"à¥Įà¤Ĥà¤Ĥ":7110,"Ġà¤ħà¤«à¤¨":7111,"Ġà¤ħà¤«à¤¸":7112,"à¤¾à¥ģ":7113,"âĢķ":7114,"Ġà¤¡à¤ķà¤°":7115,"Ġcl":7116,"à¥įà¥ĭ":7117,"à¤®à¤¹à¤²":7118,"à¤Ĺà¤²à¤¤":7119,"à¤¸à¤®à¤¯à¤ķ":7120,"Ġà¤ħà¤Ńà¤¯":7121,"à¤¯à¤²à¤¸":7122,"Ġà¤µà¤¨à¤ľ":7123,"Ġà¤ĸà¤¬à¤°à¤ªà¤¤":7124,"à¤¹à¤µà¤°à¤®":7125,"Ġà¤Ńà¤®":7126,"arth":7127,"à¤ĸà¤®à¤¯":7128,"Ġà¤ħà¤¨à¤ķ":7129,"à¤°à¤ªà¤²":7130,"à¤£à¤ľ":7131,"Ġà¤¬à¤²à¤ª":7132,"à¤¯à¤£à¤¸":7133,"Ġ2013":7134,"à¥¦à¥¬à¥¨":7135,"à¤¯à¤¨à¤¶":7136,"Ð¸Ðµ":7137,"Ùĩ":7138,"Ġà¤ªà¤²à¤²":7139,"Ġà¤°à¤¬à¤°":7140,"à¤Ĩà¤ľà¤ķà¤²":7141,"à¤¸à¤²à¤ķ":7142,"à¤ļà¤²à¤¬":7143,"Ġà¤ľà¤®à¤²":7144,"Ġà¤¶à¤µà¤¯":7145,"Ġà¤ĵà¤ķà¤²":7146,"Ġà¥§à¥§à¥¨":7147,"ĠDur":7148,"à¥¨à¥¦à¥¦à¥Ń":7149,"outube":7150,"Ġà¥§à¥¯à¥«à¥®":7151,"à¤¯à¤¸à¤ŀ":7152,"à¥Įà¤ĤâĢĿ":7153,"à¤®à¤¨à¤°":7154,"à¥¯à¥¬":7155,"Ġà¤ıà¤¨à¤ıà¤¸":7156,"à¤¥à¤ªà¤°à¤ķ":7157,"à¤Īà¤ĵà¤Ł":7158,"à¤®à¤¡":7159,"Ġà¤ķà¤®à¤²à¤ķ":7160,"à¤¹à¤¨à¤¤à¤ķ":7161,"à¤ĩà¤ķà¤¬":7162,"ara":7163,"ame":7164,"à¤¤à¤Ľ":7165,"...âĢĻ":7166,"IC":7167,"Â©":7168,"à¤Īà¤µà¤¸":7169,"Ġà¤¦à¤¶à¤°à¤¥à¤ļà¤¨":7170,"ÑĦ":7171,"ä»":7172,"à¤Ļà¤Ń":7173,"à¤ħà¤Ĺà¤¸":7174,"à¤¶à¤¨à¤²à¤²":7175,"rosoft":7176,"http":7177,"Ġà¤µà¤«":7178,"Ġà¤ıà¤ªà¤²":7179,"ĠAction":7180,"ĠÐ·":7181,"ĠBl":7182,"Ġà¤īà¤ªà¤ķà¤°à¤£à¤®":7183,"à¥ĢâĢĶ":7184,"à¤ļà¤¤à¤°":7185,"à¤Ńà¤Ī":7186,"à¤¤à¤°à¤µà¤¸":7187,"à¤ķà¤®à¤¨":7188,"à¤µà¤¨à¤ļà¤°":7189,"à¤¯à¤°à¤¡":7190,"ild":7191,"ï¿½\"":7192,"åħ":7193,"Ġáĥ":7194,"à¤®à¤ķà¤²":7195,"à¤Ĺà¤µà¤£":7196,"à¤ıà¤®à¤Ł":7197,"Ġà¤ľà¤¨à¤®à¤ŀ":7198,"à¤¦à¤ľ":7199,"à¤·à¤ĺ":7200,"à¤·à¤ªà¤¹":7201,"Ġà¥§à¥§à¥¦à¥¨":7202,"à¤ıà¤¸à¤ıà¤²à¤¸":7203,"ions":7204,".......":7205,"Ġà¤Ĩà¤¯à¤µ":7206,"à¤¸à¤¨à¤¦":7207,"Ġà¤Ĩà¤°à¤ıà¤¸":7208,"à¤§à¤§à¤°":7209,"Ġà¤ľà¤ľ":7210,"à¤«à¤°à¤®":7211,"Ġà¤ªà¤¦à¤®à¤ª":7212,"à¤Ĺà¤ı":7213,"à¤®à¤¨à¤ª":7214,"Ð¾Ñģ":7215,"ement":7216,")-":7217,"à¤¿(":7218,"à¤¯à¤ªà¤¨":7219,"Ġà¤¬à¤¨à¤Ń":7220,"à¥Įà¤ģ,âĢĿ":7221,"Ġï¿½...":7222,"ĠNot":7223,"ĠÐ½Ð°":7224,"Ġà¤²à¤Ľ":7225,"à¤ªà¤¨à¤¦":7226,"à¤¶à¤¤à¤µ":7227,"à¤µà¤°à¤£à¤¬":7228,"Ġà¤ıà¤ħà¤°à¤²":7229,"à¤°à¤ł":7230,"à¤ıà¤¤à¤²":7231,"à¤Ńà¤ª":7232,"à¤ķà¤²à¤¸":7233,"Ġà¤Ĺà¤£à¤°":7234,"à¤ıà¤«à¤ıà¤ķ":7235,"à¤ļà¤¸à¤¯":7236,"Ð¶":7237,"à¤°à¤®à¤¸à¤¹":7238,"Ġà¤¬à¤²à¤µ":7239,"ays":7240,"à¤£à¤Ńà¤ķ":7241,"à¤ĺà¤¸à¤¸":7242,"à¤¯à¤¤à¤µ":7243,"Ġà¤¦à¤°à¤µà¤¨":7244,"ĠÐ³":7245,"ax":7246,"à¤£à¤²à¤Ĺ":7247,"à¤ĩà¤¤à¤¬":7248,"à¥Įà¤Ĥ/":7249,"à¤¦à¤¨à¤¸à¤®":7250,"Ġà¥§à¥¯à¥®à¥®":7251,"ideo":7252,"fe":7253,"per":7254,"Ġà¤Ĺà¤°à¤®":7255,"à¤§à¤°à¤£à¤²":7256,"Ġà¤Ĩà¤°à¤¬":7257,"ĠâĢį":7258,"à¤¶à¤¨à¤²à¤ķ":7259,"Ġà¤ĵà¤ĩà¤²":7260,"à¤¸à¤¬à¤ķ":7261,"50":7262,"à¤Ĩà¤°à¤®":7263,"à¤µà¤²à¤Ĺ":7264,"Ġà¤Ĩà¤¶à¤¯à¤ªà¤¤":7265,"ĠPortal":7266,"Ġà¥¨à¥¦à¥¨à¥ª":7267,"ĠPolicy":7268,"be":7269,"à¤²à¤¸à¤ķ":7270,"à¤²à¤ľà¤¯":7271,"Ġà¤¤à¤µà¤°à¤®":7272,"à¤¶à¤Ńà¤¨":7273,"Ġà¤ľà¤¨à¤¬":7274,"Ġà¤¸à¤¡à¤ķà¤ª":7275,"Ġ----":7276,"Ġà¤ľà¤¨à¤ķà¤°":7277,"à¤¸à¤ľà¤¨":7278,"Ġà¤ªà¤¯":7279,"à¤ľà¤ķà¤°":7280,"à¤¸à¤¸à¤¸":7281,"Ġà¥¨à¥¦à¥©à¥§":7282,"Top":7283,"à¤²à¤µà¤®":7284,"à¤¨à¤ķà¤¤":7285,"à¥ĥâĢĻ":7286,"Ġà¥§à¥¦à¥Ń":7287,"Ġà¤Ĺà¤łà¤¨à¤¸":7288,"Ġà¤Ńà¤µà¤¨à¤¬":7289,"ĠSc":7290,"à©":7291,"à¥ĭà¥į":7292,"Ġà¤¬à¤²à¤¬":7293,"Ġà¤īà¤łà¤¨":7294,"à¤µà¤¤à¤¸":7295,"ale":7296,"à¥ĩ..":7297,"Ġà¤Ńà¤¯à¤²":7298,"Ġà¤Ĩà¤Ĺà¤®à¤¨à¤ķ":7299,"98":7300,"ked":7301,"Ġà¥¨à¥¦à¥©à¥Ń":7302,"Ġà¥¨à¥¦à¥©à¥®":7303,"à¤ĺà¤Łà¤¨à¤ķ":7304,"à¤®à¤¢":7305,"Ð¸Ð½":7306,"Ġà¤¶à¤ªà¤¥à¤Ĺ":7307,"formation":7308,"Ġne":7309,"conom":7310,"MS":7311,"ts":7312,"à¤¹à¤¬à¤°à¤®":7313,"Ġà¤Ĺà¤®à¤Ĺà¤¢":7314,"à¥¤&":7315,"Ġà¤ķà¤²à¤¸":7316,"Ġà¤ļà¤°à¤¨":7317,"Ġà¥§à¥¯à¥®à¥§":7318,"à¤¹à¤Ļà¤ķà¤Ļà¤ķ":7319,"Ġour":7320,"à¤ıà¤Łà¤°à¤ķ":7321,"Ġà¤īà¤ªà¤ľà¤ķ":7322,"Ġà¥§à¥©à¥¬":7323,"Ġà¤ķà¤¹à¤°à¤ķ":7324,"à¤Īà¤ı":7325,"à¤¨à¤²à¤Ļ":7326,"à¤°à¤µà¤ª":7327,"ny":7328,"Ġà¤Ŀà¤¯":7329,"Ġà¤ĺà¤°à¤ĺà¤°":7330,"Ġà¤ĸà¤Łà¤ªà¤Ł":7331,"Ġ09":7332,"St":7333,"à¤ķà¤Ĺà¤¢":7334,"à¤°à¤¤à¤²à¤Ĺ":7335,"Ġà¥¨à¥¦à¥ªà¥ª":7336,"mand":7337,"Ġà¤Ĺà¤µ":7338,"Ġà¤¨à¤¡à¤°":7339,"à¤Īà¤ıà¤«à¤ı":7340,"Ġà¤Ĩà¤ĩà¤ĵ":7341,"Ġà¤ıà¤¸à¤¬":7342,"à¤ķà¤Łà¤ª":7343,"ource":7344,"à¤¡à¤¤à¤°":7345,"à¤¢à¤Ĺ":7346,"à¤ıà¤¨à¤ıà¤ķ":7347,"Ġà¤®à¤¤à¤®":7348,"Ġà¤ħà¤¸à¤Ī":7349,"à¤ıà¤¥":7350,"à¤·à¤ķà¤¸":7351,"ics":7352,"Ġà¤ĵà¤Ńà¤°à¤Ł":7353,"ĠForum":7354,"å¹":7355,"Ġà¤ıà¤²à¤¸":7356,"à¤§à¤¨à¤¸à¤®":7357,"ĠâĢ¦.":7358,"Post":7359,"à¥ģ(":7360,"à¤°à¤®à¤¶à¤ķ":7361,"Ġà¤ĸà¤¦":7362,"Ġà¤ľà¤¨à¤°":7363,"Ġà¥§à¥¯à¥«à¥©":7364,"Ġund":7365,"à¤¿à¤¿":7366,"à¤Łà¤Ľ":7367,"Ġà¤®à¤¹à¤ķ":7368,"à¤ıà¤®à¤ľ":7369,"unicip":7370,"à¤²à¤¯à¤¸à¤¹":7371,"Ġà¤¬à¤ļà¤¤à¤ķà¤°":7372,"à¤®à¤¸à¤Ļ":7373,"Ġà¥§à¥¬à¥®":7374,"ins":7375,"Ġà¤Ĩà¤łà¤ľà¤¨":7376,"Ġwebsite":7377,"Ġà¥¦à¥¬à¥Ń":7378,"à¥®à¥®à¥§":7379,"Ġà¤Ŀà¤¡à¤ªà¤ķ":7380,"Ġà¤ĸà¤Ľ":7381,"à¤łà¤²à¤Ĺ":7382,"ali":7383,"Ġà¤¨à¤µà¤īà¤¦":7384,"Ð°Ð²":7385,"95":7386,"à¤§à¤ķà¤®":7387,"à¤¾à¤ģ-":7388,"Ġà¤ıà¤ķà¤¦à¤²":7389,"à¤Łà¤¨à¤°à¤ķ":7390,"à¤¬à¤²à¤Ł":7391,"ystem":7392,"à¤¨à¤ĵà¤Ł":7393,"à¤¥à¤¡":7394,"à¤Īà¤¤à¤°":7395,"à¤ĩà¤²à¤Ĺ":7396,"à¤Ļà¤¨":7397,"à¤²à¤ķà¤¸à¤¹":7398,"à¤ķà¤°à¤£à¤¤à¤°":7399,"Ġà¤ħà¤¬à¤²":7400,"Ġà¤ħà¤ªà¤Ĺ":7401,"online":7402,"ĠNew":7403,"Ġstatus":7404,"duc":7405,"åı":7406,"à¤¸à¤¥":7407,"à¤µà¤Ļ":7408,"à¤Īà¤¨à¤¨":7409,"à¥ĮâĢĿ":7410,"à¤Ŀà¤ª":7411,"Ġà¤¤à¤ªà¤¶":7412,"Ġà¥§à¥¯à¥Ńà¥¬":7413,"Ġà¤«à¤°à¤ķà¤®":7414,"row":7415,"à¤ľà¤¯à¤ªà¤Ľ":7416,"ĠAD":7417,"Ġà¥§à¥¯à¥®à¥Ń":7418,"________________":7419,"Ġà¤¸à¤µà¤¸":7420,"ÑģÑı":7421,"à¤µà¤ĸ":7422,"à¤Ĺà¤®à¤Ĺ":7423,"Ġà¤ĺà¤°à¤¨à¤ķ":7424,");":7425,"à¤¹à¤¤à¤®":7426,"à¥Įà¤ģâĢĻ,":7427,"à¤¸à¤µà¤¹à¤°":7428,"ĠAll":7429,"à¤ıà¤¶à¤¨à¤ķ":7430,"à¤£à¤¯à¤¸à¤®":7431,"ats":7432,"Ġà¤Ńà¤°à¤¤à¤°":7433,"Ġà¤ľà¤Ĺà¤¤à¤¬à¤¹":7434,"à¤ķà¤°à¤¬à¤°":7435,"Ġà¤ħà¤µà¤¯à¤µ":7436,"Ġ50":7437,"ategic":7438,"NT":7439,"Ġà¤ļà¤¯à¤¨à¤®":7440,"Ġacc":7441,"ĠWebsite":7442,"à¤¦à¤¤à¤®":7443,"ÑģÑĤÐ²":7444,"''":7445,"à¤ªà¤ķà¤®":7446,"Ġà¤ķà¤µà¤°":7447,"Ġà¤²à¤ļà¤ķ":7448,"à¤ħà¤¸à¤¨":7449,"à¤ķà¤°à¤Ń":7450,"Ġà¤°à¤ķà¤®à¤®à¤§":7451,"Ġà¤Ĩà¤īà¤¥":7452,"à¤·à¤§à¤°à¤¹à¤°":7453,"ph":7454,"å®":7455,"à¤Łà¤ªà¤¤":7456,"Ġà¤Ľà¤®":7457,"à¤¥à¤¨à¤Ĺà¤°":7458,"Ġà¤¨à¤Ĺà¤°à¤¸":7459,"ater":7460,"ĠStrategic":7461,"à¤¯à¤²à¤¬":7462,"à¤¦à¤¸à¤¤":7463,"à¤Ĺà¤«à¤²":7464,"Ġà¤¸à¤¯à¤µà¤Ł":7465,"Ġà¤ªà¤¦à¤µ":7466,"Ġà¤®à¤²à¤¦":7467,"Ġà¥§à¥§à¥¬":7468,"à¤²à¤ĸà¤¬à¤°":7469,"Ġlead":7470,"Ġ00":7471,"à¤ªà¤²à¤®":7472,"Ġà¤ľà¤²à¤¨":7473,"à¤Łà¤¨à¤°à¤¸":7474,"ode":7475,"Ġà¤¨à¤ħà¤ªà¤¨":7476,"land":7477,"à¤¦à¤¬à¤¦":7478,"Ġà¤¦à¤¹à¤¨":7479,"à¤°à¤®à¤¬à¤¦":7480,"à¤ªà¤Łà¤ķà¤®":7481,"Ġ98":7482,"2030":7483,"à¤²à¤ħà¤ĺ":7484,"Ġà¤µà¤¨à¤ª":7485,"à¤ĩà¤¶":7486,"Ġà¤ħà¤ªà¤ļ":7487,"Ġ-\"":7488,"ĠBe":7489,"à¤¯à¤ķà¤¸":7490,"à¤°à¤¦à¤ķ":7491,"à¤ªà¤£à¤®":7492,"à¤ļà¤°à¤Ļ":7493,"ĠHe":7494,"****":7495,"Ġà¤¹à¤°à¤ªà¤²":7496,"Ġà¥§à¥ªà¥®à¥®à¥§":7497,"Ġsms":7498,"à¥§à¥ªà¥®à¥®":7499,"Ġpassword":7500,"à¤¦à¤°à¤¹":7501,"à¤µà¤°à¤¦":7502,"Ġà¤Ľà¤ªà¤ķ":7503,"à¤·à¤£à¤ķà¤°":7504,"Ġpe":7505,"Ġà¥¨à¥¦à¥¨à¥¬":7506,"à¥Ī:":7507,"Ġà¤Ĩà¤µà¤°":7508,"à¤°à¤£à¤µà¤¶":7509,"à¤¶à¤¹à¤°à¤®":7510,"ĠCl":7511,"nepalnews":7512,"à¤°à¤ľà¤²":7513,"à¥Ģ!":7514,"à¤µà¤¥à¤¯":7515,"Ġà¤Ĩà¤ļà¤°à¤£à¤ķ":7516,"ãģĹ":7517,"à¥Įà¤Ĥ||":7518,"à¤²à¤¨à¤ļ":7519,"à¤Ĺà¤ķà¤Ļ":7520,"Ġ,,":7521,"Ġà¤ĭà¤£à¤¬":7522,"Ġà¤·à¤·":7523,"ĠKoh":7524,"à¥ģà¥¤âĢĿ":7525,"ordinator":7526,"Ġdes":7527,"à¤ĩà¤®à¤²":7528,"à¤Łà¤°à¤Ń":7529,"Ġà¤¹à¤°à¤«":7530,"Ġà¥¦à¥¬à¥§":7531,"Ġà¤Łà¤¨à¤ķà¤ª":7532,"Ġà¤¬à¤¬à¤¨":7533,"Ġà¤Ľà¤ļà¤²":7534,"à¤¦à¤¶à¤¨à¤®":7535,"çĶ":7536,"à¤µà¤¹à¤¨":7537,"à¤¨à¤®à¤°":7538,"à¥¯à¥Ń":7539,"à¤¨à¤Ńà¤°à¤ķ":7540,"ĠDuration":7541,"à¤ķà¤°à¤¸":7542,"Ġà¥§à¥©à¥®":7543,"adio":7544,"Topnepalnews":7545,"Ġ{":7546,"à¤°à¤ªà¤ķ":7547,"Ġà¤¨à¤ķà¤®":7548,"Ġà¤®à¤°à¤®":7549,"Ġà¤§à¤®à¤¨":7550,"à¤²à¤®à¤ķ":7551,"à¤²à¤Ĺà¤Ńà¤Ĺ":7552,"ound":7553,"Ġà¥©à¥¬à¥«":7554,"LS":7555,"ģĦ":7556,"Ġà¤ĺà¤¨à¤®":7557,"urk":7558,"à¤¤à¤ĸà¤¤":7559,"à¤ħà¤®à¤°":7560,"âĢ¦..":7561,"GC":7562,"à¤ĸà¤µà¤°":7563,"à¤ĩà¤¨à¤²à¤¬":7564,"Ġà¤®à¤¦à¤¦":7565,"Ġwe":7566,"ible":7567,"à¤ıà¤Īà¤¸":7568,"à¤ıà¤ķà¤ªà¤Łà¤ķ":7569,"à¤Ĩà¤¨à¤¨":7570,"à¤®à¤®à¤§":7571,"Ġà¤¬à¤ļà¤¤à¤®":7572,"Ġà¤¸à¤ľà¤Ĺà¤¤":7573,"à¤²à¤¡à¤®à¤¨":7574,"à¤Ńà¤ªà¤¤à¤¨à¤ķ":7575,"SE":7576,"à¤®à¤£à¤ķ":7577,"à¤µà¤Ńà¤¨":7578,"Ġà¤ĵà¤¨":7579,"Ġà¤Ĳà¤¨à¤¹à¤°":7580,"à¤®à¤ł":7581,"à¤ĩà¤ĸ":7582,"à¤¸à¤²à¤°":7583,"à¥®à¥¦à¥¦":7584,"Ġà¤Ĩà¤ıà¤ľà¤¸":7585,"Ġfin":7586,"unicipality":7587,"Ġà¥¤âĢľ":7588,"Ġà¤Ńà¤°à¤¤à¤ķ":7589,"à¤¬à¤¤à¤¬":7590,"à¥¯à¥©":7591,"à¤ĥâĢĵ":7592,"à¤Ńà¤Ĺà¤µà¤¤":7593,"TE":7594,"à¤Łà¤ĸ":7595,"à¤ıà¤ĩà¤®":7596,"Ġà¤ĺà¤¨à¤¤":7597,"Ġà¤ĵà¤ıà¤¸":7598,"à¤§à¤¨à¤Ĺ":7599,"Ð¾Ð±":7600,"Ġà¥§à¥¯à¥«à¥¯":7601,"ĠðŁĻ":7602,"ĠMicrosoft":7603,"á»":7604,"Ġasked":7605,"LD":7606,"à¤®à¤²à¤®":7607,"à¤¤à¤ķà¤¬":7608,"à¤°à¤ªà¤¥à¤ķ":7609,"de":7610,"à¤¸à¤¹à¤¨":7611,"Ġà¤Ĩà¤¦à¤¨à¤ª":7612,"à¤Ķà¤ªà¤ļ":7613,"ings":7614,"à¤®à¤°à¤¸":7615,"à¤¦à¤¶à¤ķ":7616,"à¤¶à¤µà¤ª":7617,"Ġà¤ļà¤ĸ":7618,"à¤®à¤¬à¤ľ":7619,"áĥĲ":7620,"Ġà¥§à¥¯à¥Ńà¥§":7621,"Ġà¤¤à¤®à¤¸":7622,"à¤ļà¤Ļ":7623,"à¤·à¤£à¤ªà¤¤":7624,"à¤¹à¤¨à¤µ":7625,"Ġà¤ªà¤¦à¤®à¤¬à¤¹":7626,"Ġà¥¨à¥¬à¥Ń":7627,",âĢĺ":7628,"Ġà¤Ĳà¤ļ":7629,"Ġà¤Ĺà¤ľà¤²à¤²":7630,"âĨĲ":7631,"à¤īà¤§":7632,"à¤°à¤®à¤ªà¤Ľ":7633,"Ġà¤ªà¤¤à¤ŀ":7634,"à¤¨à¤Ĺà¤°à¤¸":7635,"ĠMB":7636,"à¤Ĺà¤Ńà¤Ļ":7637,"Ġà¤ĳ":7638,"à¤¬à¤¤à¤¸":7639,"à¤°à¤¹à¤¸à¤®":7640,"à¤²à¤Ī":7641,"à¤µà¤¬à¤ľ":7642,"à¤²à¤ķà¤¸":7643,"à¤²à¤ķà¤¦":7644,"à¥Įà¤ģà¤Ĥ":7645,"à¤¬à¤²à¤¸à¤®":7646,"à¤¾;":7647,"à¤¤à¤ªà¤°":7648,"Ġà¤Ŀà¤Ŀà¤²":7649,"à¤®à¤¬à¤¦":7650,"à¤°à¤¥à¤°":7651,"Ġcan":7652,"Ð¸Ð¹":7653,"à¤Ĩà¤¦à¤°à¤£":7654,"essage":7655,"à¥Ĥ'":7656,"Ġà¤¸à¤®à¤¯à¤¬":7657,"Ġà¥¦à¥¬à¥¬":7658,"imal":7659,"à¤ĭà¤£":7660,"à¤ħà¤ªà¤®":7661,"man":7662,"à¤®à¤·":7663,"Ġà¤ľà¤¯à¤¶":7664,"Ġà¤§à¤¬":7665,"Ġà¤¸à¤¬à¤¥":7666,"Ġà¤Ĩà¤¯à¤¶":7667,"Ġ???":7668,"Ġà¤¨à¤Ĩà¤ıà¤¸à¤®":7669,"af":7670,"à¤®à¤µà¤¤":7671,"Ġà¤īà¤¤à¤°":7672,"Ġà¤Ŀà¤ª":7673,"Ġà¤®à¤Ĺà¤ľà¤ķ":7674,"ïģ¶":7675,"Field":7676,"à¥ģ!":7677,"Ġà¤¸à¤¥à¤ª":7678,"à¤§à¤Ńà¤°":7679,"à¤¡à¤Ł":7680,"à¤ĩà¤¤à¤ķ":7681,"à¤£à¤¯à¤ªà¤Ľ":7682,"Ġà¤Ńà¤µà¤¨à¤Ń":7683,"Ð¾Ð³Ð¾":7684,"Ġà¤ľà¤®à¤ĺà¤Łà¤®":7685,"76":7686,"ïĢ":7687,"Ġà¤²à¤¹à¤²":7688,"à¤łà¤¤à¤®":7689,"âĢĻâĢĶ":7690,"Ġà¤¬à¤²à¤ľà¤«":7691,"à¤¸à¤¹à¤ľ":7692,"à¥Įà¤Ĥà¥¤âĢĿ":7693,"rit":7694,"Â°":7695,"à¤¸à¤ıà¤ķ":7696,"à¤¹à¤Ļ":7697,"à¤Ĥ...":7698,"à¤Ŀà¤°":7699,"à¤¯à¤¯à¤®":7700,"à¤«à¤²à¤®":7701,"à¤¾à¤ģâĢĻ":7702,"à¥ĭà¥¤[":7703,"à¤²à¤Ĺà¤¹à¤°":7704,"Ġà¤ĸà¤¸à¤ĸà¤¸":7705,"Ġà¤ıà¤«à¤ıà¤®à¤¬":7706,"à¤ªà¤°à¤ľ":7707,"Ġà¤¸à¤¹à¤°à¤¬":7708,"à¤§à¤¨à¤¸à¤¹":7709,"à¤¤à¤ķà¤¤":7710,"à¤Ĩà¤®à¤®":7711,"Ġà¤Ĺà¤ĩà¤°à¤¹à¤¨":7712,"old":7713,"à¤ľà¤Ńà¤¤":7714,"à¤¸à¤£":7715,"à¤ĩà¤Ńà¤®":7716,"à¤¶à¤¨à¤¦":7717,"Ġà¥§à¥Ńà¥¬":7718,"ital":7719,"rop":7720,"LE":7721,"SS":7722,"Ġà¤ħà¤¨à¤¸":7723,"Ġà¥§à¥©à¥«":7724,"Ġà¥§à¥¬à¥¬":7725,"Ġà¤ªà¤¥à¤ª":7726,"à¤£à¤ĸ":7727,"ices":7728,"Ġpr":7729,"ations":7730,"ix":7731,"à¥Ĥà¥į":7732,"à¤Ĩà¤ĩà¤ķ":7733,"Ġà¤¬à¤¸à¤°":7734,"Ġà¥§à¥¨à¥¯":7735,"Ġà¥§à¥Ńà¥¦":7736,"ĠMunicipality":7737,"Ġà¤¨à¤µà¤¸":7738,"à¤ľà¤ħà¤¨":7739,"à¤ļà¤Ń":7740,"à¤£à¤Ń":7741,"à¤¾ï¿½":7742,"à¤¹à¤£à¤®":7743,"Ġà¤°à¤¸à¤®":7744,"Ġà¤ľà¤ļ":7745,"à¤īà¤¦à¤ķ":7746,"Ġà¥§à¥§à¥®":7747,"à¤¿Ã·":7748,"à¤µà¤Łà¤®":7749,"à¤§à¤µà¤²":7750,"à¤¸à¤¨à¤¹":7751,"Ġà¤¹à¤¦à¤¬à¤¨":7752,",,,":7753,"ĠÙħ":7754,"à¤°à¤ħà¤°":7755,"à¤µà¤°à¤µ":7756,"à¥Įà¤ģâĢĿ":7757,"Ġà¤¥à¤ªà¤ĺà¤Ł":7758,"Ġà¥¨à¥Ńà¥«":7759,"orld":7760,"ĠBo":7761,"å¤":7762,"Ġ01":7763,"Ġà¤Ĩà¤¶à¤ķ":7764,"à¤«à¤¸à¤²":7765,"à¤¹à¤ķà¤¸":7766,"Ġbusiness":7767,"à¤¯à¤ľà¤¨à¤¬":7768,"à¥įà¥Ī":7769,"à¤²à¤µà¤°":7770,"à¤®à¤§à¤¨":7771,"à¤Ńà¤¡":7772,"à¤¨à¤¨à¤¸à¤ķ":7773,"Ġà¤ľà¤¸à¤¸":7774,"à¤®à¤®à¤£":7775,"à¤°à¤ªà¤Łà¤ķ":7776,"à¤Īà¤ķà¤²à¤®":7777,"orea":7778,"ĠPh":7779,"Ġà¥¨à¥¦à¥¨à¥©":7780,"Ġà¤ĸà¤²à¤Ļ":7781,"lig":7782,"Ġà¤Ĩà¤¸à¤®":7783,"à¤ĺà¤¤":7784,"Ġà¤Ĩà¤ĩà¤ıà¤¨à¤ľ":7785,"à¤¨à¤°à¤¤":7786,"à¥ģâĢĿ,":7787,"Ġà¤ľà¤¨à¤¸à¤ĸ":7788,"ING":7789,"Ġà¦":7790,"à¤ªà¤²à¤Ĺ":7791,"Ġà¤Ńà¤ıà¤Ŀ":7792,"à¤ĩà¤²à¤Łà¤ķ":7793,"Ġ-----":7794,"à¥į..!!":7795,"Ġà¤¸à¤¨à¤ķ":7796,"à¤ľà¤µà¤²":7797,"Ġà¥¦à¥ªà¥®":7798,"mugu":7799,"åĲ":7800,"Ġall":7801,"à¤§à¤¸à¤Ń":7802,"à¤ĩà¤®à¤®":7803,"Ġà¤¬à¤¸à¤¸":7804,"Ġà¤¸à¤¯à¤ľà¤¨":7805,"ãģŁ":7806,"conomic":7807,"à¤¨à¤¸à¤¨":7808,"Ġà¤¤à¤²à¤¤":7809,"ounc":7810,"etail":7811,"à¤®à¤¬à¤°":7812,"Ġà¤®à¤Ńà¤¨":7813,"à¤ħà¤µà¤¸à¤°":7814,"ĠNext":7815,"à¥¨à¥¦à¥¬à¥¯":7816,"April":7817,"à¤¹à¤Ĺ":7818,"à¤¦à¤°à¤ª":7819,"Ġà¤ıà¤®à¤ıà¤¸":7820,"à¤®à¤ļà¤°":7821,"à¤Ĭà¤®":7822,"Ð°Ñı":7823,"ĠÐ¾Ð±":7824,"Ġà¤īà¤ªà¤ķà¤°à¤£à¤²":7825,"Ġà¤¢à¤ķà¤®à¤ķ":7826,"Ġà¤¬à¤²à¤Ńà¤¦":7827,"à¥ĭâĢĵâĢĺ":7828,"ĠBh":7829,"les":7830,"à¤ĸà¤¨à¤¬":7831,"Ġà¤ħà¤§à¤ķ":7832,"âĢĻà¥¤":7833,"Ġà¤ĺà¤°à¤ľà¤®":7834,"à¤¹à¤¨à¤ª":7835,"Ġà¤ļà¤°à¤£à¤¹à¤°":7836,"Ġà¥§à¥¬à¥«à¥©à¥ª":7837,"wan":7838,"à¤¦à¤¯à¤¦":7839,"Ġà¤ľà¤ķà¤¡":7840,"Ġà¤¤à¤°à¤µ":7841,"Ġà¤Ĩà¤Īà¤¡à¤²à¤ķ":7842,"à¤²à¤°à¤¹à¤°":7843,"à¤¹à¤ľà¤¸":7844,"à¤¶à¤²à¤ķ":7845,"à¤Ńà¤ľà¤¨":7846,"à¤¯à¤®à¤ªà¤ŀ":7847,"à¤Ĩà¤¤à¤®":7848,"ĠAr":7849,"uls":7850,"Ġà¤¶à¤°à¤¦à¤ķ":7851,"ION":7852,"à¤ªà¤Ń":7853,"à¤¦à¤īà¤¨":7854,"à¤ħà¤¨à¤®":7855,"à¤²à¤¯à¤µ":7856,"à¥ĭ',":7857,"Ġà¤¨à¤¤à¤®à¤¸":7858,"à¤Īà¤Ī":7859,"Ġà¥§à¥¯à¥§à¥¦":7860,"Ġà¥§à¥Ńà¥«":7861,"Ġà¥¨à¥®à¥¦":7862,"à¤®à¤¯à¤¦à¤°":7863,"Ġà¤²à¤¹à¤²à¤¹":7864,"à¤°à¤¹à¤¥à¤µ":7865,"à¤ªà¤®à¤¤à¤ķ":7866,"Ġà¤Ńà¤¯à¤Ń":7867,"à¤ıà¤¨à¤ıà¤®":7868,"Ġà¤¸à¤¡à¤ķà¤¸à¤®":7869,"Ġà¤¤à¤²à¤¸à¤®":7870,"ublic":7871,"à¤ĩà¤ľà¤²":7872,"Ġà¤«à¤°à¤®":7873,"à¤¨à¤Ĺà¤°à¤Ń":7874,"à¤ıà¤¸à¤ıà¤¸à¤ª":7875,"ĠÐ°":7876,"à¤µà¤¸à¤¹à¤®à¤¤":7877,"54":7878,"ÙĬ":7879,"Ġà¤Ĩà¤ĩà¤ķà¤¨":7880,"Ġà¥§à¥¨à¥¬":7881,"à¤¸à¤¹à¤°à¤ķ":7882,"à¤µà¤Ńà¤°à¤¬":7883,"ĠRong":7884,"app":7885,"Ġà¤Ľà¤°à¤ªà¤¸":7886,"à¤¶à¤¤à¤°":7887,"à¤Ńà¤²à¤²":7888,"à¥Į?":7889,"à¤¯à¤¸à¤ªà¤¶":7890,"à¤Łà¤°à¤¸à¤¹":7891,"Ġà¤Ĩà¤Ĺà¤®à¤¨à¤®":7892,"à¥Įà¤Ĥà¥¤'":7893,"Ġman":7894,"ternational":7895,"GCDP":7896,"CH":7897,"à¤¤à¤¡à¤®":7898,"à¤ľà¤¯à¤°":7899,"à¤·à¤¬à¤¹":7900,"à¤ľà¤®à¤¸":7901,"Ġà¥§à¥¯à¥Ńà¥ª":7902,"à¤¼,":7903,"Ġà¤ªà¤¥à¤Ń":7904,"cript":7905,"à¤ıà¤Ĩà¤°":7906,"à¤¬à¤°à¤¤":7907,"à¤ªà¤°à¤¦":7908,"à¤°à¤¸à¤¯":7909,"à¤°à¤ļà¤²à¤¨à¤²":7910,"à¤°à¤ľà¤¨à¤ķ":7911,"igh":7912,"à¥Ģ&":7913,"à¤«à¤¯":7914,"à¤ŀà¤¬à¤¹":7915,"Ġà¤¯à¤¸à¤¬à¤°":7916,"Ġà¤ªà¤¹à¤²à¤²":7917,"right":7918,"à¥Ľ":7919,"à¤¡à¤°à¤¬":7920,"Ġà¤ľà¤¨à¤ªà¤°":7921,"Ġà¤ĺà¤°à¤ĸà¤°":7922,"Ġà¤°à¤®à¤Ŀà¤®":7923,"arch":7924,"Ġwill":7925,"à¤ļà¤¥à¤°à¤®":7926,"ddc":7927,"Ġ`":7928,"à¤µà¤ħà¤ĺ":7929,"Ġà¤ļà¤ķà¤¨":7930,"Ġà¤¨à¤ļà¤¢":7931,"ake":7932,"mer":7933,"Ġà¤®à¤Ń":7934,"Ġà¤ľà¤¯à¤¸":7935,"à¥Ĥ...":7936,"à¤¸à¤®à¤§":7937,"à¤°à¤¹à¤ª":7938,"à¤²à¤¬à¤¦":7939,"à¤¤à¤²à¤¤":7940,"Ġà¤¦à¤²à¤¦à¤²à¤®":7941,"Ġà¥©à¥¨à¥¦":7942,"ied":7943,"à¤¿),":7944,"Ġà¤°à¤Ĺ":7945,"Ġà¤ħà¤²à¤ķ":7946,"à¤ĸà¤ªà¤¤":7947,"à¤°à¤£à¤ª":7948,"Ġà¤ħà¤§à¤°":7949,"ĠâĢĵâĢľ":7950,"ren":7951,"à¤°à¤Ļà¤¬":7952,"Ġà¤¬à¤¬à¤°à¤®à¤¹à¤²":7953,"âģĦ":7954,"à¤¬à¤°à¤¹à¤°":7955,"à¤ļà¤¢":7956,"Ġà¤ħà¤¨à¤¸à¤¨à¤ķ":7957,"à¤Ļà¤¡":7958,"Ġà¤¯à¤¸à¤ħà¤°":7959,"à¥ĩà¥¤âĢĻ":7960,"ĠPAR":7961,"ĠCha":7962,"Ġà¥¨à¥¦à¥¨à¥Ń":7963,"à¤µà¤¯à¤®à¤²":7964,"à¥¨à¥¦à¥§à¥«":7965,"ĠÂ«Â»":7966,"Ġ11486":7967,"aut":7968,"ble":7969,"Ġà¤Ĺà¤ľà¤¬":7970,"à¤¥à¤Ńà¤¨":7971,"à¥Į-":7972,"orn":7973,"ors":7974,"Ġà¤ıà¤²à¤Īà¤¡":7975,"Ġà¤ĸà¤ªà¤¤à¤ķ":7976,"Ġ11485":7977,"»¿":7978,"Ġà¤ħà¤¸à¤°à¤¹à¤°":7979,"à¥ĭà¥¤\"":7980,"à¤Ĩà¤ĩà¤ıà¤¸":7981,"à¤²à¤Ĺà¤°à¤¹à¤°":7982,"Ġhel":7983,"Ã³":7984,"à¥Īà¥Īà¤Ĥ":7985,"Ġà¤ıà¤¨à¤¬":7986,"Ġà¤ħà¤¸à¤Ń":7987,"Ġà¤®à¤¹à¤°à¤²":7988,"Ġà¤Īà¤ŀ":7989,"Ġà¥¨à¥¦à¥¨à¥¯":7990,"Ð¸Ð¼":7991,"Ġele":7992,"ĠAugust":7993,"Ġminut":7994,"77":7995,"à¤¦à¤°à¤¦":7996,"à¤Ĺà¤ªà¤Ľ":7997,"Ġà¤¹à¤Łà¤²":7998,"à¤¹à¤°à¤ª":7999,"Ġà¤īà¤ªà¤ķà¤ª":8000,"Ġà¤°à¤ķà¤®à¤¸à¤¹":8001,"Ġà¥§à¥¯à¥Ńà¥®":8002,"ĠArtists":8003,"JU":8004,"à¤°à¤ħà¤ĺ":8005,"Ġà¥§à¥©à¥©":8006,"ocal":8007,"Nepali":8008,"à¤¡à¤°à¤µ":8009,"à¤¡à¤ľà¤¸":8010,"à¥¤âĢ¦":8011,"Ġà¤®à¤¨à¤¬":8012,"ana":8013,"Ġ11487":8014,"à¤Ĺà¤µà¤¨":8015,"à¤ĩà¤ħà¤ķ":8016,"Ġà¤ħà¤¨à¤µ":8017,"Ġdi":8018,"Ġà¥¦à¥«à¥®":8019,"à¤¬à¤ĺ":8020,"à¤¨à¤®à¤£":8021,"Ġà¤ĺà¤°à¤Ńà¤¨":8022,"Ġà¥§à¥¨à¥©":8023,"ĠTrans":8024,"ï»¿":8025,"à¤¨à¤Łà¤®":8026,"à¤®à¤ªà¤°":8027,"à¤¸à¤ħà¤«":8028,"à¤¥à¤¨à¤²":8029,"à¤Ńà¤°à¤²":8030,"Ġà¤ıà¤ķà¤¢":8031,"ĠCent":8032,"ura":8033,"ights":8034,"à¤¯à¤°à¤¶":8035,"Ġà¤ªà¤§":8036,"à¤¬à¤Ĺà¤°à¤®":8037,"Ġà¤īà¤¡à¤¨":8038,"Ġà¤¡à¤²à¤°à¤¸à¤®":8039,"Ġà¤¯à¤®à¤¨à¤®":8040,"à¤Ĺà¤ªà¤ŀ":8041,"ivers":8042,"Ġà¥§à¥¯à¥ªà¥®":8043,"CO":8044,"TA":8045,"ures":8046,"à¥ĩÂ¥":8047,"à¤®à¤¦à¤²":8048,"Ġà¤¸à¤¯à¤²":8049,"à¤ļà¤Ł":8050,"à¤²à¤¨à¤¦":8051,"ited":8052,"ĠMan":8053,"Ġint":8054,"weet":8055,"à¤Ĺà¤ĸ":8056,"Ġà¤¦à¤ĸà¤²":8057,"Ġà¤¡à¤°à¤ķ":8058,"à¤¶à¤ķà¤¦":8059,"Ġà¤īà¤¦à¤¯à¤°":8060,"Ġà¤ħà¤¹à¤µ":8061,"à¤¸à¤¦à¤¦":8062,"Ġà¤Ĩà¤īà¤¨à¤ķ":8063,"à¤°à¤ļà¤²à¤¨à¤ķ":8064,"Ġà¤Ŀà¤®à¤Ŀà¤®":8065,"RNA":8066,"à¤¤à¤ħà¤²":8067,"à¤ªà¤¸à¤¹à¤°":8068,"à¤Łà¤Ļ":8069,"Ġà¤Ĺà¤°à¤¨":8070,"à¤Īà¤ªà¤²":8071,"Ġà¤°à¤ķà¤®à¤¸à¤®":8072,"Ġà¤ªà¤²à¤¹à¤°":8073,"Ġà¤ķà¤łà¤ª":8074,"Ð¸Ð¸":8075,"Ġà¤¹à¤Ļà¤ķà¤Ļà¤¸":8076,"Ġà¤ħà¤ªà¤¹à¤°à¤£à¤ªà¤Ľ":8077,"Ġarticle":8078,"à¤°à¤Ŀ":8079,"à¤·à¤ľà¤¸":8080,"Ġà¤¸à¤®à¤¤à¤²":8081,"à¤ĩà¤ħà¤¨":8082,"ates":8083,"Ġà¤¤à¤²à¤¬à¤¬":8084,"Ġà¤¸à¤®à¤¯à¤¸à¤®à¤¯à¤®":8085,"ÅĴà¤µ":8086,"à¤ľà¤¯à¤¨à¤Ĺà¤°":8087,"à¤µà¤Īà¤®":8088,"Ġà¤ıà¤ķà¤¹à¤ľ":8089,"Ġà¤Ĺà¤ıà¤¸":8090,"Ġà¤¹à¤¦à¤®":8091,"à¤²à¤Ĺà¤ĩà¤¨":8092,"Ġà¥¨à¥©à¥¦":8093,"à¤°à¤¥à¤®à¤¤":8094,"iknews":8095,"Ġà¤²à¤ĸà¤¨à¤ī":8096,"ĠNEPAL":8097,"à¤īà¤·":8098,"à¤²à¤¯à¤ª":8099,"Ġà¤Ĺà¤¤à¤¸":8100,"à¤¨à¤¸à¤¯":8101,"à¥Ĥà¤ģ,":8102,"à¤Łà¤¦à¤¹":8103,"35":8104,"of":8105,"à¤Ńà¤ıà¤®":8106,"Ġà¤¹à¤°à¤¸à¤®":8107,"æĹ":8108,"à¤ĩà¤¤à¤°":8109,"Ġà¥¨à¥¨à¥¦à¥¦":8110,"Phone":8111,"RO":8112,"hy":8113,"à¤¿à¥ĥ":8114,"Ġà¤Ĺà¤¹à¤ķ":8115,"Ġà¤®à¤¨à¤°":8116,"Ġà¤īà¤¨à¤¬":8117,"Ġà¤Ķà¤ķ":8118,"Ġà¤ľà¤¨à¤®à¤¤à¤²":8119,"Ġà¤¨à¤Ĺà¤¦à¤®":8120,"pos":8121,"åĨ":8122,"à¤Īà¤ĸ":8123,"à¤ĵà¤¹à¤°":8124,"Ġà¤Ĩà¤ľà¤®":8125,"Ġà¤§à¤¨à¤¸à¤®":8126,"à¤ķà¤µà¤°":8127,"à¤ķà¤¥à¤°":8128,"Ġà¤Ĺà¤ıà¤¨à¤¨":8129,"Ġà¤°à¤®à¤¨":8130,"à¤Ľà¤ł":8131,"Ġà¤ľà¤¨à¤¤à¤¨":8132,"Ġà¤®à¤¨à¤¶":8133,"Ġà¤Ńà¤ıà¤Ľà¤¨":8134,"à¤Ľà¤²à¤«à¤²":8135,"à¤¶à¤¬à¤¨":8136,"Ġà¤¸à¤®à¤§":8137,"Ġà¤ķà¤®à¤²à¤®à¤£":8138,"à¤¹à¤¨à¤¤à¤²":8139,"Ġà¤¸à¤°à¤¸à¤°":8140,"Ġà¤®à¤¨à¤®à¤¸":8141,"à¤Ńà¤²à¤ªà¤°":8142,"à¤µà¤¶à¤¤":8143,"à¤ľà¤Ńà¤¨":8144,"Ġà¤¹à¤°à¤¦à¤®":8145,"Ġà¤īà¤¸à¤¬":8146,"à¤®à¤¨à¤Ĺà¤°à¤®":8147,"à¤ªà¤£à¤²":8148,"ĠEduc":8149,"econd":8150,"Ġà¤¨à¤Ńà¤ĩà¤ķà¤¨":8151,"à¥ĭ),":8152,"à¤²à¤ªà¤®":8153,"à¤¤à¤ĭà¤·":8154,"à¤°à¤¹à¤¯":8155,"à¥ģà¤ģâĢĻ":8156,"Ġà¤¢à¤°":8157,"à¤ĵà¤¹":8158,"Ġà¥§à¥¨à¥¨":8159,"Ġà¤¬à¤§à¤¶":8160,"à¥¨à¥¦à¥§à¥ª":8161,"Ð»Ñı":8162,"ober":8163,"Ġà¤Ĩà¤ıà¤²à¤Ĺà¤¤":8164,"à¤¸à¤¨à¤¸à¤¤":8165,"Ġà¤¨à¤¬à¤¤":8166,"Ø³":8167,"à¤¬à¤ĩ":8168,"Ġà¤ħà¤°à¤¬à¤²":8169,"à¤®à¤¨à¤¦":8170,"Ġà¤¨à¤ľà¤°à¤¬":8171,"mm":8172,"port":8173,"Ġà¤¨à¤¸à¤ļ":8174,"à¤ıà¤®à¤®":8175,"Ġà¤¬à¤¶":8176,"à¤£à¤¯à¤¨":8177,"à¤°à¤¸à¤µ":8178,"à¤Ĭà¤¦":8179,"Ġoff":8180,"EX":8181,"UTC":8182,"Ġà¤ıà¤®à¤ĵà¤¯":8183,"à¤ĩà¤Łà¤¹":8184,"à¤¦à¤¶à¤¨à¤ķ":8185,"Ġà¥©à¥¨à¥«":8186,"à¤ĩà¤«à¤¸":8187,"ancial":8188,"MP":8189,"à¤¸à¤²à¤§":8190,"ife":8191,"à¤®à¤ĺà¤°":8192,"à¤¸à¤®à¤Ŀà¤¦":8193,"Ð¸ÑĢ":8194,"Ġà¤¹à¤Ļà¤ķà¤Ļà¤¬":8195,"ãģ§":8196,"chool":8197,"Ġà¤ıà¤¨à¤Ĩà¤°à¤Ł":8198,",\"":8199,"à¤¨à¤¬à¤¨":8200,"à¥Ī'":8201,"à¤ľà¤¯à¤®":8202,"à¤Īà¤²à¤®":8203,"à¤łà¤ķà¤¸à¤®":8204,"Ġper":8205,"à¤¦à¤«":8206,"Ġà¤°à¤¶à¤®":8207,"Ġà¤¹à¤ķà¤µ":8208,"à¤Ļà¤ľà¤¸":8209,"à¤¸à¤®à¤¤":8210,"à¤ħà¤£":8211,"à¤ļà¤¨à¤ħà¤ĺ":8212,"à¤µà¤®à¤§":8213,"Ġago":8214,"Ġleading":8215,"ä½":8216,"Ġà¤®à¤Ĺà¤¨":8217,"à¤§à¤Ĺà¤¯":8218,"à¤£à¤¶à¤®à¤¶":8219,"ral":8220,"Ġà¤¬à¤µ":8221,"à¤¾à¤ģà¥¤":8222,"à¥ĥà¥į":8223,"Ġà¤Ĩà¤Īà¤ıà¤®":8224,"ull":8225,"ject":8226,"Ġà¤ıà¤ķà¤¡":8227,"à¤ĩà¤¨à¤¦":8228,"à¤ļà¤²à¤¨à¤ķ":8229,"Ġà¤Ĩà¤ıà¤¦":8230,"Ġnepcal":8231,"ĠApple":8232,"mandu":8233,"99":8234,"à¤ĩà¤ªà¤®":8235,"Ġà¤īà¤¡à¤¡":8236,"ãģĦ":8237,"Ġà¤ŀ":8238,"à¤¾!!!":8239,"Ġà¤Ĩà¤¹à¤¤":8240,"Ġà¤¥à¤°à¤¥à¤°":8241,"à¤¨à¤µà¤¹":8242,"Ġà¥§à¥©à¥Ń":8243,"Ġà¤¡à¤²à¤°à¤Ńà¤¨":8244,"ĠFM":8245,"42":8246,"à¤¸à¤ł":8247,"à¤¶à¤£":8248,"à¤ľà¤¨à¤¦":8249,"à¥Įà¤ģà¤ĥ":8250,"à¤ıà¤¨à¤Ł":8251,"Ġà¤ĸà¤µà¤°à¤¦":8252,"Ġu":8253,"à¤ĩà¤Ńà¤ķ":8254,"Ġà¤ĺà¤¤":8255,"à¤·à¤£à¤ħà¤¨":8256,"à¤°à¤Ńà¤²":8257,"à¤Ĺà¤łà¤¬à¤¨":8258,"ĠNo":8259,"à¥ĭâĢĵâĢľ":8260,"ĠEn":8261,"ãģ«":8262,"à¤¨à¤¨à¤ķ":8263,"à¤ĩà¤®à¤ķ":8264,"à¤Łà¤¨à¤°à¤²":8265,"à¤ķà¤ªà¤¥":8266,"Ġà¥§à¥¨à¥§":8267,"Ġà¤¨à¤ľà¤°à¤¬à¤¨":8268,"Ġà¤Īà¤Ļà¤Ĺ":8269,"ÐµÐ¹":8270,"ĠEducation":8271,"merica":8272,"net":8273,"à¤¬à¤¨à¤²":8274,"à¤ĩà¤¤à¤Ńà¤¨":8275,"ĠBI":8276,"ific":8277,"à¤®à¤Ľà¤®":8278,"à¤¨à¤°à¤µà¤²":8279,"à¤īà¤ŀ":8280,"Ð¾ÑģÑĤ":8281,"Ġà¤ıà¤ļà¤ª":8282,"ĠðŁĻģ":8283,"à¤Ńà¤¡à¤ķ":8284,"à¤¶à¤ķà¤¬":8285,"Ġà¤ĺà¤°à¤Ĩ":8286,"Ġà¤ħà¤ªà¤ļà¤²à¤¨":8287,"Ġà¤ľà¤¨à¤¸à¤¤":8288,"Ġtr":8289,"ĠâĢ¢âĢ¢âĢ¢":8290,"à¤ĩà¤¨à¤ĸà¤¬à¤°à¤¸":8291,"à¤°à¤£à¤¦":8292,"à¤²à¤¤à¤¸à¤®":8293,"ĠAarth":8294,"echn":8295,"Ġà¤Ĥ":8296,"à¤¸à¤°à¤Ń":8297,"à¥ĮâĢľ":8298,"Ġà¤Ĳà¤°à¤²":8299,"Ġà¥§à¥¬à¥§":8300,"mit":8301,"à¤¹à¤¸à¤ķ":8302,"à¤¬à¤°à¤¸":8303,"à¤ĸà¤¬à¤°à¤ķ":8304,"à¤¤à¤¨à¤§":8305,"Ġà¤Ĩà¤®à¤ļ":8306,"ĠFS":8307,"66":8308,"Ġout":8309,"à¤Łà¤§":8310,"Ġà¤¹à¤¤à¤ķ":8311,"Ġà¤ĭà¤£à¤¦":8312,"Ġà¤Ĺà¤«à¤Ĺ":8313,"áĥĺ":8314,"à¤¾âĢį":8315,"à¥įï¿½":8316,"à¤ļà¤¯à¤¨":8317,"à¤ĩà¤ıà¤«à¤ı":8318,"Ġà¤ıà¤¸à¤ķ":8319,"Ġà¤«à¤¯":8320,"Ġà¤Īà¤¬":8321,"Ġ2011":8322,"Ġ08":8323,"Ġà¤ıà¤«à¤ıà¤®à¤²":8324,"à¤ħà¤ļà¤²":8325,"Ġà¤łà¤¨":8326,"à¤Ĩà¤ķà¤°":8327,"Ġà¤®à¤¤à¤¸à¤¹":8328,"Ġà¥§à¥¯à¥ªà¥«":8329,"Ġà¥¨à¥¨à¥«":8330,"Ġà¤¨à¤Ĩà¤īà¤²":8331,"gh":8332,"Ø¨":8333,"Ġhas":8334,"à¤¹à¤¨à¤®":8335,"à¤§à¤Ĺ":8336,"à¤Īà¤¤à¤²":8337,"Ġà¤¸à¤ķà¤²":8338,"à¤µà¤ķà¤ªà¤¬":8339,"ĠAarthiknews":8340,"LC":8341,"Next":8342,"à¤Ĥà¤Ĥ.":8343,"à¤¾à¤ģà¥Ī,":8344,"à¤¦à¤¨à¤¸à¤¹":8345,"Ġà¤¨à¤Ĩà¤¤":8346,"073":8347,"IP":8348,"KD":8349,"åĪ":8350,"à¤¶à¤¯à¤²":8351,"Ġà¤ľà¤¶":8352,"Ġà¤¸à¤®à¤ļ":8353,"à¤ħà¤ªà¤ķ":8354,"Ġà¤Ĺà¤¤à¤¬à¤°":8355,"à¤¤à¤¨à¤¦":8356,"Ġà¤Ĩà¤Īà¤ıà¤¨à¤ľ":8357,"Ġ),":8358,"à¤£à¤ķà¤°":8359,"Ġà¤ħà¤ªà¤ľà¤¸":8360,"ĠPage":8361,"à¤ľà¤²à¤ķ":8362,"Ġà¤¸à¤®à¤ªà¤¨":8363,"Ġà¤¨à¤Ĺà¤°à¤ªà¤²":8364,"à¤Ĩà¤°à¤Ĩà¤°":8365,"Ð¾Ðº":8366,"Ġà¥§à¥¯à¥Ńà¥Ń":8367,"FAmerica":8368,"hC":8369,"à¤¿|":8370,"à¤ĩà¤«à¤ķ":8371,"à¤¤à¤ķà¤¸à¤®":8372,"à¤Ĺà¤²à¤ª":8373,"à¤ķà¤¨à¤¹à¤°":8374,"ĠAl":8375,"à¥įâĢĮ,":8376,"ãĤĴ":8377,"vent":8378,"à¥ģà¥ģà¤ģ":8379,"Ġà¤ªà¤¥à¤²":8380,"à¤§à¤¯à¤®":8381,"à¤ģ)":8382,"à¤Īà¤¬à¤¸":8383,"Ġà¤¥à¤®à¤®":8384,"à¤ĵà¤ªà¤¨":8385,"Ġà¤ıà¤®à¤ıà¤®":8386,"Ġà¥§à¥ªà¥¨à¥¦à¥«":8387,"ĠCon":8388,"à¤ĩà¤¬à¤²à¤ķ":8389,"à¥į-âĢĺ":8390,",,,,":8391,"ĠInternet":8392,"IAFAmerica":8393,"ka":8394,"ward":8395,"yl":8396,"ype":8397,"à¤°à¤¯à¤¸":8398,"à¤ķà¤¸à¤¨":8399,"à¤Īà¤Łà¤ķ":8400,"à¤ħà¤°à¤®":8401,"Ġà¤¨à¤Ńà¤ĩà¤¸à¤ķ":8402,"å¹´":8403,"à¤Ĺà¤¤à¤¬":8404,"Ġà¤¢à¤²à¤ķ":8405,"Ġà¤ıà¤®à¤Ł":8406,"à¤ķà¤¸à¤ª":8407,"Ġeconomic":8408,"Ġà¥§à¥¯à¥Ńà¥¨":8409,"Ġro":8410,"ĠÑĩ":8411,"à¤¹à¤¨à¤¸":8412,"Ġà¤Ńà¤¸":8413,"à¤ĺà¤¸à¤®":8414,"Ġà¤°à¤¹à¤¨à¤ķ":8415,"Ġà¤¸à¤¹à¤Ĩà¤¯":8416,"à¥ĭ,âĢĺ":8417,"Ġà¤¸à¤°à¤ª":8418,"Ġà¥§à¥¬à¥Ń":8419,"à¤ķà¤ħà¤ªà¤ķ":8420,"ology":8421,"ier":8422,"à¥į\"":8423,"à¤¡à¤ķà¤°":8424,"Ġà¤°à¤¹à¤¨à¤¸à¤¹":8425,"Ġà¤§à¤¤":8426,"Ġà¤¸à¤Ļà¤ĸ":8427,"à¤®à¤ªà¤¹":8428,"ÐµÐº":8429,"ĠWh":8430,"Ġà¤¬à¤ĸà¤¤à¤ķ":8431,"à¤ļà¤ĺà¤°à¤®":8432,"à¥¤)":8433,"à¤¡à¤ķà¤ªà¤®":8434,"ike":8435,"Ġminutes":8436,"?\"":8437,"à¤¤à¤²à¤²":8438,"Ġà¤ıà¤®à¤Ĩà¤°à¤ª":8439,"à¤²à¤µà¤¹":8440,"Ġà¥§à¥ªà¥«":8441,"à¤¯à¤Łà¤¨à¤¸":8442,"à¤®à¤°à¤£à¤¶à¤ķ":8443,"Ð°Ñģ":8444,"Ġche":8445,"à¥¨à¥¦à¥«à¥®":8446,"nar":8447,"oy":8448,"uf":8449,"Ġ_":8450,"Ġà¤¨à¤°à¤¨":8451,"Ġà¤ªà¤°à¤²":8452,"à¤ľà¤¨à¤¨":8453,"à¤ķà¤ķà¤¥":8454,"Ġà¤ıà¤²à¤ĩà¤¡":8455,"bKD":8456,"Ġet":8457,"à¤¸à¤°à¤¹à¤ķ":8458,"Ġà¤¸à¤¯à¤°":8459,"à¤µà¤ªà¤°":8460,"Ġà¤¨à¤Ĺà¤£":8461,"Ġà¥©à¥¦à¥¦à¥¦":8462,"à¤ªà¤Ńà¤¨":8463,"à¤ªà¤ľà¤¸":8464,"Ġà¤¹à¤¦à¤ķ":8465,"Ġà¤Ńà¤ıà¤Ńà¤°à¤ķ":8466,"Ġà¥§à¥«à¥§":8467,"ĠMH":8468,"vis":8469,"Ġ\\":8470,"à¥į(":8471,"à¤ķà¤ªà¤¨":8472,"Ġà¤ªà¤µà¤¨à¤ķ":8473,"Ġà¤°à¤Ļà¤®":8474,"à¤ĩà¤¸à¤°":8475,"Ġà¤Ĩà¤°à¤§à¤¨":8476,"à¥ģà¥¤'":8477,"oice":8478,"Ġà¤Ĩà¤¦à¤¤":8479,"à¤ľà¤¯à¤¦à¤¶à¤®":8480,"à¤·à¤§à¤°à¤¤":8481,"Sh":8482,"Ġ07":8483,"Ġà¤ģ":8484,"à¤Īà¤²à¤ķ":8485,"à¤°à¤®à¤¯":8486,"Ġà¤ħà¤Ĺà¤®":8487,"à¤ķà¤¨à¤¬":8488,"Ġà¥§à¥ªà¥ª":8489,"ald":8490,"lication":8491,"Ġcommun":8492,"Ġpeople":8493,"à¤ŀà¤¨":8494,"à¤ŀà¤¬":8495,"à¤²à¤®à¤¤":8496,"à¤ħà¤®à¤²":8497,"Ġà¥§à¥«à¥«":8498,"Ġà¥¨à¥§à¥¦":8499,"à¤ĩà¤ķà¤²à¤¬":8500,"Ġportal":8501,"Ġà¥ªà¥«à¥¬":8502,"Ġà¤ķà¤²à¤®à¤ķ":8503,"à¤¨à¤Ĺà¤ĩà¤°à¤¹":8504,"à¤ľà¤Ĺà¤¢à¤ķ":8505,"ĠØ¨":8506,"áĥĲáĥ":8507,"Ġà¤ªà¤ľ":8508,"Ġà¤¸à¤¨à¤¸":8509,"à¤¬à¤²à¤¤":8510,"Ġwas":8511,"Ġres":8512,"riv":8513,"à¤ĩà¤°à¤¸à¤²":8514,"AC":8515,"à¤¹à¤Ń":8516,"Ġà¤¨à¤Ĩà¤Ī":8517,"à¤ĩà¤«à¤®":8518,"à¥Īà¤ĤâĢĵ":8519,"Ġvar":8520,"Ġà¥¦à¥«à¥¬":8521,"Ġà¤ħà¤®à¤²à¤¦":8522,"tion":8523,"Ã¥":8524,"Ġà¤®à¤°à¤¹":8525,"Ġà¤ķà¤°à¤¸à¤®":8526,"à¤Ĩà¤°à¤¬":8527,"Ġ?!":8528,"ico":8529,"etter":8530,"à¸²":8531,"à¤ĭà¤¤":8532,"à¤¡à¤¹à¤²à¤®":8533,"æĸ":8534,"ïĥ":8535,"à¥ĩ,âĢľ":8536,"Ġà¤Ŀà¤²à¤®à¤²":8537,"à¥ģà¤Ĥà¤ģ":8538,"Ġà¤µà¤¨à¤ľà¤Ļ":8539,"Ġà¥§à¥Ńà¥¨":8540,"à¤¼à¤¿":8541,"Ġà¤¨à¤¥à¤ª":8542,"à¤Ļà¤Ľ":8543,"à¤¨à¤®à¤²":8544,"à¤Ĺà¤°à¤¬":8545,"à¤¯à¤¤à¤¹à¤°":8546,"onth":8547,"Ġà¤¬à¤®à¤¬à¤¹":8548,"à¥¨à¥¦à¥ªà¥®":8549,"ED":8550,"à¤¨à¤°à¤¹à¤°":8551,"Ġà¤¸à¤ľà¤ķ":8552,"à¤ıà¤ķà¤¦à¤®":8553,"à¤ĸà¤°à¤¬":8554,"Ġà¤¸à¤¤à¤ª":8555,"Ġà¤īà¤łà¤¬à¤¸":8556,"Ġà¤ıà¤«à¤¡":8557,"ĠEth":8558,"ĠEng":8559,"à¤Ĩà¤ĩà¤¤à¤µ":8560,"onlinekhabar":8561,"à¤ŀà¤¦":8562,"à¤®à¤¨à¤¹à¤°":8563,"Ġà¤Ĭà¤ªà¤¸":8564,"ĠEt":8565,"ersion":8566,"áĥĶ":8567,";,":8568,"Com":8569,"air":8570,"Ġà¤¬à¤ķà¤°":8571,"à¤ľà¤¤à¤ķ":8572,"âĢļ":8573,"à¤·à¤ķà¤¦":8574,"Ġà¤Ĩà¤µà¤¹":8575,"à¤ĩà¤²à¤°":8576,"à¤¡à¤®à¤Ľ":8577,"à¥ĩà¤Ĥà¤ģ":8578,"à¤¯à¤¬à¤°":8579,"à¤°à¤¤à¤ª":8580,"Ġà¤ĵà¤ļ":8581,"à¤®à¤£à¤ª":8582,"ower":8583,"à¥¨à¥¦à¥¬à¥«":8584,"ocuments":8585,"à¤µà¤£à¤²":8586,"à¤ľà¤¯à¤¸":8587,"à¤¡à¤µà¤¹à¤°":8588,"à¤Łà¤ķà¤¹":8589,"à¤µà¤ķà¤¬":8590,"à¤ıà¤®à¤¡":8591,"à¤¦à¤¶à¤°à¤¥":8592,"à¥¦à¥®à¥¨":8593,"Ġnepali":8594,"ml":8595,"à¥ģà¥Ĥ":8596,"à¥¤âĢĺ":8597,"à¤Ĺà¤¤à¤Ńà¤¨":8598,"à¤µà¤¨à¤µ":8599,"alth":8600,"ĠSu":8601,"ĠÐŁ":8602,"Ġà¤Ńà¤ĩà¤ªà¤°":8603,"à¤¯à¤¸à¤ªà¤Łà¤ķà¤ķ":8604,"à¤·à¤¤à¤®":8605,"à¤²à¤®à¤®":8606,"à¤ħà¤¨à¤¶à¤¨":8607,"à¥Īà¤ģà¤Ĥ":8608,"Ġà¤Ĩà¤łà¤ªà¤¹à¤°":8609,"à¥Ģ.)":8610,"ĠWe":8611,"Ġyear":8612,"à¥įà¥Ģà¥Ģ":8613,"RT":8614,"à¤¦à¤¯à¤°":8615,"Ġà¤Ĺà¤¨à¤°":8616,"à¤¶à¤Ĺà¤°":8617,"à¤¤à¤°à¤¹à¤°":8618,"à¤®à¤¤à¤ª":8619,"Ġà¥§à¥«à¥¬":8620,"Ġà¤¬à¤ļà¤¤à¤ķ":8621,"Ġme":8622,"ĠApril":8623,"à¤ĩà¤ªà¤¬":8624,"à¤ĩà¤¨à¤ĸà¤¬à¤°à¤²":8625,"à¤ķà¤ªà¤Ľ":8626,"à¤Ĺà¤µà¤¶":8627,"Ġà¤ħà¤¬à¤¶":8628,"Ġà¥§à¥§à¥¯":8629,"ĠSet":8630,"Ġpre":8631,"Ġà¥¦à¥«à¥§":8632,"Ð°Ð±":8633,"Ġà¤²à¤ĸà¤¨à¤īà¤®":8634,"Ġ}":8635,"à¤¾à¥ĭ":8636,"Ġà¤Ĺà¤«à¤®":8637,"à¤Īà¤¸à¤¹":8638,"à¤Īà¤¸à¤°":8639,"Ġà¥¨à¥Ńà¥¦":8640,"Ġà¥§à¥¯à¥ªà¥¯":8641,"à¤¾à¥ĥ":8642,"à¤¾....":8643,"à¤¸à¤¡à¤°":8644,"à¤²à¤¯à¤²à¤Ĺ":8645,"à¤ĵà¤Ĩà¤°":8646,"ĠÐĴ":8647,"à¤ľà¤ľà¤¸":8648,"Ġà¤ĸà¤°à¤ķ":8649,"Ġà¤ĸà¤Łà¤¨":8650,"à¤Ĩà¤¸à¤¨":8651,"à¥¨à¥¦à¥§à¥¦":8652,"athmandu":8653,"ĠViews":8654,"ĠOctober":8655,"ĠNotice":8656,"2074":8657,"ium":8658,"ĠØ§ÙĦ":8659,"à¥Į:":8660,"Ġà¤ıà¤ķà¤ĸ":8661,"à¤Ĩà¤ĵ":8662,"à¤·à¤£à¤Ńà¤°à¤®":8663,"Ġà¤Ĩà¤ľà¤ªà¤¨":8664,"Ġà¤ļà¤ķà¤ļà¤ķ":8665,"Ġà¤¥à¤²à¤Ļ":8666,"Ġà¤²à¤¹à¤°à¤®":8667,"ump":8668,"nepalik":8669,"ĠUSB":8670,"à¤ľà¤®à¤ķ":8671,"Ġà¤¹à¤¥":8672,"à¤²à¤¨à¤Ĺà¤°":8673,"Ġà¤ĵà¤Ńà¤°à¤¡":8674,"33":8675,"LI":8676,"gram":8677,"Ġà¤°à¤£à¤¸":8678,"Ġà¤¹à¤¬à¤²":8679,"Ġà¤¸à¤®à¤¯à¤¤":8680,"à¤ĩà¤¥":8681,"à¤ĩà¤ŀ":8682,"àµ":8683,"à¤ľà¤²à¤®":8684,"à¤Īà¤ıà¤¨":8685,"Ġà¤ķà¤¸à¤°à¤¤à¤®":8686,"Ġà¤Ĩà¤®à¤°":8687,"à¤µà¤°à¤£à¤¸à¤¹":8688,"ature":8689,"à¤Łà¤¬à¤²à¤¬":8690,"Ġnew":8691,"Ġfinancial":8692,"nepalikorea":8693,"Share":8694,"aus":8695,"à¤®à¤°à¤²":8696,"à¤«à¤°à¤ª":8697,"à¤ľà¤¨à¤ªà¤Ľ":8698,"à¤²à¤¨à¤¤":8699,"à¤ĵà¤¡":8700,"à¤¶à¤¬à¤£":8701,"Ġà¤¨à¤¬à¤ľ":8702,"que":8703,"ãģ¦":8704,"endra":8705,"alleng":8706,"à¤¹à¤¤à¤°":8707,"Ġà¤Ľà¤¯":8708,"Ġà¤Ľà¤²à¤ķ":8709,"Ġà¤Ľà¤®à¤Ľà¤®":8710,"à¤īà¤ªà¤²":8711,"Ġà¤Ĩà¤łà¤µ":8712,"hed":8713,"olle":8714,"Ð°ÑĤÑĮ":8715,"blog":8716,"Â¨":8717,"à¤ģà¥¤âĢĻ":8718,"à¤Ńà¤²à¤ª":8719,"Ġà¤¸à¤®à¤¦":8720,"à¤°à¤ĸà¤£":8721,"Ġà¤®à¤¦à¤°à¤¸":8722,"ets":8723,"Ġà¥¦à¥¬à¥¦":8724,"ãĥ¼":8725,"cent":8726,"do":8727,"à¤µà¤ªà¤¤":8728,"à¤°à¤¤à¤µà¤°":8729,"Ġà¤¸à¤°à¤°":8730,"à¤łà¤ķà¤¸":8731,"à¤²à¤¯à¤®à¤§":8732,"à¤ıà¤²à¤ı":8733,"ĠÐ»":8734,"ajakhabar":8735,"Ġà¤ĺà¤ļà¤ĺà¤ļ":8736,"radi":8737,"ĠEtajakhabar":8738,"à¤µà¤¢":8739,"à¤Ĺà¤Ńà¤°":8740,"Ġà¤Ńà¤ľà¤¨à¤ķ":8741,"Ġà¤¹à¤µà¤¨":8742,"à¤¬à¤ªà¤Ľ":8743,"à¤°à¤£à¤¨":8744,"Ġà¤Ĩà¤¸à¤¨à¤®":8745,"rist":8746,"à¤Ĩà¤®à¤®à¤¹":8747,"à¤ıà¤°à¤®":8748,"Ġà¤Ĩà¤ĩà¤¡à¤²à¤®":8749,"acy":8750,"Ð¾Ð¶":8751,"Ġ06":8752,"à¤¹à¤²à¤¯":8753,"Ġà¤¬à¤Ĺà¤²":8754,"à¤ľà¤ĺ":8755,"Ġà¤µà¤¦":8756,"à¤ĤâĢĵ":8757,"Ġà¤ıà¤¸à¤ıà¤®":8758,"Ġ//":8759,"Tube":8760,"à¤¤à¤¹à¤ķ":8761,"à¥Ĥ(":8762,"Ġà¤¯à¤²à¤®":8763,"Ġà¤ıà¤ŀ":8764,"à¥«à¥ªà¥¦":8765,"à¤¶à¤ķà¤°":8766,"Ġà¤ķà¤²à¤µ":8767,"ĠRep":8768,"apos":8769,"bl":8770,"uz":8771,"à¤£à¤ªà¤¶":8772,"à¤īà¤¨à¤¤":8773,"à¥ĩ,'":8774,"à¤ĵà¤ıà¤®":8775,"ener":8776,"à¤ªà¤¥à¤¸":8777,"ãģª":8778,"ey":8779,"à¤ķà¤Ĺà¤£":8780,"Ġà¤¸à¤¤à¤²":8781,"à¤īà¤¨à¤¤à¤°":8782,"ams":8783,"à¤¾:-":8784,"awaz":8785,"oint":8786,"à¤¬à¤¤à¤²":8787,"Ġà¤«à¤®":8788,"à¤¹à¤°à¤£à¤²":8789,"à¤°à¤¨à¤Ĺà¤°à¤¬":8790,"Ġà¥¦à¥«à¥¨":8791,"Ġà¤¨à¤Ńà¤°":8792,"Ġà¤®à¤ĸà¤¨":8793,"à¤¬à¤ľà¤¸":8794,"Ġà¤¶à¤¤à¤µ":8795,"Ġà¤ħà¤§à¤¬":8796,"à¥ģà¤ģ,âĢĻ":8797,"Ġà¤ıà¤¸à¤¯":8798,"à¤Ĩà¤ĩà¤ı":8799,"Ġà¥§à¥¯à¥¬à¥§":8800,"Ġà¤°à¤°":8801,"Ġà¥¬à¥¦à¥§":8802,"Ġà¤Īà¤ľà¤°":8803,"hashi":8804,"ĠÎ":8805,"Ġà¤¸à¤Ĺà¤°":8806,"Ġà¤¨à¤°à¤ª":8807,"Ġà¤¡à¤ļ":8808,"à¤µà¤ķà¤ªà¤²":8809,"à¤¦à¤¨à¤¹":8810,"à¤¦à¤ķà¤ªà¤¦":8811,"Ġà¤Ĩà¤ļà¤°à¤£à¤®":8812,"Ġà¤ĸà¤¬à¤°à¤¬":8813,"International":8814,"à¤¦à¤ħà¤¨":8815,"Ġà¤ķà¤ªà¤¨":8816,"à¤¨à¤¨à¤Ĺà¤°à¤®":8817,"à¤ľà¤²à¤¸à¤®":8818,"Ġà¥¦à¥«à¥¯":8819,"view":8820,"AS":8821,"Ġà¤ķà¤ļà¤¨à¤ķ":8822,"à¤Ĺà¤Ĺà¤°":8823,"à¤·à¤°à¤¶":8824,"à¥¦à¥¦à¥¨":8825,"Ġà¤ľà¤¨à¤īà¤¤":8826,"Ġà¤¯à¤¸à¤ĸ":8827,"Ġà¤®à¤¨à¤ª":8828,"Ġ2012":8829,"Ġà¤®à¤¹ÅĴà¤µà¤ķ":8830,"à¤¸à¤Łà¤°":8831,"Ġà¤¬à¤¥à¤¨":8832,"Ġà¤®à¤ľà¤µ":8833,"Ġà¤ĸà¤°à¤¸":8834,"Ġà¤ľà¤¨à¤Ĩà¤ķ":8835,"à¤ķà¤®à¤®":8836,"à¤ıà¤¨à¤Ĩà¤°":8837,"Ġà¤Ĩà¤¶à¤²":8838,"Ġà¤ķà¤ªà¤Ł":8839,"à¤Łà¤°à¤ķà¤¨":8840,"Ġà¥©à¥¬à¥¦":8841,"aya":8842,"Ġà¥Ńà¥ªà¥ª":8843,"Ġà¤¤à¤¡à¤ķà¤Ńà¤¡à¤ķ":8844,"li":8845,"Ġà¤Ĺà¤ĩà¤¹":8846,"à¤Ļà¤µà¤°à¤ķ":8847,"Ġà¤§à¤¨à¤µ":8848,"à¤ħà¤ŀ":8849,"Ġà¥§à¥¯à¥ªà¥¦":8850,"Ġà¤§à¤¨à¤ŀ":8851,"à¤ķà¤Łà¤Ĺ":8852,"Ġmy":8853,"à¤¾à¥Īà¤ģ,":8854,"Ġà¥¦à¥ªà¥Ń":8855,"à¤¸à¤«à¤²":8856,"Ġà¤¥à¤¬":8857,"Ġà¤¸à¤¦à¤¶":8858,"Ġà¤Īà¤Ļ":8859,"âĢĶâĢĶ":8860,"à¤ĩà¤¬à¤²à¤®":8861,"Ġà¥§à¥¯à¥¬à¥Ń":8862,"ĠNAB":8863,"kaj":8864,"ox":8865,"youtube":8866,"Â¬":8867,"à¥ĩ;":8868,"à¤ªà¤¯à¤®":8869,"à¤ıà¤¬à¤®":8870,"Ġà¤¬à¤£":8871,"à¤°à¤®à¤µ":8872,"à¤¯à¤¤à¤µà¤¶":8873,"Ġmessage":8874,"its":8875,"Ġno":8876,"oci":8877,"Ø§ÙĨ":8878,"ĠiPhone":8879,"à¥«à¥ªà¥¦à¥¦à¥®à¥¨":8880,"Ġà¤¸à¤²à¤²":8881,"Ġà¤¹à¤£":8882,"Ġà¤¤à¤£":8883,"à¤°à¤µà¤®à¤¯":8884,"Ġà¤¦à¤¶à¤µà¤°":8885,"à¤¥à¤²à¤¤à¤°":8886,"led":8887,"à¤²à¤īà¤ªà¤°":8888,"à¤¹à¤¡à¤¤":8889,"à¤¦à¤Ńà¤®":8890,"à¤¹à¤°à¤¹à¤°":8891,"Ġà¤ªà¤°à¤¬":8892,"Ġà¤¬à¤°à¤«":8893,"à¤Łà¤®à¤¬":8894,"à¤ıà¤²à¤ĵ":8895,"umi":8896,"ÐµÐ»ÑĮ":8897,"GB":8898,"oj":8899,"à¤¾à¥¤âĢĻ":8900,"Ġà¤¨à¤µà¤µ":8901,"à¤·à¤²à¤Ĺ":8902,"Ġsite":8903,"Ġà¥§à¥¯à¥®à¥©":8904,"ravel":8905,"Ġ40":8906,"BS":8907,"shashi":8908,"ÂŃ":8909,"à¥Ĳ":8910,"à¤Łà¤Ńà¤°":8911,"Ġà¤Ńà¤¡à¤ķ":8912,"à¤ļà¤°à¤£à¤ķ":8913,"à¤ĺà¤°à¤¤":8914,"à¥Įà¤Ĥ'":8915,"Ġà¤ĵà¤µ":8916,"Ġà¤Ĩà¤ĩà¤¯":8917,"à¤ıà¤²à¤ľ":8918,"ident":8919,"ages":8920,"pankaj":8921,"etails":8922,"pankajshashi":8923,"New":8924,"ron":8925,"ĠÑį":8926,"à¤ĩà¤ıà¤ªà¤¨":8927,"Ġà¤ľà¤¨à¤¸à¤°à¤ķ":8928,"à¤®à¤¨à¤µà¤®":8929,"à¤¦à¤¨à¤Ĺà¤°":8930,"à¤ĵà¤¨à¤²":8931,"Ġà¥§à¥«à¥Ń":8932,"à¤¸à¤¬à¤®":8933,"ĠMb":8934,"à¤ĸà¤®à¤§":8935,"à¤ĺà¤Ń":8936,"Ġà¤ľà¤¨à¤Ĺà¤£à¤¤à¤¨":8937,"à¤ħà¤µà¤¤":8938,"à¤¶à¤ķà¤¶":8939,"à¤Łà¤°à¤ªà¤¨":8940,"Ġà¤ķà¤¸à¤ľ":8941,"à¤ıà¤®à¤¡à¤¬":8942,"à¤ľà¤¦à¤°à¤²":8943,"Ġà¥¦à¥«à¥ª":8944,"Ġà¤ĺà¤Łà¤ķà¤¹à¤°":8945,"Ġentry":8946,"Cl":8947,"à¥į/":8948,"à¤ĩà¤¸à¤²":8949,"Ġà¥«à¥§à¥¨":8950,"Ġà¤ĵà¤®à¤¬à¤¹":8951,"Ġà¥§à¥¨à¥Ń":8952,"ily":8953,"ility":8954,"à¤§à¤¨à¤²à¤Ĺ":8955,"Ð¸Ð»":8956,"Ġà¤ıà¤¸à¤ĩà¤Ī":8957,")âĢĻ":8958,"æĺ":8959,"à¤°à¤ĸà¤ķ":8960,"à¤¨à¤ľà¤°":8961,"à¤¦à¤ļ":8962,"à¤µà¤īà¤ª":8963,"à¥Į|":8964,"à¤°à¤¤à¤¸à¤®":8965,"à¤¨à¤®à¤ķ":8966,"Ġà¤ľà¤¨à¤ħà¤¨":8967,"à¤¯à¤¸à¤µà¤°":8968,"à¥ģà¤ģà¤Ĥ":8969,"Ġà¤¢à¤²à¤®":8970,"Ġà¥§à¥®à¥§à¥¬":8971,"à¤·à¤§à¤°à¤²":8972,"Ġà¤Ĩà¤Īà¤ªà¤°":8973,"à¤ıà¤²à¤ıà¤¨":8974,"orp":8975,"!âĢĿ":8976,"uc":8977,"Ġà¤¸à¤®à¤¬":8978,"à¤Ĩà¤īà¤¦":8979,"à¤¸à¤µà¤Ł":8980,"à¤ľà¤¬à¤¸à¤®":8981,"NET":8982,"à¤ľà¤ªà¤Ľ":8983,"à¤¹à¤°à¤¸":8984,"à¤ļà¤¨à¤ľà¤Ļ":8985,"Ġà¤ªà¤¤à¤¨à¤ķ":8986,"Ġam":8987,"ÐµÑģ":8988,"Ġà¤ļà¤°à¤£à¤¸à¤®":8989,"Tweet":8990,"Ġà¤ľà¤¯à¤¬":8991,"à¥Ĥ:":8992,"Ġà¤ıà¤ķà¤¬":8993,"à¤²à¤®à¤ĸ":8994,"à¤µà¤°à¤¨":8995,"Ġà¤¸à¤¡à¤ķà¤¸":8996,"Ġà¥§à¥¬à¥¨":8997,"Ġà¤Ĺà¤łà¤¨à¤ªà¤Ľ":8998,"ely":8999,"Ġà¤ħà¤µà¤¶à¤°à¤®":9000,"Ġà¥§à¥¯à¥«à¥«":9001,"68":9002,"à¥įà¥Į":9003,"Ġà¤¶à¤µà¤¦":9004,"à¤°à¤£à¤¸à¤¹":9005,"Ġà¤¸à¤ªà¤¥à¤Ĺ":9006,"Ġà¤Ĩà¤ªà¤¤à¤µ":9007,"Ġà¥§à¥¯à¥¬à¥«":9008,"ĠÐ¿Ð¾":9009,"AW":9010,"à¤¤à¤ļà¤¨":9011,"à¥ĩà¤Ĥ,âĢĻ":9012,"lease":9013,"ĠFire":9014,"ĠHack":9015,"à¤ķà¤°à¤°":9016,"à¤Łà¤²à¤¸à¤®":9017,"à¤¨à¤¦à¤¹":9018,"ĠSe":9019,"ĠIS":9020,"à¤£à¤ªà¤¦à¤ķ":9021,"à¥¨à¥¦à¥¬à¥¬":9022,"à¤°mà¤®":9023,"ĠYouTube":9024,"ced":9025,"Ġà¤¤à¤ľà¤¬":9026,"Ġà¤ıà¤¨à¤ĵà¤¸":9027,"ada":9028,"Ġà¤¹à¤Ļà¤ķà¤Ļà¤µ":9029,"CLUS":9030,"lish":9031,"Ġà¤°à¤¸à¤²":9032,"à¤ıà¤ıà¤«à¤¸":9033,"Ġà¤¤à¤¬à¤®":9034,"à¤ĩà¤ĵà¤ķ":9035,"à¤¸à¤ķà¤®":9036,"Ġà¤®à¤¨à¤¦":9037,"Ġà¤Ĩà¤°à¤ª":9038,"à¤·à¤®à¤§":9039,"à¤¨à¤Ĺà¤°à¤µ":9040,"Ġà¥«à¥¦à¥¦à¥¦":9041,"Ġà¤Ĺà¤łà¤¨à¤¸à¤®":9042,"atur":9043,"ĠtÃ©":9044,"à¤¹à¤Łà¤®":9045,"à¤ªà¤¥à¤°":9046,"à¤¤à¤®à¤¯":9047,"à¤ıà¤ļà¤ĵ":9048,"ĠÐ¾ÑĤ":9049,"CLUSIVE":9050,"CM":9051,"à¥ĩ|":9052,"à¤®à¤¸à¤°":9053,"Ġà¤Ĩà¤¯à¤¤à¤¨":9054,"à¤łà¤¸à¤¹":9055,"à¤¯à¤®à¤Ĺà¤°":9056,"à¤¤à¤°à¤¯":9057,"ãģĮ":9058,"Ġadmin":9059,"ĠĠĠĠĠĠĠĠ":9060,"ĠUSA":9061,"à¤°à¤¯à¤ķ":9062,"Ġà¤Ńà¤°à¤¤à¤²":9063,"Ġà¤ĺà¤°à¤¸":9064,"Ġà¤ħà¤ªà¤¶à¤¬":9065,"Ġà¤ıà¤®à¤ľ":9066,"à¤ıà¤¸à¤¡":9067,"ote":9068,"ux":9069,"Ãŀ":9070,"Ġed":9071,"Ġà¤¸à¤¸à¤®":9072,"Ġà¤ķà¤Łà¤ķ":9073,"à¤§à¤°à¤£à¤ķ":9074,"Ġà¤Ľà¤łà¤²":9075,"à¤°à¤¹à¤¸à¤¨":9076,"Ġà¤¸à¤°à¤Ĺà¤°":9077,"Ġà¤ļà¤²à¤¨à¤ķ":9078,"Ġà¤ªà¤¢à¤¦":9079,"à¤īà¤ªà¤²à¤¬":9080,"à¤Ĺà¤¸à¤Ļ":9081,"Ġà¤¬à¤ķà¤ªà¤¤":9082,"Ð¸Ð²":9083,"Ġà¤¡à¤²à¤°à¤²":9084,"https":9085,"nb":9086,"Ġà¤µà¤¦à¤²":9087,"à¤ĺà¤Łà¤°":9088,"à¤°à¤²à¤¯":9089,"à¤¯à¤¤à¤¤":9090,"à¤¹à¤¨à¤°":9091,"à¤µà¤°à¤£à¤¸à¤®":9092,"à¤µà¤¯à¤¨à¤¬":9093,"à¤¶à¤Ńà¤°à¤®":9094,"pport":9095,"Ġà¤¨à¤§":9096,"à¤¡à¤ķà¤ķ":9097,"à¤°à¤¦à¤¹":9098,"à¤¾à¤Ĥà¥Ī,":9099,"ĠIt":9100,"Ġà¤ħà¤ľà¤¯à¤ķ":9101,"plore":9102,"à¥ĩâĢľ":9103,"Ġà¤¤à¤¬à¤²":9104,"à¤ļà¤ķà¤¤":9105,"Ġà¤Łà¤ªà¤ķ":9106,"à¤ħà¤µà¤¶":9107,"à¤°à¤µà¤£à¤ķ":9108,"Ġà¤¨à¤Ńà¤¤":9109,"à¤¥à¤²à¤¦":9110,"Ġà¤Ľà¤²à¤«à¤²à¤¹à¤°":9111,"Ġà¤Ĩà¤¸à¤¯":9112,"Ġsource":9113,"2017":9114,"uch":9115,"à¤¿âĢĻ,":9116,"à¤·à¤ªà¤¤":9117,"à¤Īà¤Łà¤°":9118,"à¤Īà¤Łà¤¸":9119,"à¥Įà¤Ĥ?":9120,"à¤ļà¤¨à¤¤":9121,"Ġà¤Ńà¤°à¤¸à¤ķ":9122,"Ġà¥§à¥¯à¥¦":9123,"Ġà¤°à¤®à¤ľ":9124,"à¤īà¤¸à¤«":9125,"ĠAct":9126,"Ġà¤ľà¤¨à¤¸à¤®à¤°":9127,"áĥĶáĥ":9128,"work":9129,"Ġà¤ľà¤ľà¤ķ":9130,"Ġà¥§à¥¬à¥©":9131,"Ġà¤ĭà¤£à¤²":9132,"à¥ĩ.)":9133,"ĠRoad":9134,")âĢĵ":9135,"åľ":9136,"à¤¾!!":9137,"à¤¬à¤¸à¤²":9138,"à¤Ľà¤®":9139,"Ġà¤ıà¤ķà¤¸à¤°":9140,"Ġà¥¨à¥§à¥Ń":9141,"Ð°ÑģÑĤ":9142,"à¦¾":9143,"hapa":9144,"à¤¨à¤¤à¤ķ":9145,"Ġà¤¯à¤¸à¤¦":9146,"à¤¤à¤¨à¤¸à¤®":9147,"Ġà¤ķà¤²à¤°à¤ķ":9148,"à¤ıà¤¨à¤ıà¤«":9149,"Ġà¥§à¥«à¥©":9150,"ering":9151,"oll":9152,"à¥¦à¥©à¥©":9153,"Ġà¤¯à¤®à¤¨à¤ķ":9154,"EXCLUSIVE":9155,"sha":9156,"à¤®à¤¸à¤²":9157,"à¤¸à¤ħà¤°":9158,"à¤¥à¤²à¤¸":9159,"Ġà¤¹à¤°à¤«à¤¹à¤°":9160,"âĢ¦]":9161,"ould":9162,"à¤ħà¤ªà¤¡":9163,"Ġà¤®à¤¦à¤¨à¤ª":9164,"ãģĻ":9165,"à¤ıà¤Īà¤¬":9166,"ÐºÐ¸":9167,"à¤Ńà¤ħà¤µà¤¸à¤°à¤®":9168,"à¤ĩà¤¬à¤°à¤ķ":9169,"à¥Įà¥Īà¤Ĥ":9170,"Ġà¤ĺà¤°à¤Ĺ":9171,"Ġà¥§à¥¯à¥Ńà¥©":9172,"à¤®à¤£à¤¹à¤°":9173,"let":9174,"urn":9175,"Ġbest":9176,"Ġ02":9177,"ShareTweet":9178,"à¤°à¤¡à¤®":9179,"Ġà¤¬à¤Ĺà¤¨":9180,"Ġà¤ľà¤ľà¤²":9181,"Ġà¤¸à¤®à¤¦à¤°":9182,"à¤ľà¤¨à¤Ĩà¤¨":9183,"Ġà¤ıà¤ķà¤ł":9184,"Ġà¤Ĩà¤ĩà¤¤":9185,"à¥ģ,âĢĿ":9186,"ence":9187,"à¥ģà¥ģà¥ģ":9188,"ĠRes":9189,"rain":9190,"Ġ04":9191,"ligumi":9192,"ĠtÃ©ligumi":9193,"34":9194,"à¤¤à¤µà¤²":9195,"Ġà¤Ńà¤°à¤¤à¤®":9196,"à¤·à¤ªà¤¨":9197,"à¤²à¤ķà¤¥":9198,"Ġà¤¢à¤ķà¤¢à¤ķ":9199,"à¥¦à¥§à¥ª":9200,"hara":9201,"Th":9202,"Ġà¥¥":9203,"à¤ıà¤ļà¤¸":9204,"à¤°à¤¤à¤¦":9205,"Ġte":9206,"ĠÐ¡":9207,"à¥¨à¥¦à¥§à¥¯":9208,"uss":9209,"Ġà¤²à¤¹à¤¡":9210,"nic":9211,"ĠÚ©":9212,"à¤¯à¤¬à¤²":9213,"à¥ģ..":9214,"à¤¦à¤ľà¤¨":9215,"Ġà¤¬à¤°à¤¬":9216,"orities":9217,"boutà¤®":9218,"ĠÙĪ":9219,"Ġà¥Ģ":9220,"Ġar":9221,"à¤ľà¤Ĺà¤¤":9222,"à¤§à¤¡":9223,"à¤§à¤µà¤°":9224,"Ġà¤Ľà¤¸":9225,"à¤Īà¤ªà¤Ľ":9226,"Ġà¤¯à¤®à¤¬à¤¹":9227,"Ġà¥§à¥¯à¥©à¥¦":9228,"à¤ķà¤¸à¤¤":9229,"Ġà¥¦à¥¦à¥Ń":9230,"Ġà¤īà¤ªà¤°à¤¥":9231,"Ġà¤¡à¤²à¤°à¤¬à¤°":9232,"Ġà¤ħà¤¹à¤®à¤¦à¤²":9233,"Ġà¤°à¤£à¤ľ":9234,"Ġ2009":9235,"YA":9236,"Ġà¤ķà¤°à¤£à¤²":9237,"Ġà¤¬à¤°à¤¹à¤¥à¤µ":9238,"à¤¶à¤°à¤¦":9239,"à¤Īà¤Ńà¤°":9240,"à¤ħà¤«à¤®":9241,"Ġà¤Ķà¤·à¤§à¤ķ":9242,"à¤¸à¤¦à¤Ń":9243,"Ġà¥§à¥ªà¥©":9244,"AND":9245,"à¤¨à¤Ī":9246,"Ġà¤ķà¤£à¤¹à¤°":9247,"à¤ĩà¤Ńà¤²":9248,"à¤Ŀà¤Łà¤¬":9249,"à¤¯à¤ªà¤°à¤ķ":9250,"Ġà¤ıà¤¨à¤ıà¤®":9251,"à¤¤à¤°à¤ķà¤ķ":9252,"Ġà¥¨à¥¬à¥«":9253,"ĠRights":9254,"à¤¸à¤ķà¤¬":9255,"à¤ĺà¤Łà¤¸":9256,"Ġà¥§à¥ªà¥®":9257,"ative":9258,"ĠPay":9259,"Ġà¤Ŀà¤ķà¤Ŀà¤ķ":9260,"Ġà¥§à¥§à¥¦à¥¨à¥¨":9261,"Ñĸ":9262,"áŁ":9263,"à¤¬à¤ĩà¤®":9264,"à¥Įà¥Ī":9265,"Ġà¤¶à¤¶à¤ķ":9266,"à¤ĺà¤µ":9267,"à¤ĩà¤¨à¤¸à¤ķ":9268,"Ġà¤ĵà¤¯":9269,"Ġsc":9270,"à¤ıà¤¨à¤ıà¤¨à¤²":9271,"æľĪ":9272,"EM":9273,"à¤·à¤ľà¤¤":9274,"à¤¥à¤¦":9275,"à¥Įà¤ĤâĢĿ,":9276,"à¤¡à¤®à¤§":9277,"à¤Ĺà¤¬à¤¤":9278,"ĠRadio":9279,"ĠMinorities":9280,"March":9281,"à¤¨à¤Ŀ":9282,"à¥ĢâĢľ":9283,"à¤¦à¤°à¤µ":9284,"à¤¦à¤ľà¤¸":9285,"Ġà¤Ķà¤ł":9286,"à¤°à¤¨à¤ľ":9287,"Ġà¤Ĺà¤£à¤¬":9288,"à¥¦à¥¦à¥¦à¥¦":9289,"ahil":9290,"\"à¥¤":9291,"86":9292,"à¤¾......":9293,"à¤¸à¤ı":9294,"Ġà¤ķà¤ªà¤²":9295,"Ġà¤°à¤¤à¤¨à¤ª":9296,"à¤¬à¤µ":9297,"à¤µà¤²à¤ª":9298,"Ġà¤ħà¤®à¤°à¤ķ":9299,"à¤ıà¤¨à¤¬":9300,"à¤¨à¤ªà¤ŀ":9301,"ĠApr":9302,"ise":9303,"à¤ĺà¤¨à¤¶":9304,"ĠGu":9305,"à¥¦à¥¯à¥¬":9306,"----------------":9307,"Ġelection":9308,"md":9309,"Ġà¤Ĩà¤Ļà¤¦":9310,"à¤¯à¤ķà¤¦":9311,"à¤ķà¤®à¤£":9312,"à¤¯à¤°à¤¸à¤®":9313,"Ġà¤¦à¤²à¤¸à¤®":9314,"à¥¨à¥¦à¥¬à¥Ń":9315,"fox":9316,"Ġà¤Ĩà¤ĩà¤ıà¤®à¤ĩ":9317,"à¤°à¤Ĩ":9318,"à¤¨à¤¥à¤²":9319,"à¤¸à¤ıà¤ª":9320,"Ġà¤°à¤ļà¤¯":9321,"à¤Łà¤ľ":9322,"à¤¡à¤°à¤¶":9323,"à¤ĸà¤¯":9324,"Ġà¥®à¥«à¥¦":9325,"à¤ĩà¤²à¤¨à¤®":9326,"Ġà¤Ńà¤ĩà¤°à¤¹à¤ķ":9327,"Ġà¤¨à¤²à¤¡":9328,"à¸Ļ":9329,"erse":9330,"ulsipur":9331,"OD":9332,"uw":9333,"à¤ĸà¤Ł":9334,"à¤¦à¤¨à¤ªà¤¤":9335,"à¤ĩà¤²à¤Łà¤¹à¤°":9336,"à¥ĩà¤ĤâĢĻ":9337,"Ġà¤¨à¤Ńà¤Īà¤ķà¤¨":9338,"ãģ¨":9339,"ãģ¾":9340,"\\\\":9341,"Ã§":9342,"Ġà¤¬à¤¯à¤¸":9343,"à¤£à¤ķà¤²":9344,"à¥Īà¤Ĥà¤Ĥ":9345,"à¤µà¤°à¤£à¤µ":9346,"Ġà¤¦à¤¶à¤µà¤Ł":9347,"lung":9348,"ted":9349,"Ġì":9350,"à¤¨à¤ħ":9351,"à¥ĭà¥ĩ,":9352,"à¤¸à¤¨à¤ªà¤Ľ":9353,"à¥Įà¤Ĥ,'":9354,"Ġaf":9355,"ooks":9356,"à¥¨à¥¦à¥«à¥Ń":9357,"áĥĺáĥ":9358,"plorer":9359,"GO":9360,"OW":9361,"Ġà¤ĸà¤ŀ":9362,"Ġà¤ĩà¤¤à¤°":9363,"à¤°à¤ľà¤ª":9364,"ĠServ":9365,"ĠKathmandu":9366,"æĪ":9367,"à¤ķà¤ľà¤¨":9368,"à¤µà¤Īà¤ķ":9369,"Ġà¤®à¤Ī":9370,"à¤§à¤°à¤¹à¤°":9371,"Ġà¤Ĩà¤Īà¤²":9372,"à¤ĺà¤²à¤Ĺ":9373,"à¤¯à¤®à¤°":9374,"Ġà¤¸à¤¡à¤ķà¤ħà¤¨":9375,"à¤¸à¤¹à¤°à¤®":9376,"à¤Ĺà¤²à¤¬à¤ľ":9377,"à¤¤à¤°à¤ķà¤²":9378,"Ġà¥§à¥¯à¥¬à¥®":9379,"Ð°Ð¹":9380,"ĠJune":9381,"37":9382,"JA":9383,"NRNA":9384,"ding":9385,"hot":9386,"ket":9387,"à¥ĭÃ·":9388,"à¤®à¤¸à¤ķ":9389,"à¤¦à¤¸à¤¹":9390,"Ġà¤ıà¤Ĩà¤Ī":9391,"à¤īà¤¨à¤¸":9392,"à¤ªà¤®à¤¤":9393,"Ġà¤¸à¤¬à¤®":9394,"à¤®à¤¤à¤¸à¤¹":9395,"à¥ĩà¤ģâĢĵ":9396,"Ġà¤ıà¤¨à¤Ĩà¤°à¤ıà¤¨à¤ıà¤²":9397,"ĠProf":9398,"velop":9399,"55":9400,"we":9401,"à¤°à¤¢":9402,"à¥ĩà¤¿":9403,"à¤¯à¤°à¤µ":9404,"Ġà¤ĩà¤¨à¤²":9405,"à¤¬à¤¨à¤¡":9406,"Ġà¤Ńà¤ıà¤¬à¤®":9407,"Ġà¤ħà¤¹à¤Ļ":9408,"à¤ķà¤°à¤£à¤¹à¤°":9409,"à¤¹à¤ķà¤µà¤°":9410,"Ġà¥§à¥«à¥®":9411,"à¤ıà¤¸à¤ĩ":9412,"à¤ªà¤¦à¤¯":9413,"Ġà¤°à¤®à¤Ŀ":9414,"ĠThapa":9415,"ĠHD":9416,"tr":9417,"à¤ļà¤°à¤¨":9418,"Ġà¤īà¤Ł":9419,"Ġà¤ıà¤ķà¤®à¤¹":9420,"à¤¸à¤²à¤¨":9421,"à¥ĭà¥¤...":9422,"à¤·à¤ķà¤¸à¤®":9423,"à¤¬à¤°à¤ª":9424,"anch":9425,"Ġà¤«à¤²à¤¹à¤°":9426,"Ġà¤¦à¤®à¤ķà¤²à¤ķ":9427,"à¤ıà¤¨à¤ıà¤¨à¤ķ":9428,"à¤¶à¤²à¤²":9429,"Ġà¤²à¤Łà¤ķ":9430,"à¤¸à¤²à¤µ":9431,"à¤ĩà¤ľà¤¤":9432,"Ġlist":9433,"igital":9434,"à¤¯à¤£à¤Ĺà¤¢à¤¬":9435,"Ġany":9436,"à¥ģ),":9437,"à¤ĺà¤ľ":9438,"à¤ĺà¤ĸ":9439,"Ġà¤Ĩà¤Ĺà¤¨à¤®":9440,"âĢ¦âĢĻ":9441,"à¤¤à¤°à¤£à¤¸à¤®":9442,"à¤¯à¤Łà¤¨à¤¸à¤®":9443,"ĠSystem":9444,"à¤Łà¤°à¤®à¤§":9445,"Ġso":9446,"isp":9447,"à¥¨à¥¦à¥§à¥©":9448,"imes":9449,"ÐµÐ²":9450,"????":9451,"à¤¿..":9452,"à¥Ī(":9453,"Ġà¤¬à¤ª":9454,"Ġà¤¤à¤ķà¤¸":9455,"ĠÐļ":9456,"Ġpart":9457,"Ġà¥§à¥¯à¥«à¥¨":9458,"ĠExplorer":9459,"à¤µà¤ľà¤ķ":9460,"à¤ıà¤®à¤ª":9461,"Ġà¥¨à¥§à¥ª":9462,"Ġfun":9463,"Ġà¤Ĺà¤¹à¤¨à¤¤":9464,"Ġà¤¹à¤²à¤²":9465,"à¤¡à¤ĸ":9466,"à¤ĸà¤¨à¤µ":9467,"à¤°à¤®à¤¤":9468,"à¤¸à¤®à¤¸à¤ķ":9469,"Ġà¤łà¤¹":9470,"à¤µà¤°à¤«":9471,"Ġà¤¸à¤¡à¤ķà¤¦":9472,"Ġà¥§à¥¯à¥©à¥¯":9473,"à¤Ĺà¤¬à¤®":9474,"ĠAP":9475,"ĠAss":9476,"Ġà¤Ĺà¤ıà¤Ľ":9477,"ĠCity":9478,"ĠLink":9479,"à¥¨à¥¬à¥§":9480,"ĠQNET":9481,"EO":9482,"Mah":9483,"kt":9484,"à¤ģ/":9485,"à¥Įà¤Ĥ)":9486,"à¤¿,âĢĻ":9487,"stru":9488,"ĠOffic":9489,"Ð½ÑĭÑħ":9490,"Continue":9491,"Khabar":9492,"à¤²à¤Ĺà¤²":9493,"Ġà¤¸à¤ĸà¤°":9494,"à¤¹à¤ªà¤¥à¤¸":9495,"à¤¹à¤°à¤£à¤®":9496,"Ġà¤ıà¤ķà¤¹à¤ª":9497,"à¤ªà¤¨à¤¹":9498,"Ġà¤Ńà¤°à¤¥":9499,"Ġà¤¸à¤¤à¤¹à¤ķ":9500,"ĠClick":9501,"Ġà¥¬à¥«à¥¦":9502,"Ġreg":9503,"ocation":9504,"ĠFSX":9505,"BR":9506,"Ġes":9507,"à¤¯à¤¦à¤°":9508,"Ġà¤°à¤¥à¤ķ":9509,"Ġà¤¹à¤¬à¤ķ":9510,"Ġà¤µà¤¶à¤®":9511,"à¤¹à¤°à¤°":9512,"à¤Łà¤²à¤°à¤ķ":9513,"à¤ĩà¤Łà¤¸":9514,"à¤¹à¤¤à¤¸":9515,"ĠFirefox":9516,"'à¥¤":9517,"NS":9518,"Sp":9519,"td":9520,"å°":9521,"à¥ĩà¥Ī":9522,"à¥ģà¥ģÂ¥":9523,"à¤ªà¤²à¤¬":9524,"Ġà¤ħà¤«à¤²":9525,"à¤ıà¤ķà¤Ľ":9526,"à¤¯à¤®à¤¹":9527,"à¤ķà¤²à¤°":9528,"à¤¡à¤²à¤°":9529,"Ġà¥§à¥¬à¥ª":9530,"Ġà¤ĭà¤¦":9531,"Ġà¥¦à¥¦":9532,"à¥¨à¥¦à¥¦à¥¬":9533,"ÑĤÐ¾":9534,"à¥¨à¥¦à¥§à¥¨":9535,"à¤¾',":9536,"Ġà¤¸à¤¦à¤¨à¤¬":9537,"mà¤¹à¤°":9538,"Ãł":9539,"à¤¦à¤Ńà¤¨":9540,"Ġà¤¨à¤¡":9541,"Ġà¤¹à¤ķà¤¹à¤°":9542,"Ġà¤ıà¤®à¤ķ":9543,"à¤Ļà¤ªà¤Ľ":9544,"à¤ıà¤¸à¤Īà¤Ī":9545,"à¤²à¤µà¤¹à¤°":9546,"Ġà¥§à¥®à¥§":9547,"Ġà¤Ĺà¤²à¤«à¤¤":9548,"à¤Ĩà¤ľà¤¸à¤®":9549,"ĠDR":9550,"à¥ĭ?âĢĻ":9551,"arget":9552,"ĳī":9553,"à¤°à¤ľà¤¨à¤®":9554,"à¤¦à¤²à¤Ĺ":9555,"à¤£à¤ļ":9556,"Ġà¤ĺà¤°à¤Łà¤¹à¤°":9557,"ĠPr":9558,"à¥¨à¥¦à¥§à¥§":9559,"Ġà¤Ĩà¤ĩà¤¨à¤¸à¤ķ":9560,"à¤¸à¤°à¤¸à¤«":9561,"ÑĩÐµ":9562,"ĠMarch":9563,"à¥°":9564,"à¤¤m":9565,"à¤Łà¤Ĺà¤¢":9566,"Ġà¤¹à¤°à¤¹":9567,"à¥ĮâĢĮ":9568,"à¤§à¤¨à¤°":9569,"à¤ıà¤¨à¤Ĩà¤ĩà¤¸":9570,"à¤¤à¤°à¤£à¤¬":9571,"à¥¦à¥Ńà¥¦":9572,"earch":9573,"è¿":9574,"Ġà¤¸à¤°à¤¹à¤°":9575,"à¤ļà¤¸à¤¹":9576,"à¤£à¤Ĺà¤°":9577,"à¤°à¤¸à¤¤":9578,"à¤Ĩà¤Ļ":9579,"à¤®à¤²à¤ļ":9580,"Ð¾Ð·":9581,"ÐµÐ½Ð¸Ñı":9582,"OST":9583,"Âºà¤¨":9584,"rome":9585,"Ġem":9586,"Ġà¤ķà¤Ń":9587,"à¤ıà¤ĺ":9588,"Ġà¤¹à¤«":9589,"à¤§à¤¶à¤®à¤¶":9590,"à¤¶à¤ľà¤¸":9591,"Ġà¤«à¤Ļ":9592,"Ġà¤®à¤¹à¤Ĺ":9593,"ict":9594,"Ð°ÑĨ":9595,"Ġà¤¡à¤²à¤°à¤¸":9596,"Ð°Ð´":9597,"Ġque":9598,"roup":9599,"70":9600,"Ġif":9601,"Ġ......":9602,"à¥¥":9603,"à¤²à¤°à¤¸":9604,"à¥ģà¥ĩ":9605,"à¤¨à¤ķà¤ķ":9606,"à¤¸à¤ķà¤µà¤°":9607,"à¤Łà¤°à¤²à¤Ĺ":9608,"à¨¾":9609,"ucket":9610,"Ġ0000":9611,"40":9612,"DA":9613,"bal":9614,"ner":9615,"ÅŁ":9616,"à¤°à¤ĵà¤Ł":9617,"à¤¯à¤¦à¤ķ":9618,"Ġà¤¸à¤°à¤®":9619,"à¤µà¤¯à¤¸":9620,"à¤ıà¤¨à¤®":9621,"à¤¥à¤²à¤Ĺ":9622,"à¤°à¤ķà¤°à¤£à¤¬":9623,"à¤®à¤²à¤¤":9624,"à¤¯à¤Łà¤ķà¤¬":9625,"à¤°à¤·à¤Ł":9626,"à¥¨à¥¦à¥ªà¥Ń":9627,"âĨĳ":9628,"Google":9629,"ja":9630,"now":9631,"ven":9632,"à¥Į,âĢĻ":9633,"Ġà¤ĩà¤¨à¤ķ":9634,"Ġwork":9635,"à¤ľà¤Ĺà¤¢à¤²":9636,"200":9637,"à¤¨à¤°à¤¬":9638,"à¤ıà¤²à¤¬":9639,"Ġà¤¬à¤°à¤ķ":9640,"à¤ľà¤Ł":9641,"à¤¶à¤¨à¤ª":9642,"Ġà¤Ĩà¤ĩà¤¬":9643,"à¤·à¤¯à¤ª":9644,"à¤ªà¤Łà¤ªà¤ķ":9645,"Ġdel":9646,"Ġà¥§à¥¯à¥«à¥ª":9647,"Ġà¤ħà¤µà¤¯à¤µà¤¹à¤°":9648,"ouncil":9649,"Mahendra":9650,"KC":9651,"åĿ":9652,"Ġà¤ªà¤²à¤ķ":9653,"à¤ķà¤ķà¤°":9654,"à¤ľà¤¨à¤ķà¤°":9655,"Ġà¤¨à¤Ĺà¤ı":9656,"ĠWord":9657,"get":9658,"Ġà¤°à¤Ļà¤²":9659,"à¤Ńà¤ľ":9660,"Ġà¤ıà¤ķà¤ªà¤Łà¤ķà¤®":9661,"Ġà¤¬à¤¸à¤Ń":9662,"Ġà¤Ĺà¤£à¤²":9663,"à¤Ĺà¤®à¤¨à¤¸à¤®":9664,"date":9665,"sc":9666,"à¤¤à¤¤à¤²":9667,"à¤¸à¤µà¤¸":9668,"Ġà¤¨à¤ĺ":9669,"à¤ıà¤¶à¤¨à¤²":9670,"Ġà¤¬à¤°à¤¬à¤°":9671,"à¤¥à¤ħà¤¨":9672,"Ġà¤ľà¤¯à¤¦":9673,"à¤łà¤ľ":9674,"à¤Ĺà¤°à¤¨":9675,"Ġà¥¨à¥Ńà¥ª":9676,"à¥ĩà¤ģ,âĢĻ":9677,"ĠBible":9678,"ids":9679,"Ð¾Ð¿":9680,"opy":9681,"à¤¨à¤¹à¤¦":9682,"Ġà¤Ńà¤°à¤£à¤ª":9683,"à¤§à¤ľà¤¸":9684,"à¤ģâĢĻ,":9685,"Ġà¤ľà¤£":9686,"Ġà¤ĸà¤¤à¤®":9687,"à¤ĩà¤¨à¤«":9688,"à¤·à¤¯à¤¸à¤®":9689,"Ġà¥¨à¥«à¥¦à¥¦":9690,"Ġà¤°à¤ľà¤¤à¤ª":9691,"Ġà¥§à¥¯à¥«à¥Ń":9692,"OO":9693,"ä¼":9694,"à¤¶à¤²à¤Ĺ":9695,"à¤Īà¤¥à¤°":9696,"Ġà¤¡à¤Ĺà¤®à¤Ĺ":9697,"à¤¶à¤¨à¤µ":9698,"à¤¹à¤¨à¤Ĺà¤°":9699,"Ġà¤®à¤¤à¤¬":9700,"à¤ĸà¤¨à¤¨à¤ķ":9701,"à¤ªà¤Łà¤ªà¤®":9702,"Ġone":9703,"Ġà¥¯à¥¯à¥¯":9704,"ĠVoice":9705,"à¥¨à¥¦à¥«à¥§":9706,"à¹Ī":9707,"ĠJuly":9708,"Ġ...........":9709,"à¤ķà¤ªà¤ķ":9710,"à¥ģâĢĶ":9711,"Ġà¤Ĩà¤Ļà¤¬":9712,"à¤ļà¤¨à¤ħà¤¨":9713,"à¤µà¤ķà¤°à¤£":9714,"Ġà¥§à¥¯à¥§à¥Ń":9715,"à¥¦à¥§à¥¬":9716,"Ġà¥§à¥¯à¥¬à¥¯":9717,"à¥¨à¥¦à¥«à¥¨":9718,"à¤®à¤¨à¤Ĺà¤°à¤¸":9719,"Ð½ÑĭÐ¹":9720,"à¤¾|":9721,"à¤¿âĢį.":9722,"Ġà¤¸à¤ľà¤¨":9723,"à¤¬à¤ļà¤¤":9724,"Ġà¤µà¤¦à¤®":9725,"Ġà¤¤à¤Ľ":9726,"à¥įà¥¤...":9727,"à¤§à¤¨à¤¦":9728,"à¤¯à¤¯à¤¨à¤¶":9729,"à¤ıà¤²à¤ª":9730,"Ġà¤ıà¤²à¤¡":9731,"à¤Ĩà¤ľà¤Ńà¤¨":9732,"à¤¯à¤ľà¤¨à¤¹à¤°":9733,"Ġrest":9734,"eek":9735,"à¥ĩâĢĿ,":9736,"à¤¨à¤®à¤Ĺà¤°":9737,"à¤¤à¤°à¤īà¤¨":9738,"à¤ħà¤ļà¤®":9739,"Ġà¤²à¤Ĺà¤ĩà¤¨":9740,"Ġà¤Ŀà¤ªà¤Ł":9741,"Ġà¤īà¤¦à¤¯à¤²":9742,"à¤¸à¤¦à¤¸à¤®":9743,"Ġà¥¨à¥¯à¥«":9744,"à¤µà¤¨à¤ķà¤¥":9745,"à¤Ĩà¤Īà¤¤à¤¬":9746,"iter":9747,"ĠIs":9748,"Ġà¤ļà¤°à¤®à¤¸":9749,"à¤ªmà¤¬":9750,"Ġà¤Ĩà¤°à¤ıà¤¸à¤Ĩà¤Ī":9751,"à¸²à¸":9752,")âĢĶ":9753,"PR":9754,"áº":9755,"à¤ĸà¤²à¤Ĺ":9756,"à¤¹à¤°à¤¬":9757,"Ġà¤§à¤¨à¤¸":9758,"à¤¤à¤°à¤Ĺà¤¯":9759,"à¤¯à¤¤à¤¹à¤ķ":9760,"Ġà¤īà¤¦à¤¯à¤®":9761,"à¤ıà¤®à¤ĵà¤¯":9762,"ĠFr":9763,"à¤¼à¥ĭ":9764,"à¤ªà¤¨à¤²à¤Ĺ":9765,"plete":9766,"Ġà¤ħà¤¨à¤ķà¤¨":9767,"AK":9768,"Ġà¤ķà¤µà¤¯":9769,"Ġà¤µà¤¨à¤¹à¤°":9770,"à¤Īà¤ıà¤®":9771,"Ġà¤²à¤Łà¤°à¤®":9772,"à¤®à¤ķà¤¨":9773,"à¤ķà¤°à¤¨à¤Ĺà¤°":9774,"ĠĠĠ":9775,"à¤²à¤°à¤¸à¤ķ":9776,"Ġà¤ªà¤ļà¤¹à¤¤":9777,"ãģ¯":9778,"à¥įà¤ģà¥ĩ":9779,"à½":9780,"ĠÑģÑĤ":9781,"à¤¬à¤ķà¤°":9782,"Ġà¤ļà¤ªà¤²":9783,"Ġà¤ĺà¤°à¤¤à¤°":9784,"Ġà¤ķà¤®à¤²à¤²":9785,"Ġà¤ħà¤¸à¤Ļ":9786,"à¤°à¤µà¤¹à¤¨à¤ķ":9787,"à¥Įà¤ģ:":9788,"Ġà¤ĺà¤Łà¤¦":9789,"à¤Ķà¤ªà¤¨":9790,"ĠSk":9791,"ÐºÐ°":9792,"Ġà¤ħà¤Ĺà¤®à¤µà¤ķ":9793,"iico":9794,"Ġà¤¨à¤¢":9795,"Ġà¤®à¤ķà¤¹":9796,"à¤ľà¤°à¤¹à¤°":9797,"à¥įà¥¤\"":9798,"à¥©à¥¦à¥¦":9799,"Ġà¤ĵà¤Ĺ":9800,"à¤¨à¤µà¤¹à¤°":9801,"Ġà¥§à¥®à¥«":9802,"itation":9803,"ular":9804,"à¥¨à¥¦à¥¨à¥¦":9805,"Ġ!!!!":9806,"44":9807,"Ġà¥ŀ":9808,"Ġà¤Ĺà¤Ĺ":9809,"à¤īà¤¸à¤¬":9810,"Ġà¤Łà¤¹à¤²":9811,"Ġà¤ħà¤¸à¤¦":9812,"à¤Ĩà¤ı":9813,"à¥įà¥¤&":9814,"Ġà¤ħà¤®à¤°à¤ª":9815,"à¤ıà¤¨à¤ıà¤²":9816,"Ġà¥§à¥«à¥¨":9817,"à¤¡à¤¬à¤¡":9818,"Ġà¤Ĩà¤²à¤®à¤ķ":9819,"ĠÐ½Ðµ":9820,"ïģ®":9821,"Ġà¤ķà¤ļà¤¨à¤ķà¤µà¤²":9822,"à¤°à¤Ĺà¤®à¤¨à¤ķ":9823,"à¤²à¤ĸà¤¨":9824,"à¤¡à¤¢":9825,"à¤Īà¤ľà¤¸":9826,"à¤īà¤«":9827,"à¤¨à¤¸à¤ĸà¤£":9828,"à¤ĵà¤Ń":9829,"à¤Ĺà¤®à¤¨à¤ķà¤°":9830,"Ġà¥§à¥Ńà¥ª":9831,"à¤ıà¤¨à¤ıà¤ļà¤¸":9832,"ience":9833,"IM":9834,"PG":9835,"gen":9836,"à¤Ĩà¤°à¤ľ":9837,"à¤ĩà¤¬à¤²à¤²":9838,"Ġest":9839,"Ġà¤Ĩà¤¸à¤¨à¤¬":9840,"à¥©à¥«à¥Ń":9841,"annel":9842,"45":9843,"60":9844,"ware":9845,"à¤ľà¤²à¤²":9846,"à¤¶à¤Ĺ":9847,"à¥ĤâĢĿ":9848,"à¤Łà¤®à¤¸":9849,"ĠDon":9850,"à¤Łà¤µà¤²à¤¸à¤®":9851,"ãĤĭ":9852,"Ġà¤¬à¤¬à¤°à¤®à¤¹à¤²à¤®":9853,"px":9854,"à¤¸à¤«à¤²à¤¤":9855,"Ġà¤µà¤£":9856,"à¤ļà¤ķà¤°":9857,"à¤ĺà¤°à¤Ń":9858,"à¤¸à¤¨à¤¯":9859,"Ġà¤¸à¤Ļà¤Ĺ":9860,"Ġ2010":9861,"à¤¯à¤¶à¤°":9862,"ÑĢÑĥ":9863,"ows":9864,"ĠInformation":9865,"ä¸Ģ":9866,"You":9867,"à¤ķà¤«à¤°":9868,"Ġà¤Ĺà¤°à¤°":9869,"à¤¡à¤®à¤²":9870,"à¤Ĩà¤ľà¤¦":9871,"Ġà¥©à¥¦à¥¨":9872,"Ġà¤¦à¤²à¤µ":9873,"Ġà¤ªà¤Łà¤ķà¤Ńà¤¨":9874,"Ġà¤Ĳà¤ľ":9875,"Ġder":9876,"ĠHong":9877,"à¥¨à¥¦à¥¬à¥¦":9878,"ruary":9879,"Ġà¤¹à¤¤à¤ķà¤¡":9880,"à¤¦à¤ĸ":9881,"à¤ľà¤ªà¤ķ":9882,"Ġà¤ħà¤¥à¤°":9883,"à¤Ļà¤Ĺà¤°à¤²":9884,"à¤°à¤²à¤¯à¤ķ":9885,"Ġ!'":9886,"ĠEle":9887,"Ġà¤°à¤¹à¤°à¤ķ":9888,"ĠLive":9889,"à¤ľà¤¸à¤®à¤§":9890,"ahity":9891,"CMDP":9892,"32":9893,"ient":9894,"Ġà¤ĨÂºà¤¨":9895,"âĢĵâĢĵ":9896,"Ġà¤ĩà¤¡à¤²":9897,"à¤·à¤¦à¤¹à¤°":9898,"ade":9899,"ĠBY":9900,"ett":9901,"Ġà¤ķà¤¦à¤®à¤¬":9902,"Ð¾Ð»ÑĮ":9903,"ĠÏ":9904,"İ¡":9905,"à¤Łà¤Ĺà¤¦":9906,"à¤ļà¤¬à¤°":9907,"à¤¸à¤ķà¤¤":9908,"à¤°à¤¹à¤£à¤®":9909,"Ġà¤¦à¤²à¤¹à¤¨":9910,"Ġà¤ħà¤Ŀà¤¸à¤®":9911,"Ġà¤¹à¤²à¤¸à¤®":9912,"à¤Ĺà¤¢à¤ķ":9913,"Ġà¤°à¤¨à¤Ń":9914,"ĠChe":9915,"ĠBas":9916,"agar":9917,"ĠKong":9918,"Ġtheir":9919,"à¤µà¤īà¤ªà¤ª":9920,"Ġà¤¬à¤¨à¤®":9921,"Ġà¤ħà¤ıà¤ķ":9922,"à¤ĺà¤¢":9923,"Ġà¤ħà¤®à¤°à¤¤":9924,"Ġà¤¨à¤Ńà¤ıà¤¤":9925,"ĠÂ£":9926,"ĠIndia":9927,"ispak":9928,"Ad":9929,"CT":9930,"à¥ĭ]":9931,"à¤Łà¤ĩà¤¨":9932,"à¤Īà¤®à¤¨":9933,"Ġà¤ıà¤«à¤¬":9934,"à¤²à¤®à¤¸":9935,"ĠMo":9936,"Ch":9937,"à¤¨à¤ħà¤Ĺ":9938,"Ġà¤Ľà¤°à¤ª":9939,"Ġà¤ıà¤¨à¤ķ":9940,"Ġà¤ľà¤¨à¤Ĩà¤¸":9941,"Ġà¤Ŀà¤¸à¤Ļ":9942,"à¤«à¤²à¤¸":9943,"Ġà¤¨à¤ªà¤¸":9944,"à¤Ĺà¤®à¤¨à¤¬":9945,"à¤Ĺà¤łà¤¨à¤¸":9946,"Ġdie":9947,"Ġ11515":9948,"ATION":9949,"AJU":9950,"GH":9951,"cy":9952,"à¥ĭ&":9953,"Ġà¤µà¤ļà¤¨à¤²":9954,"à¤ļà¤ĺà¤°":9955,"à¤ĩà¤·":9956,"Ġà¤ħà¤®à¤°à¤¬à¤¹":9957,"à¤ľà¤¸à¤ħà¤¨":9958,"à¤¬à¤²à¤ª":9959,"ĠCont":9960,"Ġsk":9961,"à¤µà¤°à¤²à¤Ĺ":9962,"âĢįà¥ĭ":9963,"Ġà¤¦à¤¸à¤ķà¤¦":9964,"ĠCenter":9965,"MO":9966,"Nispak":9967,"facebook":9968,"à¤²à¤ĸà¤°":9969,"à¤²à¤ĺà¤¨":9970,"à¤¤à¤ĺ":9971,"à¤ģ...":9972,"Ġà¤ľà¤²à¤¸à¤®":9973,"à¤¡à¤¨à¤µ":9974,"à¤ĸà¤ķà¤¸":9975,"Ġà¤ıà¤·":9976,"à¤¯à¤¸à¤¨à¤²":9977,"à¤²à¤®à¤Ł":9978,"à¤¯à¤Łà¤ķà¤¸":9979,"Ġà¤«à¤¨à¤«à¤¨":9980,"Ð½ÑĭÐµ":9981,"ission":9982,"ĠOfficer":9983,"kv":9984,"ãİ¡":9985,"Ġ>":9986,"Ġà¤¨à¤ħà¤Ł":9987,"Ġà¤ªà¤°à¤¸à¤®":9988,"à¤ŀà¤¸à¤¹":9989,"à¤ħà¤¨à¤¨":9990,"Ġà¤ªà¤¦à¤¬à¤¹":9991,"à¤¸à¤°à¤¸à¤®":9992,"Ġà¤ıà¤¸à¤ıà¤¸":9993,"Ġà¥§à¥¯à¥§à¥ª":9994,"à¤µà¤¦à¤¤":9995,"Ġà¤²à¤¡à¤¨":9996,"Ġà¤ķà¤²à¤®à¤²":9997,"ÐµÐ³":9998,"\",\"":9999,"pen":10000,"Ġiafamerica":10001,"Ġà¤¸à¤²à¤¬à¤²":10002,"Ġà¤ķà¤²à¤ķà¤²":10003,"à¤¤à¤°à¤¸à¤°à¤ķ":10004,"Ġà¤²à¤Ĺà¤¨à¤Ĺ":10005,"à¥įà¥¤[":10006,"ama":10007,"à¤¸à¤«à¤°à¤ķ":10008,"eren":10009,"ĠSeto":10010,"à¤¾à¥Ī,":10011,"Ġà¤ķà¤¦à¤ķ":10012,"Ġà¤ħà¤Ĺà¤°":10013,"Ġà¤µà¤°à¤£":10014,"à¤Ľà¤°à¤®":10015,"Ġà¤ıà¤ķà¤¹":10016,"à¤¤à¤ķà¤£":10017,"Ġà¤Ĩà¤°à¤¨":10018,"Ġà¤¹à¤°à¤°":10019,"à¤°à¤®à¤£à¤¸":10020,"Ġà¥§à¥¨à¥ª":10021,"Ġ207":10022,"Ġ2074":10023,"Ġlink":10024,"Ġà¤¤à¤®à¤ĺ":10025,"à¤ıà¤«à¤¡":10026,"Ġà¤Ńà¤°à¤¤à¤¬à¤¹":10027,"Ġcap":10028,"Ġà¤¬à¤ļà¤¤à¤ªà¤¤":10029,"Ġà¤ľà¤Ĺà¤¤à¤ª":10030,"Ġà¤ĵà¤®à¤¨à¤ķ":10031,"à¤īà¤¥à¤¹":10032,"ikon":10033,"à¤ľà¤¬à¤°à¤ľà¤¸":10034,"LO":10035,"ND":10036,"ij":10037,"à¥ĪâĢĿ":10038,"Ġà¤Ľà¤¤à¤¬":10039,"à¤¡à¤Ńà¤°":10040,"Ġà¤ıà¤¡à¤²":10041,"Ġà¤Ńà¤¯à¤Ļ":10042,"rem":10043,"Ġà¤Ĩà¤Īà¤®":10044,"omat":10045,"à¤ªà¤¸à¤²à¤®":10046,"Ġmonth":10047,"Ġà¤ıà¤¨à¤Ĩà¤°à¤ıà¤¨à¤¹à¤°":10048,"à¤Ĩà¤ĩà¤ıà¤®à¤Ī":10049,"ĠLGCDP":10050,"ĠKatha":10051,"lock":10052,"43":10053,"MT":10054,"PS":10055,"TOR":10056,"à¥į',":10057,"à¤¦à¤Ļ":10058,"Ġà¤°à¤¸à¤ķ":10059,"Ġà¤¤à¤¶":10060,"à¤£à¤®à¤¨":10061,"Ġà¤ħà¤¦à¤®":10062,"Ġà¥¨à¥§à¥®":10063,"ĠSUR":10064,"à¤¯à¤£à¤Ĺà¤¢à¤®":10065,"Ø§Ø±":10066,"Ġapplication":10067,"sk":10068,"à¤¨à¤Ĺà¤¦":10069,"à¤ķà¤¡à¤®":10070,"à¤¸à¤°à¤ª":10071,"Ġà¤Ĺà¤Ĺà¤¨à¤²":10072,"Ġà¤°à¤¥à¤²":10073,"Ġà¤µà¤®à¤¨":10074,"à¤ĩà¤Ĩà¤ıà¤ķ":10075,"Ġà¤ĸà¤µà¤°à¤ķ":10076,"à¤¸à¤ķà¤ķà¤¹":10077,"Ġà¤ľà¤¨à¤¸à¤®à¤ķ":10078,"Ġà¤ķà¤®à¤²à¤¸":10079,"à¤Ĩà¤®à¤¸":10080,"à¤ķà¤ķà¤ķ":10081,"à¤µà¤¤à¤¨à¤ķ":10082,"Ġà¤Ĩà¤¦à¤®":10083,"Ġà¤ľà¤®à¤°à¤ķà¤Ł":10084,"à¤¤à¤¸à¤Ļ":10085,"ĠPahil":10086,"Ġà¥¦à¥«à¥«":10087,"Ġà¤µà¤ļà¤¨à¤¬à¤¦":10088,"Ġà¤®à¤°à¤®à¤¸à¤²":10089,"HI":10090,"pur":10091,"à¥ģà¤¿":10092,"à¤¸à¤¬à¤²":10093,"Ġà¤®à¤²à¤²":10094,"à¤¥à¤ķà¤®":10095,"à¤ļà¤£":10096,"à¤ļà¤ħà¤¨":10097,"à¤²à¤¯à¤Ĺà¤¤":10098,"Ġà¥§à¥©à¥¯":10099,"Ġà¥§à¥ªà¥§":10100,"à¤¨à¤¯à¤¬":10101,"arn":10102,"ctor":10103,"Ġà¤Ĩà¤ĩà¤ıà¤®à¤Īà¤²":10104,"åĨĨ":10105,"åĿª":10106,"ãİ¡(":10107,"90":10108,"RP":10109,"press":10110,"Ġà¤ļà¤¹à¤ķ":10111,"à¤¯à¤ķà¤Ĺ":10112,"à¤¯à¤®à¤¨à¤®":10113,"à¤Ĺà¤°à¤¸":10114,"Ġà¤¸à¤ķà¤¨":10115,"à¤¨à¤¨à¤Ĺà¤°à¤ķ":10116,"Ġà¤ħà¤µà¤Ĺ":10117,"Ġà¤¬à¤¹à¤¸à¤¹à¤°":10118,"ley":10119,"ĠWith":10120,"rab":10121,"Ġà¥§à¥¯à¥ªà¥¬":10122,"ARL":10123,"Ġhere":10124,"====":10125,"à¤Ĥ-":10126,"à¤°à¤¹à¤¸":10127,"à¤°à¤¹à¤ªà¤Ľ":10128,"à¤ĩà¤¨à¤¸à¤®":10129,"à¥ªà¥¦à¥¦":10130,"Ġà¤¹à¤ľà¤°":10131,"Ġà¤ķà¤ªà¤¨à¤®":10132,"à¤ıà¤²à¤Ł":10133,"ĠPOST":10134,"Ġà¤Ńà¤°à¤®à¤Ĺ":10135,"ÑĥÑĢ":10136,"Ġà¤²à¤¹à¤¡à¤®":10137,"Ġà¥§à¥¯à¥«à¥¬":10138,"Ġà¥§à¥¯à¥ªà¥¨":10139,"Ð½Ð¾ÑģÑĤ":10140,"ĠSURYA":10141,"47":10142,"GF":10143,"Su":10144,"cha":10145,"google":10146,"iy":10147,"oPost":10148,"à¤¬à¤²à¤¬":10149,"à¤¾à¤Ĥà¤Ĥ":10150,"à¤ıà¤®à¤µ":10151,"Ġà¤²à¤®à¤¤à¤¨":10152,"à¤¶à¤¹à¤°à¤ķ":10153,"ĠMed":10154,"ĠComplete":10155,"Ġà¤ĵà¤ĸà¤°à¤ķ":10156,"ĠPahiloPost":10157,"BC":10158,"IX":10159,"Press":10160,"ser":10161,"ze":10162,"à¤®à¤°à¤£à¤ķ":10163,"à¤¬à¤¯":10164,"à¥Įà¤ģ)":10165,"à¤ķà¤¨à¤¸à¤®":10166,"à¥¨à¥¦à¥¦à¥®":10167,"epalia":10168,"Ġbel":10169,"Ġnepalikon":10170,"ĠPARAJU":10171,"epaliaawaz":10172,"Ġnepalikonepaliaawaz":10173,"ĠPARAJULI":10174,"à¤¤à¤¶à¤¤":10175,"Ġà¤¨à¤µà¤ķ":10176,"à¤«à¤¸à¤®":10177,"à¤ªà¤¨à¤ªà¤Ľ":10178,"à¤ĸà¤°à¤ª":10179,"à¤²à¤¤à¤¹à¤°":10180,"à¤¬à¤¸à¤ª":10181,"Ġà¤Ĩà¤Īà¤¬":10182,".........":10183,"Ġà¤Ńà¤ĩà¤ķà¤¨":10184,"ute":10185,"à¤°à¤Ĩà¤²":10186,"à¤¹à¤Ńà¤¨":10187,"Ġà¤Ĩà¤¸à¤ķ":10188,"à¤īà¤Ļ":10189,"Ġ-'":10190,"Ġà¥§à¥®à¥©":10191,"Ġà¤¬à¤¹à¤¸à¤ªà¤Ľ":10192,"à¤ĩà¤Ńà¤°à¤ķ":10193,"Ġ05":10194,"à¤ĸà¤¶":10195,"à¥Į.":10196,"Ġà¤ħà¤¨à¤Ļ":10197,"à¤²à¤®à¤¹":10198,"à¤µà¤ķà¤°à¤²":10199,"Ġà¤Ľà¤²à¤«à¤²à¤¸à¤®":10200,"Ġà¤Ńà¤Īà¤¦":10201,"à¤Ĭà¤ķ":10202,"Ġsub":10203,"ĠâĢ¦..":10204,"Ġà¤ıà¤¡à¤®à¤ķ":10205,"à¥¦à¥¬à¥®":10206,"à¤Ńà¤ªà¤¤à¤¨à¤²":10207,"}}":10208,"à¤®à¤µà¤¹":10209,"à¤ĤâĢĻ":10210,"Ġà¤ľà¤¯à¤¸à¤µ":10211,"à¤Ńà¤ıà¤°":10212,"Ġà¤§à¤Ļ":10213,"ones":10214,"à¤¾):":10215,"à¥¦à¥¬à¥¯":10216,"Ġà¤ħà¤ľà¤¯à¤®":10217,"ĠRock":10218,"Â«à¥ĩ":10219,"vish":10220,"à¤ķà¤¤à¤ķ":10221,"à¤¯à¤¥à¤²":10222,"à¤¸à¤¯à¤®":10223,"à¤ĸà¤Ĺà¤¨":10224,"à¥Įà¤Ĥà¤ģ,":10225,"Ġà¤ĵà¤ĸà¤²":10226,"Ġà¤ªà¤Ľà¤¯":10227,"Ġà¤Ĩà¤Īà¤ĵà¤¸":10228,"Ġà¤¤à¤²à¤¦":10229,"ilm":10230,"Ġfree":10231,"ĠEd":10232,"Ġà¥§à¥§à¥©à¥¦à¥Ń":10233,"ĠChrome":10234,"ĠUnivers":10235,"wanews":10236,"ïĥĺ":10237,"vishwanews":10238,"Ram":10239,"à¤®à¤¶à¤®à¤¶":10240,"Ġà¤īà¤§à¤®":10241,"à¤°à¤®à¤ĸ":10242,"Ġà¤ıà¤ķà¤¤à¤²":10243,"Ġà¤Łà¤²à¤ķ":10244,"Ġà¤īà¤ªà¤®à¤¨":10245,"Ġà¤¸à¤¨à¤«":10246,"Ġà¥¯à¥«à¥¦":10247,"Ġà¤¸à¤¸à¤«":10248,"Ġlove":10249,"à¤Ĩà¤ĩà¤«":10250,"Ġà¤ľà¤Ĺà¤¤à¤ħà¤®":10251,"ARCH":10252,"Ġaccess":10253,"à¤¿Â·":10254,"à¤µà¤Ľ":10255,"Ġà¤ķà¤ļà¤ķ":10256,"à¤ľà¤²à¤¬":10257,"Ġà¤ªà¤¦à¤§":10258,"Ġà¤¦à¤¶à¤°":10259,"Ġà¤Ĺà¤£à¤®":10260,"Ġà¥§à¥Ńà¥Ń":10261,"à¤ľà¤ªà¤¥":10262,"ĠDetails":10263,"asansar":10264,"Ġà¤Ĺà¤Īà¤¸à¤ķ":10265,"ĠVersion":10266,"ants":10267,"order":10268,"Ġà¤°à¤£à¤Ń":10269,"ĠFebruary":10270,"à§ĩ":10271,"ĠMHz":10272,"sahity":10273,"à¤¹à¤¸à¤¹":10274,"Ġà¤Ĩà¤Īà¤¨":10275,"à¤Īà¤¨à¤¬":10276,"à¤°à¤²à¤²":10277,"à¤®à¤¤à¤¸":10278,"Ġà¥§à¥¯à¥©":10279,"à¤°à¤ľà¤¤":10280,"à¤Ńà¤µà¤¨à¤®":10281,"Ġà¤Īà¤¦":10282,"Ġà¤®à¤¦à¤¨à¤²":10283,"à¥¦à¥§à¥Ń":10284,"Ġ11505":10285,"ĠVideo":10286,"Ġ11511":10287,"ä¸ĩ":10288,"110":10289,"à¤¤à¤µà¤°à¤£":10290,"à¤¹à¤Łà¤ķ":10291,"à¤ļà¤®à¤§":10292,"âĢł":10293,"Ġà¤§à¤°à¤£":10294,"Ġà¤Ĩà¤®à¤¹à¤¡":10295,"à¤¸à¤¹à¤µ":10296,"Ġà¥§à¥¯à¥¨à¥¦":10297,"à¤Īà¤²à¤¹à¤°":10298,"ines":10299,"Ġà¤ĵà¤Ńà¤°à¤²":10300,"à¤¯à¤ľà¤¨à¤¸":10301,"à¸Ń":10302,"à¥¨à¥¦à¥¬à¥§":10303,"................":10304,"Ġ________":10305,"Ġà¤ħà¤ªà¤ķ":10306,"à¤ħà¤¸à¤®":10307,"à¤ªà¤®à¤§":10308,"à¤Ĺà¤²à¤¹à¤°":10309,"Ġà¤Ĩà¤ĩà¤ĵà¤¸":10310,"à¤ľà¤¦à¤£":10311,"à¤ķà¤¬à¤¡":10312,"Ġà¤ıà¤ªà¤¹à¤°":10313,"Ġweb":10314,"ĠOr":10315,"à¥¦à¥ªà¥¬":10316,"riend":10317,"Ġ11507":10318,"Ġà¥®à¥®à¥¦":10319,"Ġ11512":10320,"ãĥ³":10321,"ava":10322,"à¤½à¤½à¤½à¤½":10323,"Ġagain":10324,"Ð°Ð»ÑĮ":10325,"69":10326,"tv":10327,"the":10328,"à¤¿ï¿½":10329,"à¤®à¤ĺà¤°à¤®":10330,"à¤ıà¤Ĩà¤Īà¤ľ":10331,"Ġà¤¬à¤Łà¤®":10332,"à¤ıà¤ķà¤ķ":10333,"à¤£à¤ĺ":10334,"à¤Ļà¤ĺ":10335,"Ġà¤ĩà¤²à¤®":10336,"à¤ļà¤¨à¤¦":10337,"à¤µà¤°à¤£à¤¸":10338,"ĠSur":10339,"Ġind":10340,"ayan":10341,"à¥§à¥ªà¥®à¥®à¥ª":10342,"à¥§à¥ªà¥®à¥®à¥Ń":10343,"æĹ¥":10344,"EL":10345,"åĽ":10346,"à¤¸à¤ĸà¤°":10347,"à¤µà¤Ĺà¤¤":10348,"Ġà¤ľà¤¯à¤ľ":10349,"Ġà¤¹à¤°à¤ª":10350,"Ġà¤¨à¤®à¤ľ":10351,"Ġà¥§à¥ªà¥¨":10352,"ional":10353,"Ġsecond":10354,"Ġdocuments":10355,"Ġà¥ªà¥©à¥«":10356,"ecial":10357,"rade":10358,"WS":10359,"à¤¹à¤²à¤²":10360,"à¤¹à¤®à¤§":10361,"Ġà¤°à¤Ĺà¤¡":10362,"Ġà¤ĸà¤²à¤ª":10363,"Ġà¤ıà¤ķà¤¥":10364,"à¤®à¤ķà¤°à¤£à¤ķ":10365,"Ġà¥¬à¥Ńà¥«":10366,"à¤Łà¤²à¤°à¤²":10367,"à¤Ĺà¤¢à¤®":10368,"à¤°à¤ĸà¤¬à¤°":10369,"Ġà¤¤à¤¬à¤°à¤²":10370,"Ġà¤ķà¤ļà¤¹à¤°":10371,"lobal":10372,"Ġ11530":10373,"Ġà¤®à¤¹Ã¬à¤µà¤ķ":10374,"erseys":10375,"gan":10376,"à¥ģ;":10377,"à¤ļà¤²à¤¸":10378,"Ġà¤ľà¤¨à¤¹à¤°":10379,"à¤µà¤¨à¤¬à¤¹":10380,"à¤¤à¤¨à¤¤à¤°":10381,"à¤Ĺà¤ķà¤µ":10382,"à¤Ĺà¤®à¤¬":10383,"à¤ıà¤¸à¤ıà¤ķ":10384,"à¤¯à¤Łà¤¨à¤¬":10385,"Ġà¤Ĺà¤¨à¤Ĺà¤¨":10386,"Ġpres":10387,"à¤¤à¤¹à¤Łà¤²":10388,"Ġà¥«à¥«à¥«":10389,"âĢĮâĢĮ":10390,"eder":10391,"Ġà¤¨à¤Ĺà¤¦à¤ķ":10392,"Ġà¤µà¤¢à¤¨":10393,"Ġà¥§à¥¯à¥¬à¥©":10394,"Ġ11513":10395,"97":10396,"IK":10397,"Pl":10398,"ration":10399,"âĸ":10400,"à¤¨à¤ı":10401,"à¤µà¤§à¤¨":10402,"Ġà¤ķà¤¹à¤°":10403,"à¤ľà¤¤à¤°":10404,"à¤§à¤¨à¤®à¤¨":10405,"Ġà¤¤Ã¬":10406,"Ġà¤²à¤¯à¤²":10407,"Ġà¤ĸà¤¸à¤¹à¤°":10408,"Ġà¤ħà¤¨à¤¶à¤¨à¤²":10409,"à¤ķà¤²à¤¹à¤°":10410,"à¤ķà¤²à¤¨à¤²":10411,"Ġà¥¨à¥¦à¥¯":10412,"Ġà¤«à¤°à¤µà¤°":10413,"à¤²à¤¤à¤¸à¤®à¤ķ":10414,"Ġà¤ħà¤«à¤°à¤¹à¤°":10415,"à¤ıà¤®à¤Ĩà¤°à¤²":10416,"ala":10417,"Ġà¥©à¥§à¥¦":10418,"à¤ĩà¤ķà¤²à¤¯":10419,"amb":10420,"Ġà¤ľà¤¯à¤¨à¤¨":10421,"à¤°à¤ľà¤¨à¤¸":10422,"ĠComp":10423,"ified":10424,"Ġà¥§à¥Ńà¥©à¥¦à¥®":10425,"RN":10426,"so":10427,"Ġà¤¨à¤ĩà¤²":10428,"à¤°à¤¤à¤ľà¤¸":10429,"Ġà¤ĺà¤¤à¤²":10430,"Ġà¤īà¤ªà¤ľà¤¹à¤°":10431,"à¤Łà¤¨à¤ªà¤Ľ":10432,"Ġà¤ħà¤µà¤ļ":10433,"à¤ıà¤¨à¤Ĩà¤Īà¤¸":10434,"Ġà¥¨à¥§à¥«":10435,"Ġà¤ľà¤¨à¤ķà¤ķ":10436,"ĠMy":10437,"Ġbr":10438,"Ġà¤Ĺà¤Ĺà¤¨à¤ļ":10439,"Ġà¥§à¥¬à¥«à¥©à¥¨":10440,"Ġà¤¬à¤ĸà¤¤à¤®":10441,"Ġx":10442,"à¤¤à¤Ĺà¤¢":10443,"à¤ļà¤ªà¤Ľ":10444,"Ġà¤«à¤²à¤²":10445,"à¤ķà¤¨à¤ªà¤Ľ":10446,"Ġà¥§à¥¬à¥¦à¥¦":10447,"Ġà¤ľà¤¹à¤¦":10448,"Ġtime":10449,"urre":10450,"Ġà¥§à¥¯à¥¬à¥ª":10451,"Ø§ÛĮ":10452,"ĠDecember":10453,"pleted":10454,"51":10455,"Im":10456,"ness":10457,"uary":10458,"ÐĲ":10459,"à¤²à¤¸à¤¨":10460,"à¤¦à¤¯à¤µ":10461,"Ġà¤¬à¤Łà¤°à¤«":10462,"Ġà¤µà¤§à¤¶":10463,"à¤§à¤ľà¤¯à¤¨":10464,"à¤¶à¤ªà¤¤":10465,"à¤Ľà¤Ł":10466,"à¤ĸà¤¤à¤ķ":10467,"à¥Į...":10468,"Ġà¤«à¤°à¤«à¤°":10469,"Ġà¤¨à¤ªà¤ļ":10470,"à¤ľà¤¯à¤¬à¤¹":10471,"Ġà¤ĺà¤¨à¤ĺ":10472,"à¤¼à¥ĩ":10473,"Ġà¤Ĩà¤Ļà¤Ľ":10474,"Ġà¥§à¥Ńà¥©à¥¦à¥Ń":10475,"Ġà¥§à¥Ńà¥©à¥¦à¥¬":10476,"Ġà¥§à¥Ńà¥©à¥¦à¥«":10477,"Ġà¥§à¥Ńà¥©à¥¦à¥¨":10478,"Ġà¥§à¥Ńà¥©à¥¦à¥ª":10479,"Ġà¥§à¥Ńà¥©à¥¦à¥©":10480,"ized":10481,"Ġcomment":10482,"AP":10483,"Ud":10484,"ious":10485,"à¤°à¤Ĺà¤®à¤¨":10486,"à¤¯à¤Ńà¤°":10487,"Ġà¤¸à¤īà¤²":10488,"Ġà¤°à¤¬à¤°à¤ķ":10489,"Ġà¤ħà¤¡à¤ķ":10490,"à¤·à¤ħà¤¨":10491,"à¤ĩà¤¬à¤°à¤®":10492,"à¤Ļà¤®à¤¤":10493,"Ġà¤¤à¤°à¤¹à¤°":10494,"Ġà¤ªà¤¦à¤®à¤°":10495,"Ġà¤®à¤¤à¤ħà¤¨":10496,"Ġà¥¨à¥¯à¥¬":10497,"Ġà¥¨à¥©à¥¨":10498,"anta":10499,"Ġprov":10500,"yb":10501,"à¤ļà¤Ĺà¤µ":10502,"à¤īà¤ªà¤¦":10503,"à¤īà¤Ĩà¤®":10504,"à¤·à¤£à¤¸à¤¹":10505,"Ġà¤«à¤°à¤«":10506,"hel":10507,"ament":10508,"ety":10509,"ĠGirl":10510,"ĠÐ²Ñĭ":10511,"à¤Ĩà¤®à¤¸à¤ŀ":10512,"ARCHIVE":10513,"ä¸ĩåĨĨ":10514,"eep":10515,"à¤ķà¤ĸ":10516,"à¤¿Â¥":10517,"Ġà¤Ĺà¤ĩà¤¯":10518,"à¤£à¤Ńà¤¨":10519,"à¤īà¤ªà¤Ľ":10520,"à¤ĩà¤ıà¤°":10521,"Ġà¤ıà¤ıà¤¨à¤ı":10522,"à¤Ļà¤¥":10523,"à¤®à¤¤à¤Ĺà¤£à¤¨":10524,"Ġà¤ĸà¤°à¤ĸà¤ľ":10525,"reen":10526,"Ġà¥§à¥ªà¥¯":10527,"à¤ĸà¤ķà¤·":10528,"Ġà¤¬à¤Ĺà¤°à¤ķ":10529,"Ð°Ñħ":10530,"Ð½Ð¾Ð¹":10531,"over":10532,"Ġ03":10533,"à¤®à¤¦à¤ķ":10534,"Ġà¤Ĩà¤¦à¤¨":10535,"à¤°à¤²à¤®":10536,"à¤Ĩà¤¨à¤ķ":10537,"Ġà¥ªà¥¦à¥¦à¥¦":10538,"à¥¬à¥¦à¥¦":10539,"à¤Īà¤²à¤Ł":10540,"à¤ıà¤®à¤Ĩà¤Ī":10541,"Ġà¤Ĺà¤łà¤ľ":10542,"Ġlife":10543,"à¤µà¤¯à¤®à¤ķ":10544,"ĠRai":10545,"à¤¾à¥Īà¤Ĥà¥¤":10546,"Ġà¤Ĩà¤īà¤Łà¤¸":10547,"Ġà¤ıà¤ħà¤°à¤ķ":10548,"ause":10549,"Ġel":10550,"à¤²à¤·":10551,"à¥ģ|":10552,"à¤¹à¤¬à¤¹":10553,"à¤ªà¤ł":10554,"à¤µà¤¦à¤°":10555,"Ġà¥ł":10556,"Ġà¤ķà¤ªà¤°":10557,"à¤ıà¤°à¤ķ":10558,"Ġà¤ľà¤Ĺà¤²":10559,"Ġà¤ĩà¤ĸ":10560,"Ġà¤ªà¤ķà¤µ":10561,"à¤¤à¤¬à¤¦":10562,"Ġà¥¨à¥¨à¥¨":10563,"à¤Ĺà¤®à¤¨à¤ªà¤Ľ":10564,"à¤¯à¤Łà¤ķà¤®":10565,"ĠBank":10566,"Ġà¤²à¤ĸà¤¤à¤°":10567,"ouse":10568,"à¹ī":10569,"Yz":10570,"son":10571,"éĢ":10572,"à¤ľà¤¥":10573,"Ġà¤¹à¤°à¤¤":10574,"à¤¢à¤¯":10575,"à¤¨à¤®à¤¹":10576,"à¤Ĺà¤¤à¤¸":10577,"Ġà¤Ŀà¤µ":10578,"à¤¹à¤ķà¤¬":10579,"à¤·à¤®à¤¯":10580,"Ġà¤¬à¤²à¤°à¤²":10581,"Ġà¤¸à¤¹à¤Ńà¤Ĺ":10582,"omit":10583,"Ġà¤°à¤¹à¤°à¤®":10584,"Ġà¤°à¤¹à¤°à¤¹à¤°":10585,"ĠOLD":10586,"à¤ħà¤Ĺà¤·":10587,"Ġà¤ķà¤¦à¤®à¤®":10588,"Ġà¤ķà¤¦à¤°à¤ªà¤¤":10589,"ange":10590,"à¥¨à¥¦à¥«à¥ª":10591,"ĠOLDER":10592,"doc":10593,"à¤Łà¤ľà¤¤":10594,"à¤·à¤Ŀ":10595,"à¥ĥà¤¿":10596,"à¤ĺà¤°à¤¦":10597,"Ġà¤ľà¤¨à¤ªà¤¦":10598,"à¤ķà¤ªà¤Łà¤ķ":10599,"Ġà¥¦à¥©à¥¬":10600,"ĠÐľ":10601,"ĠPe":10602,"ĠHimal":10603,"à¤¨à¤Ĺà¤ıà¤ķ":10604,"à¤ļà¤¥à¤°à¤¬":10605,"Ġ60":10606,"974":10607,"pro":10608,"à¤¨à¤§à¤¨":10609,"à¤¤à¤·":10610,"à¤¸à¤¤à¤²":10611,"à¤¡à¤Ľ":10612,"Ġà¤ıà¤ļà¤¬":10613,"à¤ªà¤°à¤¹à¤°":10614,"Ġà¤ıà¤ķà¤¤à¤¨":10615,"à¤ħà¤«à¤°":10616,"à¤²à¤¨à¤Ń":10617,"à¥ĩ,âĢĿ":10618,"Ġà¤ĵà¤ľà¤¸":10619,"à¤ĸà¤°à¤Ŀ":10620,"à¤ľà¤®à¤¹à¤²":10621,"Ġà¥§à¥®à¥¨":10622,"à¤Ĩà¤°à¤¡":10623,"Ġà¥¨à¥¯à¥®":10624,"à¤Łà¤¬à¤²à¤ª":10625,"ene":10626,"ours":10627,"ajura":10628,"MAND":10629,"à¤Ĺà¤Ľ":10630,"à¤§à¤Ļ":10631,"Ġà¤²à¤¦":10632,"à¤«à¤£":10633,"à¤°à¤¤à¤ªà¤°à¤¸":10634,"Ġà¤Ĩà¤ľà¤²":10635,"Ġà¤ĺà¤°à¤¨à¤ľ":10636,"Ġà¤®à¤²à¤Ļ":10637,"Ġà¤¨à¤¹à¤¸":10638,"à¤¡à¤®à¤°":10639,"à¤µà¤ªà¤¦":10640,"Ġà¤ĸà¤¨à¤ľ":10641,"Ð¸Ð·":10642,"à¥Įà¤ģà¥¤\"":10643,"ĠLocation":10644,"à¤¯à¤£à¤Ĺà¤¢à¤ķ":10645,"Ġà¥§à¥§à¥©à¥¦à¥¨":10646,"QW":10647,"vGF":10648,"à¤¤à¤µà¤°":10649,"Ġà¤¦à¤¨à¤ķ":10650,"à¤¶à¤®à¤²":10651,"à¤°à¤¤à¤Ńà¤°":10652,"Ġà¤ĺà¤®à¤¨":10653,"à¤·à¤£à¤¦":10654,"Ġà¤ĵà¤Ńà¤²":10655,"à¤¬à¤°à¤Ĺ":10656,"Ġà¤ªà¤ķà¤¡à¤®":10657,"ĠÐĿ":10658,"Ð°ÐµÑĤ":10659,"Ġà¤ıà¤«à¤Ł":10660,"ĠWorld":10661,"ope":10662,"Ġ..?":10663,"ohn":10664,"Ġà¤ľà¤¯à¤ľà¤¯à¤ķ":10665,"vGFkv":10666,"38":10667,"ler":10668,"Ø´":10669,"Ġà¤¬à¤°à¤®":10670,"Ġà¤ħà¤Łà¤®":10671,"à¤Ńà¤Ĺà¤¤à¤²":10672,"à¤ķà¤®à¤¬":10673,"à¤ķà¤°à¤£à¤¦":10674,"Ġà¤°à¤¹à¤¨à¤¸à¤ķ":10675,"Ġà¤ıà¤¸à¤¸":10676,"Ġà¥§à¥¯à¥¨":10677,"Ġà¥§à¥¯à¥©à¥®":10678,"Ð¸Ñħ":10679,"ĠHome":10680,"oss":10681,"Ġvi":10682,"obile":10683,"Ġ...........(":10684,"Ġà¤Ľà¤°à¤ªà¤·":10685,"MANDU":10686,"Gz":10687,"OC":10688,"mb":10689,"to":10690,"à¤ļà¤ļ":10691,"à¤¡à¤µà¤°":10692,"à¤Ńà¤¶":10693,"Ġà¤¡à¤¯":10694,"à¤Ŀà¤¯":10695,"à¤Ŀà¤°à¤¨":10696,"à¤Łà¤°à¤ľà¤¸":10697,"Ġà¤Ńà¤Īà¤°à¤¹à¤¨":10698,"à¤¾à¥Īà¤Ĥ-":10699,"à¤¼à¥Ī":10700,"ysansar":10701,"Ġhello":10702,"RL":10703,"fin":10704,"åĬ":10705,"à¤¡à¤¹à¤²":10706,"à¤°à¤£à¤Ńà¤¨":10707,"à¤ħà¤ªà¤²":10708,"à¤°à¤¦à¤¶à¤¨":10709,"Ġà¥§à¥ªà¥¬":10710,"completed":10711,"à¥¦à¥¬à¥«":10712,"Ġà¤ıà¤®à¤ıà¤¡à¤¬":10713,"tang":10714,"Ġer":10715,"à¤¹à¤£à¤²":10716,"à¤¶à¤Ĺà¤¤":10717,"à¤ľà¤¨à¤¶à¤ķ":10718,"Ġà¤¯à¤¸à¤¤":10719,"Ġà¤ķà¤°à¤¹à¤°":10720,"à¤ķà¤®à¤¸":10721,"à¤ķà¤°à¤¨":10722,"à¤µà¤²à¤¡":10723,"Ġà¤Ĳà¤¯":10724,"Ġà¥§à¥¯à¥§":10725,"Ġà¥¨à¥©à¥©":10726,"Ġà¤Ĺà¤ıà¤Ľà¤¨":10727,"Ġbut":10728,"andard":10729,"ãģĭ":10730,"ĠKang":10731,"Ġà¤ªà¤Łà¤ķà¤ªà¤Łà¤ķà¤ķ":10732,"Ġà¤ıà¤¸à¤Īà¤Īà¤ķ":10733,"TKC":10734,"wma":10735,"Ġà¤ªà¤²à¤®":10736,"à¤¦à¤²à¤¬":10737,"à¤Łà¤ļà¤¨":10738,"Ġà¤Ńà¤¯à¤®":10739,"à¤ľà¤®à¤²":10740,"à¤§à¤²à¤Ĺ":10741,"Ġà¤¤ÅĴà¤µ":10742,"à¤īà¤¡à¤²":10743,"Ġà¤§à¤¨à¤¨":10744,"Ġà¤¹à¤¤à¤ªà¤¤":10745,"Ġà¥«à¥§à¥Ń":10746,"ĠNepalese":10747,"à¤°à¤ĺà¤£":10748,"YzTKC":10749,"GzYzTKC":10750,"GzYzTKCwma":10751,"!âĢĻ":10752,"DR":10753,"Ġà¥ĭ":10754,"Ġà¤µà¤ļà¤¨à¤ķ":10755,"Ġà¤īà¤¢":10756,"Ġà¤¸à¤®à¤Ń":10757,"à¤ĩà¤§":10758,"à¤īà¤¨à¤Ń":10759,"à¤īà¤¨à¤ªà¤°":10760,"à¤²à¤ķà¤ª":10761,"à¤ļà¤¨à¤µ":10762,"à¤²à¤¬à¤¡":10763,"Ġà¤¸à¤®à¤¯à¤ħà¤Ĺ":10764,"à¤¸à¤¹à¤¸à¤ļ":10765,"à¤ıà¤¸à¤ĵ":10766,"ĠArticle":10767,"à¤¤à¤¸à¤¯":10768,"Ð¾Ñĩ":10769,"Ġserv":10770,"Ġà¤Ľà¤łà¤²à¤Ĺ":10771,"ĠForm":10772,"aily":10773,"Ġà¥¯à¥®à¥«":10774,"ĠReg":10775,"unday":10776,"Ġà¤ľà¤¨à¤Ĺà¤£à¤¤":10777,"Ġà¤ľà¤®à¤ĺà¤Łà¤ķ":10778,"Ġ\\'":10779,"à¤µà¤ļà¤°":10780,"Ġà¤¬à¤ĺ":10781,"Ġà¤ľà¤¨à¤²":10782,"à¤°à¤¸à¤Ĺ":10783,"Ġà¤ķà¤°à¤ª":10784,"à¤¤à¤²à¤ª":10785,"ato":10786,"à¤īà¤ªà¤¸à¤Ń":10787,"Ġà¤Ĺà¤¹à¤Ńà¤°":10788,"ÑĥÐ´":10789,"aper":10790,"Î¿":10791,"æĿ":10792,"Ġà¤µà¤¡à¤²":10793,"à¤Ŀà¤¨à¤²":10794,"Ġà¤ķà¤®à¤²à¤¬à¤¹":10795,"à¤®à¤ķà¤ķ":10796,"Ġà¤Ĩà¤®à¤¸":10797,"à¤ĩà¤¡à¤¬":10798,"ĠâĢĻâĢĻ":10799,"Ð½Ð¾Ð³Ð¾":10800,"Ġrel":10801,"angtang":10802,"rict":10803,"ĠJanuary":10804,"%,":10805,"News":10806,"person":10807,"à¤¯à¤«":10808,"Ġà¤¨à¤¬à¤°":10809,"Ġà¤µà¤µ":10810,"Ġà¤¦à¤ľ":10811,"à¤¯à¤ķà¤¥":10812,"à¤ĺà¤°à¤¸":10813,"Ġà¤ıà¤ķà¤²à¤ķ":10814,"à¤²à¤¨à¤¤à¤°":10815,"Ġà¥§à¥®à¥®":10816,"Ġà¥¦à¥§à¥Ń":10817,"come":10818,"ĠDh":10819,"à¤ıà¤«à¤Ł":10820,"Ġbu":10821,"ĠGurk":10822,"à¤¤à¤ķà¤®à¤§":10823,"ahoo":10824,"Ã©s":10825,"Ġà¤ķà¤¨à¤ķà¤®à¤£":10826,"jk":10827,"Ġà¤ķà¤²à¤¬":10828,"à¤°à¤£à¤¬à¤¸":10829,"Ġà¤ĺà¤°à¤¬à¤¹":10830,"à¤ĩà¤¨à¤ĸà¤¬à¤°à¤ķ":10831,"à¤¸à¤µà¤¬":10832,"à¤Łà¤µà¤²à¤¸":10833,"oth":10834,"ocial":10835,"ddcmugu":10836,"SP":10837,"mà¤¦":10838,"à¤¨à¤°à¤ª":10839,"à¤¯à¤¶à¤¨à¤²":10840,"à¤µà¤®à¤®":10841,"Ġà¤ķà¤Łà¤°":10842,"à¤Łà¤ªà¤°":10843,"Ġà¤Ľà¤ľà¤¨":10844,"Ġà¤ľà¤«":10845,"à¤¤à¤ķà¤¸":10846,"à¥¨à¥¨à¥¦":10847,"à¤Ĺà¤²à¤ªà¤¨":10848,"à¤®à¤²à¤ª":10849,"Ġà¤Ĩà¤ľà¤ªà¤°":10850,"Ġà¤ħà¤ªà¤¸":10851,"Ġà¤Ĳà¤¡":10852,"à¤®à¤¸à¤Ļà¤²":10853,"à¥¦à¥¬à¥Ń":10854,"à¸ĩ":10855,"ĠTrump":10856,"ship":10857,"à¤ıà¤¯à¤°à¤ª":10858,"allenge":10859,"CP":10860,"off":10861,"ÅĤ":10862,"à¥Ĩ":10863,"à¥ĩà¥ģ":10864,"à¤ıà¤°à¤²":10865,"à¤¬à¤¬à¤Ī":10866,"Ġà¤ªà¤°à¤«":10867,"à¤¸à¤®à¤¥à¤°":10868,"Ġà¥§à¥«à¥ª":10869,"Ġà¤ľà¤Ĺà¤ľà¤Ĺ":10870,"Ġà¥§à¥ªà¥Ń":10871,"als":10872,"ane":10873,"Ġà¥¨à¥ªà¥§":10874,"Ġà¥©à¥©à¥ª":10875,"Ġact":10876,"à¤¨à¤Ńà¤°à¤®":10877,"irm":10878,"à¤ªà¤°à¤®à¤ª":10879,"äºĨ":10880,"Ġà¤Ľà¤²à¤ķà¤ªà¤Ł":10881,"Download":10882,"Wh":10883,"cu":10884,"Ã¨":10885,"ËĪ":10886,"à¤¦à¤¯à¤¸":10887,"à¤¬à¤Ń":10888,"Ġà¤ĨÃ":10889,"à¤Ļà¤¬à¤ľ":10890,"à¤²à¤¨à¤ľ":10891,"à¤°à¤ªà¤Ļ":10892,"à¤°à¤ľà¤Ļ":10893,"Ġà¤¹à¤¸à¤¨à¤²":10894,"à¤ľà¤¯à¤¬":10895,"à¤°à¤¸à¤®à¤£":10896,"à¤¾--":10897,"à¤²à¤¨à¤²à¤Ĺ":10898,"Ġday":10899,"room":10900,"ĠKul":10901,"Ġà¤Ĩà¤īà¤Łà¤¡":10902,"forms":10903,"TS":10904,"Ġà¤µà¤¨à¤®à¤¨":10905,"Ġà¤¦à¤¹à¤®":10906,"Ġà¤Ĩà¤¶à¤¨":10907,"Ġà¤¥à¤®à¤¨":10908,"Ġà¤ªà¤°à¤¯":10909,"Ġà¤ķà¤®à¤²à¤µ":10910,"à¤µà¤¨à¤ªà¤¦":10911,"Ġà¤ħà¤µà¤¦":10912,"ero":10913,"ini":10914,"Ġà¥§à¥Ńà¥®":10915,"à¤Ĩà¤ľà¤¬":10916,"ĠAcc":10917,"isit":10918,"ĠFl":10919,"à¤Ĳà¤¨à¤ķ":10920,"Ġ90":10921,"ize":10922,"ĠChair":10923,"ĠProfile":10924,"à¤ķà¤ªà¤¤":10925,"à¤£à¤¶":10926,"à¤Ńà¤¹":10927,"à¤īà¤ĺà¤°à¤®":10928,"Ġà¤®à¤¨à¤µ":10929,"à¤¶à¤ķà¤¸à¤®":10930,"Ġà¤Ĩà¤°à¤Ĩà¤°":10931,"à¤«à¤²à¤«":10932,"à¤¾à¥ĩ)":10933,"à¤¤à¤¬à¤ľ":10934,"à¥ĩà¥¤âĢĿ":10935,"Ġà¤ĩà¤®à¤°à¤ľ":10936,"Ġles":10937,"ĠAJA":10938,"outh":10939,"velopment":10940,"ĠAJAX":10941,"36":10942,"49":10943,"56":10944,"ger":10945,"jn":10946,"ÉĻ":10947,"Ø©":10948,"à¤ķà¤¨à¤¸":10949,"à¤¸à¤ıà¤¸":10950,"à¤ªà¤Ļ":10951,"à¤§à¤µà¤¨":10952,"à¤Ńà¤µà¤ª":10953,"à¤ħà¤µà¤ķ":10954,"Ġà¤ĺà¤°à¤ĸ":10955,"Ġà¤ıà¤®à¤µ":10956,"Ġà¤ıà¤®à¤Ĩà¤Ī":10957,"à¤¦à¤®à¤¯":10958,"Ġà¥¨à¥©à¥ª":10959,"à¤ıà¤ļà¤ª":10960,"Ġdisc":10961,"ful":10962,"yt":10963,"Î±":10964,"à¤²à¤Ľ":10965,"à¤¯à¤°à¤¸à¤¹":10966,"Ġà¤²à¤¹à¤¸":10967,"à¤īà¤Łà¤ķ":10968,"à¤°à¤®à¤¹":10969,"à¤¯à¤²à¤¹à¤°":10970,"Ġà¤ħà¤µà¤¶à¤°":10971,"Ġà¤¦à¤²à¤¦à¤²":10972,"ĠNe":10973,"Ġover":10974,"Ġ500":10975,"à¥¨à¥¦à¥«à¥¯":10976,"à¹Ģ":10977,"Ġà¤¬à¤¬à¤°à¤®à¤¹à¤²à¤¸":10978,"ĠGurkha":10979,"âĪ":10980,"à¤¿--":10981,"à¤¿Â«":10982,"à¤²à¤¹à¤¨":10983,"à¤ªà¤¥à¤®":10984,"à¤Łà¤¬à¤¹":10985,"à¤Ńà¤µà¤¸":10986,"à¤ŀà¤µà¤²":10987,"Ġà¥©à¥¦à¥«":10988,"à¤Łà¤°à¤¨à¤²":10989,"à¤°à¤¶à¤®":10990,"à¤ıà¤¨à¤Ĩà¤Ī":10991,"Ġà¤ıà¤®à¤Ĩà¤°à¤Ĩà¤Ī":10992,"Ġà¤Ĳà¤¨à¤¬":10993,"Ġà¥¨à¥«à¥«":10994,"à¤·à¤§à¤°à¤ķ":10995,"Ġà¥¨à¥¯à¥¦":10996,"à¤¸à¤¨à¤²à¤Ĺ":10997,"ĠTarget":10998,"ĠMother":10999,"à¤¯à¤¯à¤¨à¤ķà¤°":11000,"Ġà¥¦à¥«à¥Ń":11001,"Ġà¥§à¥¯à¥«à¥§":11002,"Ġà¤¦à¤®à¤¨à¤¨":11003,"ization":11004,"ĠðŁĳī":11005,"Ġà¥§à¥§à¥¦à¥¨à¥§":11006,"NTV":11007,"Ġcheap":11008,"æĺ¯":11009,"Ġà¤ķà¤ļà¤ķà¤ļ":11010,"sahityasansar":11011,"ĠØ§Ø":11012,"Ġà¤¨à¤«à¤¸":11013,"Ġà¤ıà¤¨à¤²":11014,"Ġà¤«à¤²à¤®":11015,"Ġà¤łà¤Ĺà¤¹à¤°":11016,"à¤µà¤°à¤Ń":11017,"Ġà¤ĵà¤®à¤°":11018,"à¤ĸà¤°à¤¨":11019,"à¤¸à¤¬à¤Ńà¤¨":11020,"à¤Īà¤¨à¤²à¤ķ":11021,"ars":11022,"Ġfe":11023,"Ġà¤¨à¤Ĺà¤ıà¤°":11024,"à¤¤à¤Ńà¤£":11025,"à¤ķà¤ħà¤ªà¤®":11026,"MA":11027,"aim":11028,"go":11029,"watch":11030,"à¥ĩ&":11031,"Ġà¤Ĺà¤±":11032,"à¤Īà¤ªà¤¨":11033,"Ġà¤¶à¤®à¤¸":11034,"Ġà¤§à¤°à¤®à¤ª":11035,"Ġà¤¸à¤¹à¤ħà¤Ń":11036,"âĢĿà¥¤":11037,"à¥¨à¥¦à¥¯":11038,"Ġpress":11039,"Ġsur":11040,"Ġschool":11041,"....\"":11042,"à¥ĩ-âĢĻ":11043,"olangtang":11044,"Ġvomit":11045,"Ġ45":11046,"ĠAnn":11047,"à¤£à¤Ĺà¤Ļ":11048,"àµį":11049,"radiolangtang":11050,"à¤¨à¤°à¤ķà¤°":11051,"à¤¥à¤°à¤®":11052,"à¥Į)":11053,"à¤°à¤¤à¤¨":11054,"à¤¢à¤¨":11055,"Ġà¤Ĩà¤ĩà¤Ń":11056,"à¤ļà¤²à¤ª":11057,"Ġà¤ıà¤¨à¤¡":11058,"udio":11059,"Ġatt":11060,"posh":11061,"echnology":11062,"CS":11063,"TZ":11064,"la":11065,"Ġà¤¬à¤ķà¤¸":11066,"Ġà¤¹à¤ķà¤¬":11067,"à¤§à¤ľ":11068,"à¤Īà¤ľà¤°":11069,"Ġà¤ĸà¤°à¤¦":11070,"Ġà¤ıà¤®à¤¨":11071,"à¤Ĩà¤¯à¤²":11072,"Ġà¤¸à¤°à¤Ĺà¤®":11073,"à¤Ĺà¤²à¤Ń":11074,"Ġà¤¢à¤¡":11075,"Ġà¤ħà¤®à¤°à¤²":11076,"Ġ-&":11077,"ani":11078,"Ð¸Ðº":11079,"Ġ80":11080,"indows":11081,"He":11082,"Ġother":11083,"Ġà¤¸à¤ī":11084,"Ġà¤¸à¤Ŀ":11085,"Ġà¤Ńà¤Łà¤°":11086,"à¤ļà¤¯à¤²":11087,"à¤²à¤ķà¤¸à¤®":11088,"à¤ľà¤ķà¤¸à¤®":11089,"à¤ĩà¤²à¤¸":11090,"Ġà¤ıà¤®à¤ıà¤²":11091,"Ġà¥¨à¥¨à¥Ń":11092,"à¤¾...âĢĻ":11093,"ĠTe":11094,"ĠTong":11095,"à¤ıà¤«à¤ıà¤²":11096,"Ġà¤¨à¤Ĩà¤ıà¤°":11097,"Ġsex":11098,"ents":11099,"Ð¸Ñģ":11100,"73":11101,"nn":11102,"time":11103,"Ġà¤Ĺà¤ľà¤°":11104,"Ġà¤°à¤ľà¤¹à¤°":11105,"à¤ıà¤ı":11106,"à¥Įà¥¤âĢĻ":11107,"à¤¯à¤ķà¤¸à¤®":11108,"Ġà¤«à¤¸à¤²":11109,"Ġà¤¬à¤¢à¤µ":11110,"à¤ķà¤ķà¤¸":11111,"Ġà¤ļà¤²à¤¨à¤®":11112,"à¤ĥ,":11113,"Ġà¤ĩà¤¨à¤ª":11114,"à¤ĺà¤Łà¤¨à¤ªà¤Ľ":11115,"ino":11116,"alt":11117,"ally":11118,"ĠPart":11119,"etwork":11120,"ott":11121,"Ġà¤²à¤¨à¤Ł":11122,"ĠØ¯":11123,"der":11124,"èĢ":11125,"éĩ":11126,"ĠÑħ":11127,"à¤°à¤¶à¤ķ":11128,"Ġà¤µà¤°à¤ķ":11129,"à¤·à¤ļà¤¨":11130,"à¤ĩà¤ĺ":11131,"à¤ĩà¤¬à¤ķ":11132,"Ġà¤¥à¤¸":11133,"à¤²à¤²à¤²":11134,"Ġà¤§à¤¨à¤¤":11135,"à¤¿.)":11136,"ĠNCC":11137,"ept":11138,"Ġdownload":11139,"II":11140,"Ø¹":11141,"à¤®à¤¯à¤®":11142,"à¤Ĺà¤Ĺà¤¨":11143,"à¤§à¤¸à¤¹":11144,"à¤£à¤ľà¤¨":11145,"Ġà¤ĸà¤²à¤ķ":11146,"à¤¸à¤®à¤ħà¤¨":11147,"Ġà¤¬à¤¨à¤¬":11148,"âĢĻ(":11149,"à¤ħà¤ł":11150,"à¤Łà¤ķà¤ĺà¤°à¤®":11151,"à¤Ĩà¤¬à¤¦":11152,"reat":11153,"omen":11154,"Ġà¤ħà¤ľà¤¯à¤²":11155,"à¤°à¤¨à¤Ĺà¤°à¤¸":11156,"Ġà¤Łà¤®à¤Ł":11157,"ces":11158,"åº":11159,"Ĥ¬":11160,"à¤¯à¤²à¤¯à¤¹à¤°":11161,"à¤Ĺà¤¨à¤ª":11162,"à¤§à¤Ńà¤¨":11163,"Ġà¤ľà¤Ĺà¤ķ":11164,"Ġà¤ıà¤²à¤¨":11165,"à¤Ĺà¤®à¤¯":11166,"Ġà¤ıà¤¨à¤Ĩà¤ĩà¤¬":11167,"Ġà¥§à¥®à¥¦à¥¦":11168,"Ġà¤¤à¤²à¤¤à¤²":11169,"HR":11170,"ning":11171,"wo":11172,"Ġà¤¸à¤¤à¤ķ":11173,"à¤£à¤ľà¤¸":11174,"à¤¾à¤ģ\"":11175,"à¤ķà¤²à¤Ļ":11176,"à¤²à¤¯à¤¤à¤°":11177,"à¤¸à¤¨à¤¸à¤¹":11178,"à¤µà¤¤à¤¬":11179,"Ġà¤¬à¤²à¤¶":11180,"à¤ıà¤¸à¤ıà¤¸":11181,"à¤¯à¤£à¤Ĺà¤£":11182,"à¥¨à¥¦à¥¦à¥ª":11183,"à¥į-âĢľ":11184,"ÑĥÑİ":11185,"ution":11186,":âĢĿ":11187,"kantipur":11188,"à¤¨à¤ıà¤ľ":11189,"à¥ĩâĢĺ":11190,"à¤²à¤¤à¤ª":11191,"Ġà¤¸à¤ĺà¤°":11192,"à¤Łà¤®à¤¨":11193,"à¤Łà¤ļà¤¨à¤²":11194,"Ġà¤®à¤°à¤£à¤ķ":11195,"Ġà¤ĩà¤¦à¤ķ":11196,"à¤¦à¤¨à¤ªà¤Ľ":11197,"à¤ķà¤ªà¤Ł":11198,"âĢľ,":11199,"Ġà¤¹à¤²à¤Ń":11200,"ites":11201,"Ġtwitter":11202,"ĠJohn":11203,"à¤Ĳà¤¨à¤®":11204,"ĠÐ¸Ð½":11205,"à¥¤à¥¤à¥¤":11206,"Ġunder":11207,"aturday":11208,"More":11209,"oe":11210,"å·":11211,"à¤ªà¤Łà¤®":11212,"Ġà¤ķà¤®à¤Ńà¤¨":11213,"à¤°à¤¹à¤°à¤£":11214,"à¤µà¤¨à¤ľà¤²":11215,"Ġà¤ĵà¤ªà¤¨à¤ķ":11216,"à¤¾.,":11217,"à¤ıà¤®à¤Ĩà¤°":11218,"Ġà¤ªà¤²à¤Ļ":11219,"ĠÐł":11220,"à¤Ĺà¤ľà¤²à¤ķ":11221,"Ġà¤ħà¤¸à¤®à¤ķ":11222,"à¥¦à¥¬à¥§":11223,"___":11224,"Ġà¥Ńà¥©à¥Ń":11225,"à¦°":11226,"Ġà¤ıà¤¸à¤ĩà¤ĩ":11227,"Ðŀ":11228,"à¤°à¤°à¤£":11229,"à¥ĭà¤¾":11230,"à¤¶à¤°à¤®":11231,"à¤ļà¤²à¤Ĺ":11232,"à¤Īà¤®à¤¹":11233,"à¤ĩà¤¨à¤ª":11234,"Ġà¤īà¤¦à¤¯à¤ķ":11235,"à¤ķà¤ªà¤²":11236,"Ġà¤ıà¤¸à¤Ł":11237,"istry":11238,"à¥¨à¥¦à¥ªà¥¯":11239,"à¤Ľà¤²à¤«à¤²à¤ķ":11240,"à¤¨à¤ħà¤Łà¤°":11241,"à¹Ģà¸":11242,"=\"":11243,"men":11244,"åŃ":11245,"à¤¤à¤µà¤ķ":11246,"Ġà¤¸à¤¸à¤ķ":11247,"à¤·à¤¯à¤µ":11248,"Ġà¤Ľà¤¤à¤ķ":11249,"à¤ļà¤°à¤¸":11250,"à¤īà¤Łà¤°":11251,"Ġà¤ıà¤¸à¤°":11252,"Ġà¤ıà¤²à¤¬à¤®":11253,"Ġà¤ħà¤¨à¤ªà¤¢":11254,"Ġà¤ĩà¤°à¤«":11255,"Ġà¤ĵà¤łà¤ķ":11256,"ĠÂ·":11257,"à¤ªà¤Łà¤¨à¤®":11258,"Ġà¤¨à¤Ĺà¤ª":11259,"olor":11260,"Ġà¥§à¥§à¥©à¥¦à¥©":11261,"ev":11262,"Ġà¤¹à¤ķà¤¸":11263,"à¤·à¤¸à¤ķ":11264,"à¤Īà¤§":11265,"Ġà¤īà¤¸à¤¸":11266,"à¤ľà¤¨à¤ľà¤¤":11267,"à¤ħà¤¥":11268,"Ġ(âĢĺ":11269,"Ġà¥§à¥Ńà¥§":11270,"à¤¤à¤°à¤®à¤¹":11271,"à¥¨à¥¦à¥¦à¥¯":11272,"els":11273,"ategory":11274,"ĠWordPress":11275,"ĠDonald":11276,"docs":11277,"JW":11278,"cred":11279,"fl":11280,"ps":11281,"Ð¡":11282,"à¤²à¤¸à¤°":11283,"à¤Ńà¤Ń":11284,"à¥¤(":11285,"à¥Į/":11286,"Ġà¤ıà¤Ĩà¤°à¤Ł":11287,"à¤ľà¤¨à¤°à¤²":11288,"à¤µà¤¸à¤§":11289,"à¤ħà¤ĸà¤¬":11290,"à¤ķà¤²à¤Ł":11291,"à¤·à¤£à¤ª":11292,"à¤Łà¤¨à¤¦":11293,"à¤¹à¤ķà¤ª":11294,"Ġà¤ıà¤¨à¤Ĩà¤Īà¤¬":11295,"à¤®à¤ªà¤Ł":11296,"Ġà¤ħà¤ĸà¤µ":11297,"utari":11298,"Ġvideo":11299,"Ð°Ð³":11300,"à¤¬à¤ĸà¤¤à¤²":11301,"rady":11302,"Ġuse":11303,"box":11304,"Travel":11305,"wy":11306,"Ú¯":11307,"à¤°à¤°à¤ķ":11308,"à¤§à¤°à¤¤":11309,"Ġà¤²à¤¤à¤®":11310,"à¤ªà¤°à¤¯":11311,"Ġà¥©à¥¦à¥¯":11312,"Ġà¤¸à¤µà¤Ńà¤¨":11313,"Ġà¥§à¥®à¥§à¥ª":11314,"ening":11315,"Ġter":11316,"ĠâĢ¦âĢ¦âĢ¦":11317,"Ġddc":11318,"aglung":11319,"Ġà¥§à¥§à¥©à¥¦à¥«":11320,"Ġà¥§à¥§à¥©à¥¦à¥ª":11321,"Ġ11514":11322,"ãĤĬ":11323,"ĠState":11324,"ÐµÐ½Ð¸Ðµ":11325,"Posted":11326,"ĠEthnic":11327,"ĠTongue":11328,"(\"":11329,"AZ":11330,"Pin":11331,"link":11332,"åĮ":11333,"à¤®à¤ªà¤Łà¤ķ":11334,"à¤¦à¤µà¤¸à¤¹":11335,"Ġà¤Ĺà¤ĩà¤°":11336,"à¤¬à¤Īà¤¸":11337,"à¤¡à¤£":11338,"à¤ľà¤¨à¤®à¤¤à¤²":11339,"Ġà¤¸à¤¹à¤ĩà¤¨":11340,"à¤ħà¤¥à¤µ":11341,"Ġà¤¤à¤°à¤ĸà¤°":11342,"Ġà¤ķà¤®à¤¨à¤µ":11343,"Ġà¤¬à¤ľà¤°":11344,"à¤¦à¤²à¤¸":11345,"à¤¯à¤£à¤¦à¤²":11346,"Ġà¥¨à¥§à¥©":11347,"Ġà¤¨à¤µà¤Ĺ":11348,"Ġà¥¨à¥¬à¥¯":11349,"Ġà¤¦à¤¸à¤Ĺà¤ľ":11350,"ĠSch":11351,"ĠSub":11352,"à¤Ĭà¤²":11353,"ĠALS":11354,"ĠIce":11355,"1954":11356,"Ġ2008":11357,"ĠProced":11358,"Ġclass":11359,"nepcal":11360,"à¤¸à¤¯à¤¤":11361,"à¤·à¤°à¤¸":11362,"à¤¤à¤®à¤°":11363,"Ġà¤ĺà¤°à¤Ľ":11364,"Ġà¤Ĩà¤®à¤¹à¤¡à¤¤":11365,"Ġà¤Ĺà¤łà¤¨à¤²":11366,"à¤µà¤Łà¤¯":11367,"Ġmeet":11368,"Ġthey":11369,"ird":11370,"à¥Ģ',":11371,"Ġà¥§à¥§à¥©à¥¦à¥¬":11372,"Ġà¥§à¥¯à¥ªà¥§":11373,"Ġwhich":11374,"ä¹":11375,"à¥ĩ.....":11376,"à¤¯à¤µà¤²":11377,"Ġà¤°à¤¡à¤²":11378,"Ġà¤®à¤µ":11379,"à¤·à¤°à¤ķà¤°":11380,"à¤°à¤ķà¤¸":11381,"Ġà¤ªà¤¦à¤°":11382,"à¤ľà¤Ĺà¤ľ":11383,"à¤Ĩà¤Īà¤ıà¤ķ":11384,"ĠÂ¨":11385,"Ġfl":11386,"emb":11387,"Ġà¤ıà¤ķà¤ªà¤Łà¤ķà¤ķ":11388,"à¥ĭ?!":11389,"ĠKh":11390,"à¤ĩà¤ıà¤ħà¤¨":11391,"terest":11392,"brb":11393,"Girl":11394,"Ûģ":11395,"Ġright":11396,"à¤¾#":11397,"à¤¨à¤°à¤¹":11398,"à¤¨à¤Ĺà¤łà¤¨":11399,"à¤²à¤ĺà¤°":11400,"à¤®à¤°à¤¨":11401,"à¤µà¤¶à¤®à¤¶":11402,"Ġà¤µà¤²à¤®":11403,"Ġà¤µà¤ĸà¤¤":11404,"à¤¯à¤¤à¤¹à¤®":11405,"à¥ĭà¥¤&":11406,"Ġà¥¨à¥¦à¥Ńà¥Ń":11407,"à¤¨à¤µà¤¦":11408,"à¤¦à¤µà¤¬":11409,"Ġà¤®à¤¦à¤¨à¤®à¤£":11410,"à¤ļà¤¨à¤ªà¤¶":11411,"Ġà¤ľà¤¡à¤¤":11412,"ãĥ»":11413,"ropin":11414,"Council":11415,"cess":11416,"qv":11417,"å¸":11418,"æī":11419,"à¤¨à¤ıà¤¥":11420,"à¤µà¤§à¤°":11421,"à¥ĪÂ´":11422,"à¤²à¤ķà¤¨":11423,"à¤¤à¤²à¤¹à¤°à¤ķ":11424,"Ġà¤ĺà¤°à¤ĺà¤¡":11425,"à¤²à¤¤à¤¦":11426,"à¤Īà¤ķà¤²à¤ķ":11427,"Ġà¤ķà¤µà¤¹":11428,"Ġà¥¨à¥®à¥©":11429,"à¤¯à¤¯à¤°à¤¤":11430,"à¤Ĩà¤Īà¤ıà¤²":11431,"à¤µà¤ľà¤¹à¤°":11432,"Ġà¤°à¤Ļà¤¹à¤°":11433,"Ġà¤ıà¤¡à¤µ":11434,"Ġà¤ĵà¤Ńà¤²à¤®":11435,"oot":11436,"à¥ĭ?âĢĿ":11437,"à¸¡":11438,"pany":11439,"Ġjust":11440,"à¥Ģ..âĢĿ":11441,"ollege":11442,"ÑĩÐµÑģÐº":11443,"ĠChairperson":11444,"Tb":11445,"qc":11446,"å¿":11447,"à¤ķà¤Ļà¤®":11448,"à¥Ģà¤¼,":11449,"Ġà¤ªà¤¡à¤ķ":11450,"Ġà¤ħà¤²à¤¨":11451,"Ġà¤Ľà¤łà¤®":11452,"à¤ļà¤¤à¤²":11453,"à¤ĩà¤¸à¤¨":11454,"à¤łà¤µ":11455,"à¤Ļà¤ķà¤°":11456,"à¤Łà¤ķà¤¬":11457,"Ġà¤¢à¤ķà¤¨":11458,"Ġà¤¦à¤²à¤ľ":11459,"à¤¤à¤°à¤£à¤¸":11460,"à¤ªà¤²à¤Ĺà¤¤":11461,"Ġà¤Ĩà¤Īà¤²à¤¬":11462,"à¤Ĺà¤¢à¤¨":11463,"Ġà¤¦à¤¶à¤ķà¤¤":11464,"à¤²à¤Ńà¤²":11465,"âĢįâĢį":11466,"à¸±":11467,"undar":11468,"Ġà¤ĳà¤Ł":11469,"Year":11470,"ii":11471,"ÙĤ":11472,"Ġà¥ĥ":11473,"Ġà¤Ńà¤¬à¤¨":11474,"à¤ļà¤°à¤£à¤®":11475,"Ġà¤ľà¤¯à¤®":11476,"à¤¡à¤µà¤²":11477,"à¤¬à¤°à¤Ńà¤¨":11478,"Ġà¤ªà¤¦à¤¤":11479,"Ġà¤Ķà¤·à¤¤à¤®":11480,"Ġà¤Ĳà¤ľà¤¨":11481,"à¤¯à¤£à¤¬à¤¹":11482,"Ġà¥¨à¥¨à¥§":11483,"à¤īà¤ªà¤¸à¤®":11484,"ĠÐµ":11485,"Ġà¤ħà¤¨à¤¶à¤¨à¤¹à¤°":11486,"Ġret":11487,"ollow":11488,"udur":11489,"Ġits":11490,"äºº":11491,"ĠAdd":11492,"à¤¹à¤¹à¤¹à¤¹":11493,"NewYear":11494,"ĠKulung":11495,"ba":11496,"way":11497,"à¤ķà¤ªà¤®":11498,"à¤Ĺà¤¥":11499,"Ġà¤Ĺà¤ŀ":11500,"à¤¡à¤ªà¤¸":11501,"à¤£à¤Łà¤®":11502,"à¤£à¤ħà¤¨":11503,"à¤«à¤²à¤²":11504,"à¤¯à¤ķà¤°à¤£à¤ķ":11505,"Ġà¤ıà¤¨à¤°":11506,"à¤¨à¤ķà¤®":11507,"Ġà¤ħà¤¨à¤ľ":11508,"à¤²à¤ķà¤µ":11509,"à¤°à¤§à¤°":11510,"Ġà¤®à¤¤à¤µ":11511,"Ġà¤¸à¤¤à¤¬":11512,"Ġà¤ľà¤®à¤²à¤®":11513,"ĠShare":11514,"à¤Ĭà¤¦à¤ķ":11515,"ĠMedia":11516,"à¥Įà¤ģà¥¤'":11517,"à¥¨à¥¦à¥«à¥¬":11518,"iving":11519,"ĠChina":11520,"Ġbeen":11521,"âĢ¢âĢ¢âĢ¢âĢ¢":11522,"ĠÐ´Ð»Ñı":11523,"ĠShort":11524,"LJ":11525,"à¤¨à¤Ĺà¤¨":11526,"Ġà¤ªà¤Ĺà¤²à¤²":11527,"à¤ıà¤¯à¤¤":11528,"à¤ıà¤¬à¤²":11529,"à¤¥à¤¸à¤¹":11530,"Ġà¤Ĩà¤¸à¤¨à¤ķ":11531,"Ġà¤ľà¤ķà¤°":11532,"à¤¡à¤µà¤ķ":11533,"à¤°à¤¤à¤Ń":11534,"à¤¸à¤®à¤¯à¤²":11535,"à¤ĥ-":11536,"Ġ?...":11537,"à¤¾à¥ĩ!":11538,"Ġà¤Ĩà¤ĩà¤ķà¤¨à¤®":11539,"Ġ:)":11540,"Ġà¤Īà¤Ļà¤²":11541,"à¥Ģ)âĢĵ":11542,"Ġà¤ľà¤²à¤ļà¤°":11543,"à¤Łà¤¬à¤²à¤ħà¤¨":11544,"Ġà¥ªà¥«à¥Ń":11545,"ĠBr":11546,"ĠBucket":11547,"ĠRen":11548,"Ġht":11549,"aking":11550,"à¥ĩ?âĢĻ":11551,"Ġà¤¶à¤°à¤¦à¤²":11552,"ophy":11553,"iki":11554,"ÐµÐ·":11555,"ĠActs":11556,"BA":11557,"mà¤ķ":11558,"à¤¿âĢĶ":11559,"Ġà¤ķà¤¡à¤°":11560,"à¤¥à¤ªà¤¨":11561,"Ġà¤Ĩà¤Ļà¤ķ":11562,"à¤łà¤®à¤¡":11563,"à¥«à¥¦à¥Ńà¥¬":11564,"Ġà¤Ĩà¤°à¤Ł":11565,"à¤®à¤¤à¤µ":11566,"Ġà¥¨à¥ªà¥«":11567,"Ġà¤«à¤²à¤ª":11568,"à¤¹à¤¦à¤¸à¤®":11569,"ĠRCC":11570,"ĠHot":11571,"Ġà¤¸à¤¤à¤¹à¤Ńà¤¨":11572,"irect":11573,"rough":11574,"à¤īà¤ªà¤ķà¤°à¤£":11575,"DTZ":11576,"Fo":11577,"Juw":11578,"Kyb":11579,"PD":11580,"bx":11581,"dTb":11582,"iY":11583,"iEC":11584,"jhC":11585,"rN":11586,"ues":11587,"ĠÄ":11588,"Ġra":11589,"à¤¤à¤ĵà¤Ł":11590,"à¤¹à¤¶":11591,"à¤ªà¤«":11592,"Ġà¤¨à¤°à¤ķà¤ķ":11593,"à¤ľà¤°à¤¬":11594,"Ġà¤¦à¤°à¤¹à¤°":11595,"à¤¥à¤ľ":11596,"à¤ļà¤¯à¤®":11597,"Ġà¤ľà¤²à¤²":11598,"à¤ĺà¤ħà¤¨":11599,"Ġà¤®à¤¹à¤®à¤¦":11600,"Ġà¤¡à¤¨à¤¹à¤°":11601,"à¤¾,...":11602,"Ġà¤ħà¤°à¤µà¤ķ":11603,"à¥ĭà¥¤+":11604,"à¤ªà¤ķà¤¸":11605,"Ġà¤¸à¤¡à¤ķà¤Ľ":11606,"à¤łà¤ķà¤µà¤°":11607,"Ġà¤Ľà¤²à¤Ľ":11608,"Ġà¥¨à¥ªà¥ª":11609,"Ġà¤ľà¤¨à¤ªà¤¥":11610,"Ġà¥ªà¥ªà¥§":11611,"Ġà¤ļà¤°à¤®à¤ªà¤¨":11612,"Ġà¤²à¤¹à¤°à¤²":11613,"umna":11614,"à¤¾??":11615,"à¤®à¤¤à¤²à¤µà¤ķ":11616,"à¥įâĢĿ?":11617,"GBiY":11618,"mdlo":11619,"AKjn":11620,"JWX":11621,"qvmdlo":11622,"LJKyb":11623,"DTZqc":11624,"bxdTb":11625,"iECbKD":11626,"AKjnqvmdlo":11627,"LJKybG":11628,"Pro":11629,"cG":11630,"à¤¾à¥ħ":11631,"Ġà¤¸à¤ĩ":11632,"à¤¹à¤ļà¤°à¤£":11633,"à¤¯à¤ķà¤®à¤¨":11634,"à¤ħà¤°à¤²":11635,"à¤µà¤¨à¤¤":11636,"Ġà¤ĵà¤¦":11637,"Ġà¤ªà¤¦à¤ķà¤µ":11638,"era":11639,"Ġà¤ļà¤¢à¤¨":11640,"ĠÐŀ":11641,"à¤ıà¤«à¤Ĩà¤°":11642,"à¥¦à¥¬à¥ª":11643,"ĠEp":11644,"Ġà¤Ŀà¤²à¤Ŀà¤²":11645,"à¤ľà¤Ĺà¤¢à¤¸à¤®":11646,"Ġà¥¯à¥©à¥Ń":11647,"spot":11648,"shares":11649,"à¤°à¤Ĩà¤µà¤¸":11650,"AD":11651,"EN":11652,"HAT":11653,"Ow":11654,"Prady":11655,"pFo":11656,"uter":11657,"vail":11658,"Â®":11659,"Ðł":11660,"åį":11661,"à¥ģÃ·":11662,"à¤¸à¤Ńà¤°":11663,"Ġà¤ªà¤¯à¤°":11664,"à¤Łà¤ħà¤ĺ":11665,"à¥ĪâĢĶ":11666,"à¤ıà¤ªà¤¶":11667,"à¤ľà¤°à¤¨":11668,"à¤£à¤ıà¤¶":11669,"à¥ĥà¥ģ":11670,"à¤¯à¤®à¤ª":11671,"à¥Įà¤Ĥ.":11672,"à¤¤à¤ķà¤¹":11673,"Ġà¥©à¥¦à¥®":11674,"à¤°à¤¬à¤®":11675,"à¤ıà¤®à¤ıà¤²":11676,"à¤ľà¤¦à¤°à¤µ":11677,"ĠÐ¶":11678,"ĠCO":11679,"à¤Ĺà¤¸à¤Ĺ":11680,"ĠIm":11681,"ira":11682,"ĠInv":11683,"NepalNewYear":11684,"ubajura":11685,"à¥©à¥«à¥¬":11686,"à¤¡à¤°à¤¸à¤Ł":11687,"Ġà¥¨à¥«à¥¬à¥«à¥¦":11688,"mmg":11689,"narubajura":11690,"Shmmg":11691,"MahendraShmmg":11692,"wyMT":11693,"ĠProcedures":11694,"rNwyMT":11695,"Pradyumna":11696,"Ġà¤°à¤Ľ":11697,"Ġà¤¬à¤·":11698,"Ġà¤¬à¤°à¤£":11699,"à¤Ľà¤²à¤Ĺ":11700,"à¤Ĩà¤ķà¤¸":11701,"Ġà¤¢à¤ķà¤²à¤Ł":11702,"Ġà¥¨à¥«à¥§":11703,"Ġà¤ĩà¤¤à¤°à¤ķ":11704,"Ġà¤®à¤¦à¤¤à¤®":11705,"Ġpol":11706,"Ġà¤ħà¤Ļà¤¸":11707,"Ġà¤°à¤Ĺà¤¤à¤¬":11708,"Ġà¤¦à¤¹à¤ļ":11709,"Ġ144":11710,"Ð¸ÑĤÑĮ":11711,"....\"??":11712,"sudur":11713,"à¤¹à¤¸à¤²":11714,"à¤¦à¤¤à¤ķ":11715,"à¤Ńà¤¸à¤®":11716,"à¤ĩà¤®à¤¤":11717,"à¤¤à¤°à¤ĸ":11718,"Ġà¤¸à¤¹à¤²":11719,"à¤Ŀà¤īà¤¨":11720,"à¤µà¤¨à¤Ĺà¤°":11721,"à¤Ĩà¤ªà¤¸":11722,"à¤·à¤£à¤²à¤Ĺ":11723,"à¤µà¤°à¤£à¤ªà¤¤":11724,"Ġà¤ħà¤²à¤Ļ":11725,"à¤ªà¤£à¤µ":11726,"atra":11727,"Ġà¤ĸà¤¸à¤Ĩà¤°":11728,"Ġà¤¸à¤¡à¤ķà¤®à¤§":11729,"à¤Ĩà¤¤à¤Ļ":11730,"Ġà¥§à¥§à¥©à¥Ń":11731,"ĠNESE":11732,"Ġà¤ľà¤¯à¤¨à¤Ĺà¤°à¤¦":11733,"sudurkhabar":11734,"41":11735,"uth":11736,"Ġ75":11737,"à¤²à¤Ŀà¤£":11738,"à¤®à¤¯à¤²":11739,"Ġà¤ľà¤µà¤ķ":11740,"à¤ĸà¤²à¤¨à¤ķ":11741,"Ġà¤¶à¤¦":11742,"Ġà¤¸à¤ķà¤¸à¤ª":11743,"à¤®à¤®à¤¯":11744,"à¤ĺà¤°à¤ľà¤Ĺ":11745,"anb":11746,"Ġà¤¨à¤¬à¤¦à¤²":11747,"icham":11748,"Ġà¥©à¥«à¥ª":11749,"Ġsundar":11750,"à¥§à¥«à¥¦":11751,"elf":11752,"ĠOf":11753,"Ġgr":11754,"ÐµÐ½ÑĤ":11755,"Ġcomp":11756,"ĠÃĹ":11757,"ered":11758,"ĠViewsà¤¨":11759,"haraicham":11760,"âĢ¢âĢ¢âĢ¢âĢ¢âĢ¢":11761,"Ġsundarharaicham":11762,"Ġsundarharaichamun":11763,"Ġeb":11764,"à¤¨à¤·":11765,"à¥Ģà¤¾":11766,"Ġà¤¸à¤Łà¤°à¤ķ":11767,"à¤¹à¤§":11768,"Ġà¤ľà¤ľà¤¸à¤²":11769,"Ġà¤¬à¤¢à¤¯":11770,"à¤Ĩà¤Ĺà¤¨":11771,"à¤²à¤¨à¤µ":11772,"Ġà¤¨à¤Ĺà¤°à¤¹à¤°":11773,"Ġà¤Ŀà¤¨à¤ķ":11774,"à¤Ĥ.âĢĵ":11775,"Ġà¤Ĩà¤łà¤¦":11776,"à¤¯à¤Łà¤ķà¤®à¤§":11777,"ÐµÑģÑĤ":11778,"Ġà¤ļà¤°à¤£à¤µà¤¦":11779,"ĠOb":11780,"à¤°à¤¨à¤Ĺà¤°à¤²":11781,"Â«Â«":11782,"ÑĥÑĤ":11783,"ĠPolicies":11784,"ĠEnglish":11785,"On":11786,"à¤¿à¥¤âĢĻ":11787,"à¤µà¤Ńà¤ķ":11788,"à¤ľà¤¬à¤²":11789,"à¥¤,":11790,"à¤ĩà¤ıà¤Ľ":11791,"à¤īà¤¨à¤¯à¤¤":11792,"Ġà¤§à¤°à¤®":11793,"à¤Ĩà¤µà¤§":11794,"Ġ,âĢĻ":11795,"à¤¨à¤¬à¤ľ":11796,"Ġà¤Ĩà¤¤à¤¤":11797,"Ġà¥§à¥®à¥ª":11798,"Ġà¥¨à¥®à¥¨":11799,"ĠSw":11800,"ĠSan":11801,"ĠBar":11802,"istrict":11803,"à¤¨à¤µà¤²à¤ª":11804,"aste":11805,"EV":11806,"gy":11807,"Ò¯":11808,"à¤²à¤°à¤¬":11809,"à¤ªà¤Łà¤²":11810,"à¤¦à¤¹à¤ķ":11811,"à¤Łà¤Ĺà¤°":11812,"à¤¶à¤°à¤¬à¤¹":11813,"Ġà¤ľà¤ŀ":11814,"à¤īà¤¸à¤¹à¤°":11815,"à¤ĩà¤ľà¤¸":11816,"Ġà¤ĸà¤¯à¤°":11817,"Ġà¤¡à¤«":11818,"Ġà¤ĩà¤¸à¤¹":11819,"à¤¯à¤¨à¤ª":11820,"Ġà¤ħà¤®à¤°à¤°":11821,"à¤ĵà¤ľ":11822,"à¤ļà¤²à¤¨à¤²":11823,"à¤®à¤¸à¤Ļà¤ķ":11824,"à¤Ĭà¤¦à¤²":11825,"à¤¥à¤²à¤®à¤§":11826,"Ġà¤ħà¤µà¤°à¤¸à¤®":11827,"urnt":11828,"Ġback":11829,"Ġà¥¯à¥®à¥ª":11830,"ãĥĪ":11831,"Ġà¤Ĩà¤ĩà¤ıà¤®à¤µ":11832,"åĲį":11833,")(":11834,"Ip":11835,"à¤¹à¤¤à¤²":11836,"à¤¶à¤®à¤ķ":11837,"à¤ħà¤ĸà¤£":11838,"à¤¯à¤¤à¤ľà¤¸":11839,"Ġà¤®à¤¨à¤Ĺà¤¢à¤¨":11840,"à¤²à¤¯à¤Ńà¤¨":11841,"à¤°à¤¯à¤¶à¤ķ":11842,"à¤¤à¤°à¤£à¤ªà¤Ľ":11843,"Ġà¤Ĺà¤£à¤ª":11844,"Ġà¥§à¥®à¥Ń":11845,"Ġà¤ľà¤¬à¤ľ":11846,"Ġà¤ħà¤µà¤¸à¤°à¤¸à¤®":11847,"à¤¤à¤µà¤¨à¤¸":11848,"ĠDal":11849,"à¥§à¥©à¥¨":11850,"ose":11851,"ĠChannel":11852,"Ġà¤Ĺà¤£à¤ªà¤¤à¤¯":11853,":âĢĻ":11854,"Sc":11855,"Script":11856,"mà¤¸":11857,"ole":11858,"xx":11859,"è¡":11860,"à¤¹à¤ľà¤¨":11861,"à¥Ī..":11862,"à¤«à¤¡":11863,"à¤Ŀà¤¤":11864,"à¤Ĩà¤¤à¤ķ":11865,"à¤²à¤¨à¤¶":11866,"à¤®à¤¨à¤Ĺà¤°à¤ķ":11867,"Ġà¤®à¤²à¤¹":11868,"Ġà¤Ĩà¤®à¤¦":11869,"à¤°à¤¨à¤¹à¤°":11870,"Ġà¤Ĩà¤¶à¤¯à¤²":11871,"Ġà¥§à¥®à¥¬":11872,"ĠDr":11873,"Ġden":11874,"ases":11875,"Ġnep":11876,"ovation":11877,"à¤ıà¤ļà¤ĵà¤ķ":11878,"ika":11879,"à¤²à¤Ĺà¤°à¤²":11880,"ãĤĤ":11881,"Ġà¤ľà¤¨à¤®à¤¤à¤¸à¤Ļ":11882,"Ġà¤ľà¤®à¤²à¤¸":11883,"blogspot":11884,"\")":11885,"SEE":11886,"ZMANDU":11887,"Ùģ":11888,"à¤°à¤°à¤²":11889,"à¤¸à¤¤à¤¬":11890,"à¤Łà¤ªà¤¨":11891,"à¤ļà¤²à¤¤":11892,"à¤ļà¤ªà¤Łà¤ķ":11893,"Ġà¤²à¤ķà¤°":11894,"Ġà¤¯à¤£":11895,"à¤ªà¤¨à¤°à¤¤":11896,"à¤¾./":11897,"Ġà¤Ĩà¤Īà¤ĵ":11898,"anu":11899,"à¤®à¤£à¤µ":11900,"Ġà¤ıà¤²à¤ıà¤²à¤¬":11901,"ĠSer":11902,"ĠÂ´":11903,"Ġà¤Ĺà¤ıà¤ľà¤¸":11904,"ĠTimes":11905,"à¥ĭà¤Ĥ,":11906,"ÑĢÐ°Ð½":11907,"Ð°Ð¶":11908,"2016":11909,"Ġà¤ıà¤¸à¤Īà¤Īà¤®":11910,"ĠBIZMANDU":11911,"credi":11912,"Kantipur":11913,"VQ":11914,"à¤®à¤µà¤²":11915,"Ġà¤ķà¤ļà¤²":11916,"Ġà¤Ńà¤ĩà¤¸":11917,"à¤ľà¤¬à¤ľ":11918,"Ġà¤²à¤µà¤ľ":11919,"à¤īà¤§à¤¨à¤ķ":11920,"à¤ĩà¤²à¤¨":11921,"Ġà¤ļà¤ļ":11922,"à¤¸à¤ķà¤¸à¤¹":11923,"Ġà¤ħà¤§à¤µ":11924,"Ġà¤ħà¤°à¤°":11925,"Ġà¤īà¤¨à¤¸":11926,"à¤¡à¤ķà¤¹à¤°":11927,"Ġ|--":11928,"à¤¸à¤¦à¤®à¤§":11929,"à¤¨à¤ªà¤¶":11930,"Ġà¥¦à¥Ńà¥¬":11931,"à¤Ĺà¤łà¤¨à¤¦":11932,"à¤µà¤Ńà¤°à¤®":11933,"à¤¡à¤µà¤ĸ":11934,"Ġà¤Ĩà¤ĩà¤¡à¤²à¤¬":11935,"ĠAnuz":11936,"Ġsuite":11937,"ocument":11938,"SA":11939,"aur":11940,"aid":11941,"back":11942,"hus":11943,"jay":11944,"à¤¤à¤§":11945,"à¤ªà¤¤à¤°":11946,"à¤¦à¤¹à¤®":11947,"Ġà¤¬à¤¯à¤°":11948,"à¤Ļà¤Ńà¤¨":11949,"à¤²à¤ķà¤¬à¤¸":11950,"Ġà¤ľà¤¨à¤¦à¤¬":11951,"à¤µà¤¨à¤¨":11952,"à¤Ĩà¤¨à¤²":11953,"Ġ?âĢĻ,":11954,"à¤ĵà¤ıà¤¨à¤ıà¤¸":11955,"Ġà¤®à¤¤à¤¹à¤°":11956,"Ġà¥§à¥¯à¥¨à¥©":11957,"Ġà¥§à¥¯à¥©à¥«":11958,"Ġà¤ķà¤µà¤ļ":11959,"à¤¸à¤¹à¤°à¤²":11960,"à¤¡à¤°à¤°":11961,"iles":11962,"Ġclick":11963,"ason":11964,"Ġdeep":11965,"restha":11966,"à¥Ľà¤°":11967,"Ġà¤®à¤°à¤¹à¤ł":11968,"QLS":11969,"ÄĻ":11970,"å½":11971,"ìĿ":11972,"à¤µà¤ľà¤²":11973,"Ġà¤ķà¤¬à¤°":11974,"à¤Ĺà¤£à¤ķ":11975,"à¤ıà¤ĩà¤²":11976,"à¤īà¤ªà¤¸":11977,"Ġà¤ĸà¤µà¤°à¤²":11978,"Ġà¤ıà¤ķà¤¤à¤®":11979,"Ġà¤¬à¤¨à¤²":11980,"à¤¯à¤®à¤¸à¤®":11981,"à¤Ĩà¤ĩà¤¨":11982,"à¤¸à¤¨à¤Ń":11983,"à¤®à¤¨à¤¨":11984,"à¤ļà¤ķà¤¸à¤®":11985,"à¤°à¤®à¤£à¤ª":11986,"Ġà¥§à¥«à¥¯":11987,"Ġà¤°à¤ķà¤®à¤¹à¤°":11988,"Ġà¤¨à¤Ńà¤ĩà¤¦":11989,"Ġà¤¦à¤¶à¤¹à¤°":11990,"à¤µà¤¦à¤¹à¤ķ":11991,"ante":11992,"comà¤®":11993,"ĠPM":11994,"ĠMal":11995,"Ġbl":11996,"Ġinformation":11997,"à¸¢":11998,"Ġass":11999,"à¥ĩ!\"":12000,"FAIp":12001,"ïĢł":12002,"FAIpQLS":12003,"mon":12004,"pert":12005,"ģà¸":12006,"à¤²à¤ľà¤¨":12007,"à¤¯à¤°à¤¹":12008,"à¤¯à¤µà¤¨":12009,"à¤¦à¤ķà¤®":12010,"à¤µà¤¯à¤ķà¤°":12011,"Ġà¤µà¤¸à¤²":12012,"à¤Īà¤Ľ":12013,"Ġà¤¡à¤°à¤®":12014,"à¤ªà¤¤à¤¨":12015,"à¤¡à¤ķà¤¨":12016,"Ġà¤¬à¤°à¤¨":12017,"Ġà¥§à¥®à¥¬à¥Ń":12018,"Ġà¤°à¤Ļà¤°":12019,"Ġà¤Ķà¤¸à¤¤à¤Ńà¤¨":12020,"vest":12021,"ãĤ¹":12022,"ãĤī":12023,"à¥¨à¥¦à¥«à¥©":12024,"Ġ198":12025,"omatropin":12026,"FLD":12027,"Hjk":12028,"LL":12029,"XbKD":12030,"cCl":12031,"jVQ":12032,"rs":12033,"Ãª":12034,"éģ":12035,"à¤°à¤¯à¤®":12036,"à¤®à¤¹à¤ķ":12037,"à¥Ģà¥į":12038,"Ġà¤¨à¤īà¤¡":12039,"à¤īà¤ĺ":12040,"Ġà¤ıà¤Łà¤®":12041,"à¤µà¤¨à¤ªà¤Ľ":12042,"à¤°à¤¬à¤¸":12043,"Ġà¤ļà¤²à¤ħà¤ļà¤²":12044,"à¤ľà¤¸à¤ľ":12045,"Ġà¥¯à¥¨à¥¦":12046,"Ġà¤ıà¤®à¤«":12047,"à¤°à¤®à¤£à¤¸à¤®":12048,"à¥Īà¤ģâĢĵ":12049,"à¤²à¤¨à¤ķà¤°":12050,"Ġà¥¨à¥§à¥¯":12051,"Ġà¥¨à¥ªà¥¯":12052,"Ġà¤Ńà¤µà¤¨à¤¸":12053,"à¤ĩà¤ľà¤°à¤ķ":12054,"à¤Ĩà¤Īà¤ıà¤®":12055,"Ġlike":12056,"ĠDes":12057,"ĠHel":12058,"html":12059,"***":12060,"OwcCl":12061,"FAIpQLScG":12062,"FLDs":12063,"HjkFLDs":12064,"XbKDo":12065,"jVQd":12066,"OwcClXbKDo":12067,"à¥ĭ....":12068,"à¤¯à¤Ļà¤Ĺ":12069,"à¤ªà¤ħà¤ĺ":12070,"Ġà¤ķà¤ķà¤ª":12071,"Ġà¤°à¤²":12072,"à¤ıà¤¹à¤°":12073,"à¤Īà¤°à¤¸":12074,"Ġà¤²à¤ľà¤®":12075,"Ġà¤¶à¤ĸ":12076,"à¤Ļà¤®à¤¸":12077,"à¤·à¤ķà¤¸à¤¹":12078,"Ġà¤ľà¤¸à¤ª":12079,"à¤Łà¤®à¤£":12080,"ĠCy":12081,"Ġser":12082,"Ð°Ð»Ð¸":12083,"Ġdec":12084,"à¥§à¥§à¥§":12085,"Ġà¤Ĩà¤®à¤¨à¤°à¤¸":12086,"ĠWindows":12087,"Ġà¤²à¤¸à¤ıà¤¨":12088,"Ġà¥¤)\"":12089,"ä¸Ń":12090,"ĠProgram":12091,"********":12092,"ĠUniversity":12093,"100":12094,"MIS":12095,"bu":12096,"Ġà¤½":12097,"à¤°Tags":12098,"Ġà¤¸à¤¥":12099,"à¤¦à¤¯à¤¬":12100,"Ġà¤°à¤¥à¤®":12101,"à¤Łà¤°à¤¤":12102,"à¤¬à¤®à¤¬":12103,"Ġà¤¦à¤²à¤¬à¤²":12104,"à¤¶à¤ĸ":12105,"à¤Ńà¤°à¤¸":12106,"à¤ĸà¤²à¤¤":12107,"à¤°à¤¤à¤Ĺà¤¤":12108,"Ġà¤¡à¤¨à¤ķ":12109,"à¥ĭ,âĢľ":12110,"à¤ľà¤ķà¤¸":12111,"Ġà¤ĵà¤°à¤²":12112,"à¤¯à¤°à¤«":12113,"Ġà¤ħà¤Ĺà¤®à¤¸":12114,"Ġà¤Ĳà¤¨à¤¬à¤®":12115,"à¤łà¤ķà¤¦":12116,"Ġà¤¨à¤Ńà¤ĩà¤¨":12117,"Ġà¥§à¥®à¥Ńà¥§":12118,"Ġà¤¹à¤²à¤ļ":12119,"Ġà¤Ĩà¤¸à¤«":12120,"ĠÐ¸Ð·":12121,"ITCO":12122,"Ð¾ÑĢÐ¼":12123,"ĠShow":12124,"ĠÑĢÐ°Ð·":12125,"ociation":12126,"avaScript":12127,"DS":12128,"Sunday":12129,"ract":12130,"va":12131,"àª":12132,"à¤¿;":12133,"Ġà¤Ĺà¤Ł":12134,"Ġà¤®à¤°à¤¨":12135,"Ġà¤ľà¤¤à¤¨":12136,"à¤¸à¤®à¤°à¤¶à¤®à¤¶":12137,"à¤°à¤¹à¤£à¤²":12138,"à¤µà¤¨à¤¹à¤°":12139,"à¤·à¤£à¤¤":12140,"à¤§à¤¨à¤Ń":12141,"Ġà¤ħà¤²à¤ª":12142,"à¤ĩà¤®à¤¸à¤²":12143,"à¤¤à¤°à¤®à¤¨":12144,"Ġmod":12145,"ĠSem":12146,"ĠAiico":12147,"Ð°Ñİ":12148,"à¥§à¥§à¥Ń":12149,"asy":12150,"ĠLa":12151,"ĠKH":12152,"usic":12153,"ãĤĮ":12154,"Ġà¤¸à¤¯à¤ķà¤¡":12155,"à¤Łà¤ªà¤Łà¤ķà¤ķ":12156,"Ġà¤Ĩà¤ĩà¤°à¤¨à¤ķ":12157,"ĠâĢĭâĢĭ":12158,"ET":12159,"FI":12160,"by":12161,"ÐĴ":12162,"å¥":12163,"à¥Ģ;":12164,"à¤Ĺà¤¨à¤¬":12165,"à¤¬à¤Īà¤²":12166,"à¤ļà¤¤à¤¤":12167,"à¥§à¥¦à¥¦à¥¦":12168,"à¤°à¤Ńà¤¦":12169,"Ġà¥§à¥¯à¥¦à¥®":12170,"à¤¯à¤¯à¤¨à¤¸à¤®":12171,"Ġà¥¨à¥§à¥¬":12172,"ĠSl":12173,"ĠCard":12174,"à¥Ģ...âĢĻ":12175,"Ġà¥©à¥ªà¥¦":12176,"à¥¨à¥«à¥®":12177,"ÐµÐ¿":12178,"aint":12179,"ĠQu":12180,"âĢ¦âĢ¦âĢ¦âĢ¦âĢ¦âĢ¦âĢ¦âĢ¦":12181,"Aut":12182,"mà¤®":12183,"Ġà¤µà¤¤à¤¨":12184,"à¤¶à¤µà¤²":12185,"à¤¥à¤°à¤²":12186,"à¤¡à¤¸à¤ķ":12187,"à¤īà¤Ńà¤°":12188,"à¤ĩà¤ıà¤¸":12189,"Ġà¤¶à¤µà¤¹à¤°":12190,"Ġà¤ħà¤¨à¤¦":12191,"à¤¤à¤°à¤ªà¤Ł":12192,"à¤¤à¤ķà¤ª":12193,"à¤®à¤²à¤¸":12194,"à¤¸à¤¦à¤ľ":12195,"à¤¸à¤¹à¤°à¤¬":12196,"à¤µà¤¶à¤°":12197,"Ġà¤®à¤Ļà¤¸":12198,"ĠDar":12199,"ĠDPR":12200,"ĠTO":12201,"Ġnk":12202,"ĠGAM":12203,"Ġà¤ıà¤ļà¤Ĩà¤°":12204,"à¤¨à¤¯à¤¨à¤ªà¤¤":12205,"à¥į)à¥¤":12206,"apan":12207,"ĠØ³":12208,"Ġà¤ıà¤¯à¤°à¤¬à¤¸à¤ķ":12209,"people":12210,"ESS":12211,"TML":12212,"iber":12213,"wn":12214,"çľ":12215,"à¤¾âĢĿ,":12216,"à¤µà¤£à¤®":12217,"à¤Ĺà¤§":12218,"à¤¯à¤ķà¤Ńà¤¨":12219,"Ġà¤Ĩà¤ĩà¤ĵà¤ıà¤¸":12220,"Ġà¤ļà¤°à¤Ļ":12221,"Ġà¤ıà¤¨à¤ıà¤ļà¤ķ":12222,"Ġà¥¨à¥¬à¥ª":12223,"ĠIP":12224,"ĠâĢ¦âĢ¦":12225,"Ġà¤®à¤¦à¤¨à¤¸":12226,"Ġà¤·à¤£":12227,"à¥¦à¥ªà¥ª":12228,",âĢĿâĢĵ":12229,"à¤¬à¤¢à¤ķ":12230,"Ġever":12231,"ITCOIN":12232,":à¥¤":12233,"LGCDP":12234,"div":12235,"ĠÑĦ":12236,"à¤¾_":12237,"à¤²à¤ĺà¤°à¤ķ":12238,"à¤µà¤Ĺà¤°":12239,"Ġà¤ķà¤Łà¤¨":12240,"à¤ıà¤«à¤¬":12241,"à¤ľà¤®à¤¨":12242,"à¤īà¤ķà¤²":12243,"Ġà¤¶à¤¤à¤¬":12244,"Ġà¤¸à¤¹à¤®":12245,"Ġà¤Ĺà¤¤à¤¹à¤ª":12246,"Ġà¤ľà¤¸à¤¦":12247,"Ġà¤Īà¤Ĩà¤Īà¤ı":12248,"Ġà¥¨à¥¨à¥®":12249,"Ġà¤ıà¤¡à¤µà¤°":12250,"rie":12251,"Ġà¤²à¤¤à¤ªà¤¤":12252,"ĠUpd":12253,"ĠRel":12254,"à¤¦à¤¶à¤°à¤¥à¤ļà¤¨":12255,"rd":12256,"yahoo":12257,"å¼":12258,"Ġum":12259,"Ġà¤°à¤ª":12260,"à¤§à¤Ĺà¤®":12261,"à¤¯à¤ķà¤¨":12262,"à¤¾à¤ģà¥Īà¤Ĥ":12263,"à¤°à¤£à¤¤à¤°":12264,"Ġà¤¯à¤¸à¤ħà¤Ĺ":12265,"à¤¯à¤°à¤«à¤ķ":12266,"à¤µà¤®à¤£":12267,"à¤Łà¤²à¤¸":12268,"Ġà¤¦à¤²à¤ª":12269,"Ġà¥§à¥ªà¥¦à¥¦":12270,"à¤ĺà¤°à¤ªà¤°":12271,"Ġà¤Ĩà¤ļà¤°à¤£à¤²":12272,"ĠÐĶ":12273,"ĠTulsipur":12274,"à¤ħà¤ªà¤¹à¤°à¤£":12275,"à¥¨à¥«à¥¦":12276,"à¤Ĩà¤īà¤Łà¤ķ":12277,"pect":12278,"Ġalso":12279,"Ġà¤°à¤¹à¤¨à¤¸à¤¹à¤¨à¤®":12280,"Ġà¤ıà¤¸à¤ıà¤®à¤ıà¤¸à¤®":12281,"-âĢĺ":12282,"An":12283,"ke":12284,"xt":12285,"è¯":12286,"à¤²à¤¡à¤ª":12287,"Ġà¤¸à¤¸à¤°":12288,"Ġà¤ķà¤ĸà¤°":12289,"à¤§à¤§":12290,"Ġà¤ıà¤Ĩà¤°":12291,"à¤¯à¤®à¤Ń":12292,"à¤¸à¤¨à¤ħà¤¨":12293,"Ġ---------":12294,"à¤¯à¤Łà¤¨à¤¨":12295,"Ġà¥¨à¥¯à¥©":12296,"iti":12297,"ĠTri":12298,"Ġaward":12299,"à¤ĩà¤«à¤¸à¤ķ":12300,"à¥¦à¥¯à¥Ń":12301,"Ġà¤²à¤µà¤ľà¤®":12302,"ĠQual":12303,"Ġà¤¹à¤°à¤¤à¤°à¤¹à¤²":12304,"FB":12305,"Lire":12306,"che":12307,"Äħ":12308,"âĻ":12309,"çĽ":12310,"à¤²à¤ļà¤®":12311,"Ġà¤¨à¤ĵ":12312,"Ġà¥¤||":12313,"à¤§à¤¸à¤°à¤ķ":12314,"à¤Ĥà¥į":12315,"Ġà¤Ĩà¤Ŀ":12316,"Ġà¤ľà¤¦":12317,"à¤¡à¤¨à¤¦":12318,"à¤Īà¤Ĺà¤°":12319,"à¤Ĺà¤°à¤¹à¤°":12320,"à¤Ĺà¤°à¤¨à¤²":12321,"à¤¾,à¥ĩ":12322,"à¤ķà¤°à¤£à¤ħà¤¨":12323,"Ġà¤Īà¤µ":12324,"Ġà¤Īà¤¡":12325,"à¤ľà¤¯à¤¶":12326,"Ġà¤ľà¤¨à¤ķà¤µ":12327,"ĠPer":12328,"à¥¨à¥¦à¥¦à¥«":12329,"urs":12330,"Ġcre":12331,"Ġà¤ıà¤¡à¤®à¤¨":12332,"à¥¦à¥¬à¥¬":12333,"ĠRob":12334,"!!!!":12335,"à¤¸à¤¯à¤ªà¤¤":12336,"opati":12337,"à¤ıà¤¸à¤ıà¤²à¤²à¤Ĺ":12338,"Ġtrans":12339,"à¤ıà¤¸à¤ĩà¤Ī":12340,"Ġà¤§à¤Ļà¤§à¤Ļ":12341,"App":12342,"à¤¾ï¿½...":12343,"Ġà¤¸à¤µà¤°":12344,"à¥Ī?":12345,"Ġà¤ľà¤¨à¤²à¤¹à¤°":12346,"à¤²à¤ķà¤¬à¤¹":12347,"à¤¯à¤¸à¤Ļ":12348,"à¤°à¤²à¤Ĺà¤¤":12349,"à¤²à¤®à¤ª":12350,"à¤µà¤¨à¤ļà¤ķ":12351,"à¤°à¤µà¤§":12352,"Ġà¤Ĩà¤µà¤ľ":12353,"à¤Ĺà¤²à¤Ŀ":12354,"Ġà¤ıà¤®à¤Ń":12355,"à¤²à¤¤à¤¸":12356,"Ġà¤¨à¤Ńà¤ıà¤ľà¤¸":12357,"Ġoak":12358,"à¤Ĩà¤ĩà¤ĵà¤ıà¤®":12359,"Ġà¤ıà¤ļà¤Ł":12360,"à¥į))":12361,"orts":12362,"ustral":12363,"ĠExc":12364,"à¤µà¤¬à¤¨":12365,"à¤¶à¤¤à¤¨":12366,"à¤Ľà¤¹à¤°":12367,"à¤Ńà¤¨à¤ķ":12368,"à¤°à¤®à¤²à¤Ĺ":12369,"à¥ĮâĢĮà¤Ĥ":12370,"Ġà¤ªà¤°à¤ªà¤°":12371,"à¤¸à¤ķà¤µ":12372,"à¤ħà¤°à¤¨":12373,"Ġà¤łà¤°à¤ķ":12374,"à¤®à¤¤à¤ªà¤Ľ":12375,"à¤¦à¤¨à¤¦":12376,"à¤ĵà¤¶":12377,"Ġà¤ľà¤®à¤¦à¤Ĺ":12378,"à¤®à¤¬à¤°à¤£":12379,"Ġà¤¶à¤¹à¤°à¤¸":12380,"Ġà¤ľà¤¡à¤¸":12381,"ĠTrade":12382,"Ġà¤¦à¤®à¤¨à¤®":12383,"ĠFair":12384,"Ġà¥©à¥®à¥¦":12385,"Ġhow":12386,"Ġà¤¦à¤®à¤ķà¤¸":12387,"IKO":12388,"Jul":12389,"KTM":12390,"à¤®à¤¶à¤ķ":12391,"à¤¹à¤¥":12392,"Ġà¤®à¤łà¤ķ":12393,"à¤¬à¤°à¤£à¤®":12394,"Ġà¤²à¤ªà¤ķ":12395,"à¤ľà¤¨à¤Ĺà¤£à¤¤à¤¨":12396,"à¤ĺà¤¨à¤®":12397,"à¤°à¤¹à¤Ń":12398,"à¤Ŀà¤µ":12399,"à¤ķà¤®à¤Ĺ":12400,"Ġà¥¬à¥§à¥§":12401,"Ġ?)":12402,"Ġà¤Ĩà¤ĩà¤ıà¤¸à¤ķ":12403,"à¥ĩà¥¤'":12404,"arly":12405,"Ġpar":12406,"Ġà¤¤à¤¬à¤°à¤¬":12407,"Ġinter":12408,"à¤īà¤ľà¤°à¤®":12409,"à¤¸à¤«à¤°à¤®":12410,"Ġà¤Ĩà¤¬à¤§":12411,"raph":12412,"Ġà¥¦à¥ªà¥¯":12413,"duct":12414,"UB":12415,"css":12416,"ks":12417,"Î¹":12418,"ĥ½":12419,"à¤¾[":12420,"à¤°à¤«à¤¤":12421,"à¤°à¤ĺà¤°":12422,"à¤°à¤Ĩà¤¨":12423,"à¤ķà¤Ŀ":12424,"à¥ĭà¥Ī":12425,"à¤®à¤Ńà¤°":12426,"à¤®à¤ľà¤¨à¤®":12427,"à¥Ī\"":12428,"à¤ľà¤Ĺà¤°":12429,"Ġà¤¤à¤Ĺà¤¡":12430,"à¤ģà¥į":12431,"à¤īà¤°à¤®":12432,"à¤ĩà¤Ļà¤²":12433,"à¥ĥà¤ģ":12434,"Ġà¤Łà¤¨à¤Ńà¤¨":12435,"Ġà¤¹à¤ľà¤°à¤¤":12436,"Ġà¥ªà¥§à¥¦":12437,"à¤Łà¤²à¤µ":12438,"Ġà¤§à¤¨à¤ªà¤¤":12439,"à¤¬à¤¸à¤¤":12440,"Ġà¥§à¥¬à¥§à¥®":12441,"Ġà¤¸à¤¹à¤°à¤¸":12442,"ĠSm":12443,"ĠÐ¢":12444,"here":12445,"ĠBK":12446,"Ġdu":12447,"Ġà¥«à¥¬à¥«":12448,"ahad":12449,"ĠOffice":12450,"ĠÃł":12451,"Ġwho":12452,"Ġ{{":12453,"åľ¨":12454,"vailable":12455,"à¤¨à¤Ńà¤¯":12456,"à¤µà¤ªà¤°à¤°":12457,"Ġà¤¹à¤¡à¤¬à¤¡":12458,"à¤¥à¤¬à¤¹":12459,"à¤Ńà¤°à¤£à¤ķ":12460,"à¤īà¤ī":12461,"à¤°à¤ķà¤¬":12462,"Ġà¤¶à¤Ł":12463,"à¤°à¤£à¤¤":12464,"Ġà¤īà¤ªà¤ľà¤²":12465,"Ġà¥§à¥¯à¥©à¥ª":12466,
[...]
