{"!":0,"\"":1,"#":2,"$":3,"%":4,"&":5,"'":6,"(":7,")":8,"*":9,"+":10,",":11,"-":12,".":13,"/":14,"0":15,"1":16,"2":17,"3":18,"4":19,"5":20,"6":21,"7":22,"8":23,"9":24,":":25,";":26,"<":27,"=":28,">":29,"?":30,"@":31,"A":32,"B":33,"C":34,"D":35,"E":36,"F":37,"G":38,"H":39,"I":40,"J":41,"K":42,"L":43,"M":44,"N":45,"O":46,"P":47,"Q":48,"R":49,"S":50,"T":51,"U":52,"V":53,"W":54,"X":55,"Y":56,"Z":57,"[":58,"\\":59,"]":60,"^":61,"_":62,"`":63,"a":64,"b":65,"c":66,"d":67,"e":68,"f":69,"g":70,"h":71,"i":72,"j":73,"k":74,"l":75,"m":76,"n":77,"o":78,"p":79,"q":80,"r":81,"s":82,"t":83,"u":84,"v":85,"w":86,"x":87,"y":88,"z":89,"{":90,"|":91,"}":92,"~":93,"¡":94,"¢":95,"£":96,"¤":97,"¥":98,"¦":99,"§":100,"¨":101,"©":102,"ª":103,"«":104,"¬":105,"®":106,"¯":107,"°":108,"±":109,"²":110,"³":111,"´":112,"µ":113,"¶":114,"·":115,"¸":116,"¹":117,"º":118,"»":119,"¼":120,"½":121,"¾":122,"¿":123,"À":124,"Á":125,"Â":126,"Ã":127,"Ä":128,"Å":129,"Æ":130,"Ç":131,"È":132,"É":133,"Ê":134,"Ë":135,"Ì":136,"Í":137,"Î":138,"Ï":139,"Ð":140,"Ñ":141,"Ò":142,"Ó":143,"Ô":144,"Õ":145,"Ö":146,"×":147,"Ø":148,"Ù":149,"Ú":150,"Û":151,"Ü":152,"Ý":153,"Þ":154,"ß":155,"à":156,"á":157,"â":158,"ã":159,"ä":160,"å":161,"æ":162,"ç":163,"è":164,"é":165,"ê":166,"ë":167,"ì":168,"í":169,"î":170,"ï":171,"ð":172,"ñ":173,"ò":174,"ó":175,"ô":176,"õ":177,"ö":178,"÷":179,"ø":180,"ù":181,"ú":182,"û":183,"ü":184,"ý":185,"þ":186,"ÿ":187,"Ā":188,"ā":189,"Ă":190,"ă":191,"Ą":192,"ą":193,"Ć":194,"ć":195,"Ĉ":196,"ĉ":197,"Ċ":198,"ċ":199,"Č":200,"č":201,"Ď":202,"ď":203,"Đ":204,"đ":205,"Ē":206,"ē":207,"Ĕ":208,"ĕ":209,"Ė":210,"ė":211,"Ę":212,"ę":213,"Ě":214,"ě":215,"Ĝ":216,"ĝ":217,"Ğ":218,"ğ":219,"Ġ":220,"ġ":221,"Ģ":222,"ģ":223,"Ĥ":224,"ĥ":225,"Ħ":226,"ħ":227,"Ĩ":228,"ĩ":229,"Ī":230,"ī":231,"Ĭ":232,"ĭ":233,"Į":234,"į":235,"İ":236,"ı":237,"Ĳ":238,"ĳ":239,"Ĵ":240,"ĵ":241,"Ķ":242,"ķ":243,"ĸ":244,"Ĺ":245,"ĺ":246,"Ļ":247,"ļ":248,"Ľ":249,"ľ":250,"Ŀ":251,"ŀ":252,"Ł":253,"ł":254,"Ń":255,"à¤":256,"à¥":257,"Ġà¤":258,"à¤¾":259,"à¥į":260,"à¤°":261,"à¤¨":262,"à¤ķ":263,"à¤¿":264,"à¥ĩ":265,"à¥ĭ":266,"à¤²":267,"à¤®":268,"à¤¤":269,"à¤¯":270,"à¥ģ":271,"à¥Ģ":272,"à¤¸":273,"Ġà¤¸":274,"Ġà¤ª":275,"à¤¹":276,"à¤ª":277,"à¤¦":278,"à¤µ":279,"Ġà¥":280,"Ġà¤ķ":281,"à¤Ĺ":282,"Ġà¤Ĺ":283,"Ġà¤°":284,"à¤Ł":285,"à¥Ī":286,"Ġà¤¨":287,"Ġà¥¤":288,"à¤ı":289,"Ġà¤¬":290,"Ġà¤®":291,"Ġà¤Ń":292,"à¤ľ":293,"Ġà¤ħ":294,"Ġà¤¹":295,"Ġà¤Ĺà¤°":296,"à¤¬":297,"Ġà¤µ":298,"à¤·":299,"à¤§":300,"Ġà¤Ľ":301,"Ġà¤¤":302,"à¤¶":303,"Ġà¤¦":304,"à¤¥":305,"à¤ģ":306,"à¤ıà¤ķ":307,"à¤Ĥ":308,"Ġà¤Ĩ":309,"Ġà¤ľ":310,"à¤ļ":311,"à¤¡":312,"à¤Ī":313,"Ġà¤²":314,"à¤£":315,"à¤Ľ":316,"à¥Ĥ":317,"à¤Ń":318,"à¤ĸ":319,"à¤ī":320,"âĢ":321,"Ġà¤ī":322,"à¤¹à¤°":323,"Ġà¤¯":324,"Ġà¤¸à¤®":325,"à¥¤":326,"à¤°à¤ķ":327,"à¤ĩ":328,"à¤°à¤®":329,"Ġà¤ļ":330,"Ġà¤Ńà¤¨":331,"à¤«":332,"à¥Į":333,"Ġà¤¶":334,"à¤¯à¤ķ":335,"Ġà¤ĸ":336,"Ġà¤¥":337,"Ġà¤ı":338,"à¤īà¤¨":339,"à¤ł":340,"à¤¾à¤ģ":341,"Ġà¤ªà¤¨":342,"à¤¨à¤ķ":343,"Ġà¤Ńà¤ıà¤ķ":344,"Ġà¤ªà¤°":345,"Ġà¤ħà¤¨":346,"à¥ĥ":347,"à¤°à¤¤":348,"à¥¦":349,"à¤Ļ":350,"à¤°à¤£":351,"Ġà¤«":352,"à¤¸à¤ķ":353,"à¤ľà¤¨":354,"Ġà¥¨":355,"à¤¢":356,"Ġà¤Ľà¤¨":357,"à¤¸à¤®":358,"Ġà¥§":359,"à¤ªà¤°":360,"à¤ĺ":361,"Ġà¤°à¤¹":362,"à¤¨à¤®":363,"..":364,"à¤µà¤¸":365,"ĠâĢ":366,"Ġà¤®à¤¹":367,"Ġà¤ıà¤ķ":368,"à¤²à¤ķ":369,"Ġà¤ĺ":370,"Ġà¤¬à¤¨":371,"Ġà¤§":372,"Ġà¤ľà¤¨":373,"à¤¯à¤®":374,"à¤¨à¤²":375,"Ġà¤¯à¤¸":376,"à¤ŀ":377,"à¤Ĺà¤°":378,"à¤ªà¤¨":379,"Ġà¤¤à¤¥":380,"Ġà¤Ł":381,"Ġà¤¸à¤ķ":382,"à¤°à¤¹":383,"Ġà¤Ĩà¤«":384,"à¤¯à¤¸":385,"à¤¤à¤°":386,"Ġà¤ħà¤§":387,"âĢ¯":388,"à¤°à¤²":389,"Ġà¤¸à¤¹":390,"Ġà¤µà¤°":391,"âĢĻ":392,"à¤²à¤®":393,"Ġà¤¡":394,"Ġà¥§à¥":395,"à¤Ŀ":396,"à¤ħ":397,"à¥Įà¤Ĥ":398,"à¤°à¤¸":399,"à¤¯à¤¤":400,"à¤ªà¤Ľ":401,"Ġà¤īà¤ª":402,"à¤¾,":403,"ĠâĢĺ":404,"Ġà¤¤à¤°":405,"Ġà¤®à¤¨":406,"à¤ıà¤°":407,"à¤°à¤¦":408,"à¤ªà¤¤":409,"à¤Ľà¤¨":410,"Ġà¤ħà¤°":411,"Ġà¤¬à¤¢":412,"à¥¦à¥":413,"Ġà¤ķà¤®":414,"Ġà¤¬à¤¤":415,"à¤ĩà¤¨":416,"à¤ªà¤®":417,"Ġà¤¸à¤°à¤ķ":418,"à¤ķà¤²":419,"Ġà¤ķà¤°":420,"âĢĵ":421,"à¤łà¤®":422,"Ġà¤ł":423,"Ġà¤²à¤Ĺ":424,"à¤®à¤ķ":425,"à¤ķà¤®":426,"à¤°à¤¹à¤°":427,"Ġà¤ĩ":428,"à¥ģà¤ģ":429,"à¤ļà¤¨":430,"à¤¤à¤ķ":431,"à¤¬à¤¨":432,"Ġà¤¸à¤¬":433,"Ġà¤ªà¤¹":434,"à¤Łà¤ķ":435,"...":436,"Ġà¤Ĩà¤¯":437,"Ġ(":438,"à¤µà¤°":439,"à¤µà¤ķ":440,"à¥«":441,"à¤¯à¤¨":442,"Ġà¤ħà¤¸":443,"à¤Ĺà¤¤":444,"à¤¯à¤µà¤¸":445,"à¤µà¤¨":446,"Ġà¤īà¤¤":447,"Ġà¤īà¤¨":448,"Ġà¤Ńà¤ı":449,"Ġà¤¬à¤¸":450,"à¤Ĩ":451,"à¥¨":452,"à¥§":453,"à¤²à¤¯":454,"à¤²à¤²":455,"à¤¾à¤Ĥ":456,"à¥Ģ,":457,"Ġà¥¨à¥¦à¥":458,"à¤·à¤£":459,"à¤²à¤¨":460,"à¤¸à¤²":461,"Ġà¤Ĺà¤¤":462,"Ġà¥©":463,"à¥ĩ,":464,"Ġà¤īà¤¨à¤²":465,"à¤°à¤µ":466,"à¥įà¥¤":467,"à¤¸à¤¨":468,"à¥ĭà¥¤":469,"à¤²à¤¬":470,"à¤°à¤¬":471,"à¤Łà¤¨":472,"Ġà¤¨à¤Ĺà¤°":473,"à¤¶à¤ķ":474,"Ġà¤ħà¤µà¤¸":475,"Ġà¤ħà¤Ń":476,"à¤ķà¤ķ":477,"Ġà¤Ĩà¤ıà¤ķ":478,"à¤Łà¤°":479,"à¥ĭ,":480,"à¤¤à¤®":481,"Ġà¤¬à¤ľ":482,"Ġà¤Ŀ":483,"à¥ª":484,"Ġà¥«":485,"Ġà¤Ĩà¤°":486,"à¤¤à¤¨":487,"à¥Īà¤Ĥ":488,"à¤®à¤¨":489,"à¤°à¤§":490,"Ġà¤¹à¤ľ":491,"à¤®à¤¤":492,"à¥©":493,"à¤Ńà¤¨":494,"Ġà¤īà¤¦":495,"à¤ķà¤°":496,"à¤·à¤ķ":497,"Ġà¤¸à¤°":498,"à¥Įà¤ģ":499,"Ġà¤ħà¤¹":500,"à¤°à¤¯":501,"à¤¯à¤²":502,"à¥Ń":503,"Ġà¤¸à¤¨":504,"à¤¡à¤ķ":505,"à¤ªà¤ķ":506,"Ġà¤Ĩà¤µ":507,"Ġà¤¸à¤ŀ":508,"à¤ľà¤ķ":509,"à¤¨à¤¨":510,"Ġà¥ª":511,"Ġà¤ļà¤²":512,"à¤¦à¤¨":513,"à¤īà¤Ł":514,"à¤¶à¤¨":515,"Ġà¤ªà¤¤":516,"à¤Ĺà¤²":517,"Ġà¤¨à¤¯":518,"à¤¬à¤°":519,"Ġà¤ĵ":520,"Ġà¤¸à¤¦":521,"à¤Ńà¤¯":522,"à¤Ńà¤ıà¤ķ":523,"à¥¬":524,"Ġà¤Ĩà¤§":525,"à¤®à¤²":526,"à¤µà¤²":527,"à¤°à¤®à¤®":528,"Ġà¤ľà¤¸":529,"Ġà¤ªà¤ķ":530,"à¤°à¤¶":531,"à¥®":532,"à¤Ĺà¤ķ":533,"Ġà¤¬à¤°":534,"à¤¿à¤Ĥ":535,"Ġà¤¹à¤°":536,"à¤ĩà¤ıà¤ķ":537,"à¤«à¤²":538,"Ġà¥¬":539,"à¤§à¤¨":540,"à¤¨à¤¸":541,"à¤¯à¤°":542,"à¤¨à¤®à¤¨":543,"Ġà¤ıà¤īà¤Ł":544,"à¤ĸà¤°":545,"Ġà¤ķà¤¸":546,"Ġà¤ªà¤Ľ":547,"à¥¯":548,"à¤¤à¤²":549,"Ġ|":550,"Ġà¤¢":551,"Ġà¤¯à¤¹":552,"à¤ĩà¤°à¤¹":553,"Ġà¤ħà¤®":554,"Ġà¤īà¤¨à¤ķ":555,"Ġà¤Ńà¤¯":556,"à¤ĥ":557,"Ġà¤¸à¤¯":558,"à¤®à¤®":559,"Ġ?":560,"Ġà¤¸à¤®à¤¯":561,"à¥į,":562,"Ġà¤ħà¤Ĺ":563,"à¤ķà¤°à¤£":564,"Ġà¤¤à¤ª":565,"Ġà¤¦à¤°":566,"à¤¿à¤ģ":567,"Ġà¤Ĩà¤ľ":568,"à¤ĵ":569,"à¤¯à¤¹":570,"Ġà¤ªà¤¦":571,"Ġà¤ķà¤²":572,"Ġà¤¤à¤¯":573,"à¤µà¤®":574,"Ġà¤¨à¤Ĺà¤°à¤ª":575,"à¤°à¤Ń":576,"Ġà¤®à¤§":577,"Ġà¥Ń":578,"Ġà¤ĸà¤°":579,"à¤ħà¤¨":580,"à¤Łà¤®":581,"Ġà¤Ķ":582,"Ġà¤¸à¤¹à¤¯":583,"à¤¹à¤ķ":584,"à¤Ĺà¤®":585,"Ġà¤īà¤¹":586,"Ġà¤ĺà¤°":587,"à¤²à¤Ĺ":588,"à¤ľà¤¸":589,"Ġà¤¸à¤®à¤¸":590,"à¤¸à¤¦":591,"à¤¾à¥ĩ":592,"à¤ķà¤¤":593,"Ġà¤ķà¤¤":594,"Ġà¤ħà¤¬":595,"Ġà¥¨à¥¦à¥Ń":596,"à¤¦à¤°":597,"Ġà¤ľà¤¨à¤¤":598,"Ġà¤¸à¤¦à¤¸":599,"à¤·à¤®":600,"Ġà¤ĩà¤¨":601,"Ġà¤ħà¤µ":602,"Ġà¤Ĩà¤īà¤¨":603,"à¤¶à¤®":604,"Ġà¤®à¤²":605,"Ġà¤īà¤ķ":606,"âĢĿ":607,"Ġà¤ħà¤ĺ":608,"Ġà¥®":609,"à¤µà¤¤":610,"Ġà¤ªà¤¢":611,"à¤¾.":612,"à¤Łà¤²":613,"à¤¿,":614,"Ġà¤¯à¤¸à¤ķ":615,"à¤µà¤ľà¤¨":616,"Ġà¤¬à¤¹":617,"à¤ıà¤¨":618,"Ġà¤Ĩà¤µà¤¶":619,"à¤£à¤ķ":620,"Ġà¤¸à¤Ń":621,"Ġà¥§à¥¦":622,"à¤¹à¤¨":623,"Ġà¤¬à¤²":624,"Ġà¥¯":625,"Ġà¤Ĩà¤Ĺ":626,"Ġà¤īà¤®":627,"Ġà¤Ĩà¤®":628,"Ġà¤ħà¤¤":629,"à¤Ńà¤°":630,"à¤¦à¤ķ":631,"Ġà¤¶à¤°":632,"ĠâĢľ":633,"Ġà¤ļà¤°":634,"Ġà¤ħà¤ª":635,"à¤ľà¤®":636,"à¤¯à¤µ":637,"Ġà¤¨à¤®":638,"Ġà¤Ĺà¤ıà¤ķ":639,"à¥įâĢ":640,"Ġà¤Ĩà¤ĩ":641,"à¤ķà¤ª":642,"à¤ķà¤¨":643,"Ġà¤«à¤°":644,"à¤ĩà¤²":645,"Ġà¤ıà¤®":646,"Ġà¤Ĩà¤¨":647,"Ġà¤¨à¤¸à¤ķ":648,"Ġà¤ķà¤¹":649,"Ġà¤īà¤²":650,"Ġà¤¥à¤ª":651,"à¤¥à¤®":652,"à¤ıà¤ªà¤Ľ":653,"Ġà¤īà¤ļ":654,"à¤¶à¤¤":655,"à¤¦à¤Ľ":656,"à¥įâĢį":657,"Ġà¤Ĩà¤¦":658,"à¤Ļà¤ķ":659,"Ġà¤Ńà¤°":660,"Ġà¤®à¤¤":661,"Ġà¤²à¤ķ":662,"à¤°à¤ļ":663,"à¤¬à¤²":664,"Ġà¤¸à¤Ļ":665,"à¤ħà¤ĺ":666,"à¤ļà¤ķ":667,"Ġà¤ªà¤Łà¤ķ":668,"âĢ¦":669,"Ġà¤®à¤¹à¤¤":670,"Ġà¤¦à¤²":671,"à¤®à¤ļ":672,"à¤µà¤°à¤£":673,"Ġà¤¸à¤¤":674,"à¤²à¤¯à¤ķ":675,"Ġà¤¨à¤¹":676,"à¤°à¤¨":677,"Ġ,":678,"Ġà¥¨à¥¦":679,"Ġà¤µà¤Ł":680,"à¤£à¤¯":681,"Ġà¤°à¤¹à¤¨":682,"Ġà¤§à¤°":683,"à¤¨à¤µ":684,"Ġà¤¯à¤¸à¤²":685,"à¤ĵà¤µ":686,"à¤¤à¤°à¤£":687,"à¤¡à¤²":688,"à¤¬à¤¹":689,"Ġà¤¸à¤¹à¤Ń":690,"à¤ªà¤²":691,"Ġà¤¨à¤¦":692,"à¤¯à¤¸à¤ķ":693,"à¤°à¤ª":694,"Ġà¤¸à¤«à¤²":695,"à¤¤à¤µ":696,"Ġà¤µà¤¡":697,"Ġà¤¹à¤¤":698,"à¤łà¤¨":699,"Ġà¤¸à¤ļ":700,"Ġà¤ĺà¤Łà¤¨":701,"Ġà¤¤à¤¤":702,"Ġà¤Ĳ":703,"à¤«à¤¤":704,"Ġà¤ªà¤¶":705,"à¥ģ,":706,"à¤¡à¤®":707,"Ġà¤ħà¤²":708,"à¤·à¤¤":709,"à¤µà¤ª":710,"Ġ:":711,"Ġà¤ľà¤®":712,"Ġà¤Ńà¤ĩà¤°à¤¹":713,"à¤¤à¤ª":714,"Ġà¤¸à¤®à¤¯à¤®":715,"à¤°à¤®à¤£":716,"à¤ľà¤²":717,"à¤¸à¤°":718,"à¤ľà¤Ĺ":719,"à¤¸à¤¹":720,"Ġà¥§à¥«":721,"Ġà¤¸à¤¡à¤ķ":722,"à¤µà¤¯":723,"à¤ĩà¤¸à¤ķ":724,"Ġà¤¸à¤µ":725,"Ġà¤Ĩà¤¶":726,"à¤·à¤¯à¤®":727,"Ġ'":728,"à¤²à¤¤":729,"Ġà¤ĵà¤²":730,"Ġà¤Ńà¤ıà¤°":731,"Ġà¤ħà¤Ŀ":732,"à¤¸à¤Ń":733,"à¤¯à¤¤à¤ķ":734,"Ġà¤¤à¤¹":735,"Ġà¥§à¥¯":736,"Ġà¤īà¤ł":737,"à¤¾âĢĵ":738,"à¤°à¤ªà¤¤":739,"Ġà¤ıà¤¸":740,"Ġ...":741,"Ġà¥§à¥§":742,"à¤łà¤ķ":743,"Ġà¥§à¥¨":744,"à¤¦à¤²":745,"à¤¨à¤¬":746,"Ġà¤ħà¤¦":747,"à¤§à¤ķ":748,"Ġà¤Ĩà¤ī":749,"Ġ!":750,"Ġà¥¤âĢĻ":751,"Ġà¤¶à¤ķ":752,"Ġà¤ļà¤²à¤ļ":753,"à¤²à¤¯à¤²":754,"à¤¤à¤¬":755,"Ġà¤§à¤¨":756,"Ġà¤¯à¤¤":757,"à¤§à¤®":758,"à¤Īà¤²":759,"à¤¨à¤Ĺà¤°":760,"Ġà¤Ĩà¤ķ":761,"à¤·à¤¦":762,"âĢĺ":763,"Ġà¤°à¤ķà¤®":764,"Ġ-":765,"Ġà¤¨à¤Ń":766,"Ġà¤īà¤ªà¤ļ":767,"Ġà¤®à¤°":768,"à¤·à¤¯":769,"à¤¯à¤ª":770,"Ġà¤Ĩà¤¤":771,"à¤®à¤§":772,"Ġà¤īà¤ªà¤²à¤¬":773,"à¤¦à¤µ":774,"Ġà¥¨à¥¦à¥§":775,"à¥ĩà¥¤":776,"à¤¨à¤°":777,"à¤ıà¤¸":778,"Ġà¤Ľà¤²":779,"Ġà¤ħà¤«":780,"à¤°à¤ľ":781,"Ġà¤ľà¤°":782,"à¤ĩà¤Ł":783,"à¤ĩà¤¦":784,"Ġà¤¨à¤ľ":785,"à¤ĺà¤ķ":786,"à¤®à¤¹":787,"à¤¿.":788,"à¥Īà¤ģ":789,"à¤²à¤¸":790,"ĠâĢĵ":791,"Ġà¤¨à¤Ńà¤ıà¤ķ":792,"Ġà¤ªà¤ł":793,"à¤ªà¤¯":794,"à¤¹à¤²":795,"Ġà¤¦à¤¶":796,"à¤®à¤¦":797,"à¤ıà¤®":798,"à¤¨à¤¤":799,"à¤Īà¤ķ":800,"Ġà¤ľà¤Ĺ":801,"Ġà¤¬à¤ļ":802,"à¤¥à¤²":803,"à¤ĩà¤ķ":804,"Ġà¤Ńà¤ıà¤ªà¤Ľ":805,"à¤¨à¤ª":806,"à¤ļà¤®":807,"Ġà¤Ĺà¤£":808,"à¤°à¤¦à¤°":809,"Ġà¤ıà¤µ":810,"à¤²à¤¨à¤®":811,"Ġà¤¨à¤ª":812,"à¤¸à¤¬":813,"à¤ļà¤²":814,"Ġà¤Ī":815,"à¥¦à¥Ń":816,"à¥Įà¤Ĥ,":817,"à¤¯à¤¸à¤®":818,"à¤²à¤¯à¤®":819,"à¤®à¤¬":820,"Ġà¥¨à¥«":821,"à¤¦à¤®":822,"à¤²à¤µ":823,"Ġà¤¹à¤¸":824,"Ġà¥«à¥¦":825,"Ġà¤¦à¤ķ":826,"Ġà¤¸à¤¹à¤®à¤¤":827,"à¤°à¤¤à¤ķ":828,"Ġà¤ķà¤¸à¤°":829,"à¤īà¤¦":830,"à¤Ńà¤µ":831,"Ġ2":832,"Ġà¤¨à¤°":833,"Ġà¤ıà¤¨":834,"à¤¯à¤¯à¤¨":835,"à¤¯à¤¹à¤°":836,"à¤Ĥ.":837,"à¤ªà¤¦":838,"à¥ģà¤Ĥ":839,"Ġà¤ĺà¤Ł":840,"Ġà¤ķà¤ª":841,"Ġà¤¸à¤ľ":842,"à¤¯à¤Łà¤ķ":843,"à¤®à¤¸":844,"à¤°à¤£à¤®":845,"à¤Ĺà¤¦":846,"à¤°à¤®à¤ķ":847,"à¤ĺà¤Łà¤¨":848,"Ġà¤¸à¤¹à¤ķ":849,"Ġà¤ħà¤ªà¤°":850,"à¤®à¤°":851,"à¤¯à¤¸à¤²":852,"à¤§à¤¤":853,"à¤¬à¤¸":854,"à¤ľà¤¯":855,"à¤ªà¤Łà¤ķ":856,"Ġà¤Ńà¤µ":857,"à¤Ļà¤²":858,"Ġ||":859,"à¤¶à¤²":860,"Ġà¤ĺà¤°à¤®":861,"re":862,"à¤ľà¤§":863,"Ġà¤Ńà¤ĩà¤¸à¤ķ":864,"Ġà¤°à¤ķ":865,"Ġà¤ķà¤µ":866,"Ġà¤Ńà¤Ł":867,"à¤¸à¤¹à¤°":868,"Ġà¥¨à¥¦à¥Ńà¥«":869,"Ġ1":870,"à¤¬à¤¦":871,"Ġà¥§à¥©":872,"Ġà¤ľà¤¤":873,"Ġà¤Ľà¤²à¤«à¤²":874,"à¤Ńà¤ķ":875,"Ġà¥©à¥¦":876,"à¤ľà¤¦":877,"à¤¨à¤¹à¤°":878,"à¤ķà¤¸":879,"Ġà¤Ńà¤Ī":880,"Ġà¥§à¥ª":881,"à¤°à¤·":882,"à¤ľà¤¨à¤ķ":883,"Ġà¤¸à¤¹à¤ľ":884,"à¤¯à¤£":885,"Ġà¤ıà¤ķà¤¤":886,"à¤¯à¤¦":887,"Ġà¤ªà¤°à¤®":888,"on":889,"Ġà¤ķà¤¥":890,"Ġà¤®à¤¸":891,"in":892,"à¤ĸà¤ķ":893,"Ġà¤ľà¤¸à¤²":894,"à¤§à¤°":895,"Ġà¥§à¥¬":896,"Ġà¤¯à¤¦":897,"Ġà¤¹à¤Ł":898,"Ġà¤ħà¤µà¤§":899,"Â¥":900,"er":901,"à¤ľà¤°":902,"âĢľ":903,"à¤Īà¤¨":904,"Ġà¤ĭ":905,"à¤µà¤µ":906,"Ġà¥§à¥®":907,"à¤ĩà¤°":908,"à¤µà¤¦":909,"à¤¨à¤¸à¤ķ":910,"Ġà¤¸à¤²":911,"à¤²à¤°":912,"à¤¸à¤¸":913,"Ġà¤Ńà¤£":914,"Ġà¤°à¤®":915,"à¤¯à¤¸à¤ªà¤Ľ":916,"Ġà¤īà¤ªà¤¯":917,"à¤ķà¤Ł":918,"à¤¤à¤¹à¤°":919,"Ġà¤ľà¤¹":920,"Ġà¤īà¤ªà¤¸":921,"à¤ķà¤¹à¤°":922,"à¤ĩà¤¤":923,"à¤·à¤®à¤¤":924,"à¤¤à¤¤":925,"à¤ĺà¤°":926,"à¤¾)":927,"à¤°à¤ļà¤¨":928,"Ġà¤¶à¤¬":929,"à¤²à¤¨à¤ķ":930,"à¤·à¤²":931,"à¤Ĩà¤°":932,"Ġà¤µà¤¨":933,"à¤¨à¤Ĺà¤°à¤ª":934,"à¤¨à¤¯":935,"à¤§à¤¬":936,"Ġà¤Ńà¤¦":937,"Ġà¤Ĺà¤łà¤¨":938,"Ġà¤īà¤¡":939,"Ġà¥§à¥Ń":940,"à¤·à¤§":941,"Ġà¤ĸà¤¡":942,"Ġà¤«à¤°à¤ķ":943,"âĢĬ":944,"Ġà¤¨à¤ķ":945,"à¤¹à¤®":946,"à¤µà¤¤à¤¨":947,"al":948,"à¤°à¤£à¤²":949,"Ġà¥¦":950,"Ġà¤¯à¤¸à¤°":951,"à¤Ļà¤®":952,"Ġà¤ļà¤¨":953,"Ġà¤īà¤¸à¤²":954,"Ġà¤¤à¤¹à¤ķ":955,"à¤ļà¤°":956,"à¥Ī,":957,"à¤ªà¤£":958,"à¤®à¤Ĺ":959,"à¤°à¤ļà¤£":960,"Ġà¤µà¤¸":961,"à¥¤âĢĻ":962,"Ġ20":963,"Ġà¤Ĩà¤ª":964,"à¤¯à¤¬":965,"Ġà¤ĩà¤¤":966,"Ġà¤¤à¤¸":967,"à¤¹à¤¤":968,"Ġà¤Ŀà¤¨":969,"an":970,"à¤ħà¤°":971,"à¤¯à¤Łà¤¨":972,"à¤¯à¤ķà¤¤":973,"Ġà¤¶à¤¨":974,"ĉĊ":975,"Ġà¤¤à¤²":976,"à¤°à¤£à¤ķ":977,"Ġà¤Ĩà¤Ī":978,"à¤¯à¤®à¤¨":979,"ar":980,"à¤¯à¤ķà¤°":981,"à¤ĸà¤²":982,"Ġà¤®à¤¤à¤¦":983,"à¤Ĺà¤²à¤¬":984,"at":985,"Ġà¥¨à¥§":986,"Ġà¤¸à¤¡":987,"Ġà¤¹à¤²":988,"à¤¸à¤ļ":989,"à¤µà¤¯à¤¨":990,"à¤¯à¤µà¤¹":991,"à¤¾âĢĻ":992,"à¤ĩà¤®":993,"Ġà¥¨à¥Ń":994,"Ġà¥¨à¥¦à¥Ńà¥ª":995,"à¥ĩà¤Ĥ":996,"Ġà¤Ńà¤ķ":997,"Ġà¤Ĭ":998,"Ġà¤¯à¤¸à¤®":999,"à¤ķà¤²à¤¨":1000,"à¥ĩà¤ģ":1001,"Ġà¤Ĺà¤ł":1002,"om":1003,"à¥¦à¥¦":1004,"à¤§à¤¨à¤ķ":1005,"à¤¸à¤µ":1006,"à¤¨à¤¦":1007,"Ġà¤ķà¤®à¤ľ":1008,"à¤Ĩà¤«":1009,"Ġà¤ħà¤µà¤¸à¤°à¤®":1010,"Ġà¤ĸà¤¨":1011,"Ġà¤ķà¤ķ":1012,"Ġ[":1013,"à¤Ĺà¤¢":1014,"Ġà¤Ĩà¤²":1015,"Ġà¤ħà¤ķ":1016,"à¤¥à¤ķ":1017,"Ġà¥¤âĢĿ":1018,"Ġà¤Ĺà¤®":1019,"à¤īà¤ķ":1020,"à¤£à¤®":1021,"à¤°à¤ĸ":1022,"à¥Ģ)":1023,"à¤ľà¤µ":1024,"à¤¸à¤°à¤ķ":1025,"à¤ªà¤·":1026,"Ġà¤ķà¤¨":1027,"à¤īà¤¨à¤ķ":1028,"Ġà¤Ĩà¤ľà¤ķ":1029,"Ġà¤Ĳà¤¨":1030,"Ġà¤¸à¤®à¤°":1031,"Ġà¤ħà¤¨à¤²":1032,"ĠâĢ¢":1033,"Ġà¥¨à¥ª":1034,"à¤¡à¤°":1035,"Ġà¤Ķà¤·à¤§":1036,"à¤Ĺà¤łà¤¨":1037,"à¤¬à¤°à¤ķ":1038,"Ġà¤¦à¤²à¤ķ":1039,"Ġà¤ľà¤¬":1040,"à¥Įà¤ģ,":1041,"Ġà¤īà¤ľ":1042,"Ġà¤ľà¤¨à¤¸":1043,"Ġà¤«à¤²":1044,"à¤Ĺà¤¨":1045,"Ġà¤Ĩà¤ļ":1046,"Ġà¥¨à¥¨":1047,"à¤¾...":1048,"à¤łà¤ķà¤²":1049,"à¥ĢâĢĻ":1050,"à¤ħà¤§":1051,"à¤®à¤ª":1052,"à¤ķà¤°à¤£à¤ķ":1053,"à¤ĸà¤®":1054,"à¤°à¤°":1055,"Ġà¤Ńà¤¤":1056,"Ġà¤ħà¤µà¤¸à¤°":1057,"Ġà¤ľà¤µ":1058,"Ġ\"":1059,"Ġà¥¨à¥®":1060,"Ġà¤²à¤¡":1061,"à¤Łà¤¬":1062,"Ġà¤¸à¤®à¤¨":1063,"à¤ĸà¤¨":1064,"Ġà¥¨à¥¯":1065,"Ġà¥¨à¥¦à¥¬":1066,"à¤ĩà¤¸":1067,"à¤łà¤²":1068,"à¤īà¤µ":1069,"Ġà¤īà¤ªà¤Ń":1070,"à¤ĩà¤¨à¤²":1071,"à¤Ķ":1072,"Ġà¤Ĺà¤¨":1073,"à¤°à¤¹à¤¨":1074,"Ġà¤ķà¤Ł":1075,"Ġà¤¬à¤®":1076,"à¤¤à¤°à¤ķ":1077,"à¤¸à¤ª":1078,"Ġà¤ĺà¤£":1079,"Ġà¤Ĩà¤ĩà¤¤à¤¬":1080,"Ġà¤īà¤¸à¤ķ":1081,"Ġà¤ĩà¤²":1082,",âĢĻ":1083,"Ġà¤®à¤¦":1084,"à¤£à¤¸":1085,"à¤£à¤¨":1086,"Ġà¤Ĩà¤ķà¤°":1087,"Ġà¤¤à¤¨":1088,"Ġà¤¶à¤¹à¤°":1089,"à¤ķà¤µ":1090,"Ġà¤¬à¤Ĺ":1091,"Ġà¤¸à¤§":1092,"à¤Ĺà¤®à¤¨":1093,"Ġà¥¨à¥©":1094,"à¤īà¤¨à¤²":1095,"Ġà¤ĸà¤¬à¤°":1096,"Ġà¤¤à¤¹à¤®":1097,"à¤°à¤¥à¤®":1098,"à¤ļà¤¨à¤®":1099,"Ġà¤ªà¤¸":1100,"à¤Łà¤¬à¤²":1101,"à¤¯à¤¯":1102,"à¤Ńà¤®":1103,"à¤Ĺà¤¬":1104,"à¤ľà¤ª":1105,"à¤Ĺà¤ł":1106,"Ġà¤ļà¤¢":1107,"Ġà¤¯à¤¸à¤ħà¤ĺ":1108,"à¤ıà¤²":1109,"à¤µà¤Ł":1110,"à¤¶à¤¸":1111,"Ġà¤Ĩà¤ł":1112,"à¤ªà¤ļ":1113,"ad":1114,"Ġà¥ªà¥¦":1115,"Ġà¤¸à¤ªà¤¨":1116,"Ġà¤¸à¤ª":1117,"à¤łà¤ķà¤®":1118,"Ġà¤Ńà¤µà¤¨":1119,"à¤¨à¤¸à¤®":1120,"à¥ĢâĢĵ":1121,"en":1122,"à¤¦à¤Ľà¤¨":1123,"Ġà¤ľà¤²":1124,"à¤µà¤¨à¤ķ":1125,"Ġà¤ªà¤¦à¤®":1126,"Ġà¥¨à¥¬":1127,"Ġà¤Ńà¤Ĺ":1128,"à¤µà¤§":1129,"à¤ĩà¤¡":1130,"Ġà¤¨à¤µ":1131,"à¤°à¤Ĺà¤¤":1132,"Ġà¤¨à¤¤":1133,"Ġà¤Ńà¤ıà¤¨":1134,"à¤«à¤¬":1135,"à¤²à¤¸à¤®":1136,"Ġà¤ĭà¤£":1137,"Ã·":1138,"Ġà¤¸à¤¹à¤°":1139,"à¤ĩà¤ľ":1140,"à¤°à¤¬à¤¹":1141,"Ġà¤Ĺà¤ıà¤°":1142,"à¤°à¤µà¤ķ":1143,"Ġà¤Ĺà¤²":1144,"à¤¾à¥¤":1145,"Ġà¤ĸà¤¸":1146,"Ġà¤¸à¤«":1147,"à¤Łà¤°à¤¨":1148,"Ġà¤ħà¤¡":1149,"Ġà¤ªà¤²":1150,"Ġà¤ªà¤ŀ":1151,"à¤¬à¤®":1152,"Ġà¤Ĩà¤«à¤¨":1153,"st":1154,"Ġà¤ħà¤ĸ":1155,"Ġà¤ĩà¤®":1156,"à¤µà¤¶":1157,"Ġà¤ļà¤°à¤£à¤®":1158,"à¤¡à¤¨":1159,"Ġà¤īà¤ªà¤¤":1160,"Ġà¤¦à¤²à¤¹à¤°":1161,"à¤®à¤£":1162,"à¤ªà¤¹":1163,"Ġ[âĢ¦":1164,"à¤°à¤¸à¤®":1165,"à¤Ĺà¤¤à¤ķ":1166,"Ġà¤°à¤¸":1167,"or":1168,"Ġ[âĢ¦]":1169,"Ġà¤¨à¤²":1170,"à¤ļà¤¯":1171,"Ġà¤¯à¤¸à¤¬":1172,"à¤Ĩà¤Ī":1173,"à¤ķà¤¬":1174,"Ġ201":1175,"à¤ªà¤¸":1176,"à¥ĭ...":1177,"à¤Łà¤¹à¤°":1178,"Ġà¤¸à¤«à¤²à¤¤":1179,"Ġ/":1180,"Ġà¤ķà¤ł":1181,"à¤ħà¤¹":1182,"à¤·à¤°":1183,"à¤ķà¤¤à¤¨":1184,"à¤Ĺà¤°à¤®":1185,"Ġà¤ľà¤¸à¤ķ":1186,"Ġà¤ıà¤ľ":1187,"à¤¾-":1188,"à¤Ŀà¤¨":1189,"à¤ħà¤¸":1190,"à¤¸à¤¨à¤ķ":1191,"Ġà¤ķà¤¡":1192,"à¤¤à¤°à¤®":1193,"th":1194,"à¤¶à¤¬":1195,"à¤¥à¤µ":1196,"à¥ģà¤ĥ":1197,"à¤Ĺà¤°à¤ķ":1198,"à¤°à¤®à¤£à¤ķ":1199,"Ġà¤ĸà¤Ł":1200,"à¥Įà¤Ĥà¥¤":1201,"Ġà¤¦à¤¸":1202,"à¤¸à¤¨à¤²":1203,"à¤Īà¤®":1204,"à¤īà¤®":1205,"à¥Ĥ,":1206,"Ġà¤¨à¤¬":1207,"Ġà¥¬à¥¦":1208,"à¤·à¤£à¤ķ":1209,"Ġm":1210,"à¤¬à¤ķ":1211,"à¤Ĩà¤ľ":1212,"à¤Łà¤µ":1213,"à¤°à¤¤à¤²":1214,"Ġà¤ıà¤²":1215,"à¤ķà¤®à¤²":1216,"),":1217,"à¤¹à¤°à¤£":1218,"Ġà¤Ĺà¤łà¤¬à¤¨":1219,"à¤ĩà¤¯":1220,"Ġà¤Ĩà¤ĩà¤ª":1221,"à¤ļà¤¨à¤ķ":1222,"ĠS":1223,"com":1224,"Ġà¤Ĺà¤²à¤¤":1225,"à¤°à¤Ĺ":1226,"à¤¥à¤¨":1227,"à¤¯à¤°à¤¤":1228,"à¤¦à¤¶":1229,"Ġà¤¦à¤¶à¤ķ":1230,"à¤°à¤¥":1231,"à¤¯à¤¸à¤¬":1232,"à¤Ĺà¤¤à¤®":1233,"à¤¬à¤ľ":1234,"à¥ģÂ¥":1235,"Ġà¤ħà¤¸à¤°":1236,"Ġà¤ľà¤²à¤µ":1237,"Ġà¤Ĳà¤¤":1238,"Ġà¤Ĩà¤ı":1239,"Ġà¤īà¤°":1240,"Ġà¤¸à¤¸":1241,"à¤µà¤Ń":1242,"Ġà¤ľà¤¨à¤ķ":1243,"à¤¡à¤¬":1244,"à¤§à¤µ":1245,"à¤īà¤¸":1246,"ic":1247,"Ġà¤¯à¤¥":1248,"Ġà¤ľà¤¨à¤ľ":1249,"Ġà¤®à¤ŀ":1250,"Ġl":1251,"à¤īà¤¤":1252,"ĠN":1253,"à¤²à¤ª":1254,"Ġà¤ªà¤¦à¤ķ":1255,"à¤Łà¤ª":1256,"Ġà¤¸à¤¦à¤°à¤®":1257,"Ġà¤ĸà¤£":1258,"à¤¤à¤µà¤¨":1259,"Ġà¤¹à¤ª":1260,"Ġà¤²à¤®":1261,"it":1262,"Ġà¤¦à¤¬":1263,"à¤ĺà¤²":1264,"à¤Ĭ":1265,"à¤¥à¤°":1266,"âĢĻ,":1267,"Ġà¤¡à¤Ł":1268,"à¤Łà¤°à¤ķ":1269,"à¥¨à¥¦à¥Ń":1270,"Ġà¤ıà¤ª":1271,"à¤¨à¤¸à¤Ń":1272,"à¤¶à¤¸à¤Ń":1273,"à¤°à¤ŀ":1274,"Ġà¤Ŀà¤£":1275,"à¤¹à¤¦":1276,"à¤Łà¤°à¤®":1277,"à¤ļà¤¨à¤ª":1278,"à¤ıà¤¨à¤¨":1279,"Ġà¤Ńà¤ıà¤ªà¤¨":1280,"à¤°à¤¤à¤®":1281,"à¥¨à¥¦à¥":1282,"à¤²à¤¦":1283,"à¤¶à¤¹à¤°":1284,"à¤ľà¤¤":1285,"Ġ)":1286,"ĠâĢĶ":1287,"ĠÂ":1288,"à¤¸à¤¤":1289,"Ġà¤°à¤¨":1290,"à¤¶à¤¨à¤ķ":1291,"ĠA":1292,"à¤Ĺà¤¹à¤°":1293,"à¤Ńà¤Ĺ":1294,"Ġà¤¹à¤Ļà¤ķ":1295,"à¤¥à¤²à¤®":1296,"Ġà¥©à¥«":1297,"à¤ľà¤¬":1298,"Ġà¤¸à¤¡à¤ķà¤®":1299,"à¤¶à¤¨à¤®":1300,"Ġà¤ĸà¤¤":1301,"Ġà¤¹à¤ķ":1302,"Ġà¥©à¥§":1303,"Ġà¤¡à¤²à¤°":1304,"Ġà¤ľà¤¸à¤®":1305,"à¤¨à¤Ńà¤¨":1306,"à¤µà¤¨à¤®":1307,"Ġà¤¤à¤°à¤ķ":1308,"à¤īà¤ª":1309,"Ġà¤¸à¤°à¤¸":1310,"Ġà¤¬à¤¡":1311,"Ġà¥¨à¥¦à¥Ńà¥©":1312,"Ġà¥¨à¥¦à¥«":1313,"à¤«à¤ķ":1314,"Ġà¤ħà¤¥à¤µ":1315,"Ġà¤¨à¤ªà¤°":1316,"Ġà¤®à¤Ĺà¤°":1317,"Ġà¤ħà¤µà¤°":1318,"à¤²à¤¹à¤°":1319,"Ġà¤ĩà¤ļ":1320,"Ġà¤Ĩà¤ıà¤°":1321,"Ġà¤īà¤ªà¤°":1322,"à¤¦à¤¨à¤®":1323,"à¤¶à¤¨à¤²":1324,"es":1325,"à¤ħà¤®":1326,"Ġà¤ľà¤¡":1327,"à¥Ńà¥«":1328,"ore":1329,"Ġà¤¢à¤ķ":1330,"à¤µà¤¹à¤°":1331,"à¥ģà¥ģ":1332,"Ġà¤®à¤¨à¤®":1333,"Ġà¤ıà¤µà¤®":1334,"à¤°à¤«":1335,"Ġà¤Ĩà¤¹":1336,"Ġà¤®à¤Ļ":1337,"à¤°à¤®à¤²":1338,"Ġà¤¨à¤Ńà¤ı":1339,"à¤¦à¤¤":1340,"Ġà¤¨à¤Ńà¤Ī":1341,"Ġà¤ħà¤·":1342,"Ġà¤īà¤¸":1343,"Ġà¤ļà¤ķ":1344,"Ġà¤¶à¤¤":1345,"Ġà¤ħà¤¶":1346,"ĠÐ":1347,"Ġà¤¸à¤¶à¤¸":1348,"Ġà¤ľà¤¨à¤ª":1349,"Ġà¤īà¤Ń":1350,"à¤Łà¤¨à¤Ĺà¤°":1351,"Ġà¤²à¤²":1352,"à¤®à¤¹à¤°":1353,"Ġà¤Ĺà¤£à¤¤à¤¨":1354,"Ġà¤®à¤¹à¤¸":1355,"à¥Ĥà¤ģ":1356,"Ġà¥¨à¥¦à¥¦à¥":1357,"Ġà¤ħà¤Ļ":1358,"à¤·à¤¹à¤°":1359,"à¤¹à¤¸":1360,"à¥ĭà¥ĩ":1361,"à¤¤à¤¸":1362,"à¥Ģà¤ģ":1363,"Ġp":1364,"à¤²à¤¤à¤²":1365,"ep":1366,"ha":1367,"ou":1368,"Ġà¤®à¤£":1369,"Ġà¤Ńà¤Ĺà¤µ":1370,"à¤ªà¤¶":1371,"Ġà¤ĺà¤¨":1372,"Ġà¤Ĭà¤°":1373,"ĠD":1374,"Ġà¤ļà¤²à¤¨":1375,"Ġà¤ªà¤¹à¤²":1376,"il":1377,"Ġà¤¨à¤Ĺà¤¦":1378,"à¤Īà¤ıà¤ķ":1379,"à¥ģà¥¤":1380,"ĠC":1381,"à¥ĩ.":1382,"Ġà¤ħà¤ªà¤¨":1383,"à¤¹à¤®à¤¨":1384,"Ġà¤Ĺà¤¹":1385,"Ġà¤ĸà¤¤à¤°":1386,"Ġà¤¸à¤®à¤Ĺ":1387,"à¤¶à¤µ":1388,"ĠT":1389,"Ġà¤Ĺà¤ı":1390,"Ġà¤ķà¤ŀ":1391,"à¤²à¤Ń":1392,"à¥ĩ...":1393,"à¤Łà¤¸":1394,"à¤ĩà¤ķà¤²":1395,"à¤°à¤®à¤£à¤®":1396,"à¤«à¤°":1397,"à¤Ĺà¤ľ":1398,"ĠP":1399,"à¤§à¤²":1400,"à¤·à¤ħà¤ĺ":1401,"Ġà¤Ķà¤ªà¤ļ":1402,"Ġà¤¤à¤®":1403,"Ġà¤ľà¤¨à¤ķà¤ª":1404,"Ġà¤Ĩà¤¸":1405,"Ġà¤®à¤¹à¤°":1406,"Ġà¤Ĺà¤¯":1407,"à¤¯à¤Ł":1408,"Ġà¤īà¤ªà¤¨":1409,"Ġà¤ļà¤°à¤£à¤ķ":1410,"à¤®à¤²à¤µ":1411,"à¤¡à¤¸":1412,"ion":1413,"Ġà¤¦à¤¶à¤®à¤²à¤µ":1414,"à¤£à¤²":1415,"Ġà¤§à¤®":1416,"Re":1417,"Ġà¤ĺà¤°à¤ķ":1418,"à¤ªà¤¦à¤£":1419,"Ġà¤ıà¤¶":1420,"Ġà¥¨à¥¦à¥Ńà¥¨":1421,"Ġà¤µà¤ķ":1422,"à¤£à¤¤":1423,"à¥Ģ.":1424,"à¥§à¥¯":1425,"à¤ªà¤¨à¤ķ":1426,"à¤²à¤ªà¤¤":1427,"à¤Ńà¤²":1428,"Ġà¤°à¤µ":1429,"à¤µà¤ķà¤ª":1430,"ĠM":1431,"à¤¥à¤¤à¤¨":1432,"Ġà¤ıà¤ķà¤²":1433,"à¤ĸà¤¦":1434,"--":1435,"à¥ĩâĢĵ":1436,"à¥ģ.":1437,"à¤²à¤¤à¤®":1438,"Ġà¤ıà¤ķà¤ľà¤¨":1439,"à¥ĭâĢĵ":1440,"Ġà¥ªà¥«":1441,"Ġà¤ķà¤®à¤²":1442,"à¤Łà¤°à¤¸":1443,"Ġà¤ľà¤¨à¤®":1444,"à¤īà¤°":1445,"Ġà¤ħà¤ŀ":1446,"à¤Ĩà¤®":1447,"Ġà¤Ĩà¤ĩà¤°à¤¹":1448,"Ġà¤®à¤ľà¤¦":1449,"Ġà¤īà¤ªà¤®à¤¹":1450,"à¤¯à¤¸à¤°":1451,"Ġà¥©à¥¨":1452,"Ġà¤°à¤ļà¤¨":1453,"à¤¤à¤¹":1454,"Ġà¥®à¥¦":1455,"à¤°à¤ķà¤°":1456,"Ġs":1457,"à¤ĩà¤ª":1458,"à¤¤à¤°à¤¤":1459,"Ġà¥Ńà¥¦":1460,"à¤ªà¤ķà¤®à¤²":1461,"à¤¯à¤®à¤¬":1462,"à¤·à¤¸à¤®":1463,"à¤¿à¤ĥ":1464,"Ð¾":1465,"à¤īà¤²":1466,"ww":1467,"à¤·à¤ķà¤ķ":1468,"à¥Ģ...":1469,"Ġà¤¬à¤¦à¤²":1470,"à¥ĭâĢĻ":1471,"Ġà¤Ńà¤ıà¤®":1472,"à¤®à¤¬à¤¹":1473,"Ġa":1474,"âĢĶ":1475,"à¤ĩà¤¨à¤²à¤®":1476,"ĠÂ»":1477,"à¤·à¤¯à¤²":1478,"à¤¦à¤µà¤²":1479,"à¤ŀà¤ª":1480,"à¤¯à¤¤à¤²":1481,"Ġà¤Ŀà¤°":1482,"Ġà¤ħà¤¸à¤¨":1483,"Ġà¤Ľà¤°":1484,"is":1485,"à¥ĩ)":1486,"à¤£à¤ªà¤¤":1487,"à¤ıà¤«":1488,"à¤µà¤°à¤ķ":1489,"à¤Ĺà¤¸":1490,"à¤°à¤¬à¤¨":1491,"à¥§à¥¦":1492,"à¤ªà¤Ł":1493,"à¤¬à¤°à¤®":1494,"Ġà¤¦à¤®":1495,"à¤µà¤°à¤®":1496,"Ġà¤«à¤¸":1497,"Ġà¤°à¤£à¤¨":1498,"à¤¨à¤¸à¤°":1499,"à¤°à¤®à¤¹à¤°":1500,"Ġà¤¨à¤Ĩ":1501,"le":1502,"Ġà¤Ńà¤°à¤¤":1503,"Ġà¤¦à¤°à¤¬":1504,"Ġà¥¨à¥¦à¥ª":1505,"à¤ģ,":1506,"Ġà¤¤à¤²à¤¬":1507,"Ġà¤¶à¤µ":1508,"Ġà¤¹à¤µ":1509,"Ġà¤ħà¤¸à¤«à¤²":1510,"à¤¯à¤°à¤ķ":1511,"Ġ.":1512,"à¤¸à¤Ļ":1513,"Ġà¤ħà¤ļ":1514,"Ġà¤¨à¤Ńà¤ıà¤°":1515,"à¤¨à¤¤à¤®":1516,"à¤ħà¤¬":1517,"Ġà¤Ĺà¤ľ":1518,"Ġà¤īà¤ªà¤ª":1519,"à¤¦à¤¨à¤ķ":1520,"Ġà¥Ńà¥«":1521,"Ġmore":1522,"Ġà¥¨à¥¦à¥§à¥®":1523,"à¤Ŀà¤¦":1524,"Ġà¤ļà¤¯à¤¨":1525,"Ġà¤¡à¤°":1526,"à¤ķà¤°à¤£à¤²":1527,"Ġ2018":1528,"Ġà¤ľà¤¸à¤°":1529,"Ġà¤ħà¤²à¤Ĺ":1530,"à¤²à¤ĸ":1531,"Ġà¥©à¥©":1532,"Ġà¤Ĩà¤ıà¤ªà¤Ľ":1533,"à¤Ĺà¤£":1534,"à¤·à¤¯à¤ķ":1535,"Ġà¥§à¥¯à¥¯":1536,"Ġà¥¨à¥¦à¥¨":1537,"à¤Ĩà¤¯":1538,"à¤°à¤µà¤¦":1539,"à¤ªà¤¬":1540,"à¤²à¤¯à¤¹à¤°":1541,"à¤®à¤¶":1542,"à¤Łà¤µà¤²":1543,"à¤µà¤¹":1544,"à¤ľà¤¨à¤®":1545,"....":1546,"à¤µà¤¡":1547,"Ġà¤¸à¤®à¤¯à¤ķ":1548,"à¤®à¤°à¤£":1549,"à¤°à¤¹à¤£":1550,"à¤Ĺà¤¶":1551,"à¤īà¤¹":1552,"Ġà¤¸à¤®à¤¯à¤¦":1553,"à¤¤à¤¨à¤ķ":1554,"Ġà¤ªà¤¸à¤²":1555,"à¤§à¤¨à¤®":1556,"Ġà¤ĩà¤¸":1557,"à¤®à¤¯":1558,"Read":1559,"Ġà¤ľà¤¨à¤¶à¤ķ":1560,"à¥Ńà¥ª":1561,"à¤Ńà¤¦":1562,"à¤µà¤°à¤²":1563,"Ġà¤Ĩà¤¨à¤¨":1564,"à¤®à¤µ":1565,"à¤ıà¤ľ":1566,"à¥Į,":1567,"à¥¨à¥¦":1568,"à¥§à¥«":1569,"ing":1570,"Ġà¤°à¤¤":1571,"Ġà¤¨à¤°à¤¹":1572,"à¤²à¤¤à¤ķ":1573,"ed":1574,"Ġf":1575,"epal":1576,"à¤²à¤¯à¤¬":1577,"Ġà¤Ľà¤ł":1578,"à¤ħà¤²":1579,"à¤·à¤£à¤²":1580,"Ġà¤ħà¤Ł":1581,"à¤·à¤¬":1582,"à¤®à¤ľ":1583,"ew":1584,"Ġà¤Ńà¤²":1585,"à¤§à¤¨à¤²":1586,"Ġà¤łà¤Ĺ":1587,"Ðµ":1588,"Ġà¤¸à¤¡à¤ķà¤ķ":1589,"Ð°":1590,"à¥©à¥¦":1591,"à¤¤à¤°à¤£à¤ķ":1592,"à¤¨à¤ļ":1593,"à¤ħà¤ª":1594,"Ġà¤Ľà¤²à¤«":1595,"à¤·à¤£à¤®":1596,"à¤Ĩà¤°à¤ıà¤¨":1597,"à¤¸à¤¨à¤®":1598,"Ġà¤łà¤¹à¤°":1599,"ĠĊ":1600,"Ġà¤ķà¤ªà¤¡":1601,"à¤īà¤£":1602,"Ġà¤ªà¤°à¤°":1603,"à¤¦à¤Ĺ":1604,"Ġc":1605,"Ġà¤ıà¤«":1606,"Ġd":1607,"Ġà¥¯à¥¦":1608,"ĠI":1609,"à¤°à¤®à¤¶":1610,"à¤°à¤Ļ":1611,"à¤¡à¤«":1612,"à¤Ĺà¤ķà¤°":1613,"à¥§à¥¨":1614,"à¤µà¤ļ":1615,"Ġà¤¨à¤¸":1616,"à¤·à¤ķà¤¹à¤°":1617,"à¤·à¤ªà¤Ľ":1618,"Ġà¤ķà¤¬":1619,"Ġà¤ķà¤¸à¤²":1620,"00":1621,"Ġt":1622,"ur":1623,"à¤µà¤¯à¤¨à¤®":1624,"ĠB":1625,"Ġà¤ħà¤¸à¤¹":1626,"Ġà¤¦à¤²à¤²":1627,"Ġà¤Ĩà¤¦à¤°":1628,"à¤®à¤ķà¤¤":1629,"à¤¥à¤²à¤ķ":1630,"à¤·à¤Ń":1631,"à¤°à¤¤à¤¬":1632,"à¤µà¤¯à¤®":1633,"Ġà¤ıà¤£":1634,"à¤ĺà¤°à¤®":1635,"Ġà¤¨à¤µà¤²":1636,"ent":1637,"à¤µà¤ľ":1638,"à¤µà¤¸à¤ķ":1639,"Ġà¤¸à¤°à¤¸à¤«":1640,"à¤·à¤ķà¤²":1641,"à¤ķà¤¦":1642,"Ġà¤¬à¤ķ":1643,"à¤£à¤ª":1644,"à¤°à¤ªà¤¶":1645,"Ġth":1646,"Ġà¤²à¤ĺ":1647,"Ġà¥«à¥«":1648,"à¤īà¤¡":1649,"Ġà¤¬à¤¹à¤¸":1650,"à¤¦à¤¯":1651,"Ġà¤Īà¤¨":1652,"à¤²à¤¨à¤²":1653,"Ġà¤µà¤¹":1654,"Ġà¤²à¤Ĺà¤Ńà¤Ĺ":1655,"ac":1656,"ĠâĢ¦":1657,"à¤¯à¤§":1658,"à¤²à¤ķà¤²":1659,"à¤¨à¤¥":1660,"à¤°à¤ķà¤Ł":1661,"el":1662,"à¤¥à¤®à¤¨":1663,"Ġà¤ıà¤ķà¤¦à¤®":1664,"Ġà¤ªà¤Ł":1665,"Ġà¤°à¤Ļ":1666,"Ġà¤¸à¤Ł":1667,"à¥ĩâĢĻ":1668,"as":1669,"ĠF":1670,"âĢĮ":1671,"Ġà¤Ĩà¤Ĺà¤²":1672,"à¤¯à¤¸à¤ħà¤ĺ":1673,"Ġà¤¨à¤ĸ":1674,"ro":1675,"Ġà¤ľà¤Ł":1676,"à¥§à¥§":1677,"à¤¿...":1678,"à¤Łà¤ĺ":1679,"à¤Łà¤°à¤²":1680,"Ġà¤¢à¤²":1681,"Ð¸":1682,"à¤ĩà¤Ń":1683,"Ġà¤łà¤ķ":1684,"07":1685,"à¤ĸà¤£":1686,"Ġà¤ļà¤®":1687,"à¤¶à¤¤à¤²":1688,"à¤¬à¤¤":1689,"Ġà¤ħà¤¸à¤®":1690,"âĢĿ,":1691,"à¤Īà¤Ł":1692,"à¤ķà¤¹":1693,"à¤¯à¤®à¤ķ":1694,"Ġà¤Ķà¤¦":1695,"à¤ľà¤¨à¤²":1696,"Ġà¤īà¤ªà¤ķà¤°à¤£":1697,"Ġ3":1698,"à¤īà¤Ľ":1699,"et":1700,"à¥§à¥®":1701,"Ġà¤¸à¤ĺ":1702,"à¤ĸà¤¤":1703,"à¥Ģ-":1704,"à¤ıà¤¸à¤ª":1705,"à¤¸à¤¦à¤®":1706,"à¥Įà¤ģà¥¤":1707,"à¤ĩà¤¬":1708,"à¤·à¤ľ":1709,"à¤¦à¤¨à¤¶":1710,"Ġà¤Ĩà¤ĸ":1711,"à¤ªà¤¥":1712,"à¤¯à¤¤à¤®":1713,"Ġà¤¸à¤Ĺà¤°à¤®":1714,"à¤Ĺà¤¡":1715,"à¤µà¤¯à¤¨à¤ķ":1716,"à¤łà¤ķà¤ķ":1717,"Ġà¤ħà¤µà¤²":1718,"Ġà¤ĺà¤°à¤¬":1719,"à¤¤à¤µà¤®":1720,"à¤°à¤¶à¤¸":1721,"à¤¯à¤°à¤²":1722,"à¤Ĩà¤¨":1723,"Ġà¤®à¤ķ":1724,"à¤¯à¤¶":1725,"à¥Ģà¤Ĥ":1726,"à¤¾à¥Ī":1727,"à¥¦à¥Ńà¥ª":1728,"à¤¸à¤¦à¤¹à¤°":1729,"à¤Ĺà¤łà¤¨à¤ķ":1730,"à¤µà¤¬":1731,"Ġà¤ĩà¤ķ":1732,"Ġà¤Ĩà¤ªà¤¤":1733,"Ġà¤°à¤Ĺà¤¤":1734,"Ġà¤¨à¤·":1735,"à¤Īà¤¸":1736,"à¤¦à¤¹à¤°":1737,"à¤Īà¤¦":1738,"Ġà¤¯à¤¸à¤ª":1739,"à¤Īà¤µà¤Ł":1740,"à¤ļà¤¸":1741,"Ġà¤ħà¤ľ":1742,"Ġà¤¦à¤«":1743,"à¤¶à¤Ńà¤°":1744,"à¤Łà¤²à¤²":1745,"à¤µà¤ķà¤°":1746,"à¥¦à¥¬":1747,"Ġà¥©à¥¬":1748,"ÑĤ":1749,"à¤¨à¤Ń":1750,"à¤¯à¤®à¤²":1751,"Ġà¤ħà¤¬à¤ķ":1752,"Ġà¤ıà¤¡":1753,"Ġà¤§à¤¨à¤Ĺà¤¢":1754,"à¤¸à¤¦à¤ķ":1755,"à¥ĭ,âĢĻ":1756,"à¤¶à¤Ń":1757,"Ġon":1758,"à¤¾âĢ¦":1759,"Ġà¤¨à¤ļ":1760,"à¤¯à¤ľ":1761,"à¤Ĺà¤£à¤¨":1762,"à¤ĸà¤¹à¤°":1763,"am":1764,"à¤¯à¤¬à¤¸":1765,"à¥Ĥ.":1766,"à¤¤à¤¦":1767,"à¤ľà¤¹à¤°":1768,"Ġà¤¤à¤¹à¤²":1769,"Ġà¤¸à¤®à¤Ŀà¤¦":1770,"à¤ħà¤Ń":1771,"à¤ľà¤ķà¤¤":1772,"Ġà¤¸à¤°à¤²":1773,"Ġo":1774,"à¤Ńà¤µà¤¤":1775,"à¤ŀà¤µ":1776,"Ġà¥¨à¥¦à¥©":1777,"à¤¤à¤°à¤²":1778,"Ġà¥¨à¥¦à¥§à¥Ń":1779,"Ġà¤¬à¤ļà¤¤":1780,"ĠâĢĻ":1781,"à¤Īà¤¹à¤°":1782,"ews":1783,"Ġà¤Ńà¤°à¤¤à¤ª":1784,"Ġà¤¡à¤²":1785,"Ġà¤ĵà¤°":1786,"à¤¤à¤¡":1787,"à¤ģà¥¤":1788,"Ġà¤¤à¤¬":1789,"Ġà¥¬à¥«":1790,"Ġ19":1791,"em":1792,"Ġà¤¥à¤°":1793,"à¥ĭà¤Ĥ":1794,"à¤¨à¤¹":1795,"à¤Łà¤²à¤®":1796,"oo":1797,"__":1798,"à¤ĩà¤¨à¤¨":1799,"à¤Ĩà¤µ":1800,"à¤ģà¥ģ":1801,"ĠR":1802,"à¥į...":1803,"Ġà¤ĵà¤Ń":1804,"Ġb":1805,"Ġà¤īà¤ªà¤¹":1806,"Ġw":1807,"à¤¹à¤¬":1808,"Ð½":1809,"à¤ļà¤¬":1810,"Ġà¤¨à¤µà¤²à¤ªà¤°":1811,"à¤²à¤¬à¤²":1812,"Ġn":1813,"Ġà¤ĩà¤°":1814,"à¤°à¤ªà¤Ľ":1815,"à¤¶à¤°":1816,"Ġà¤ıà¤¨à¤Ĩà¤°à¤ıà¤¨":1817,"ag":1818,"Ġà¥©à¥ª":1819,"Ġà¤Ńà¤ĩ":1820,"à¤¤à¤ľ":1821,"Ġà¥ªà¥¨":1822,"à¤ĺà¤¨":1823,"Ġà¥§à¥¦à¥¦":1824,"Ġà¤ĩà¤ľ":1825,"and":1826,"Ġà¤²à¤Ĺà¤¤":1827,"à¤ŀà¤¹à¤°":1828,"id":1829,"Ġà¤ķà¤¦à¤®":1830,"Ġà¤ľà¤¬à¤°":1831,"à¥§à¥ª":1832,"Ġà¤®à¤¦à¤¨":1833,"à¤¾à¤¾":1834,"à¤¤à¤®à¤²":1835,"à¤®à¤ļà¤¨":1836,"à¤ķà¤°à¤£à¤®":1837,"à¤°à¤µà¤°":1838,"à¤®à¤¹à¤¤":1839,"à¤µà¤¸à¤®":1840,"Ġà¤®à¤ķà¤µ":1841,"à¤¾âĢľ":1842,"à¥ĭ)":1843,"à¥ģ:":1844,"Ġà¥ªà¥ª":1845,"Ġà¤¨à¤¨":1846,"à¤¯à¤ķà¤ķ":1847,"à¤Łà¤«":1848,"à¤²à¤ķà¤ķ":1849,"Ġ11":1850,"ation":1851,"Ġà¤Ĺà¤ĩà¤°à¤¹":1852,"un":1853,"à¤°à¤ļà¤²à¤¨":1854,"à¥ĭâĢ¦":1855,"Ġà¤ļà¤°à¤£":1856,"Ġà¤¯à¤¸à¤ªà¤Łà¤ķ":1857,"Ġà¤§à¤¨à¤ķ":1858,"à¤¤à¤µà¤¨à¤ķ":1859,"75":1860,"Ġà¤Īà¤¶":1861,"Ġà¤īà¤ĸ":1862,"à¤ªà¤¨à¤®":1863,"Ġin":1864,"à¤¸à¤Ĺà¤°":1865,"Ġà¤ħà¤¸à¤²":1866,"à¥Ńà¥©":1867,"à¤¨à¤µà¤ħà¤§":1868,"Ġà¤ªà¤ļ":1869,"à¤Ĺà¤Ł":1870,"Ġà¤¸à¤®à¤¯à¤¸à¤®":1871,"à¤£à¤°":1872,"Ġà¥ªà¥®":1873,"Ġà¤ĥ":1874,"à¤¨à¤ľ":1875,"Ġà¤¹à¤¨":1876,"Ġà¤¨à¤¬à¤¨":1877,"à¤°à¤¸à¤¹":1878,"à¤¹à¤¦à¤°à¤¬":1879,"à¤ĩà¤¨à¤®":1880,"à¤¡à¤ªà¤°":1881,"Ġà¤ķà¤ļ":1882,"à¤¯à¤®à¤®":1883,"Ġà¤¬à¤Ł":1884,"Ġà¤Ĩà¤¬à¤¦":1885,"Ġà¥¨à¥¦à¥§à¥¬":1886,"Ġà¤¸à¤¶à¤ķ":1887,"Ñģ":1888,"Ġà¥©à¥Ń":1889,"à¤¤à¤ķà¤ķ":1890,"à¤Ĺà¤²à¤®":1891,"à¤°à¤¯à¤¤":1892,"Ġà¤®à¤ļ":1893,"Ġà¤µà¤²":1894,"Ġà¤Łà¤¨":1895,"à¥Ģà¥¤":1896,"ÑĢ":1897,"à¤ıà¤īà¤Ł":1898,"Ġà¤·":1899,"ate":1900,"à¤¥à¤Ĺ":1901,"Ġà¤«à¤²à¤«":1902,"à¥Ńà¥¬":1903,"Ġà¥©à¥®":1904,"ï¿":1905,"Ġà¤ħà¤ļà¤®":1906,"à¤«à¤®":1907,"ï¿½":1908,"à¤Īà¤ķà¤²":1909,"à¤¾:":1910,"Ġà¤ªà¤µ":1911,"Ġà¤¹à¤Ļà¤ķà¤Ļ":1912,"à¤ĵà¤¸":1913,"à¤¸à¤µà¤ķ":1914,"ĠE":1915,"Ġà¤Ĩà¤¸à¤ª":1916,"Ġà¤ıà¤Ł":1917,"Ġà¤ĭà¤·":1918,"à¥¨à¥«":1919,"Ġà¤Łà¤°":1920,"à¤¦à¤¬":1921,"à¤¯à¤°à¤®":1922,"Ġà¤¹à¤ķà¤®":1923,"Ġà¤¬à¤¯":1924,"à¤¯à¤Łà¤ķà¤ķ":1925,"à¤Īà¤¤":1926,"à¤¦à¤¥":1927,"à¤ľà¤¶":1928,"à¤¯à¤¯à¤¨à¤ķ":1929,"à¥ĩ-":1930,"à¤¿âĢĵ":1931,"à¤¤à¤°à¤¦":1932,"à¥ĥà¤Ĥ":1933,"Ġà¤¹à¤¦":1934,"Ġà¥«à¥§":1935,"à¤¨à¤µà¤Ł":1936,"Ġ5":1937,"à¤¡à¤²à¤ķ":1938,"à¤ĺà¤¸":1939,"à¥¦à¥§":1940,"Ġà¤¬à¤Ļ":1941,"à¤¯à¤¥":1942,"Ġà¤¹à¤®":1943,"à¤¦à¤°à¤²":1944,"Ð¾Ð":1945,"Ġà¤ľà¤¯à¤¨":1946,"Ġà¤ľà¤¨à¤¯":1947,"Ġh":1948,"Ġà¤Ĺà¤Ī":1949,"Ġà¤¦à¤°à¤²":1950,"Ġà¤¤à¤¨à¤¹":1951,"ail":1952,"à¤·à¤ķà¤®":1953,"à¤¯à¤¸à¤Ń":1954,"à¥§à¥©":1955,"à¤¸à¤ķà¤¹à¤°":1956,"Ġà¤²à¤¨":1957,"Ġà¤¶à¤°à¤£":1958,"à¤ªà¤¹à¤°":1959,"à¤Ļà¤¬":1960,"à¥Įà¤ģâĢĵ":1961,"ov":1962,"à¤ªà¤ª":1963,"à¤¯à¤¨à¤¸":1964,"Ġà¤ıà¤ķà¤¦":1965,"à¤°à¤ľà¤¨":1966,"Ġà¤ľà¤¨à¤µ":1967,"Ġà¤Ĺà¤¹à¤¨":1968,"Ġà¤®à¤ľ":1969,"à¤¨à¤ªà¤Ľ":1970,"à¥¦à¥«":1971,"à¤®à¤ªà¤¨":1972,"Ġthe":1973,"à¤¤à¤¸à¤®":1974,"ĠG":1975,"qu":1976,"ct":1977,"à¤Ĩà¤ĩ":1978,"à¤ľà¤°à¤ķ":1979,"www":1980,"Ġà¤ıà¤¯à¤°":1981,"Ġà¥§à¥¯à¥®":1982,"Ġre":1983,"Ġà¥¨à¥¦à¥¨à¥¦":1984,"Ġà¤ıà¤ķà¤®":1985,"à¤¿à¥į":1986,"ĠL":1987,"à¤µà¤Ńà¤°":1988,"Ġà¤¸à¤®à¤ķ":1989,"Ġà¤Ńà¤°à¤®":1990,"à¤£à¤µ":1991,"ĠO":1992,"à¤¯à¤¨à¤ķ":1993,"à¤¸à¤°à¤®":1994,"à¤ķà¤¥":1995,"Ġà¤°à¤¹à¤¸":1996,"Ġà¤Ńà¤ıà¤¸":1997,"Ġà¤ħà¤«à¤Ĺ":1998,"Ġà¤ªà¤£":1999,"ch":2000,"Ġà¤¬à¤§":2001,"ter":2002,"Ġà¤®à¤¨à¤ķ":2003,"à¤¸à¤®à¤ķ":2004,"à¤ķà¤¨à¤ķ":2005,"à¥ģâĢĻ":2006,"à¤¿à¥¤":2007,"Ġà¤Ľà¤ķ":2008,"à¥ĭ-":2009,"Ġà¤¨à¤Ĺà¤°à¤ķ":2010,"à¤¯à¤ľà¤¨":2011,"Ġof":2012,"à¥ĩà¥į":2013,"à¤°à¤Ńà¤¨":2014,"Ġà¤ĵà¤Ŀ":2015,"Ġ4":2016,"à¥įâĢĵ":2017,"à¤Ĺà¤®à¤²":2018,"à¤īà¤ľ":2019,"Ġà¥©à¥¯":2020,"Ġà¤ħà¤¨à¤¶à¤¨":2021,"074":2022,"à¤°à¤®à¤¨":2023,"à¤ĩà¤¨à¤ķ":2024,"Ġà¤Ĩà¤Ń":2025,"Ġà¤¶à¤¹":2026,"à¥¨à¥¦à¥Ńà¥«":2027,"Ġà¤ħà¤°à¤¬":2028,"Ġà¤°à¤¹à¤°":2029,"Ġà¤°à¤ľ":2030,"Ġà¤Ńà¤ĩà¤¨":2031,"à¤ķà¤¤à¤®":2032,"Ġà¥«à¥¬":2033,"à¤ĩà¤Łà¤®":2034,"Ġà¤Ĺà¤ľà¤²":2035,"à¤¦à¤¸":2036,"Ġ?âĢĻ":2037,"Ġà¤ħà¤µà¤¶":2038,"Ġà¤Ŀà¤²":2039,"à¤¸à¤¦à¤²":2040,"à¥Įà¤ĤâĢĵ":2041,"ĠH":2042,"Ġà¤ķà¤°à¤ķ":2043,"!!":2044,".....":2045,"Ġà¥«à¥¨":2046,"à¤²à¤Ĺà¤ŀ":2047,"Ġà¤¤à¤¸à¤°":2048,"Ġà¤§à¤ķ":2049,"à¤Ļà¤Ĺ":2050,"à¤°à¤¤à¤¸":2051,"Ġà¤°à¤¨à¤ķ":2052,"Ġà¤ıà¤ķà¤ªà¤Łà¤ķ":2053,"Ġà¤ĸà¤²":2054,"à¤¾/":2055,"Ġà¥ªà¥©":2056,"à¤¶à¤ķà¤²":2057,"à¤°à¤§à¤¨":2058,"Ġà¥«à¥ª":2059,"Ġà¤Ĩà¤ĩà¤¸à¤ķ":2060,"Ġà¤®à¤¨à¤¸":2061,"Ġà¤ħà¤µà¤ķ":2062,"Ġà¤¨à¤Ĺ":2063,"à¤Łà¤²à¤ķ":2064,"ãģ":2065,"à¤¾à¥Īà¤Ĥ":2066,"Ġà¤ķà¤®à¤°":2067,"Ġà¤¹à¤¡":2068,"à¤¥à¤ª":2069,"à¤ĩà¤«":2070,"à¤®à¤¸à¤®":2071,"Ġà¤Ĺà¤ıà¤ªà¤Ľ":2072,"à¤¡à¤¹à¤°":2073,"à¤µà¤ķà¤²":2074,"20":2075,"à¥¨à¥¦à¥§":2076,"à¥§à¥¬":2077,"à¥«à¥¦":2078,"à¤ıà¤ļ":2079,"à¤Łà¤µà¤°":2080,"Ġà¤Ľà¤µ":2081,"Ġà¤ĵà¤¸":2082,"à¤·à¤¸":2083,"à¤Łà¤¬à¤²à¤ķ":2084,"à¤ľà¤¨à¤¤":2085,"à¤¬à¤Ī":2086,"à¤¡à¤µ":2087,"Ġà¤¥à¤²":2088,"à¤łà¤Ń":2089,"Ġà¤ĵà¤Ł":2090,"à¤°à¤ļà¤²":2091,"à¤¾),":2092,"bs":2093,"à¤ıà¤ªà¤¨":2094,"à¤¸à¤«":2095,"à¤¡à¤¯à¤¨":2096,"Ġà¤¸à¤¹à¤¸à¤ļ":2097,"à¤¼":2098,"ĠK":2099,"lo":2100,"à¤²à¤¬à¤¹":2101,"Ġà¤µà¤ľ":2102,"à¤²à¤µà¤¸":2103,"Ġà¥«à¥®":2104,"à¥ĭ?":2105,"à¤°à¤Ńà¤°":2106,"Ġà¤ĺà¤¡":2107,"Ġà¤µà¤¤":2108,"à¤¦à¤¨à¤²":2109,"à¥¦à¥¨":2110,"à¤ķà¤¡":2111,"Ġà¤ĩà¤Ł":2112,"ay":2113,"à¤£à¤¬à¤¹":2114,"Ġà¤®à¤¨à¤ªà¤°":2115,"Ġà¤Ĺà¤£à¤¨":2116,"ĠâĢĿ":2117,"Ġà¤ĩà¤ľà¤°":2118,"à¤ľà¤ķà¤²":2119,"Ġà¤¦à¤®à¤ķ":2120,"à¤µà¤²à¤®":2121,"à¤Ĩà¤ıà¤ķ":2122,"à¤µà¤¨à¤²":2123,"à¤ĸà¤¬":2124,"Ġà¥ªà¥¯":2125,"Ġà¤ķà¤«":2126,"Ġà¥®à¥«":2127,"à¤¨à¤Ńà¤°":2128,"Ġà¤¬à¤²à¤®":2129,"Ġà¥¨à¥¦à¥Ńà¥§":2130,"à¤Ĺà¤®à¤ķ":2131,"Ġà¤Ĩà¤ªà¤¸":2132,"à¤¾'":2133,"Ġà¥¨à¥¦à¥§à¥ª":2134,"Ġà¤¸à¤°à¤¹":2135,"Ġà¥¨à¥¦à¥§à¥«":2136,"à¤·à¤¦à¤ķ":2137,"Ġà¤Ĩà¤°à¤ķ":2138,"10":2139,"Ġà¤ľà¤Ĺà¤¤":2140,"Ġà¤ªà¤¬":2141,"à¤¶à¤¦":2142,"à¥ĤâĢĵ":2143,"Ġà¤¦à¤£":2144,"à¤ļà¤¯à¤ªà¤¤":2145,"Ġà¥¦à¥¬":2146,"Ġà¥ªà¥Ń":2147,"Ġà¤ĩà¤ľà¤²":2148,"us":2149,"Ġà¤Ľà¤²à¤«à¤²à¤®":2150,"à¤²à¤ķà¤¹à¤°":2151,"Ġà¤¨à¤µà¤¨":2152,"à¤¶à¤ª":2153,"Ġà¤ıà¤°":2154,"Ġà¤ħà¤¯":2155,"à¤°à¤¸à¤°":2156,"à¤¹à¤°à¤£à¤ķ":2157,"Ġà¤ıà¤ļ":2158,"à¤°à¤¹à¤µ":2159,"à¤ļà¤¨à¤²":2160,"Ġà¥ªà¥§":2161,"à¤ıà¤Ł":2162,"Ġà¤ħà¤Ľ":2163,"Ġà¤ļà¤°à¤®":2164,"Ġà¥«à¥©":2165,"ak":2166,"à¤²à¤¬à¤ķ":2167,"Ġà¥ªà¥¬":2168,"à¤¸à¤ķà¤²":2169,"Ġà¤ľà¤®à¤°":2170,"à¤¤à¤ļ":2171,"à¤Ĩà¤¤":2172,"à¤°à¤¸à¤°à¤ķ":2173,"à¤ķà¤Łà¤ķ":2174,"à¤°à¤Ĩà¤µ":2175,"à¤ļà¤²à¤ķ":2176,"à¤¨à¤¡":2177,"à¤ĩà¤°à¤²":2178,"à¤£à¤¯à¤¹à¤°":2179,"Ġà¤¡à¤Łà¤ķà¤®":2180,"Ġà¤ķà¤°à¤£":2181,"à¤¦à¤Ń":2182,"Ġà¤¦à¤°à¤¬à¤¨":2183,"Ġ&":2184,"à¤µà¤£":2185,"Ġà¤µà¤¸à¤¨":2186,"ri":2187,"à¤ľà¤¤à¤¨":2188,"nd":2189,"Ġà¤¦à¤¹":2190,"Ġà¥¬à¥©":2191,"à¤µà¤¨à¤¸":2192,"à¤¯à¤¤à¤¯":2193,"à¤Łà¤¸à¤®":2194,"Ġà¤Ĩà¤®à¤¨":2195,"à¥¦à¥ª":2196,"Ġà¤Ńà¤°à¤ªà¤°":2197,"à¤ĺà¤®":2198,"à¤¡à¤ª":2199,"à¤¿âĢĻ":2200,"à¤²à¤Ļ":2201,"Ġà¤ħà¤²à¤ªà¤¤":2202,"à¥§à¥Ń":2203,"à¤µà¤ķà¤ªà¤®":2204,"à¥¨à¥¬":2205,"à¤¹à¤£":2206,"à¤®à¤Ĺà¤°":2207,"Ġà¤īà¤¦à¤¯à¤ª":2208,"à¤ħà¤Ĺ":2209,"Ġà¤¸à¤¬à¤Ńà¤¨":2210,"Ġà¤ľà¤Ļ":2211,"Ġà¤ıà¤¸à¤ª":2212,"Ġà¤ľà¤¥":2213,"à¤µà¤°à¤£à¤®":2214,"à¤¶à¤ķà¤ķ":2215,"à¥¦à¥©":2216,"à¤ĩà¤°à¤¹à¤¨":2217,"à¤ªà¤¸à¤®":2218,"à¥ģà¥į":2219,"à¤¯à¤Łà¤ķà¤²":2220,"à¥¦à¥®":2221,"Ġà¤µà¤¢":2222,"Ġà¤¸à¤¹à¤¨":2223,"à¤¾à¤ĥ":2224,"Ġà¤¸à¤¤à¤°":2225,"à¤Ļà¤¸":2226,"Ġà¤¬à¤¦":2227,"à¥¨à¥®":2228,"Ġà¥¬à¥ª":2229,"Ġà¤Ĺà¤¦":2230,"Ġà¤Ńà¤Īà¤°à¤¹":2231,"Ġà¤Ĩà¤¬":2232,"à¤¯à¤ķà¤®":2233,"ir":2234,"à¤Ķà¤·à¤§":2235,"Ġà¤ĩà¤£":2236,"à¥¤âĢĿ":2237,"à¤°à¤Ĺà¤ŀ":2238,"à¤Īà¤ľ":2239,"Ġà¤ĵà¤Ńà¤°à¤®":2240,"Ġà¤ĩà¤Łà¤¹à¤°":2241,"à¥į,âĢĻ":2242,"Ġà¤°à¤¦":2243,"Ġà¤ľà¤¨à¤¸à¤Ļ":2244,"à¤ĵà¤²":2245,"à¤£à¤¬":2246,"à¥ģâĢĵ":2247,"ment":2248,"à¥¨à¥¯":2249,",âĢĿ":2250,"Ġà¤¹à¤²à¤®":2251,"à¤¹à¤µ":2252,"ol":2253,"à¤¨à¤ħà¤¨":2254,"Ġà¤Ńà¤¬":2255,"Ġà¤īà¤ªà¤ķ":2256,"Ġà¥¤à¥¤":2257,"à¤ıà¤²à¤¸":2258,"Ġà¤²à¤®à¤ľ":2259,"à¤¦à¤£":2260,"à¤µà¤¸à¤¨":2261,"Ġà¤Ĩà¤°à¤®":2262,"Ġà¤łà¤®":2263,"à¥įâĢĮ":2264,"Ġà¤¦à¤µ":2265,"à¤¥à¤¸":2266,"Ġà¥¨à¥¦à¥Ńà¥¦":2267,"à¤µà¤ķà¤ªà¤ķ":2268,"Ġà¤Ĩà¤īà¤Ł":2269,"à¤¤à¤°à¤Ĺà¤¤":2270,"à¥¨à¥Ń":2271,"he":2272,"à¤·à¤¯à¤¹à¤°":2273,"Ġà¤¹à¤Ļà¤ķà¤Ļà¤®":2274,"à¤¯à¤²à¤ķ":2275,"à¤·à¤Ĺà¤°":2276,"Ġà¤ĩà¤ŀ":2277,"à¤¤à¤ķà¤²":2278,"Ġà¥¤...":2279,"à¤Ĺà¤²à¤ķ":2280,"à¤¨à¤ķà¤°":2281,"à¥Ī...":2282,"Ġà¤¸à¤Ĺ":2283,"Ġà¤¨à¤µà¤°":2284,"à¤¯à¤®à¤¹à¤°":2285,"Ġà¤¶à¤¹à¤°à¤®":2286,"Ġà¤ĵà¤²à¤®":2287,"Ġà¤ħà¤ªà¤¹à¤°à¤£":2288,"Ġà¤ķà¤¦":2289,"Ġà¤¶à¤²":2290,"à¤²à¤ļ":2291,"Ġà¤ĵà¤®":2292,"à¥¦à¥¦à¥¦":2293,"à¤ĸà¤²à¤¢":2294,"à¤µà¤¤à¤ķ":2295,"à¤°à¤Ĺà¤¨":2296,"à¥¦à¥Ńà¥«":2297,"hab":2298,"Ġà¥Ńà¥¨":2299,"Ġ6":2300,"Ġà¤ľà¤¨à¤ļ":2301,"Ġà¤Ĺà¤«":2302,"Ġà¥«à¥Ń":2303,"à¤¦à¤¶à¤¨":2304,"à¤¯à¤Ń":2305,"Ġà¤Ĳà¤¨à¤ķ":2306,"Ġà¤ľà¤¨à¤µà¤°":2307,"Ġà¤ıà¤®à¤¬":2308,"ĠW":2309,"Ġà¤ıà¤¯à¤°à¤²":2310,"à¤ķà¤¶":2311,"Ġà¤Ĩà¤µà¤¦":2312,"à¤°à¤£à¤¸à¤Ń":2313,"Ġà¥¨à¥¦à¥¦":2314,"à¤²à¤¬à¤¨":2315,"Ġà¤®à¤¤à¤Ĺà¤£à¤¨":2316,"à¤¯à¤ķà¤²":2317,"Ġà¤¡à¤°à¤²":2318,"à¤¹à¤ķà¤²":2319,"Ġà¤ļà¤Ł":2320,"à¤Ĺà¤µ":2321,"à¤¶à¤ķà¤¹à¤°":2322,"à¤°à¤Ļà¤ķ":2323,"à¥Įà¥¤":2324,"à¤®à¤¤à¤ķ":2325,"à¤¨à¤Ĺà¤°à¤ķ":2326,"à¤¹à¤ķà¤¹à¤°":2327,"Ġto":2328,"à¤īà¤Ľà¤¨":2329,"à¥ĩà¤ģ,":2330,"à¤¶à¤¤à¤ķ":2331,"mail":2332,"à¥¨à¥¨":2333,"à¤Ĩà¤īà¤Ł":2334,"Ġà¥¯à¥«":2335,"Ġà¤ĸà¤¬":2336,"eb":2337,"habar":2338,"Ġà¥¨à¥¦à¥§à¥©":2339,"Ġà¥¯à¥®":2340,"Ġà¥«à¥¯":2341,"Ġà¤¯à¤ľ":2342,"Ġà¥¦à¥Ń":2343,"Ġà¤ıà¤¨à¤¸":2344,"Ġà¤Ĩà¤ľà¤¦":2345,"Ġà¤Ńà¤Ĺà¤µà¤¤":2346,"à¥¨à¥§":2347,"Ġà¤ªà¤¹à¤²à¤®":2348,"Ġà¤¨à¤Ľ":2349,"Ġà¥«à¥¦à¥¦":2350,"à¤ľà¤°à¤²":2351,"à¤īà¤¨à¤®":2352,"à¤ıà¤Ľ":2353,"Ġà¤ħà¤£":2354,"Ġà¥Ńà¥ª":2355,"Ġà¤¦à¤¶à¤®":2356,"à¤Ĺà¤®à¤¨à¤ķ":2357,"Ġand":2358,"Ġà¤ħà¤¬à¤¸":2359,"Ġà¤¥à¤ķ":2360,"Ġ115":2361,"à¤ªà¤ªà¤Ľ":2362,"à¤Łà¤°à¤«":2363,"Ġà¤¢à¤Ļ":2364,"Ġà¤²à¤¤":2365,"à¥ģ-":2366,"Ġà¤ħà¤®à¤°":2367,"à¥Ĥ-":2368,"Ġà¤Ĩà¤Īà¤ª":2369,"à¤§à¤¸":2370,"à¤·à¤¯à¤µà¤¸":2371,"quo":2372,"ul":2373,"Ġà¤¨à¤Ńà¤ıà¤ªà¤Ľ":2374,"à¤·à¤¯à¤Ĺà¤¤":2375,"Ġà¤ĺà¤°à¤ªà¤°":2376,"à¤¨à¤ħà¤ĺ":2377,"Ġà¤ªà¤ª":2378,"à¤°à¤®à¤¬":2379,"à¤¸à¤ķà¤ķ":2380,"à¤¿:":2381,"Ġà¤ħà¤µà¤²à¤®":2382,"Ġà¤ıà¤ķà¤¸":2383,"Ġà¤Ĩà¤ĩà¤¸":2384,"à¤Ńà¤°à¤¤":2385,"à¤Łà¤°à¤¹à¤°":2386,"Ġà¤ĺà¤²":2387,"Ġà¤Ŀà¤Ĺà¤¡":2388,"Ġà¤ķà¤²à¤®":2389,"Ġà¤ķà¤·":2390,"Ġà¤ħà¤ªà¤®":2391,"à¤µà¤¨à¤¶":2392,"Ġà¥¬à¥¨":2393,"Ġà¤¹à¤ķà¤ª":2394,"Ġà¤ľà¤¨à¤Ĩà¤¨":2395,"ĠNepal":2396,"à¤¸à¤µà¤®":2397,"à¤¤à¤°à¤µ":2398,"à¤®à¤¦à¤¤":2399,"ber":2400,"Ġà¤®à¤¨à¤²":2401,"à¥¨à¥¦à¥Ńà¥ª":2402,"à¤Ĩà¤Ĺ":2403,"à¤°à¤¨à¤Ĺà¤°":2404,"à¥įâĢĻ":2405,"Ġà¤¡à¤ķ":2406,"Ġà¤ľà¤¯":2407,"Ġà¤¨à¤Ńà¤¨":2408,"Ġà¥Ńà¥Ń":2409,"âĢį":2410,"ĠDate":2411,"Ġà¤ıà¤¸à¤ıà¤²à¤¸":2412,"à¤ĺà¤Ł":2413,"Ġà¤Ńà¤µà¤¨à¤®":2414,"ot":2415,"à¤¨à¤Ĺ":2416,"à¤¦à¤ª":2417,"à¤ĵà¤¬":2418,"Ð»":2419,"à¤¤à¤¨à¤²":2420,"à¤ľà¤¹":2421,"squo":2422,"à¤ªà¤°à¤ķ":2423,"Ġà¤Ķà¤ļ":2424,"Ġ]":2425,"à¤§à¤ª":2426,"à¥¨à¥©":2427,"à¤ªà¤¯à¤²":2428,"à¤°à¤¸à¤Ļ":2429,"ĠJ":2430,"à¤²à¤Ĺà¤¨":2431,"Ġà¤Īà¤®":2432,"Ġà¥Ńà¥©":2433,"nbs":2434,"Ġà¤ľà¤¨à¤¸à¤®":2435,"Ġà¤Ķà¤¸à¤¤":2436,"Ġà¤Ńà¤µà¤¨à¤ķ":2437,"à¤Ĺà¤łà¤¨à¤²":2438,"à¥Ģ'":2439,"à¥Įà¤Ĥ,âĢĻ":2440,"à¤²à¤¹":2441,"Ġà¤®à¤¹à¤¶":2442,"à¥ĩ?":2443,"à¤°à¤«à¤²":2444,"à¤¦à¤¦":2445,"à¤ĩà¤¹à¤°":2446,"res":2447,"à¤īà¤¥":2448,"Ġà¤¡à¤¡":2449,"à¤¯à¤Łà¤ķà¤¹à¤°":2450,"à¤īà¤ļ":2451,"à¤Ĩà¤ľà¤ķ":2452,"Ġà¤¯à¤®":2453,"à¤¬à¤ľà¤¨":2454,"à¤²à¤Ł":2455,"à¤¯à¤¯à¤¨à¤°à¤¤":2456,"Ġà¤ĸà¤ªà¤¤":2457,"à¤¨à¤ľà¤¨":2458,"à¥¦à¥¯":2459,"Ġà¥¬à¥¬":2460,"Ġà¤ªà¤łà¤¨":2461,"im":2462,"Ġà¤ħà¤¸à¤ķ":2463,"à¤ľà¤¨à¤ķà¤ª":2464,"à¤Īà¤°à¤¹":2465,"à¤ıà¤Ī":2466,"Ġwww":2467,"à¤īà¤¤à¤²":2468,"à¤¿)":2469,"à¤ıà¤¸à¤¨":2470,"à¤¸à¤Ł":2471,"Ġà¤¬à¤¸à¤¨":2472,"Ġà¥¬à¥®":2473,"à¤¤à¤°à¤°":2474,"à¤Ĩà¤§":2475,"nbsp":2476,"ig":2477,"à¤¹à¤²à¤ª":2478,"à¤«à¤°à¤ķ":2479,"Ġà¤Ĺà¤ļ":2480,"Ġà¥Ńà¥¬":2481,"à¤¸à¤¤à¤®":2482,"Ġà¥¨à¥¦à¥¬à¥ª":2483,"Ġà¤ħà¤¨à¤®":2484,"ine":2485,"ow":2486,"à¤Łà¤°à¤¬":2487,"à¤¤à¤ķà¤¹à¤°":2488,"à¤£à¤¹à¤°":2489,"Ġà¤¦à¤¯":2490,"Ġà¤²à¤£":2491,"à¤¿-":2492,"à¤ıà¤£":2493,"à¤ľà¤¯à¤ķ":2494,"à¤¯à¤¨à¤ľà¤°":2495,"ve":2496,"à¤Īà¤ª":2497,"Ġà¤¶à¤Ļ":2498,"à¤¯à¤¸à¤¹":2499,"à¸":2500,"Ġà¤®à¤Ĺà¤°à¤²":2501,"à¤¨à¤¬à¤¹":2502,"à¤ªà¤°à¤¬":2503,"à¤ļà¤¤":2504,"à¤°à¤¸à¤ķ":2505,"à¤¾à¤ģà¥Ī":2506,"à¤¾à¤ģ,":2507,"à¤¹à¤ľ":2508,"Ġà¤ĸà¤Ĺ":2509,"Ġà¤Ĩà¤ķà¤¸":2510,"Ġà¤Ńà¤ıà¤¤":2511,"Ġà¤¸à¤¡à¤ķà¤ĸà¤£":2512,"à¤²à¤Ĺà¤¤":2513,"Ġà¤īà¤ªà¤¸à¤Ń":2514,"Ġà¥¯à¥¯":2515,"à¤µà¤ķà¤ķ":2516,"18":2517,"à¤¤à¤Ĺà¤¤":2518,"à¤ķà¤ŀ":2519,"Ġà¤¹à¤®à¤²":2520,"Ġà¤Ĺà¤¡à¤¬":2521,"Ġà¤¸à¤²à¤®":2522,"ost":2523,"à¤łà¤ķà¤¹à¤°":2524,"à¤Ĺà¤²à¤µ":2525,"à¤ľà¤ķà¤ķ":2526,"à¤¨à¤¸à¤¹":2527,"à¤¶à¤Ńà¤°à¤ķ":2528,"à¤Ĺà¤¬à¤¹":2529,"Ġà¤®à¤ľà¤¬":2530,"à¤ªà¤ŀ":2531,"à¤ªà¤ķà¤²":2532,"à¤ľà¤Ń":2533,"à¤¡à¤¤":2534,"Ġà¤īà¤ªà¤¸à¤®":2535,"Ġà¤Ĩà¤¯à¤²":2536,"Ġà¤Ĩà¤ªà¤¸à¤®":2537,"ĠU":2538,"à¤°à¤µà¤Ł":2539,"à¤¸à¤ŀ":2540,"à¤ĩà¤µ":2541,"Ġà¤¹à¤¦à¤¸à¤®":2542,"à¥ĩ,âĢĺ":2543,"ia":2544,"à¤Īà¤¬":2545,"Ġà¥¨à¥¦à¥§à¥§":2546,"Ġà¥®à¥ª":2547,"à¤Łà¤ªà¤Ł":2548,"ist":2549,"Ġà¤Ĩà¤ľà¤¸à¤®":2550,"à¤¦à¤µà¤ķ":2551,"à¤Łà¤¨à¤ķ":2552,"Ġà¥¬à¥Ń":2553,"à¤°à¤¹à¤ķ":2554,"Ġà¥®à¥®":2555,"Ġà¤Ľà¤¤":2556,"Ġà¤ªà¤¸à¤²à¤®":2557,"Ġà¤īà¤ªà¤µ":2558,"Ġà¤ıà¤ķà¤ħà¤°":2559,"Ġà¤¸à¤¹à¤°à¤®":2560,"ers":2561,"à¤¨à¤Ľ":2562,"à¤¤à¤ķà¤®":2563,"à¤¯à¤¯à¤¨à¤²":2564,"à¤ľà¤Ĺà¤¢":2565,"Ġà¤¡à¤²à¤°à¤ķ":2566,"à¤¤à¤ľà¤¨":2567,"Ġà¤²à¤¹à¤°":2568,"à¤£à¤¯à¤²":2569,"Ġà¤ĵà¤ĸà¤²à¤¢":2570,"Ġà¤«à¤¡":2571,"à¤ĩà¤Łà¤¹à¤°":2572,"ĠV":2573,"à¤ķà¤°à¤²":2574,"à¤¦à¤°à¤¤":2575,"Ġà¤ªà¤Łà¤ķà¤ķ":2576,"Ġà¥Ńà¥®":2577,"à¤Ĩà¤¬":2578,"Ġe":2579,"à¤¾âĢĿ":2580,"à¤Łà¤¤":2581,"Ġà¤ĩà¤¶":2582,"Ġà¤ļà¤²à¤ĸ":2583,"à¥¨à¥ª":2584,"à¥¦à¥Ńà¥©":2585,"Ġà¥¨à¥¦à¥§à¥¨":2586,"Ġà¤ħà¤Ĺà¤¸":2587,"Ġà¤īà¤ªà¤¶":2588,"à¤¹à¤ª":2589,"Ġà¥¬à¥§":2590,"à¤¡à¤¦":2591,"à¤ĩà¤ı":2592,"Ġà¤ľà¤¬à¤ķ":2593,"à¤²à¤§":2594,"Ġà¤ĺà¤°à¤¦":2595,"à¤Ŀà¤®":2596,"Ġà¤Ĩà¤Ĺà¤®à¤¨":2597,"à¤¨à¤¶":2598,"Ġà¤µà¤¨à¤¸":2599,"Ġà¤²à¤¸":2600,"à¤ĸà¤¸à¤®":2601,"Ġà¤¤à¤°à¤²":2602,"Ġà¤ªà¤®":2603,"Ġà¥¤'":2604,"à¤¨à¤¯à¤¨":2605,"Ġà¥®à¥©":2606,"à¤ıà¤¨à¤ı":2607,"Ġà¤ļà¤ª":2608,"Ġà¤ıà¤Ńà¤°":2609,"à¤¯à¤£à¤Ĺà¤¢":2610,"tt":2611,"Ġà¥¨à¥¦à¥¦à¥Ń":2612,"Ġ9":2613,"à¥Ģ/":2614,"Ġà¥§à¥¯à¥¬":2615,"à¤°à¤£à¤¹à¤°":2616,"à¥į-":2617,"à¤ļà¤²à¤ļ":2618,"Ġ0":2619,"Ġà¤ĩà¤Ń":2620,"à¥¦à¥Ńà¥¬":2621,"Ġà¤ªà¤Łà¤ķà¤ªà¤Łà¤ķ":2622,"à¥į)":2623,"à¤¤à¤°à¤¬":2624,"Ġà¤ľà¤²à¤¸":2625,"Ġà¤īà¤ªà¤®":2626,"Ġà¤°à¤ķà¤®à¤ķ":2627,"Ġà¤ĸà¤ª":2628,"à¤Łà¤¯":2629,"à¤°à¤®à¤£à¤²":2630,"à¤¯à¤Łà¤¨à¤ķ":2631,"Ġà¤ķà¤¯":2632,"Ġà¥¨à¥¦à¥¬à¥®":2633,"um":2634,"à¤¸à¤¸à¤®":2635,"à¥¨à¥¦à¥¬":2636,"à¤¥à¤¤":2637,"Ġà¥Ńà¥§":2638,"gmail":2639,"à¤°à¤ķà¤²":2640,"Ġà¥¬à¥¯":2641,"à¤²à¤¡":2642,"Ġà¤¨à¤Ĩà¤ıà¤ķ":2643,"11":2644,"à¤ªà¤¡":2645,"à¤¤à¤¹à¤¤":2646,"à¤ªà¤µ":2647,"à¤£à¤¯à¤ķ":2648,"____":2649,"à¤¬à¤¢":2650,"à¤¥à¤²à¤Ĺà¤¤":2651,"à¤ľà¤¦à¤°":2652,"op":2653,"Ġà¤Ĩà¤īà¤¦":2654,"Ġà¤īà¤ªà¤¦":2655,"Â«":2656,"Ġà¤ĺà¤°à¤¹à¤°":2657,"Ġà¤ĵà¤Ĺà¤Ł":2658,"à¤²à¤¶":2659,"Ġà¤«à¤¨":2660,"Ġà¤¶à¤¹à¤°à¤ķ":2661,"à¤Īà¤ľà¤¨":2662,"Ġà¤¨à¤¹à¤°":2663,"à¤Ľà¤¦":2664,"Ġà¤¸à¤¬à¤²":2665,"Ġfor":2666,"à¤ıà¤¸à¤®":2667,"Ġà¤Ĳà¤¨à¤®":2668,"à¤²à¤¯à¤¨":2669,"19":2670,"Ġ10":2671,"Ġà¤ķà¤£":2672,"Ġ7":2673,"Ġà¤¦à¤¶à¤ķà¤¦":2674,"à¤ĩà¤¬à¤°":2675,"à¤Īà¤¡":2676,"Ġà¤īà¤¬":2677,"Ġà¤Ĩà¤ľà¤Ń":2678,"ÅĴ":2679,"ut":2680,"à¤¦à¤°à¤Ĺ":2681,"Ġà¥¨à¥¦à¥¬à¥¯":2682,"à¤¾(":2683,"à¤¯à¤Ļ":2684,"?âĢĻ":2685,"à¤ķà¤Łà¤®":2686,"à¤Ĺà¤ıà¤ķ":2687,"Ġà¤²à¤ľ":2688,"ĠIn":2689,"à¤¤à¤ķà¤°":2690,"à¤·à¤Ńà¤¨":2691,"à¤ĸà¤¨à¤¨":2692,"à¤°à¤¤à¤°":2693,"à¤Ĺà¤ª":2694,"à¤ĩà¤²à¤®":2695,"à¤¸à¤²à¤®":2696,"Ġà¥¨à¥¦à¥¦à¥®":2697,"Ġà¤·à¤¡":2698,"à¤²à¤ħà¤§":2699,"à¤¡à¤²à¤®":2700,"ook":2701,"Ġà¤Ĩà¤µà¤ķ":2702,"Ġà¤Ĩà¤ĩà¤¤à¤µ":2703,"à¤ĺà¤°à¤ķ":2704,"Ġà¤¹à¤Ļà¤ķà¤Ļà¤ķ":2705,"à¤«à¤¦":2706,"à¤¶à¤¯":2707,"pp":2708,"Ġà¤ıà¤¯à¤°à¤ķ":2709,"Ġà¥¨à¥¦à¥§à¥¦":2710,"à¤ıà¤ª":2711,"à¤¹à¤¨à¤¤":2712,"Ġà¤łà¤ª":2713,"à¤ªà¤¨à¤²":2714,"Ġà¤ħà¤ł":2715,"Ġ200":2716,"Ġà¤¤à¤Ł":2717,"à¤¸à¤¡à¤ķ":2718,"à¤¥à¤²à¤¬":2719,"à¤Ĺà¤®à¤¤":2720,"Ġà¤¬à¤Ŀ":2721,"Ġà¤ħà¤µà¤¤à¤°à¤£":2722,"à¤¯à¤£à¤ķ":2723,"à¤§à¤¹à¤°":2724,"à¤ķà¤¸à¤®":2725,"à¤ķà¤¬à¤¹":2726,"à¤Ĥ,":2727,"Ġà¤ªà¤¦à¤¯":2728,"à¤Ńà¤¤":2729,"Ġà¤¬à¤¸à¤ª":2730,"à¤¶à¤Ńà¤ķ":2731,"à¤¹à¤¹à¤°":2732,"Ġà¤¶à¤®":2733,"à¤ªà¤ķà¤°":2734,"à¤Łà¤¬à¤²à¤®":2735,"à¤°à¤²à¤Ĺ":2736,"à¤ħà¤ķ":2737,"Ġà¤ĺà¤°à¤§":2738,"Ġà¤Īà¤²":2739,"Ġà¥®à¥Ń":2740,"ra":2741,"ĠNews":2742,"à¤¿à¤¾":2743,"à¤¤à¤®à¤ķ":2744,"Ġread":2745,"à¤¾?":2746,"à¤¡à¤¨à¤ķ":2747,"à¤¤à¤¯":2748,"Ġà¤Ľà¤²à¤«à¤²à¤ķ":2749,"à¤¡à¤Ńà¤¨":2750,"à¤ĵà¤ķ":2751,"à¤¶à¤¤à¤Ńà¤¨":2752,"----":2753,"Ġ18":2754,"//":2755,"Ġà¤Ĩà¤Īà¤¤à¤¬":2756,"Ġà¤ľà¤¨à¤®à¤¤":2757,"Ġà¤¬à¤ŀ":2758,"à¥¤...":2759,"Ġà¥®à¥¬":2760,"à¤·à¤°à¤¤":2761,"à¤¥à¤¹à¤°":2762,"à¤ķà¤Ń":2763,"à¤²à¤®à¤²":2764,"Ġà¤Ĺà¤Ńà¤°":2765,"Ġà¤¨à¤Ńà¤ıà¤¸à¤®":2766,"à¤²à¤ľ":2767,"Ġà¥¦à¥Ńà¥ª":2768,"à¤Ļà¤¦":2769,"Ġà¤ľà¤¨à¤Ĺà¤£à¤¨":2770,"Ġà¤īà¤ªà¤²à¤ķ":2771,"Ġà¤¨à¤¬à¤¸":2772,"Ñĥ":2773,"out":2774,"à¤°à¤¸à¤ŀ":2775,"à¥įà¤¾":2776,"à¤Ĥà¤ģ":2777,"à¤°à¤ķà¤°à¤£à¤®":2778,"Ġ12":2779,"Ðº":2780,"à¤Ĳ":2781,"à¤¥à¤¶":2782,"à¥ªà¥«":2783,"à¤Īà¤°":2784,"Ġà¤Ķà¤²":2785,"Ġà¤²à¤¯":2786,"à¥ĭ.":2787,"à¤¦à¤¨à¤¹à¤°":2788,"Ġà¤¤à¤¹à¤¬":2789,"à¤¯à¤¨à¤²":2790,"Ġ2017":2791,"à¤²à¤¯à¤¸":2792,"Ġà¤®à¤®":2793,"ttp":2794,"os":2795,"à¤¡à¤¨à¤®":2796,"Ġ8":2797,"Ġà¤¨à¤ľà¤°":2798,"à¤°à¤£à¤¬":2799,"Ġg":2800,"à¤¶à¤¤à¤®":2801,"à¤Ńà¤ıà¤¨":2802,"Ġà¥®à¥¨":2803,"à¤Ĩà¤Īà¤ľ":2804,"Ġà¤ķà¤¸à¤ķ":2805,"://":2806,"Ġà¤ħà¤«à¤°":2807,"à¤§à¤¨à¤Ĺà¤¢":2808,"Ġà¤¯à¤ķ":2809,"Ġà¥§à¥¯à¥¯à¥¦":2810,"Ġà¤°à¤¬":2811,"à¥ģ)":2812,"à¤¡à¤²à¤²":2813,"à¤¯à¤ķà¤µ":2814,"Ġà¥¨à¥¦à¥ªà¥¬":2815,"Ġà¥¨à¥¦à¥¬à¥©":2816,"à¥įà¥ģ":2817,"Ġv":2818,"Ġà¤ĸà¤¤à¤°à¤¨":2819,"Ġà¤ıà¤¸à¤ıà¤¸à¤ª":2820,"Ġà¤ħà¤ĸà¤£":2821,"Ġà¤īà¤§":2822,"à¤ĩà¤ļ":2823,"à¤Ĺà¤²à¤²":2824,"à¤£à¤¯à¤®":2825,"à¤Łà¤¨à¤Ĺà¤°à¤®":2826,"à¤Ŀà¤ķ":2827,"ik":2828,"à¤¸à¤¯":2829,"à¤Ĺà¤ħà¤¨":2830,"Ġà¤¨à¤Ĩà¤īà¤¨":2831,"Ġà¤²à¤¹":2832,"à¤Ĺà¤¸à¤®":2833,"à¥ªà¥¦":2834,"Ġà¤°à¤¹à¤¦":2835,"à¤°à¤¹à¤®":2836,"Ġà¤®à¤¤à¤ªà¤¤":2837,"à¤°à¤®à¤£à¤¬":2838,"Ġà¥§à¥§à¥©":2839,"Ġà¤¶à¤°à¤¦":2840,"à¤®à¤ľà¤¯à¤¨":2841,"à¥įà¥į":2842,"à¤¤à¤¹à¤Ł":2843,"Ġà¤ħà¤¸à¤¹à¤®à¤¤":2844,"à¤¯à¤¬à¤¹":2845,"ments":2846,"à¤®à¤ĺ":2847,"Ġà¥¯à¥Ń":2848,"à¤¶à¤¨à¤¬":2849,"Ġà¤®à¤Ŀ":2850,"oc":2851,"Ġà¤ĺà¤°à¤Ń":2852,"Ġà¤Ĺà¤¢":2853,"Ġà¤®à¤¡":2854,"Ġà¤ªà¤°à¤¦":2855,"Ġà¤ĩà¤Ļ":2856,"Ġà¤¸à¤¹à¤°à¤ķ":2857,"à¤ľà¤Ļ":2858,"Ġà¤¸à¤¹à¤ľà¤¤":2859,"Ġà¤Ĩà¤Ĩà¤«":2860,"à¤·à¤ª":2861,"Ġà¤Ĩà¤ĩà¤«":2862,"à¤¨à¤µà¤²":2863,"ther":2864,"à¥ĩâĢ¦":2865,"à¤¶à¤¤à¤¸à¤®":2866,"à¤µà¤°à¤£à¤ķ":2867,"ember":2868,"à¤¬à¤²à¤ķ":2869,"Ġà¤¶à¤¶":2870,"Ġà¥¨à¥¦à¥©à¥¦":2871,"Ġà¤¡à¤®":2872,"à¤ļà¤¥":2873,"à¤ķà¤°à¤ķ":2874,"à¤ĸà¤Ńà¤¨":2875,"Ġà¤°à¤¨à¤®":2876,"Ġà¥Ńà¥¯":2877,"Ġà¤°à¤ļ":2878,"à¤ķà¤®à¤ķ":2879,"Ġà¤¸à¤ĸ":2880,"Ġà¤Ĩà¤Īà¤¸":2881,"à¤¯à¤¦à¤²à¤²":2882,"áĥ":2883,"Ġà¤¤à¤ªà¤¸":2884,"Ġà¤ľà¤¬à¤°à¤ľà¤¸":2885,"Ġà¤ķà¤¦à¤°":2886,"à¥Įà¤Ĥ-":2887,"Ġà¥¯à¥©":2888,"Ġà¤ħà¤¸à¤¹à¤ľ":2889,"à¤²à¤²à¤Ĺ":2890,"à¥ĩà¤Ĥ,":2891,"Ġà¤¸à¤®à¤¯à¤ªà¤Ľ":2892,"à¤°à¤¬à¤°":2893,"Ġà¤¸à¤®à¤¯à¤¸":2894,"à¤¦à¤²à¤ķ":2895,"Â¸":2896,"âĢ¢":2897,"Ġ!!":2898,"à¤·à¤¯à¤¤":2899,"à¤ħà¤¤":2900,"à¥Ģ),":2901,"Ġà¥¨à¥¦à¥¬à¥«":2902,"ĠRead":2903,"',":2904,"à¤Ĺà¤°à¤£":2905,"Ġà¤ľà¤¸à¤®à¤§":2906,"Ġà¤Ńà¤ĩà¤°à¤¹à¤¨":2907,"à¥¤'":2908,"Ġà¤¦à¤°à¤ĸ":2909,"Ġà¤Łà¤ķ":2910,"Ġà¤Īà¤¸":2911,"Ġà¤ļà¤¤":2912,"Ġà¤¶à¤ªà¤¥":2913,"Ġà¤ıà¤ķà¤Ľ":2914,"à¤Ńà¤ªà¤¤":2915,"Ġà¤īà¤ªà¤²à¤µ":2916,"Ġà¥¯à¥¬":2917,"à¤¸à¤®à¤®":2918,"Ġà¤ªà¤ĸ":2919,"à¤Łà¤¦":2920,"à¤¹à¤ķà¤ķ":2921,"Ġà¤µà¤ŀ":2922,"12":2923,"ip":2924,"Ġà¤¸à¤®à¤¯à¤²":2925,"Ġà¤®à¤Ĺ":2926,"à¤Ĺà¤łà¤¨à¤¹à¤°":2927,"à¤¸à¤ħà¤¨":2928,"Ġà¤īà¤Ĺ":2929,"Ġà¤¬à¤ĸà¤¤":2930,"à¥ĭà¥¤âĢĻ":2931,"Ġà¤¯à¤¨":2932,"à¤ħà¤«":2933,"à¤īà¤¬":2934,"Ġà¤Ĩà¤Ļ":2935,"Ġà¤¥à¤¨":2936,"Ġà¤¸à¤¯à¤Ńà¤¨":2937,"à¤ªà¤°à¤®":2938,"à¤µà¤Ĺ":2939,"Ġà¤°à¤ľà¤¤":2940,"Ġà¤ªà¤¦à¤¬":2941,"Ġà¤°à¤ĺ":2942,"Ġà¤ĵà¤Ńà¤°":2943,"Ġà¤ħà¤Ĺà¤·":2944,"à¤°à¤®à¤¸":2945,"Ġy":2946,"Ġà¤¦à¤¶à¤ķà¤®":2947,"Ġà¤®à¤¹ÅĴ":2948,"Ġà¤¨à¤²à¤Ĺ":2949,"wit":2950,"à¥ĩà¤ģà¥¤":2951,"à¤Ńà¤¸":2952,"Ġà¥®à¥§":2953,"à¤¤à¤¹à¤¤à¤ķ":2954,"Ġà¤Ĳà¤¨à¤²":2955,"ok":2956,"à¤Ļà¤Ł":2957,"Ġà¥¯à¥ª":2958,"à¤¯à¤¦à¤²":2959,"à¤ªà¤¸à¤ķ":2960,"à¥ĢâĢĿ":2961,"à¥ģà¤ģ,":2962,"Ġà¤ªà¤¡":2963,"Ġà¤ķà¤®à¤¨":2964,"Ġà¤§à¤°à¤¹à¤°":2965,"Ġà¤ĭà¤¤":2966,"17":2967,"à¤ħà¤¸à¤ķ":2968,"Ġà¤ķà¤®à¤ķ":2969,"à¤ıà¤®à¤Ī":2970,"à¤ªà¤¢":2971,"Ġà¤ħà¤¨à¤¸à¤¨":2972,"Ġà¤ıà¤ķà¤ķ":2973,"Ġà¤ªà¤łà¤¨à¤ª":2974,"à¥¨à¥¦à¥Ńà¥©":2975,"our":2976,"à¤Ļà¤¹à¤°":2977,"ome":2978,"Ġà¤ħà¤¨à¤¨":2979,"Ġà¤Ĩà¤¸à¤¨":2980,"Ġà¤Ĺà¤Ĺà¤¨":2981,"Ġà¤Ľà¤Łà¤ªà¤Ł":2982,"Ġà¤Ĩà¤µà¤®":2983,"Ġà¥¯à¥§":2984,"à¤ĸà¤¸":2985,"à¤ĩà¤ľà¤°":2986,"Ġà¤ħà¤µà¤¸à¤°à¤ķ":2987,"Ġà¤²à¤ĸ":2988,"Ġà¤Łà¤ª":2989,"Ġà¤«à¤ķ":2990,"Ġà¥®à¥¯":2991,"mà¤¨":2992,"Ġà¤Ńà¤Īà¤¸à¤ķ":2993,"ĠCom":2994,"witter":2995,"Ġà¤Ĺà¤ľà¤²à¤ķ":2996,"Ġ?âĢĿ":2997,"ity":2998,"à¤ªà¤¨à¤ªà¤¤":2999,"Ġà¤µà¤°à¤ªà¤°":3000,"à¤Łà¤ķà¤ķ":3001,"à¤¯à¤¸à¤¤":3002,"Ġà¤ĵà¤ª":3003,"à¤ķà¤ħà¤ª":3004,"à¤§à¤¨à¤¬":3005,"à¤¯à¤¸à¤®à¤§":3006,"à¤ıà¤¡":3007,"à¤¶à¤®à¤¨":3008,"Ġhttp":3009,"Ġà¤īà¤ªà¤¸à¤ļ":3010,"à¤ķà¤¤à¤°":3011,"Ġà¤°à¤ŀ":3012,"Ġà¤ķà¤²à¤ķ":3013,"line":3014,"Ġà¤¬à¤¦à¤¨":3015,"Ġà¤ľà¤¨à¤°à¤²":3016,"à¤ļà¤¥à¤°":3017,"Ġà¥¦à¥«":3018,"Ġà¤ĸà¤®":3019,"Ġà¥§à¥¯à¥«":3020,"à¤ķà¤Ńà¤°":3021,"à¤²à¤¨à¤¬":3022,"Ġà¥¯à¥¨":3023,"Ġà¤Ĩà¤ªà¤°":3024,"à¥ĭâĢĿ":3025,"à¤ĸà¤ķà¤²":3026,"à¤ªà¤ĸ":3027,"à¤¯à¤®à¤¯":3028,"à¥Īà¥¤":3029,"Ġà¤¨à¤ļà¤²":3030,"à¤Ľà¤¡":3031,"à¤ĩà¤²à¤ķ":3032,"Ġà¤¸à¤ªà¤¥":3033,"à¤¨à¤°à¤®":3034,"Ġà¥§à¥¯à¥Ń":3035,"Ġà¤¤à¤¹à¤¸à¤®":3036,"à¤ļà¤²à¤®":3037,"à¤ıà¤¤":3038,"Nepal":3039,"à¤Ĩà¤¦":3040,"ang":3041,"Ġà¤ħà¤ªà¤¡":3042,"Ġà¤ľà¤¸à¤¬":3043,"à¤Ĩà¤¶":3044,"Ġà¤¦à¤¨":3045,"à¤ķà¤ħà¤¨":3046,"Ġà¤¨à¤Ł":3047,"Ġà¤¨à¤¬à¤¢":3048,"ce":3049,"à¤ŀà¤ķ":3050,"à¤ķà¤ľ":3051,"nepal":3052,"à¤²à¤ķà¤£":3053,"à¤µà¤ķà¤¹à¤°":3054,"te":3055,"à¤°à¤¸à¤¨":3056,"à¤¬à¤¹à¤°":3057,"Ñı":3058,"ebook":3059,"à¤¤à¤µà¤¨à¤®":3060,"à¤ħà¤ªà¤°":3061,"Ġà¥¨à¥¦à¥§à¥¯":3062,"à¦":3063,"à¤ľà¤¸à¤®":3064,"à¤°à¤ľà¤¨à¤¨":3065,"à¤²à¤¤à¤¬":3066,"Ġà¤®à¤¤à¤²":3067,"à¤¡à¤ªà¤®":3068,"ort":3069,"à¤°à¤«à¤²à¤®":3070,"à¤ķà¤²à¤¨à¤ķ":3071,"Ġà¤ħà¤¥":3072,">>":3073,"ab":3074,"à¥ĭ'":3075,"Ġà¤µà¤¨à¤ķ":3076,".),":3077,"à¤Ĩà¤ł":3078,"à¤¤à¤Ńà¤°":3079,"à¤¤à¤°à¤£à¤®":3080,"Ġà¤¸à¤¯à¤ªà¤¤":3081,"ap":3082,"Ġà¤¦à¤®à¤¨":3083,"à¤²à¤Ĺà¤°":3084,"Ġà¤ĸà¤¬à¤°à¤ķ":3085,"à¤¤à¤°à¤ª":3086,"Ġà¤Ńà¤ıà¤Ľ":3087,"à¤ĩà¤ıà¤¨":3088,"à¤Ŀà¤Ł":3089,"à¤ĩà¤¹":3090,"à¤¤à¤¬à¤¹":3091,"Ġà¤Ĳà¤¶":3092,"Ġà¤°à¤®à¤£":3093,"à¤¬à¤¡":3094,"à¤¨à¤²à¤®":3095,"Ġà¥©à¥¦à¥¦":3096,"à¥ĩà¤Ĥà¥¤":3097,"à¤īà¤¡à¤®":3098,"à¤§à¤°à¤²":3099,"à¤Īà¤¯":3100,"Ġà¤Ĩà¤Ĺà¤ľà¤¨":3101,"other":3102,"Ġà¤Ĺà¤łà¤¨à¤ķ":3103,"ub":3104,",,":3105,"à¤¾à¥į":3106,"à¤¥à¤¯":3107,"à¤¶à¤¶":3108,"acebook":3109,"à¤Īà¤Ń":3110,"à¤ħà¤·":3111,"à¤Ńà¤²à¤ªà¤®":3112,"à¤¨à¤²à¤Ĺ":3113,"Ġà¤¸à¤¤à¤¹":3114,"Ġà¥¨à¥¦à¥¬à¥¨":3115,"à¤¯à¤ªà¤¤":3116,"à¤°à¤µà¤¨":3117,"ous":3118,"à¤ĭ":3119,"Ġà¤ħà¤ªà¤²":3120,"Ġà¥¨à¥¦à¥«à¥ª":3121,"à¤®à¤°à¤¤":3122,"Ġà¤Ĩà¤µà¤¤à¤ľ":3123,"à¤¯à¤¯à¤¨à¤®":3124,"ãĤ":3125,"Ġà¤¬à¤²à¤°":3126,"à¤®à¤ķà¤µ":3127,"30":3128,"ĠThe":3129,"à¤ıà¤¨à¤Ĩà¤°à¤ıà¤¨":3130,"Ġà¤¤à¤¹à¤¹à¤°":3131,"Ġà¤¸à¤¦à¤¨":3132,"Ġà¤ĵà¤ªà¤¨":3133,"à¤Łà¤ķà¤°":3134,"à¤łà¤ķà¤¬":3135,"Ġà¤ªà¤¥":3136,"Ø§":3137,"Ġà¤īà¤¦à¤¯":3138,"Ġà¥¨à¥¦à¥¦à¥¯":3139,"Ġà¤Ńà¤ĩà¤¹":3140,"Ġà¤®à¤¸à¤²":3141,"à¤¾à¤Ĥà¥Ī":3142,"à¤²à¤¸à¤¹":3143,"à¤¯à¤ªà¤¹":3144,"à¤²à¤¬à¤®":3145,"à¤¤à¤Ń":3146,"à¤¯à¤ķà¤¹à¤°":3147,"à¤®à¤Ń":3148,"Ġà¤µà¤°à¤ªà¤°à¤ķ":3149,"Ġà¤¨à¤¶":3150,"à¤Łà¤µà¤²à¤®":3151,"Ġà¤¸à¤¹à¤ķà¤°":3152,"Ġà¤¤à¤°à¤²à¤¤":3153,"Ġà¤Ĩà¤¤à¤Ļ":3154,"Ġà¤Ŀà¤°à¤¨":3155,"Ġà¤®à¤Ĺà¤°à¤ķ":3156,"Ġà¤ĺà¤°à¤ĺà¤°à¤®":3157,"à¤¨à¤ĸ":3158,"à¤īà¤¡à¤ķ":3159,"Ġà¤¨à¤°à¤®":3160,"Ġà¤ıà¤ķà¤ľ":3161,"Ġà¥¦à¥Ńà¥©":3162,"âĢ¦âĢ¦":3163,"Ġà¤¬à¤¸à¤®":3164,"à¤Ľà¤ķ":3165,"Ð°Ð":3166,"à¤¨à¤ªà¤°":3167,"Ġà¤Ĩà¤ıà¤¨":3168,"à¤¯à¤°à¤§à¤¨":3169,"ff":3170,"ly":3171,"Ñĭ":3172,"Ġà¤¦à¤°à¤®":3173,"Ġà¥Ĳ":3174,"Ġà¥¤\"":3175,"à¤¯à¤¨à¤®":3176,"à¥ģ...":3177,"à¥¬à¥©":3178,"à¤µà¤°à¤¬":3179,"Ġà¥§à¥«à¥¦":3180,"Ġà¤¡à¤¢":3181,"Ġà¤ıà¤ªà¤ķ":3182,"à¤¬à¤°à¤£":3183,"à¥¬à¥¦":3184,"à¤ħà¤¦":3185,"à¤Ĺà¤ļ":3186,"Ġà¤¬à¤¸à¤ķ":3187,"Ġà¤Ĺà¤Ļ":3188,"à¤Łà¤¨à¤®":3189,"ess":3190,"akhabar":3191,"à¥ĢâĢ¦":3192,"à¤ĩà¤¨à¤¬":3193,"ĠNov":3194,"à¤Ĩà¤ĩà¤¤à¤¬":3195,"à¤Łà¤µà¤²à¤ķ":3196,"Ġà¤ıà¤¨à¤Ĩà¤°à¤ıà¤¨à¤ı":3197,"Ġà¤°à¤¶":3198,"Ġà¥¨à¥¦à¥ªà¥¯":3199,"à¤¥à¤¬":3200,"à¤Ĺà¤¨à¤®":3201,"Ġà¤¬à¤¦à¤°":3202,"à¤ªà¤¤à¤ķ":3203,"Ġà¤Ĩà¤īà¤²":3204,"à¥Ģà¥ĩ":3205,"Ġà¤¸à¤Łà¤¹":3206,"Ġà¤µà¤ļà¤¨":3207,"Ġà¤®à¤¹à¤¤à¤²":3208,"Ġà¤ĺà¤°à¤ľà¤Ĺ":3209,"à¤°à¤ħà¤¨":3210,"à¤°à¤ªà¤¸":3211,"Ġà¤īà¤Ľ":3212,"à¤µà¤¸à¤°":3213,"à¤¾à¥Īà¤ģ":3214,"à¤¸à¤®à¤¨":3215,"Ġà¤¦à¤¶à¤®à¤²à¤¬":3216,"à¤ľà¤ªà¤¤":3217,"à¤ģà¤Ĥ":3218,"Ġà¤¦à¤¤":3219,"Ġà¤®à¤¨à¤Ĺ":3220,"à¤¯à¤¤à¤¨":3221,"à¤ĸà¤¬à¤°":3222,"à¤²à¤®à¤ľ":3223,"à¤µà¤²à¤²":3224,"Ġà¤¸à¤®à¤¯à¤ħà¤ĺ":3225,"Ġà¤®à¤¤à¤²à¤¬":3226,"à¤ĩà¤ķà¤²à¤®":3227,"à¤§à¤µà¤ķ":3228,"Ġà¤Ńà¤ľà¤¨":3229,"Ġà¤Ĩà¤ľà¤¬":3230,"à¤¹à¤Ł":3231,"à¥Īà¥Ī":3232,"à¤¯à¤¸à¤¨":3233,"à¤¸à¤¡":3234,"à¤Ĺà¤Ń":3235,"16":3236,"Ġà¤ıà¤¯à¤°à¤ª":3237,"Ġà¤ĩà¤¨à¤°":3238,"lsquo":3239,"à¤¯à¤°à¤¬":3240,"ec":3241,"ãĢ":3242,"Ġà¤¡à¤¬":3243,"Ġà¤Ĩà¤ĩà¤¨":3244,"14":3245,"à¤·à¤Ńà¤°":3246,"à¤ļà¤µ":3247,"à¤ķà¤Ĺ":3248,"Ġà¤ĵà¤¢":3249,"à¤®à¤²à¤ķ":3250,"):":3251,"Ġà¤Ńà¤¡":3252,"Ġà¤²à¤°":3253,"à¥ģâĢľ":3254,"Ġà¤®à¤ĸ":3255,"Ġà¤²à¤Ń":3256,"à¤ĩà¤²à¤Ł":3257,"Ġà¤®à¤¤à¤Ń":3258,"Ġà¤Ĩà¤¡à¤®":3259,"à¤īà¤ªà¤°":3260,"Ġà¤ªà¤°à¤¨":3261,"à¤¡à¤²à¤Ĺ":3262,"à¤ĩà¤°à¤¸":3263,"à¤®à¤ĸ":3264,"à¤ľà¤Ńà¤£":3265,"à¤Łà¤¨à¤Ĺà¤°à¤ķ":3266,"Ġà¤Łà¤¸":3267,"à¥Ģ(":3268,"Ġà¤ıà¤ķà¤ªà¤Ľ":3269,"Ġk":3270,"à¤ŀà¤¤":3271,"à¤ĸà¤¨à¤ķ":3272,"à¥įà¥ĩ":3273,"Ġà¤¬à¤¬":3274,"Ġà¤«à¤²à¤¸":3275,"Ġà¤¨à¤®à¤¸":3276,"ĠAnd":3277,"à¤¤à¤¹à¤Łà¤ķ":3278,"à¤¥à¤¨à¤®":3279,"à¤Ľà¤°":3280,"Ġà¤Ĺà¤¡à¤¬à¤¢":3281,"à¤Ńà¤ķà¤°":3282,"à¤ļà¤ª":3283,"à¤Ńà¤Ł":3284,"Ġà¤¦à¤°à¤Ń":3285,"à¥¨à¥¦à¥Ńà¥¨":3286,"à¤Ĺà¤®à¤¨à¤®":3287,"à¤¡à¤Ń":3288,"ĠRe":3289,"à¤Ĩà¤ĩà¤ľ":3290,"à¤¾\"":3291,"à¥ĭâĢĻ,":3292,"à¤¤à¤µà¤Ł":3293,"à¥¨à¥¦à¥«":3294,"à¤¥à¤²à¤¹à¤°":3295,"à¤°à¤ľà¤¸":3296,"à¤µà¤¤à¤®":3297,"à¥ī":3298,"à¤·à¤£à¤¹à¤°":3299,"à¤°à¤®à¤§":3300,"à¥ĩ/":3301,"à¤ıà¤Īà¤ķ":3302,"Ġà¤Ľà¤ª":3303,"ction":3304,"Ġà¤ħà¤ªà¤µ":3305,"Ġà¥¦à¥ª":3306,"à¤ıà¤«à¤¸":3307,"à¤·à¤§à¤°":3308,"à¤Łà¤°à¤ª":3309,"Ġà¤ĵà¤¬":3310,"Ġà¤¤à¤²à¤ķ":3311,"Ġà¤Łà¤¹à¤°":3312,"à¤®à¤¤à¤²":3313,"à¤§à¤¨à¤¹à¤°":3314,"à¤Ĺà¤¬à¤¨":3315,"à¤ªà¤²à¤ķ":3316,"à¥¨à¥¦à¥¨":3317,"ant":3318,"end":3319,"iv":3320,"Ġà¥¨à¥¦à¥¦à¥¬":3321,"Ġà¤Ĩà¤ĩà¤ıà¤ķ":3322,"à¤°à¤ķà¤°à¤£":3323,"à¤ĸà¤°à¤®":3324,"ont":3325,"à¤¨à¤Ĺà¤°à¤²":3326,"à¥©à¥§":3327,"à¤Īà¤ĵ":3328,"Ġà¤ĵà¤¹":3329,"Ġ15":3330,"Ġà¤ľà¤¨à¤¨":3331,"à¤²à¤ªà¤Ľ":3332,"à¤ĩà¤Ļ":3333,"à¤ķà¤°à¤®":3334,"Ġà¤īà¤·":3335,"Ġà¤ªà¤¹à¤°":3336,"à¤ļà¤¥à¤°à¤ķ":3337,"ug":3338,"à¤Ĩà¤Īà¤¸":3339,"ÐµÐ":3340,"à¤ªà¤°à¤µ":3341,"à¤ĸà¤ķà¤ķ":3342,"à¤®à¤«":3343,"Ġà¤ħà¤¸à¤«à¤²à¤¤":3344,"à¤Ńà¤ļ":3345,"à¤·à¤¤à¤°":3346,"à¤µà¤²à¤ķ":3347,"à¤īà¤ł":3348,"à¤°à¤ĺ":3349,"à¤ľà¤¨à¤¬":3350,"Ġà¤ıà¤ķà¤ªà¤²":3351,"Ġà¤¸à¤¡à¤ķà¤²":3352,"à¥¨à¥¦à¥§à¥®":3353,"Ġà¥¨à¥¦à¥«à¥©":3354,"ĠFacebook":3355,"à¤¿âĢ¦":3356,"Ġà¤¸à¤°à¤¦":3357,"ury":3358,"Ã¬":3359,"à¤°à¤ķà¤®":3360,"à¤«à¤¸":3361,"à¤ķà¤°à¤£à¤¬":3362,"à¤¤à¤¨à¤®":3363,"Ġà¤ľà¤¨à¤¹":3364,"Ġà¤Ĺà¤¥":3365,"Ġà¤Ĺà¤ĩà¤¸à¤ķ":3366,"à¤īà¤ªà¤¤":3367,"Ġà¤¨à¤Ĺà¤°à¤¸à¤Ń":3368,"à¤ıà¤¶":3369,"à¤Ĥà¥Ī":3370,"Ġà¥¦à¥Ńà¥¨":3371,"à¤¸à¤Ĺ":3372,"à¥©à¥«":3373,"à¤¤à¤¥":3374,"à¤¯à¤®à¤¶":3375,"à¥į:":3376,"Ġà¤®à¤¨à¤¨":3377,"Ġà¤¨à¤°à¤¹à¤¨":3378,"à¤Ńà¤ªà¤¤à¤¨":3379,"à¤¯à¤²à¤¯":3380,"à¥ĪâĢĵ":3381,"à¤ļà¤¹à¤°":3382,"à¥ĤâĢĻ":3383,"Ġà¤Ńà¤ıà¤¨à¤¨":3384,"à¤°à¤¬à¤¦":3385,"Ġst":3386,"à¤ħà¤µ":3387,"Ġà¤Ŀà¤²à¤¨":3388,"Ġà¤Ŀà¤Ł":3389,"Ġà¤Ĩà¤Īà¤°à¤¹":3390,"à¤¤à¤µà¤¨à¤²":3391,"np":3392,"à¤°à¤®à¤ľ":3393,"Ġà¤ľà¤ª":3394,"à¥ĩà¤¾":3395,"Ġà¤¶à¤®à¤¶":3396,"à¤¡à¤¸à¤®":3397,"ast":3398,"à¤ıà¤®à¤ıà¤¸":3399,"à¤ķà¤°à¤¹à¤°":3400,"Ġà¤Ĩà¤£à¤µ":3401,"Ġà¤¨à¤Ńà¤ĩ":3402,"ĠÐ¿":3403,"à¤ıà¤ľà¤¸":3404,"vi":3405,"Ġà¤ıà¤¬":3406,"à¤ıà¤¤à¤ķ":3407,"à¤²à¤Ĺà¤¢":3408,"à¤¨à¤µà¤¤":3409,"arm":3410,"à¥Ģ:":3411,"à¤Ńà¤µà¤¬":3412,"age":3413,"à¤ľà¤¨à¤¶":3414,"à¤Ĺà¤¦à¤°":3415,"Ġà¤Ĩà¤µà¤¸":3416,"Ġà¤®à¤Ł":3417,"Ġà¤ħà¤µà¤¤":3418,"à¤®à¤Ļ":3419,"à¤²à¤Ĺà¤ķ":3420,"Ġ..":3421,"Ġà¤¹à¤ķà¤ķ":3422,"Ġà¤Ńà¤°à¤ª":3423,"à¤ĸà¤¨à¤®":3424,"à¤¸à¤®à¤¯":3425,"à¤®à¤¥":3426,"Ġà¤ıà¤ķà¤°":3427,"à¤ıà¤¸à¤ķ":3428,"ĠMore":3429,"Ġà¤§à¤®à¤²":3430,"ong":3431,"à¤ķà¤°à¤¬":3432,"à¤¡à¤¡":3433,"à¤¶à¤®à¤¶":3434,"Ġà¤Ľà¤łà¤ķ":3435,"Ġà¤Ĩà¤ĩà¤²":3436,"Ġà¤ıà¤ĺ":3437,"Ġà¤Ĩà¤²à¤®":3438,"Ġà¤°à¤£à¤µ":3439,"roid":3440,"Ġà¤ªà¤µà¤¨":3441,"à¤¯à¤ªà¤¶":3442,"à¤¤à¤°à¤¹":3443,"à¤ĩà¤Łà¤ķ":3444,"à¤²à¤ĸà¤£":3445,"ĠÂ¥":3446,"Ġ!!!":3447,"Ġà¤¦à¤²à¤¬":3448,"Ġà¤¸à¤¦à¤¨à¤®":3449,"Ġà¤ıà¤ªà¤¬":3450,"ÑģÑĤ":3451,"à¤¹à¤¯":3452,"à¤¯à¤¡":3453,"âĢĭ":3454,"à¤¯à¤ļ":3455,"Ġà¤Ĩà¤ĩà¤ªà¤°":3456,"ĠAndroid":3457,"Ġà¤Ĺà¤¸":3458,"Ġà¤°à¤¨à¤°":3459,"à¤ļà¤µà¤Ł":3460,"Ġ14":3461,"à¤°à¤ķà¤ķ":3462,"ord":3463,"Ġà¤®à¤®à¤¤":3464,"à¤Ńà¤¬":3465,"Ġà¤ªà¤¦à¤¹à¤°":3466,"à¤¯à¤¸à¤¤à¤°":3467,"ational":3468,"à¤Łà¤°à¤Ł":3469,"à¤ģâĢĵ":3470,"Ġà¤°à¤Ĺà¤¤à¤ķ":3471,"Ġà¤¸à¤®à¤¤":3472,"Ġà¤Ŀà¤®":3473,"Ġpro":3474,"ÑĮ":3475,"à¤Łà¤¨à¤²":3476,"Ġà¤®à¤¤à¤ķ":3477,"red":3478,"art":3479,"Ġch":3480,"Ġà¥§à¥¯à¥ª":3481,"Ġde":3482,"à¤ļà¤Ĺ":3483,"à¤ıà¤®à¤¬":3484,"uryakhabar":3485,"Ġà¤ĵà¤Ľ":3486,"à¤ıà¤«à¤ª":3487,"Â»":3488,"Ġà¤Ķà¤ľ":3489,"ite":3490,"Ġà¤ļà¤¹":3491,"Ġà¤ľà¤Ĺà¤¦":3492,"à¤²à¤ľà¤¸":3493,"à¤¹à¤°à¤²":3494,"Ġà¤ĩà¤ª":3495,"if":3496,"à¤²à¤µà¤ķ":3497,"à¤¤à¤ľà¤¸":3498,"à¤¹à¤°à¤ķ":3499,"à¤²à¤«":3500,"à¤µà¤®à¤¨":3501,"Ġ16":3502,"Ġ#":3503,"à¤Ĺà¤¬à¤ľ":3504,"à¤Īà¤¸à¤ķ":3505,"ï¿½...":3506,"à¥ĩ'":3507,"Ġà¤¸à¤ľà¤Ĺ":3508,"à¤°à¤®à¤ħà¤¨":3509,"Ġà¤Īà¤¤":3510,"à¤µà¤°à¤£à¤²":3511,"à¤ľà¤¨à¤Ńà¤¨":3512,"Ġis":3513,"à¤Łà¤ķà¤®":3514,"à¤¨à¤Ł":3515,"Ġà¤ıà¤Ń":3516,"Ġà¤ħà¤ĸà¤¬":3517,"ĠSt":3518,"Ġà¤ĩà¤®à¤°":3519,"à¤ľà¤¸à¤²":3520,"à¤īà¤¸à¤²":3521,"à¤¸à¤¨à¤¬":3522,"bout":3523,"fo":3524,"Ġà¤°à¤¨à¤²":3525,"à¤¯à¤²à¤®":3526,"à¤¯à¤¸à¤ļ":3527,"à¤¨à¤¨à¤Ĺà¤°":3528,"à¤°à¤µà¤¹à¤¨":3529,"à¤Ńà¤°à¤ķ":3530,"ĠTwitter":3531,"Ġà¤¦à¤°à¤ķ":3532,"à¤Ĥà¤Ĥ":3533,"à¤²à¤£":3534,"à¤Ļà¤ľ":3535,"à¥¨à¥¦à¥ª":3536,"Ġà¤¯à¤¸à¤µà¤°":3537,"Ġà¤µà¤¨à¤®":3538,"Ġà¤¦à¤°à¤µ":3539,"Ġà¤¦à¤°à¤°":3540,"Ġà¤ļà¤®à¤¤":3541,"Ġà¥§à¥¬à¥«":3542,"Ġà¤¡à¤¬à¤²":3543,"Ġà¤®à¤¹à¤¨":3544,"à¤Ĩà¤°à¤ı":3545,"ht":3546,"à¤Ľà¤µ":3547,"Ġà¤¯à¤¶":3548,"à¤īà¤¸à¤ķ":3549,"ĠNovember":3550,"à¤Ĺà¤«":3551,"Ġà¤¦à¤¶à¤ķà¤Ńà¤¨":3552,"Ġà¤Ŀà¤¡à¤ª":3553,"à¥Īà¤Ĥ,":3554,"15":3555,"Ġà¤Ĩà¤ļà¤°à¤£":3556,"ãĥ":3557,"à¤Ļà¤µ":3558,"ĠâĢĺâĢĺ":3559,"Ġà¤¸à¤¯à¤ķ":3560,"à¤ħà¤Ŀ":3561,"à¤²à¤°à¤ķ":3562,"Ġà¤ķà¤¹à¤²":3563,"à¥©à¥©":3564,"à¤Łà¤ļ":3565,"à¤ĩà¤Łà¤²":3566,"à¤¸à¤¦à¤¬":3567,"à¤°à¤Ĩà¤®":3568,"Ġ--":3569,"od":3570,"à¤¨à¤¤à¤°":3571,"à¤¯à¤¸à¤ª":3572,"à¤¸à¤®à¤¸":3573,"à¥įà¥¤âĢĻ":3574,"à¤Łà¤°à¤¸à¤®":3575,"ĠTV":3576,"à¤µà¤¸à¤¹":3577,"à¤¦à¤ķà¤¤":3578,"à¤ħà¤Ļ":3579,"à¤¹à¤Ļà¤ķ":3580,"à¤Ńà¤µà¤²":3581,"à¤łà¤¸":3582,"Ġ24":3583,"Ġà¥¦à¥Ńà¥«":3584,"à¤Ĩà¤ķ":3585,"Ġà¥ªà¥¦à¥¦":3586,"à¤ķà¤¸à¤¹":3587,"à¥į.":3588,"rsquo":3589,"à¤°à¤ĸà¤°":3590,"ash":3591,"own":3592,"à¤¸à¤°à¤²":3593,"à¤¸à¤¹à¤ķ":3594,"Ġà¤¤à¤°à¤Ļ":3595,"Suryakhabar":3596,"à¤Ĩà¤ĩà¤¸":3597,")à¥¤":3598,"Home":3599,"à¤µà¤²à¤¨":3600,"Ġà¥¨à¥¦à¥«à¥®":3601,"à¤ıà¤²à¤Ĺà¤¤":3602,"atha":3603,"Ġà¤īà¤ªà¤ķà¤°à¤£à¤¹à¤°":3604,"Ġà¤ħà¤²à¤®à¤²":3605,"à¤¦à¤¹":3606,"à¤·à¤¦à¤²":3607,"Ġà¤ħà¤ľà¤¯":3608,"Ġà¥¨à¥¦à¥¬à¥Ń":3609,"à¥©à¥¨":3610,"Ġà¤ĭà¤£à¤ķ":3611,"up":3612,"à¤®à¤ķà¤°":3613,"à¤ģà¥Ī":3614,"à¤¸à¤ľ":3615,"à¤¡à¤°à¤ķ":3616,"Ġà¤¤à¤µà¤°à¤²":3617,"Ġà¤ľà¤Ĺà¤¤à¤®":3618,"à¥ĩà¥ĩ":3619,"Ġà¤ĺà¤¨à¤¶":3620,"à¤¤à¤¹à¤¤à¤®":3621,"à¤¤à¤°à¤¸à¤®":3622,"à¥Ńà¥¨":3623,"à¤Ńà¤°à¤ª":3624,"ans":3625,"à¤«à¤¨":3626,"ud":3627,"Ġà¤ħà¤¢":3628,"à¥ĩÂ«":3629,"à¤²à¤µà¤²":3630,"à¤ĩà¤Ĺ":3631,"à¤ĵà¤®":3632,"à¥į?":3633,"Ġà¤¯à¤®à¤ª":3634,"Ġà¤Ĺà¤¤à¤µà¤°":3635,"à¥©à¥ª":3636,"Ġà¤¸à¤®à¤ķà¤ķ":3637,"à¤¡à¤ķà¤ª":3638,"à¤ļà¤¨à¤ªà¤Ľ":3639,"à¤¨à¤µà¤ķ":3640,"à¥§à¥¯à¥§à¥®":3641,"à¤ĩà¤ªà¤²":3642,"Ġà¤¸à¤¡à¤ķà¤¬":3643,"à¤°à¤¸à¤²":3644,"Ġà¤īà¤ªà¤§":3645,"à¤¸à¤«à¤°":3646,"à¤¯à¤Ńà¤¨":3647,"Ġà¤ħà¤®à¤²":3648,"à¤Ĭà¤¨":3649,"à¥«à¥§":3650,"à¤ļà¤¨à¤¬":3651,"ea":3652,"Ġà¤¨à¤ľà¤°à¤®":3653,"Ġà¤ķà¤°à¤¦":3654,"à¥§à¥¯à¥§à¥«":3655,"à¥ĭà¤ģ":3656,"........":3657,"à¤¯à¤¨à¤¹à¤°":3658,"à¤¯à¤²à¤²":3659,"gle":3660,"à¤¯à¤¸à¤µ":3661,"Ġà¥¨à¥¦à¥¬à¥¬":3662,"Ġà¤¯à¤¸à¤ªà¤Ľ":3663,"à¤ªà¤°à¤Ń":3664,"ies":3665,"all":3666,"à¤µà¤ĺ":3667,"à¤µà¤°à¤¸":3668,"ex":3669,"à¤¨à¤Ĺà¤°à¤®":3670,"Ġà¤īà¤ªà¤²":3671,"Ġà¤Ńà¤ĩà¤¦":3672,"Ġhttps":3673,"Ġà¤ħà¤¶à¤ķ":3674,"48":3675,"à¤µà¤°à¤¹à¤°":3676,"co":3677,"à¤¡à¤¹":3678,"à¤ĩà¤Ńà¤°":3679,"à¥Įà¤ĤâĢĻ":3680,"Ġà¤¹à¤ķà¤¹":3681,"Ġà¤°à¤¥":3682,"Ġà¤īà¤ªà¤ľ":3683,"à¤¯à¤°à¤¹à¤°":3684,"à¤ĩà¤¨à¤°":3685,"à¤¯à¤¦à¤²à¤ķ":3686,"à¤ĩà¤ıà¤ªà¤Ľ":3687,"à¤Łà¤²à¤¹à¤°":3688,"Ġà¤¬à¤¹à¤¨":3689,"ie":3690,"load":3691,"Ġà¤²à¤ļ":3692,"ress":3693,"Ġà¤¥à¤ªà¤²":3694,"aj":3695,"mà¤²":3696,"à¤¬à¤Īà¤®":3697,"à¤łà¤¤":3698,"à¤ľà¤ķà¤¹à¤°":3699,"Ġà¤ĸà¤ľ":3700,"à¤ķà¤ªà¤¡":3701,"news":3702,"oogle":3703,"ue":3704,"à¤łà¤¹à¤°":3705,"à¤°à¤¬à¤²":3706,"à¤·à¤£à¤¬":3707,"à¤¨à¤¢":3708,"Ġà¤®à¤¹Ã¬":3709,"à¤īà¤¸à¤®":3710,"à¤¦à¤¯à¤ĺ":3711,"Ġà¤ĸà¤¬à¤°à¤²":3712,"Ð²":3713,"Ġà¤Ĩà¤µà¤§":3714,"à¤¨à¤¬à¤®":3715,"à¤ļà¤¦":3716,"à¤¬à¤¬":3717,"à¤¦à¤¦à¤°":3718,"à¤²à¤¨à¤°à¤¤":3719,"Ġà¥§à¥¯à¥®à¥¯":3720,"à¤¦à¤¶à¤®":3721,"Ġà¤Ĩà¤ĩà¤ľ":3722,"à¤ķà¤Łà¤²":3723,"à¤¥à¤ķà¤¤":3724,"à¤ıà¤Īà¤®":3725,"Ġà¤Ĩà¤¬à¤¸":3726,"Ġà¤Ĩà¤ĩà¤¡à¤²":3727,"à¤¸à¤µà¤°":3728,"à¤¨à¤§":3729,"Ġà¤°à¤ķà¤®à¤²":3730,"Ġà¤ķà¤Ńà¤°":3731,"à¤·à¤ľà¤¨à¤ķ":3732,"à¤®à¤¨à¤ķ":3733,"Ġà¤¯à¤®à¤ªà¤ŀ":3734,"Ġà¤ĸà¤¡à¤ķ":3735,"à¤Ĺà¤łà¤¨à¤®":3736,"ĠĠ":3737,"Ġà¤¯à¤®à¤°":3738,"Ġà¥¨à¥¦à¥«à¥¦":3739,"Ġà¤Ĺà¤¡":3740,"Ġà¤Ĩà¤Ĺà¤¨":3741,"Ġà¤īà¤ªà¤¦à¤«":3742,"Ġà¥¨à¥¦à¥¦à¥ª":3743,"ric":3744,"à¤ħà¤ĸ":3745,"à¤¬à¤°à¤²":3746,"à¤ļà¤°à¤£":3747,"Ġà¤¬à¤ļà¤¨":3748,"ĠCh":3749,"à¤¬à¤²à¤®":3750,"à¥®à¥®":3751,"Ġà¤ľà¤²à¤®":3752,"Ġà¤ķà¤ªà¤ķ":3753,"Ġà¤Ĩà¤īà¤Ľ":3754,"Ġà¤ľà¤¬à¤¸à¤®":3755,"à¤¯à¤Ĺ":3756,"à¤¯à¤£à¤¹":3757,"Ġà¤«à¤£":3758,"Ġà¤Łà¤®":3759,"à¤ªà¤°à¤¸":3760,"Ġà¤¸à¤¹à¤ª":3761,"à¤°à¤¸à¤¸":3762,"??":3763,"Ġà¤īà¤¦à¤ĺ":3764,"Ġà¥¨à¥¦à¥ªà¥®":3765,"à¤ıà¤¸à¤¬":3766,"à¤¦à¤ķà¤¹à¤°":3767,"Ġà¤ħà¤ªà¤¹à¤°à¤£à¤ķ":3768,"Ġà¤ĵà¤¡":3769,"ard":3770,"à¤ļà¤°à¤²":3771,"000":3772,"à¤¨à¤ľà¤¸":3773,"à¤¯à¤¤à¤¬":3774,"Ġà¤¯à¤¸à¤¸":3775,"à¤®à¤¸à¤¤":3776,"à¤ķà¤²à¤ķ":3777,"âĨ":3778,"Ġà¤ıà¤¸à¤Ī":3779,"Ġ17":3780,"à¤¯à¤¸à¤¯à¤¤":3781,",'":3782,"à¤ªà¤²à¤²":3783,"à¤ľà¤ķà¤®":3784,"Ġà¤¬à¤ĸ":3785,"Ġà¤¶à¤¹à¤°à¤¹à¤°":3786,"ah":3787,"à¤¦à¤ķà¤ķ":3788,"Ġà¤§à¤¨à¤°":3789,"à¤µà¤¯à¤ķ":3790,"13":3791,"à¤§à¤°à¤ķ":3792,"à¤²à¤¤à¤°":3793,"à¤µà¤¨à¤¯":3794,"Ġ+":3795,"à¤µà¤¸à¤¬":3796,"à¤Īà¤«":3797,"à¤¯à¤ľà¤¸":3798,"à¤°à¤¹à¤²":3799,"à¤ķà¤®à¤ľ":3800,"Ġà¤ħà¤¹à¤®":3801,"à¤¨à¤µà¤²à¤ªà¤°":3802,"Ġà¤¤à¤¦à¤°":3803,"Ġà¤ıà¤«à¤ı":3804,"Ġà¤¨à¤µà¤²à¤ª":3805,"Ġà¤¨à¤µà¤ľ":3806,"ĠAn":3807,"à¤īà¤ĸ":3808,"Ġà¤ĩà¤·":3809,"à¤¹à¤¤à¤ķ":3810,"à¤¥à¤²à¤²":3811,"à¤Ńà¤µà¤ķ":3812,"Ġà¤Ĳà¤°":3813,"ham":3814,"à¤Īà¤ĺ":3815,"à¤Ńà¤µà¤¨":3816,"à¤Ĩà¤¦à¤°":3817,"Ġà¤²à¤ĸà¤¨":3818,"à¤¦à¤ķà¤²":3819,"ĠComments":3820,"à¤ªà¤¸à¤²":3821,"Ġà¤¬à¤²à¤ķ":3822,"Ġà¤¬à¤¹à¤°":3823,"Ġà¥§à¥¯à¥«à¥¦":3824,"à¤Īà¤¸à¤®":3825,"Ġà¤¡à¤¨":3826,"Ġà¤Ĩà¤ĩà¤ıà¤®à¤Ī":3827,"à¤Łà¤ªà¤Ľ":3828,"à¤µà¤Ńà¤°à¤ķ":3829,"à¤ķà¤¨à¤®":3830,"à¥Ģà¤ĥ":3831,"à¤¹à¤²à¤ªà¤¹à¤²":3832,"Ġà¥§à¥¯à¥¯à¥®":3833,"à¤ľà¤¸à¤ķ":3834,"à¤¬à¤§":3835,"à¤®à¤ķà¤¥":3836,"à¤ıà¤²à¤ķ":3837,"à¤°à¤µà¤²":3838,"à¤ľà¤¨à¤¸":3839,"à¤ľà¤®à¤£":3840,"à¤¡à¤°à¤®":3841,"Ġà¤ļà¤¹à¤²à¤ªà¤¹à¤²":3842,"pan":3843,"Ġà¥§à¥Ńà¥©":3844,"à¤µà¤¤à¤²":3845,"du":3846,"à¥ģ,âĢĻ":3847,"à¤¤à¤ªà¤¤":3848,"Ġà¥¨à¥¦à¥¦à¥¦":3849,"à¤¸à¤¸à¤¹":3850,"à¤¢à¤¤":3851,"Ġà¤¹à¤Ļà¤ķà¤Ļà¤²":3852,"Ġà¤¦à¤¶à¤°à¤¥":3853,"Ġ199":3854,"Ġà¤²à¤¬":3855,"à¤ķà¤®à¤°":3856,"à¤°à¤ļà¤²à¤¨à¤®":3857,"24":3858,"à¤¯à¤µà¤°":3859,"à¤°à¤¤à¤µ":3860,"à¥Įà¤Ĥ:":3861,"Ġ30":3862,"âĢį.":3863,"à¤¦à¤®à¤ķ":3864,"Ġà¤¤à¤Łà¤¬à¤¨":3865,"Ġà¤ıà¤¸à¤ıà¤®à¤ıà¤¸":3866,"agarm":3867,"à¤ħà¤¨à¤²":3868,"Ġbe":3869,"à¥ĪâĢĻ":3870,"à¥Ĥ)":3871,"Ġà¤¨à¤Ĺà¤°à¤µ":3872,"Ġà¤Ĩà¤ĩà¤¡":3873,"à¤¸à¤¶à¤¸":3874,"Ġà¤Ńà¤¯à¤ķ":3875,"à¤¤à¤¨à¤ªà¤Ľ":3876,"à¤ĸà¤¡":3877,"agarmatha":3878,"à¤¸à¤°à¤¸":3879,"Ġà¤¸à¤¡à¤ķà¤¹à¤°":3880,"âĢĮà¤Ĥ":3881,"à¤²à¤Ńà¤°":3882,"à¤ŀà¤²":3883,"à¤¤à¤ľà¤¨à¤¹à¤°":3884,"à¤®à¤Ĺà¤°à¤²":3885,"Ġà¤®à¤¨à¤¹à¤°":3886,"Ġà¤Īà¤ļ":3887,"à¤ıà¤¬":3888,"OR":3889,"à¤ĩà¤ķà¤°":3890,"Ġà¤ļà¤®à¤ķ":3891,"Ġà¤īà¤¨à¤®":3892,"à¤®à¤¶à¤°à¤£":3893,"à¤®à¤ŀ":3894,"ice":3895,"à¤¯à¤£à¤ª":3896,"à¨":3897,"à¤Ĺà¤°à¤²":3898,"à¤µà¤ħà¤§":3899,"Ġà¤Ĩà¤®à¤ľà¤¨à¤¤":3900,"à¤µà¤¨à¤Ńà¤°":3901,"à¥§à¥¯à¥¯":3902,"ownload":3903,"Ġà¤ĺà¤°à¤²":3904,"Ġà¤¸à¤¦à¤°":3905,"Ã©":3906,"Ñĩ":3907,"Ġà¤¨à¤īà¤ł":3908,"à¤¬à¤ļ":3909,"ÐµÐ½":3910,"à¤ĺà¤£":3911,"Ġà¤°à¤ķà¤®à¤®":3912,"Ġà¤Ĩà¤¯à¤Ĩà¤°":3913,"Ġà¤·à¤¡à¤¯à¤¨":3914,"ith":3915,"Ġà¤¨à¤ĩ":3916,"Ġà¤ĸà¤¬à¤°à¤¦":3917,"à¤ªà¤ķà¤ķ":3918,"ill":3919,"21":3920,"à¤¤à¤Ĺ":3921,"à¤¦à¤²à¤²":3922,"à¤°à¤ļà¤¢":3923,"Ġà¤ªà¤¦à¤ª":3924,"Ġà¤ıà¤ħ":3925,"Ġà¥¨à¥¦à¥«à¥¨":3926,"ĠY":3927,"à¤²à¤¬à¤°":3928,"Ġà¤ªà¤ķà¤¡":3929,"Ġà¤Ĺà¤¡à¤¬à¤¡":3930,"à¤°à¤ħ":3931,"Ġà¤Ĩà¤ıà¤®":3932,"Ġà¤ħà¤µà¤¸à¤°à¤¹à¤°":3933,"ĠÑģ":3934,"Ġapp":3935,"à¤Ĩà¤Īà¤ª":3936,"Ġ13":3937,"Ġad":3938,"à¤¦à¤ĺ":3939,"Ġà¤ıà¤¨à¤Ĩà¤°à¤ı":3940,"à¤ĩà¤ķà¤²à¤ķ":3941,"Ġà¤¸à¤¶":3942,"Ġà¥¨à¥¦à¥¦à¥«":3943,"à¥Įà¤Ĥà¥¤âĢĻ":3944,"à¤ħà¤²à¤Ĺ":3945,"Ġà¤¸à¤¤à¤¹à¤¬":3946,"à¤ľà¤¦à¤°à¤®":3947,"28":3948,"ĠOn":3949,"Ġà¤łà¤Ł":3950,"Ġà¤¸à¤°à¤¦à¤°":3951,"à¤·à¤µ":3952,"Ġà¤¦à¤²à¤®":3953,"Ġà¥¨à¥«à¥¦":3954,"Ġà¤¸à¤¤à¤¹à¤®":3955,"à¤Īà¤ļ":3956,"Ġ*":3957,"Ġà¤ħà¤¬à¤°":3958,"à¥Ńà¥¦":3959,"à¤Ĺà¤¯":3960,"à¤Łà¤Ń":3961,"Ġpost":3962,"à¤¯à¤¸à¤Ńà¤¨":3963,"Ġà¤ľà¤¯à¤ª":3964,"à¤¹à¤ľà¤¨à¤ķ":3965,"à¤ĵà¤Ł":3966,"Ġà¤ıà¤«à¤ıà¤®":3967,"Ġà¤ķà¤¸à¤°à¤¤":3968,"Ġà¤Ĩà¤ĩà¤°à¤¹à¤¨":3969,"ack":3970,"à¥©à¥¬":3971,"Ġà¤¤à¤²à¤®":3972,"Ġà¤ıà¤ķà¤¤à¤°":3973,"Ġà¤Ĩà¤¬à¤¶":3974,"à¤¦à¤¬à¤¹":3975,"à¤¹à¤¨à¤ķ":3976,"Ġà¤«à¤¤":3977,"à¤¤à¤¨à¤ª":3978,"à¤¥à¤ķà¤¹à¤°":3979,"à¤łà¤¶":3980,"à¤¡à¤°à¤²":3981,"à¤¨à¤ªà¤¤":3982,"à¤ķà¤«":3983,"Ġà¤¶à¤¤à¤ª":3984,"à¤¾à¤ģâĢĵ":3985,"à¤Ĩà¤ĩà¤ª":3986,"à¤īà¤ªà¤ª":3987,"à¤²à¤¬à¤¸":3988,"à¤ıà¤¨à¤Ĩà¤°à¤ıà¤¨à¤ı":3989,"ain":3990,"à¥ĭâĢĿ,":3991,"Ġà¤¸à¤®à¤²":3992,"à¤Ĩà¤²":3993,"Ð¾Ð²":3994,"à¥¤à¥¤":3995,"rt":3996,"Ġà¤¨à¤°à¤¸":3997,"Ġà¤¨à¤ªà¤¢":3998,"Ġà¥¦à¥§":3999,"à¤¨à¤µà¤°":4000,"à¤²à¤¨à¤ªà¤Ľ":4001,"Ġà¤°à¤£":4002,"08":4003,"Ġà¤®à¤²à¤ķ":4004,"à¤°à¤ªà¤¥":4005,"Ġà¤ļà¤²à¤¨à¤ļà¤²":4006,"lic":4007,"Ġà¤¬à¤¢à¤¨":4008,"Ġà¥§à¥§à¥¦":4009,"Ġà¤ıà¤¨à¤ľ":4010,"Ġà¤®à¤²à¤®":4011,"à¤¬à¤¤à¤ķ":4012,"à¤ļà¤ĸ":4013,"ust":4014,"ĠÐ²":4015,"nt":4016,"Ġà¤ªà¤¤à¤¨":4017,"à¤Ĩà¤ĩà¤Ń":4018,"à¤¯à¤ħà¤¨":4019,"Ġà¤¯à¤¸à¤ªà¤Łà¤ķà¤ķ":4020,"à¤ķà¤£":4021,"à¤ıà¤Ľà¤¨":4022,"Ġà¤łà¤¡":4023,"à¤ªà¤°à¤²":4024,"Ġà¤®à¤¦à¤¤":4025,"à¥«à¥«":4026,"Ġà¤Ńà¤ıà¤¦":4027,"à¤Ŀà¤£":4028,"Ġà¤īà¤«":4029,"Ġà¤¬à¤²à¤²":4030,"à¤ľà¤¸à¤°":4031,"Ġà¤ħà¤µà¤Ĺà¤¤":4032,"à¤Ńà¤°à¤¤à¤ª":4033,"à¤ªà¤Łà¤ª":4034,"Ġà¤¨à¤Ĺà¤°à¤®":4035,"Ġà¤ļà¤£":4036,"à¥®à¥¦":4037,"Ġà¤Ĩà¤®à¤°à¤£":4038,"à¤°à¤®à¤¦":4039,"à¤£à¤¯à¤¬":4040,"________":4041,"Ġà¤Ŀà¤¸":4042,"Ġnews":4043,"à¤¨à¤¯à¤®":4044,"à¤¿?":4045,"à¤®à¤ķà¤°à¤£":4046,"46":4047,"Ġà¤¨à¤«":4048,"Ð¼":4049,"Ġà¤ľà¤ĺà¤¨":4050,"à¤Ĺà¤®à¤¨à¤²":4051,"Ġà¤Ĩà¤Īà¤ľ":4052,"09":4053,"à¤ªm":4054,"à¤¸à¤¸à¤ķ":4055,"Ġcom":4056,"à¥ģà¤¾":4057,"à¤Īà¤¶":4058,"à¤¸à¤®à¤¯à¤®":4059,"NepalM":4060,"Ġà¤°à¤ķà¤®à¤¬":4061,"Ġà¤Īà¤ľ":4062,"Ġà¤¬à¤¹à¤¸à¤ķ":4063,"à¤Īà¤¨à¤²":4064,"iz":4065,"Ġà¤ľà¤Ĺà¤®":4066,"à¥Ńà¥¯":4067,"Ġà¤Ĩà¤ĩà¤Ł":4068,"à¤°à¤¤à¤¤":4069,"Ġà¤®à¤¹ÅĴà¤µà¤ª":4070,"Ġà¤¿":4071,"à¤Ĺà¤ªà¤¤":4072,"à¤Ĺà¤ľà¤®":4073,"Ġà¤ıà¤Ĺ":4074,"NepalMother":4075,"Ġà¤Ĺà¤°à¤ķ":4076,"à¤·à¤¨":4077,"tern":4078,"ial":4079,"Ġà¤Ńà¤ıà¤ľà¤¸":4080,"à¤Īà¤Łà¤®":4081,"à¤Ĺà¤ľà¤ªà¤¤":4082,"Ġà¤¤à¤²à¤µ":4083,"Ġà¤ıà¤ļà¤ķ":4084,"Ġà¤¹à¤¡à¤¤":4085,"à¤¶à¤ļà¤¨":4086,"à¥ĭ|":4087,"ya":4088,"Ġà¤µà¤¯à¤¸":4089,"à¤µà¤ªà¤Ľ":4090,"Ġà¤¨à¤¹à¤Ł":4091,"à¤ľà¤¬à¤¹":4092,"à¥Ńà¥§":4093,"à¤½":4094,"Ġà¤¯à¤¸à¤¤à¤°":4095,"ĠØ":4096,"à¤µà¤¨à¤¬":4097,"à¤¿/":4098,"Ġà¤¸à¤¨à¤®":4099,"Ġà¤Ĩà¤ıà¤ªà¤¨":4100,"à¤¾âĢĻ,":4101,"ry":4102,"Ġà¤¹à¤µà¤²":4103,"Ġà¤¤à¤¦":4104,"Ġà¤°à¤Ĺà¤¤à¤®":4105,"à¤ıà¤ħà¤¨":4106,"à¤¡à¤¯":4107,"Ġà¥¨à¥¦à¥ªà¥Ń":4108,"AR":4109,"à¤ļà¤¶":4110,"à¤¹à¤²à¤®":4111,"à¥ĭ,âĢĿ":4112,"à¤ļà¤²à¤¨":4113,"Ġà¤¨à¤ķà¤Ĩà¤īà¤Ł":4114,"à¥ĭ!":4115,"Ġà¤«à¤Ł":4116,"Ġà¤¦à¤¶à¤ķà¤ķ":4117,"Ġà¤ªà¤¸à¤²à¤¹à¤°":4118,"25":4119,"Ġà¤ĸà¤ļ":4120,"à¤ªà¤°à¤°":4121,"Ġà¤Łà¤²":4122,"à¤¶à¤ķà¤®":4123,"à¤ķà¤Łà¤¤":4124,"ĠÂ«":4125,"à¤°à¤¡":4126,"à¤¤à¤°à¤Ļ":4127,"Ġà¤ľà¤¸à¤ħà¤¨":4128,"Ñħ":4129,"Ġj":4130,"Ġà¤®à¤¹à¤²":4131,"à¤ľà¤Ĺà¤ŀ":4132,"Ġà¤§à¤¨à¤¬à¤¹":4133,"à¤ļà¤ķà¤ķ":4134,"à¤Łà¤®à¤ķ":4135,"à¤ļà¤¤à¤®":4136,"Ġà¤ħà¤¨à¤Ĺ":4137,"à¥įà¥Ĥ":4138,"rom":4139,"Ġà¤ıà¤ıà¤«à¤¸":4140,"Ġà¤ĵà¤®à¤ª":4141,"ĠOff":4142,"ï¼":4143,"à¤Łà¤¸à¤²":4144,"à¤ıà¤¨à¤¸":4145,"Ġinfo":4146,"Ġà¤¸à¤¦à¤Ń":4147,"Ġà¤ħà¤¬à¤¸à¤°à¤®":4148,"Ġà¤¸à¤¹à¤ļ":4149,"à¥įà¤¾à¤¾":4150,"à¤¤à¤°à¤¸":4151,"à¤ķà¤²à¤®":4152,"Ġà¤¬à¤¢à¤¦":4153,"à¤¸à¤¹à¤Ń":4154,"ass":4155,"à¤°à¤¸à¤°à¤¤":4156,"Ġà¤ıà¤ļà¤Ĩà¤ĩà¤Ń":4157,"à¤ħà¤µà¤¸":4158,"à¤¨à¤°à¤²":4159,"à¥ĭÂ¥":4160,"à¤ıà¤®à¤¸":4161,"à¤Ĺà¤ŀ":4162,"à¤¸à¤¹à¤¯":4163,"à¤¯à¤ªà¤°":4164,"Ġà¤¦à¤®à¤ķà¤²":4165,"2018":4166,"à¤§à¤¯":4167,"à¥¯à¥®":4168,"à¥ĩ,âĢĻ":4169,"à¤Ĺà¤²à¤®à¤¯":4170,"Ġà¤ħà¤ķà¤²":4171,"Ġas":4172,"Ġà¤¨à¤Ĩà¤ī":4173,"à¤¦à¤°à¤¬":4174,"à¤²à¤ķà¤®":4175,"à¤¨à¤ľà¤¨à¤ķ":4176,"à¤ıà¤ķà¤¤":4177,"à¤¡à¤ķà¤²":4178,"Ġà¤ıà¤¬à¤®":4179,"Ġà¤Ķà¤§":4180,"Ġà¤Ĳà¤ķ":4181,"orm":4182,"Ġà¤ħà¤²à¤®":4183,"Ġà¤¹à¤ļ":4184,"à¤¥à¤Ĺà¤¨":4185,"à¤Īà¤ªà¤Łà¤ķ":4186,"Ġà¤¹à¤¨à¤¨":4187,"Ġà¤Ľà¤¦":4188,"Ġà¤ªà¤Ļ":4189,"Ġà¤¥à¤®":4190,"à¤²à¤Ńà¤¨":4191,"Ġ25":4192,"à¤ľà¤¯à¤¨":4193,"Ġà¤¸à¤®à¤µ":4194,"à¤Ĺà¤µà¤¤":4195,"Ġà¥¤)":4196,"Ġà¤ķà¤¥à¤¨":4197,"à¤¯à¤ľà¤¨à¤ķ":4198,"à¤Ĩà¤Īà¤¬":4199,"Ġà¤Ĩà¤·":4200,"Ġà¤ªà¤°à¤®à¤ª":4201,"à¤²à¤¬à¤ļ":4202,"à¤®à¤¥à¤²":4203,"Ġà¤īà¤ªà¤ķà¤°à¤£à¤ķ":4204,"à¤¤à¤¨à¤Ĺà¤°":4205,"ear":4206,"Ġà¤®à¤ĸà¤®à¤²":4207,"Ġà¥¨à¥¦à¥«à¥¯":4208,"irst":4209,"à¤ļà¤ķà¤¹à¤°":4210,"à¤ıà¤®à¤ı":4211,"à¤ļà¤°à¤ķ":4212,"Ġà¤Ĩà¤ľà¤ķà¤²":4213,"Ġà¤ıà¤ķà¤ļ":4214,"Ġà¤ķà¤łà¤ĺà¤°":4215,"est":4216,"à¤°à¤µà¤ļà¤¨":4217,"......":4218,"Ġor":4219,"à¤īà¤¹à¤°":4220,"à¤¨à¤®à¤§":4221,"Ġà¤¬à¤¸à¤²":4222,"à¤²à¤¯à¤ħà¤¨":4223,"à¤ıà¤¸à¤ľ":4224,"à¤®à¤Ŀ":4225,"Ġà¤¬à¤¹à¤¸à¤®":4226,"Ġà¤Ĺà¤£à¤¤":4227,"à¤°à¤ªà¤Ł":4228,"Ġ!âĢĻ":4229,"à¤Ŀà¤¬":4230,"à¤łà¤®à¤£":4231,"à¤Ĺà¤¹à¤¨":4232,"ĠÂ·":4233,"à¥¨à¥¦à¥¨à¥§":4234,"Ġà¤¸à¤ķà¤¸":4235,"à¤¸à¤¸à¤²":4236,"à¤µà¤¦à¤¨":4237,"à¤¦à¤°à¤®":4238,"à¤¨à¤µà¤®":4239,"icle":4240,"ä¸":4241,"à¤Ľà¤¤":4242,"à¤²à¤ĺ":4243,"à¤µà¤°à¤¤":4244,"à¤ħà¤¶":4245,"Ġà¤²à¤Ĺà¤¨à¤¶":4246,"Ġà¤¨à¤Ńà¤ıà¤ªà¤¨":4247,"Ġà¤ªà¤¹à¤²à¤ķ":4248,"à¤¶à¤²à¤¤":4249,"à¥Ī-":4250,"Ġà¤«à¤²à¤¦":4251,"Ġà¥¨à¥¦à¥¬à¥¦":4252,"Ġà¤Ĺà¤ĩà¤¨":4253,"ĠOnline":4254,"Ġà¤§à¤¨à¤®":4255,"Ġà¥¨à¥¦à¥«à¥¬":4256,"à¤¶à¤°à¤£":4257,"ĠSep":4258,"à¤ĩà¤¨à¤²à¤ķ":4259,"Ġà¤ªà¤Łà¤ķà¤¸à¤®":4260,"à¤¡à¤ħà¤¨":4261,"à¥ģâĢĿ":4262,"Ġà¤¹à¤Ĺ":4263,"ĠÐ¸":4264,"ive":4265,"à¤¬à¤¨à¤®":4266,"à¤¸à¤µà¤²":4267,"log":4268,"à¥¤\"":4269,"Ġà¤¤à¤¬à¤¸à¤®":4270,"à¤ıà¤¸à¤¨à¤ķ":4271,"Ġabout":4272,"Ġà¤ıà¤Łà¤²":4273,"Ġun":4274,"à¤¹à¤£à¤ķ":4275,"Ġ!âĢĿ":4276,"29":4277,"à¤¨à¤«":4278,"Ġà¤ªà¤Łà¤¨":4279,"à¤Ĺà¤¤à¤²":4280,"à¤¯à¤ľà¤Ĺà¤¤":4281,"ĠGoogle":4282,"05":4283,"Ġà¥¬à¥¦à¥¦":4284,"Ġà¤ħà¤°à¤¨":4285,"à¤¦à¤°à¤ķ":4286,"à¤¤à¤²à¤®":4287,"Ġà¤¸à¤¹à¤¸":4288,"Ġà¤Ľà¤¡":4289,"à¥Ģ\"":4290,"à¤ľà¤¡":4291,"Ġà¤ķà¤²à¤ķà¤¤":4292,"Ġà¤²à¤ł":4293,"Ġà¥¨à¥¦à¥¦à¥©":4294,"Ġ2016":4295,"Ġà¥¨à¥¦à¥¦à¥¨":4296,"à¤¾à¤¿":4297,"à¤¾à¥ĩà¥¤":4298,"Ġà¤°à¤«":4299,"Ġà¤Ĩà¤¯à¤°à¤²":4300,"à¤§à¤°à¤£":4301,"Ġà¤ıà¤¸à¤Īà¤Ī":4302,"à¥įâĢĿ":4303,"Ġà¤Ĺà¤ľà¤²à¤®":4304,"arth":4305,"à¤ķà¤ľà¤¸":4306,"à¤¯à¤¤à¤°":4307,"Ġà¤°à¤ľà¤¨":4308,"à¤Ĺà¤®à¤ŀ":4309,"Ġà¤¦à¤²à¤¸":4310,"Ġà¤ıà¤¨à¤ª":4311,"Ġà¤ķà¤°à¤¬":4312,"ĠNepali":4313,"à¥ĭâĢĶ":4314,"à¤µà¤ªà¤¶":4315,"à¥ĩâĢĿ":4316,"à¤µà¤¸à¤¤":4317,"à¤¸à¤°à¤¬":4318,"à¤µà¤¦à¤²":4319,"à¤Ĺà¤¨à¤ķ":4320,"à¥ĩâĢĵâĢĺ":4321,"à¤°à¤¸à¤ĺ":4322,"ach":4323,"à¥Ĥà¥¤":4324,"Ġà¤ªà¤¦à¤¸":4325,"Ġà¤Ľà¤Ł":4326,"Ġà¤®à¤¤à¤ª":4327,"à¤£à¤Ĺ":4328,"ib":4329,"à¤²à¤ħà¤¨":4330,"à¤Ĺà¤¤à¤°":4331,"Ġà¤¨à¤Ńà¤ıà¤®":4332,"à¤ķà¤Łà¤¤à¤®":4333,"à¤ĸà¤ķà¤¹à¤°":4334,"ide":4335,"Ġà¤Īà¤ķ":4336,"à¥ĭà¤ĥ":4337,"à¤¤à¤ľà¤¨à¤ķ":4338,"à¥©à¥®":4339,"à¤§à¤¨à¤Ĺà¤°":4340,"Ġà¤ķà¤°à¤®":4341,"à¤¡à¤ľ":4342,"eric":4343,"Ġà¤µà¤§":4344,"81":4345,"Ġ>>":4346,"à¤Łà¤¬à¤¨":4347,"à¤Ńà¤ı":4348,"à¤īà¤ªà¤¯":4349,"à¤ıà¤ļà¤¡":4350,"à¤·à¤¦à¤®":4351,"à¤°à¤¬à¤¦à¤²":4352,"Ġà¤ħà¤ªà¤Ń":4353,"Ġà¥¤âĢ¦":4354,"à¤īà¤¨à¤¦":4355,"à¤¤à¤¨à¤¹à¤°":4356,"à¤¸à¤¦à¤¸":4357,"Ġà¥¤,":4358,"Ġà¤²à¤µ":4359,"**":4360,"Ġà¤¸à¤ķà¤°":4361,"Ġà¤Ĩà¤īà¤ľ":4362,"à¤¸à¤¶":4363,"à¥«à¥¬":4364,"Ġà¤¡à¤²à¤°à¤®":4365,"Ġà¤ĵà¤ĩà¤°":4366,"à¥ĭ.....":4367,"à¥Ī)":4368,"Ġà¤ªà¤°à¤¶":4369,"à¤Ĩà¤°à¤ķ":4370,"Ġà¤ħà¤¸à¤¹à¤¯":4371,"Ġà¤¬à¤ľà¤Ĺ":4372,"Ġà¤¯à¤°":4373,"Ġà¥¨à¥¦à¥¬à¥§":4374,"Ġà¤¹à¤Ļ":4375,"à¤¾!":4376,"Ġà¤ľà¤®à¤ĺà¤Ł":4377,"Ġà¤¸à¤ĺà¤¨":4378,"Ġà¤Ĩà¤¶à¤Ļ":4379,"Ġà¤ķà¤Ļ":4380,"Ġà¤ĺà¤°à¤§à¤¨":4381,"à¤²à¤¯à¤¦":4382,"ER":4383,"à¤Ĺà¤²à¤¸":4384,"à¤¾Ã·":4385,"ĠÐ½":4386,"à¥©à¥¯":4387,"à¤īà¤¦à¤¯à¤ª":4388,"ish":4389,"Ġà¤Ļ":4390,"à¤¨à¤°à¤ķ":4391,"Ġ207":4392,"Ġyou":4393,"à¤®à¤¦à¤¨":4394,"Ġà¤ªà¤°à¤¸":4395,"ĠDownload":4396,"ung":4397,"pr":4398,"Ġà¤Ĩà¤¯à¤ķ":4399,"Ġà¤ħà¤ªà¤¹à¤°":4400,"Ġà¤ķà¤²à¤°":4401,"Ð´":4402,"à¤Łà¤¡":4403,"Ġà¤ļà¤ķà¤²":4404,"à¤¶à¤¨à¤ªà¤Ľ":4405,"à¤¸à¤ªà¤Ľ":4406,"à¤ıà¤¨à¤ľ":4407,"Ġà¥§à¥¦à¥§":4408,"à¤Ĩà¤Īà¤ıà¤ļ":4409,"à¤®à¤Ĺà¤ł":4410,"ath":4411,"Ġ=":4412,"à¤ĵà¤°":4413,"Ġà¤Ńà¤µà¤¨à¤¹à¤°":4414,"---":4415,"Ġà¤°à¤Ļà¤ķ":4416,"à¤īà¤¤à¤ķ":4417,"Ġà¤¦à¤¶à¤ķà¤ħà¤ĺ":4418,"Ġfirst":4419,"à¤²à¤°à¤®":4420,"Ġà¤ķà¤¶":4421,"à¤¯à¤¸à¤¸":4422,"Ġà¤ĸà¤¶":4423,"à¤¯à¤µà¤¶":4424,"Ġà¤®à¤ł":4425,"Ġà¤®à¤¦à¤°":4426,"Ġà¤µà¤°à¤¦":4427,"à¤Ĺà¤¤à¤¦":4428,"à¤ªà¤ķà¤¹à¤°":4429,"Ġ206":4430,"gov":4431,"23":4432,"Ġà¤ľà¤«à¤¤":4433,"à¤łà¤Ĺ":4434,"à¤¥à¤ķà¤°":4435,"Ġà¤¸à¤®à¤¯à¤ħà¤¨":4436,"Ġà¤¨à¤Ļ":4437,"à¤°à¤µà¤£":4438,"Â·":4439,"à¤¨à¤ķà¤²":4440,"à¤Ńà¤ħà¤Ļ":4441,"Ġà¤ĺà¤Łà¤¸":4442,"Ġà¤Ĺà¤°à¤Ĺà¤¹à¤¨":4443,"ĠPl":4444,"à¤¿'":4445,"à¤·à¤¯à¤°":4446,"à¤¯à¤¤à¤ª":4447,"à¤®à¤¸à¤®à¤°":4448,"à¤¤à¤¤à¤°":4449,"à¤Ńà¤µà¤¹à¤°":4450,"à¤®à¤¤à¤¦":4451,"Ġà¤Ńà¤ŀ":4452,"à¤ħà¤Ľ":4453,"Ġà¤ķà¤®à¤¸":4454,"à¤Ļà¤²à¤Ĺ":4455,"à¤¯à¤®à¤¨à¤ķ":4456,"Ġà¤Ĺà¤Īà¤°à¤¹":4457,"Ġà¤¦à¤¯à¤¨":4458,"Ġà¤ªà¤Ĺ":4459,"à¥¨à¥¦à¥§à¥Ń":4460,"à¤īà¤Ĺ":4461,"Ġà¤¡à¤¸":4462,"à¤¾à¤ģ...":4463,"à¤ŀà¤°":4464,"à¤ļà¤ľà¤¨":4465,"à¤¸à¤°à¤¹":4466,"Ġà¥¤[":4467,"Ġà¤Ńà¤ıà¤²à¤Ĺà¤¤":4468,"à¤łà¤ª":4469,"à¥¬à¥§":4470,"à¥ģà¤ģà¥¤":4471,"à¥ľ":4472,"Ġà¤Ĩà¤ªà¤¤à¤ķ":4473,"||":4474,"Ġà¤¬à¤®à¤ķ":4475,"ld":4476,"ĠNE":4477,"à¤ĺà¤¬":4478,"à¤¬à¤Ĺà¤°":4479,"à¤²à¤¨à¤ª":4480,"à¤¹à¤¦à¤°à¤µ":4481,"à¥Ī;":4482,"ft":4483,"à¤¬à¤Ńà¤¨":4484,"Ġà¥¨à¥¦à¥«à¥§":4485,"à¤¯à¤¤à¤¸":4486,"ver":4487,"à¤°à¤£à¤µ":4488,"ĠÐ¾":4489,"à¤¡à¤§":4490,"à¤ĩà¤¡à¤ķ":4491,"Ġà¤®à¤¨à¤®à¤¨":4492,"à¤ľà¤¨à¤ª":4493,"ee":4494,"ian":4495,"à¤¤à¤¶":4496,"Ġà¥¤âĢĺ":4497,"à¤Ńà¤°à¤®":4498,"pl":4499,"Ġà¤¸à¤®à¤¯à¤Ń":4500,"à¤²à¤°à¤²":4501,"Ġà¤¸à¤®à¤¥à¤°":4502,"à¤ļà¤¯à¤ķ":4503,"Ġà¤ħà¤¸à¤®à¤Ŀà¤¦":4504,"à¤Ĥà¥¤":4505,"Ġà¥¤&":4506,"Ġwith":4507,"Ġà¤ħà¤ķà¤¸":4508,"Ġà¤¡à¤£":4509,"sh":4510,"à¤¨à¤¯à¤ķ":4511,"à¥¬à¥¯":4512,"Ġ>>>":4513,"Ġà¤ªà¤¥à¤°":4514,"à¤ľà¤°à¤®":4515,"à¤ĩà¤ľà¤ķ":4516,"à¤Ĩà¤¸":4517,"à¤Ŀà¤²":4518,"à¤µà¤°à¤ª":4519,"à¤¨à¤²à¤²":4520,"ere":4521,"à¥ĩâĢĮ":4522,"Ġà¤ľà¤Ĺà¤¤à¤ķ":4523,":-":4524,"à¤·à¤¦à¤°":4525,"Ġ.....":4526,"Ġà¤ĸà¤µà¤°":4527,"Ġà¤Ĩà¤¶à¤¯":4528,"à¤¹à¤¸à¤®":4529,"22":4530,"Ġà¤¸à¤¯à¤®":4531,"à¤ľà¤¯à¤ª":4532,"Ġà¤¡à¤Łà¤ķà¤®à¤®":4533,"à¥įà¥Ģ":4534,"à¤¦à¤¯à¤ķ":4535,"à¤¯à¤¤à¤¥":4536,"à¥¬à¥®":4537,"Ġà¤µà¤¯":4538,"alu":4539,"Ġha":4540,"Ġà¤¨à¤µà¤¦":4541,"à¤ĩà¤¸à¤®":4542,"à¤¯à¤¡à¤Ńà¤¨":4543,"Ġà¤¤à¤ķ":4544,"à¤°à¤¶à¤®à¤¶":4545,"à¤®à¤¤à¤°":4546,"à¤Łà¤¸à¤¹":4547,"dc":4548,"à¤°à¤¤à¤¤à¤°":4549,"Ġà¤¨à¤¸à¤°":4550,"à¤£à¤ªà¤¨":4551,"à¤²à¤¨à¤¸":4552,"à¤Ĺà¤«à¤Ĺ":4553,"à¤²à¤ķà¤°":4554,"à¤Ļà¤¸à¤®":4555,"à¥Įà¤ĤâĢĶ":4556,"à¤¾..":4557,"à¤ıà¤Łà¤°":4558,"one":4559,"~~":4560,"à¤¦à¤²à¤¯":4561,"à¤¤à¤®à¤§":4562,"Ġà¤Ĩà¤®à¤¸à¤ŀ":4563,"à¤Ńà¤°à¤Ļ":4564,"::":4565,"DF":4566,"à¤Łà¤¹":4567,"Ġà¤¬à¤Ĺà¤°":4568,"Ġà¤ľà¤¯à¤°":4569,"à¤īà¤¡à¤°":4570,"à¥¯à¥¦":4571,"à¤ĩà¤²à¤¹à¤°":4572,"à¤ĩà¤ĵ":4573,"Ġà¤ħà¤¦à¤Ń":4574,"Ġà¤Ĩà¤®à¤®":4575,"à¤łà¤ķà¤ªà¤Ľ":4576,"à¤Ļà¤ª":4577,"Ġà¤¨à¤°à¤¬à¤¹":4578,"à¤Ļà¤¯":4579,"Ġà¤²à¤¥":4580,"Ġà¤ĺà¤ļ":4581,"à¥ĭà¥¤âĢĿ":4582,"à¥¬à¥Ń":4583,"à¤Ĺà¤¹":4584,"à¤ĸà¤§à¤°":4585,"à¤¨à¤²à¤ķ":4586,"Ġà¤ıà¤¡à¤®":4587,"ell":4588,"à¤Ĩà¤ªà¤¸à¤®":4589,"ary":4590,"ÛĮ":4591,"Ġà¤ĵà¤ł":4592,"ure":4593,"à¤¤à¤¨à¤¶":4594,"org":4595,"Ġà¤ħà¤ªà¤¨à¤¤":4596,"ĠÙ":4597,"à¥¬à¥«":4598,"à¤¨à¤®à¤¸":4599,"ire":4600,"à¤Ĺà¤¸à¤¹":4601,"Ġà¤Ĳà¤¨à¤ħà¤¨":4602,"à¤ķà¤Ľ":4603,"à¤¯à¤®à¤¸":4604,"à¤¶à¤ľ":4605,"à¤¸à¤ĸ":4606,"Ġà¥§à¥¦à¥®":4607,"Ġà¤ĭà¤£à¤®":4608,"à¥«à¥©":4609,"à¤Ĩà¤ĩà¤¬":4610,"Ġà¤¨à¤ªà¤ł":4611,"Ġà¤®à¤¦à¤¨à¤ķ":4612,"ys":4613,"à¤Ĩà¤µà¤¶":4614,"ðŁ":4615,"à¥įâĢĶ":4616,"Ġà¤Ľà¤²à¤«à¤²à¤ªà¤Ľ":4617,"à¤Ĺà¤Łà¤¨":4618,"à¤¨à¤¯à¤¤":4619,"à¤¯à¤¸à¤ħà¤¨":4620,"à¤ķà¤²à¤¨à¤®":4621,"à¤¿.),":4622,"ight":4623,"het":4624,"Ġà¤ıà¤¨à¤Ł":4625,"io":4626,"Ġan":4627,"à¤°à¤ķà¤°à¤£à¤ķ":4628,"à¤²à¤ķà¤¬":4629,"à¥įà¤ģ":4630,"Ġà¤ķà¤ªà¤®":4631,"à¤®à¤ħà¤¨":4632,"Ġà¤¨à¤«à¤°":4633,"Ġ:-":4634,"âĨĴ":4635,"26":4636,"Ġà¤µà¤¨à¤¬":4637,"à¥įâĢĮà¥¤":4638,"Ġà¤¹à¤ł":4639,"à¥Ńà¥Ń":4640,"à¤¶à¤¨à¤¹à¤°":4641,"eared":4642,"Ø±":4643,"Ġà¥¨à¥ªà¥¦":4644,"à¤ĭà¤·":4645,"Ġà¤ıà¤¤":4646,"à¤§à¤¨à¤¸":4647,"rad":4648,"04":4649,"Ġà¤Ŀà¤ķ":4650,"à¤§à¤ªà¤Ľ":4651,"à¤ıà¤¸à¤ıà¤®":4652,"Ġà¤ĵà¤ĸ":4653,"à¤°à¤Ļà¤®":4654,"à¤°à¤¹à¤¦":4655,"Ġà¤¹à¤ķà¤¸à¤®":4656,"Ġappeared":4657,"âĢ¢âĢ¢":4658,"à¤Łà¤Ł":4659,"Ġà¤Ŀà¤²à¤ķ":4660,"à¤ĩà¤ķà¤²à¤²":4661,"à¤®à¤Ĺà¤łà¤¬à¤¨":4662,"Ġà¥¦à¥¯":4663,"à¤Ĺà¤£à¤¤à¤¨":4664,"à¤¦à¤¸à¤®":4665,"à¤ĩà¤ıà¤®":4666,"à¥Īà¥į":4667,"Ġà¤¬à¤Łà¤¨":4668,"à¤īà¤ªà¤®":4669,"ĠSagarmatha":4670,"à¤¬à¤ĸ":4671,"Ġà¤¸à¤¨à¤°":4672,"à¤¯à¤£à¤²":4673,"ËĨ":4674,"à¤ıà¤«à¤ı":4675,"à¤°à¤¶à¤¨":4676,"Ġà¤®à¤¯":4677,"à¤®à¤¨à¤Ĺà¤°":4678,"Ġà¤ľà¤²à¤ľà¤²":4679,"à¤¤à¤ļà¤°":4680,"à¤§à¤¶":4681,"Ġà¤ľà¤µà¤°":4682,"Ġà¤®à¤¹à¤Ļ":4683,"Ġà¤Ĩà¤ĩà¤¸à¤²":4684,"à¤ªà¤£à¤ķ":4685,"Ġà¤ļà¤¸":4686,"Ġà¤ħà¤µà¤¹":4687,"Ð°Ð½":4688,"à¤¤à¤¨à¤¹":4689,"à¤Łà¤«à¤°":4690,"Ġà¤µà¤®":4691,"à¤Īà¤¨à¤²à¤®":4692,"à¤¯à¤²à¤Ĺ":4693,"à¥ªà¥¬":4694,"à¥¦à¥Ńà¥¨":4695,"27":4696,"à¤ĸà¤ª":4697,"ind":4698,"06":4699,"Ġà¤ħà¤°à¤¬à¤ķ":4700,"Ġà¥¨à¥¦à¥¦à¥§":4701,"Ġà¤ıà¤ķà¤¥à¤°":4702,"Ġà¥¨à¥¦à¥¨à¥¨":4703,"ĠRok":4704,"Ġà¤«à¤Ľ":4705,"Ġà¤ħà¤µà¤¸à¤°à¤²":4706,"à¤µà¤ªà¤Ł":4707,"à¤¤à¤¸à¤¹":4708,"à¥ĭ:":4709,"amp":4710,"Ġà¤ıà¤ķà¤¸à¤¯":4711,"à¤¸à¤¨à¤¸":4712,"à¤¤à¤®à¤¬":4713,"à¤¯à¤¸à¤¦":4714,"Ġà¤Ŀà¤¡à¤ªà¤®":4715,"Ø§Ù":4716,"à¤ľà¤¤à¤²":4717,"à¤īà¤ªà¤ļ":4718,"à¤µà¤Łà¤ķ":4719,"à¤¡à¤°à¤¸":4720,"Ġà¤¨à¤Ĺà¤ıà¤ķ":4721,"à¤¦à¤²à¤®":4722,"à¤Ńà¤¨à¤®":4723,"à¤¸à¤²à¤Ĺ":4724,"à¤°à¤¨à¤Ĺà¤°à¤®":4725,"à¤īà¤ªà¤Ń":4726,"Ġà¤ļà¤°à¤£à¤¬":4727,"à¥¯à¥¯":4728,"à¤²à¤Ĺà¤®":4729,"à¤Łà¤²à¤Ĺ":4730,"Ġà¤ļà¤Ļ":4731,"Ġare":4732,"à¤²à¤Ŀ":4733,"esin":4734,"à¤¸à¤§":4735,"\",":4736,"Ġà¤¬à¤¦à¤®":4737,"à¤ħà¤¬à¤ķ":4738,"Ġà¤²à¤¯à¤®":4739,"Ġr":4740,"à¤ĩà¤ķà¤¨":4741,"Ġà¤¹à¤¬":4742,"Ġà¤ĺà¤Łà¤ķ":4743,"à¤ķà¤²à¤Ĺ":4744,"à¤ķà¤¡à¤Ń":4745,"hetri":4746,"à¤°à¤Ł":4747,"à¤ĺà¤ļ":4748,"à¥ªà¥§":4749,"Ġà¤ħà¤¨à¤Ń":4750,"erica":4751,"Ġà¤Ĩà¤¦à¤°à¤£":4752,"ck":4753,"Ġà¤®à¤¤à¤ªà¤°":4754,"à¤ıà¤¸à¤¸":4755,"Ġà¤ªà¤¸à¤²à¤ķ":4756,"à¤¯à¤Ĺà¤¤":4757,"resham":4758,"à¥Įà¤ģ-":4759,"!!!":4760,"ĠRoka":4761,"lalu":4762,"Ġà¤¨à¤ķà¤°":4763,"à¤Īà¤µ":4764,"Ġà¥®à¥¦à¥¦":4765,"à¤ģâĢĻ":4766,"Yesin":4767,"à¥«à¥®":4768,"Ġchhetri":4769,"à¤¸à¤¦à¤°à¤®":4770,"à¤£à¤¤à¤°":4771,"à¤£à¤¸à¤®":4772,"Ġà¤ĵà¤ĸà¤°":4773,"Ġà¤§à¤¸":4774,"Ġà¤ĵà¤ķ":4775,"Ġà¤Ĩà¤¯à¤¸":4776,"à¥įâĢĻ,":4777,"ĠPost":4778,"Ġà¤ĩà¤¬":4779,"Ġà¤¦à¤ĸ":4780,"à¤®à¤µà¤°à¤£":4781,"ÐµÑĤ":4782,"aster":4783,"AN":4784,"Ġà¤®à¤¹ÅĴà¤µ":4785,"à¤¶à¤¬à¤¹":4786,"à¤Łà¤Ńà¤¨":4787,"à¤ļà¤¸à¤®":4788,"à¤Ĺà¤ľà¤ķ":4789,"à¤¶à¤¸à¤®":4790,"aw":4791,"à¥ģ'":4792,"Ġà¤ĸà¤¬à¤°à¤®":4793,"ĠSh":4794,"à¤¤à¤ĸ":4795,"Ġà¤¨à¤Ĺà¤°à¤¬":4796,"Ġà¤Ńà¤¯à¤µ":4797,"à¥ĭ/":4798,"Ġï¿½":4799,"à¤ıà¤ıà¤«à¤ª":4800,"à¤Łà¤®à¤®":4801,"à¤µà¤°à¤£à¤¹à¤°":4802,"à¥¬à¥¬":4803,"ge":4804,"Ġà¤ľà¤²à¤¯":4805,"à¤°à¤°à¤¤":4806,"à¤®à¤°à¤ķ":4807,"à¤īà¤¨à¤¸à¤®":4808,"à¤²à¤¯à¤¸à¤®":4809,"à¤¯à¤£à¤Ĺ":4810,"Ġ1148":4811,"à¤īà¤¨à¤¸à¤ķ":4812,"à¤¨à¤¤à¤²":4813,"à¤ľà¤¯à¤²":4814,"à¥Ĥà¥Ĥ":4815,"à¤ķà¤®à¤§":4816,"à¤ľà¤²à¤µ":4817,"ss":4818,"ĠÃ":4819,"à¤²à¤¢":4820,"à¤·à¤¸à¤¹":4821,"Ġà¤ħà¤¨à¤°":4822,"Ġà¤ķà¤¦à¤®à¤²":4823,"à¤£à¤¦":4824,"Ġà¥¨à¥¦à¥«à¥«":4825,"Ġwh":4826,"Ġà¤®à¤·":4827,"az":4828,"Ġà¤¬à¤²à¤¤":4829,"Ġby":4830,"à¤°à¤Ĺà¤¢":4831,"à¤°à¤¨à¤®":4832,"à¥ĭâĢĮ":4833,"Ġà¤ħà¤²à¤®à¤²à¤®":4834,"à¤®à¤µà¤°":4835,"Ġà¤¸à¤¹à¤°à¤¹à¤°":4836,"à¥Īà¤ĥ":4837,"Ġà¤°à¤¹à¤ķ":4838,"à¤°à¤¤à¤ķà¤¥":4839,"Ġà¤µà¤ľà¤¨":4840,"à¤Ļà¤Łà¤¨":4841,"à¤¯à¤ªà¤¦":4842,"à¤łà¤¬":4843,"arpan":4844,"à¤¬à¤¨à¤ķ":4845,"Ġà¥§à¥¦à¥«":4846,"ÐµÑĢ":4847,"à¤ĩà¤¡à¤®":4848,"à¥ģà¥¤âĢĻ":4849,"à¤µà¤¤à¤°":4850,"à¤ıà¤«à¤ķ":4851,"Ġà¤Ńà¤ĩà¤°":4852,"à¤¸à¤Ĺà¤°à¤®":4853,"Ġà¤ħà¤¨à¤ª":4854,"à¤µà¤¸à¤Ń":4855,"à¥ªà¥®":4856,"Ġà¤ĵà¤¶":4857,"ïģ":4858,"Ġà¤Ĩà¤ľà¤Ńà¤¨":4859,"ĠNational":4860,"à¤µà¤¶à¤ķ":4861,"à¤Ĺà¤®à¤¸":4862,"à¤Ĺà¤¬à¤£":4863,"Ġà¤Ĩà¤ķà¤²à¤¨":4864,"Ð¿":4865,"Ġ@":4866,"à¤µà¤¸à¤²":4867,"à¤¶à¤ªà¤Ľ":4868,"à¤īà¤Ń":4869,"ĠPro":4870,"à¤¸à¤¤à¤ķ":4871,"à¤®à¤£à¤²":4872,"ndash":4873,"Ġà¥ģ":4874,"Ġà¤µà¤·":4875,"à¥ĢâĢĻ,":4876,"Ġal":4877,"Ġat":4878,"Ġà¤¨à¤¥":4879,"à¤·à¤¶":4880,"ĠPDF":4881,"Ġ50":4882,"à¤ĩà¤¬à¤²":4883,"Ġà¤®à¤¹Ã¬à¤µà¤ª":4884,"ËĨà¤¨":4885,"Ġà¤ħà¤µà¤®":4886,"Ġà¤ĸà¤µ":4887,"Ġà¥§à¥¯à¥¯à¥Ń":4888,"Ġà¤Ĩà¤°à¤¤":4889,"à¥ħ":4890,"à¤¯à¤ĺ":4891,"Ġà¤ķà¤®à¤®":4892,"à¥©à¥Ń":4893,"IN":4894,"Ġà¤¾":4895,"Ġà¤Ĩà¤ıà¤¸":4896,"Ġà¤Ŀà¤¡":4897,"à¤¤à¤°à¤¤à¤°":4898,"Ġà¤ıà¤¨à¤ıà¤®à¤¬":4899,"à¤īà¤ªà¤¡":4900,"à¤®à¤¦à¤°":4901,"Ġà¤¤à¤¹à¤¸":4902,"à¤Ńà¤Ĺà¤µ":4903,"act":4904,"à¥ģâĢ¦":4905,"à¤¾à¤Ĥà¤ģ":4906,"Ġà¤¸à¤¯à¤¦":4907,"ebs":4908,"IT":4909,"à¤¹à¤¡":4910,"ĠDis":4911,"à¤Łà¤ħà¤¨":4912,"Ġà¤µà¤¨à¤²":4913,"à¤Ĩà¤ī":4914,"à¤§à¤ľà¤¨":4915,"Ġà¤§à¤ª":4916,"Ġà¥Ńà¥¦à¥¦":4917,"à¤¿à¥ĩ":4918,"à¤ıà¤Ŀ":4919,"Ġà¤ľà¤ķ":4920,"Ġà¤ļà¤¯à¤¨à¤ķ":4921,"à¤²à¤¬à¤ľ":4922,"à¥ªà¥¨":4923,"Nov":4924,"Ġà¤Ĺà¤łà¤µà¤¨":4925,"Ġ198":4926,"Ġà¤ªà¤°à¤ķ":4927,"à¤¡à¤Ĺ":4928,"Ġà¥§à¥§à¥©à¥¯":4929,"à¤¶à¤Ļ":4930,"à¤¯à¤ķà¤°à¤£":4931,"à¤¹à¤Ļà¤ķà¤Ļ":4932,"ect":4933,"à¤®à¤ªà¤¤":4934,"ĠÐº":4935,"ll":4936,"à¤®à¤¨à¤²":4937,"à¤°à¤ľà¤¹":4938,"à¤°à¤«à¤²à¤ķ":4939,"Ġà¤ħà¤¬à¤¦":4940,"à¤¬à¤Īà¤ķ":4941,"à¤¬à¤®à¤ķ":4942,"Ġà¤ħà¤¨à¤¶à¤¨à¤°à¤¤":4943,"Ġà¥§à¥¨à¥¦":4944,"ĠÐ´":4945,"à¤¾Â¥":4946,"Ġà¤¦à¤Ļ":4947,"à¤Ńà¤ŀ":4948,"à¤¡à¤ķà¤ªà¤ķ":4949,"à¤¼à¤¾":4950,"Ġà¤¸à¤¨à¤¸à¤¨":4951,"à¤¯à¤¬à¤¦":4952,"Ġà¤ķà¤¸à¤®":4953,"Ġà¤ľà¤¨à¤ħà¤§":4954,"à¤Ĩà¤ĸ":4955,"Ġà¤¦à¤¶à¤ķà¤¸à¤®":4956,"Ġà¤Ľà¤łà¤ªà¤°":4957,"à¤«à¤¸à¤²à¤®":4958,"à¤¯à¤¸à¤ªà¤Łà¤ķ":4959,"à¤°à¤ľà¤¹à¤°":4960,"à¤¨à¤ļà¤°":4961,"à¤Īà¤Ĺ":4962,"à¥į!":4963,"à¤ĸà¤²à¤¨":4964,"Ġà¤¨à¤Ĺà¤°à¤²":4965,"Ġà¥§à¥¦à¥¦à¥¦":4966,"à¤«à¤Ł":4967,"urb":4968,"à¤Ĺà¤£à¤®":4969,"à¤ĵà¤ĸà¤²à¤¢":4970,"à¤ĩà¤Ĺà¤°":4971,"Ġnar":4972,"ens":4973,"Ġà¤ħà¤ªà¤¹à¤°à¤£à¤®":4974,"à¤ıà¤ĩà¤ķ":4975,"à¤¸à¤Ĺà¤¢":4976,"à¤Łà¤ķà¤²":4977,"à¤¯à¤Łà¤¨à¤®":4978,"à¤¬à¤¦à¤¨":4979,"à¤ħà¤Ł":4980,"Ġà¤Ŀà¤²à¤ķà¤¹à¤°":4981,"à¤®à¤¨à¤¸":4982,"Ġà¤ĸà¤°à¤²":4983,"à¤łà¤°":4984,"à¥ĩâĢĶ":4985,"Ġà¤¨à¤®à¤¨":4986,"Ð¾ÑĢ":4987,"Ġà¤¸à¤®à¤·":4988,"AL":4989,"ile":4990,"ĠMar":4991,"à¤¨à¤Ńà¤ıà¤ķ":4992,"Ġà¤Ĩà¤ĺ":4993,"à¤Ĩà¤Īà¤Ń":4994,"à¤¦à¤¨à¤ħà¤¨":4995,"Ġà¤ķà¤¨à¤ķ":4996,"à¤Ĩà¤ª":4997,"Ġà¤ıà¤¨à¤Ĩà¤°à¤ıà¤¨à¤ķ":4998,"Ġfrom":4999,"Ġà¤«à¤°à¤µ":5000,"Ġthis":5001,"Ġà¤ħà¤ªà¤¹":5002,"à¤ļà¤²à¤²":5003,"à¤®à¤Ĺà¤°à¤ķ":5004,"Ġ2015":5005,"à¹":5006,"Ġà¤ĺà¤®à¤£":5007,"à¤§à¤¨à¤µ":5008,"à¥īà¤Ĥ":5009,"à¤¤à¤Ĺà¤°":5010,"idarpan":5011,"Ġnaridarpan":5012,"form":5013,"à¤ķà¤Ńà¤¨":5014,"Ġà¤Ĩà¤¡":5015,"à¤²à¤¨à¤¹à¤°":5016,"à¤¯à¤²à¤¯à¤®":5017,"à¤£à¤¤à¤¯":5018,"ai":5019,"Ġà¤§à¤µà¤²":5020,"Ġà¤Ĩà¤Īà¤¤à¤µ":5021,"ari":5022,"?)":5023,"Ġà¤¸à¤µà¤²":5024,"à¤ľà¤¨à¤¯":5025,"à¤°à¤¬à¤ķ":5026,"à¤·à¤£à¤¸à¤®":5027,"Ġà¤ıà¤®à¤ı":5028,"Ġà¤ıà¤«à¤ª":5029,"Ġà¤²à¤®à¤¹":5030,"Ġà¤ıà¤¥":5031,"ags":5032,"à¤¤à¤ªà¤Ľ":5033,"Ġ2014":5034,"à¤Ĺà¤®à¤®":5035,"Ġà¤ĩà¤Łà¤²":5036,"Ġà¤«à¤°à¤ķà¤«à¤°à¤ķ":5037,"able":5038,"à¤Ľà¤²":5039,"à¤£à¤¯à¤ħà¤¨":5040,"Ġà¤Ľà¤¨à¤ķ":5041,"Ġà¤ĩà¤«":5042,"à¥ªà¥ª":5043,"à¤ĩà¤ıà¤²":5044,"Ġà¤ªà¤Łà¤ķà¤¥":5045,"Ġthat":5046,"à¤«à¤ª":5047,"à¥®à¥©":5048,"à¤²à¤Ĺà¤¬":5049,"Ġà¤ħà¤¸à¤®à¤°":5050,"av":5051,"à¤ıà¤¶à¤¨":5052,"ink":5053,"à¤¬à¤ĸà¤¤":5054,"à¤®à¤¤à¤¸à¤®":5055,"à¤·à¤¦à¤¬":5056,"Ġ$":5057,"à¤¸à¤¢":5058,"à¤ªà¤¯à¤ķ":5059,"Ġà¤Ĺà¤²à¤ķ":5060,"Ġà¤ħà¤µà¤¸à¤°à¤µ":5061,"Ġà¤¸à¤¦à¤¨à¤ķ":5062,"à¤¸à¤®à¤Ĺ":5063,"Â°":5064,"ĠâĢł":5065,"Ġà¤¬à¤¬à¤Ī":5066,"Ġà¤ıà¤¯à¤°à¤¬":5067,"ym":5068,"à¤¸à¤°à¤£":5069,"à¤ĩà¤£":5070,"à¥¨à¥¦à¥©":5071,"à¤®à¤Ł":5072,"Ġà¤µà¤¹à¤¨":5073,"à¤¶à¤ħà¤¨":5074,"ob":5075,"à¤£à¤§":5076,"à¤£à¤ļà¤¨":5077,"ork":5078,"à¤¹à¤ªà¤Ľ":5079,"à¤Ĩà¤°à¤¸":5080,"à¤§à¤¨à¤ªà¤Ľ":5081,"Ġadd":5082,"Ġà¤²à¤Ł":5083,"à¤¾.),":5084,"à¤ķà¤ļ":5085,"Ġcon":5086,"Ġà¤¨à¤°à¤¹à¤°":5087,"Ġle":5088,"Ġà¤¤à¤Łà¤¸":5089,"à¤§à¤ķà¤¹à¤°":5090,"à¤¦à¤°à¤¹à¤°":5091,"Ġà¤ıà¤¯":5092,"Ġà¤ıà¤ķà¤Ĩà¤ªà¤¸à¤®":5093,"Ġà¤ħà¤¸à¤ľ":5094,"à¤¸à¤°à¤¤":5095,"à¤Łà¤¨à¤°":5096,"Ġà¤Ĳà¤²":5097,"à¤ľà¤«":5098,"Ġà¤ķà¤®à¤²à¤ª":5099,"ĠAug":5100,"à¤ħà¤«à¤Ĺ":5101,"à¤·à¤£à¤µ":5102,"à¤¸à¤¹à¤®à¤¤":5103,"à¤¹à¤°à¤£à¤¹à¤°":5104,"Ġà¥§à¥¬à¥¯":5105,"Ġà¤ħà¤¬à¤§":5106,"khabar":5107,"à¤¢à¤ķ":5108,"à¤Ĺà¤§à¤¨":5109,"Ġà¤ĨËĨà¤¨":5110,"à¤¤à¤°à¤¨":5111,"à¤°à¤®à¤ª":5112,"Ġà¤ļà¤¡":5113,"à¤¯à¤Łà¤¨à¤²":5114,",...":5115,"à¤°à¤Ľ":5116,"à¥ªà¥Ń":5117,"Ġ29":5118,"à¤ķà¤¸à¤Ń":5119,"à¥Įà¤ģâĢĻ":5120,"rticle":5121,"à¤¤à¤¨à¤¸":5122,"Ġ28":5123,"ĠVi":5124,"cc":5125,"à¤²à¤ł":5126,"Ġà¤¶à¤¸à¤ķ":5127,"à¥ĭà¥¤'":5128,"ru":5129,"Ġà¤ľà¤²à¤¬":5130,"Ġ205":5131,"Ġit":5132,"à¤¥à¤¨à¤ķ":5133,"Ġ23":5134,"Ġà¤Ĺà¤Ľ":5135,"à¤ļà¤¯à¤ķà¤°":5136,"Ġà¤ıà¤ķà¤¨":5137,"Ġà¤ľà¤¨à¤ĺ":5138,"à¥į,'":5139,"Ġà¥§à¥¨à¥®":5140,"Ġà¤Īà¤¯":5141,"à¤Ĩà¤°à¤Ĩà¤Ī":5142,"à¤¥à¤ķà¤²":5143,"Ġà¤Ńà¤Ļ":5144,"à¤ĺà¤°à¤¬":5145,"áŀ":5146,"à¤Ľà¤¸":5147,"à¤Ļà¤¤à¤°":5148,"Ġà¤Ĩà¤µà¤°à¤£à¤®":5149,"ĠKhabar":5150,"Ġà¥¨à¥¦à¥«à¥Ń":5151,"Ð°ÑĤ":5152,"à¤¸à¤ªà¤¨":5153,"à¤Ļà¤ļ":5154,"à¤ĺà¤¦":5155,"à¥įâĢ¦":5156,"Ġà¤°à¤¹à¤°à¤²":5157,"Ġà¤Łà¤¯":5158,"Ġà¤ķà¤Łà¤¹à¤°":5159,"Ġà¤ķà¤¦à¤®à¤ķ":5160,"Ð±":5161,"Ġà¤ıà¤¨à¤Ĩà¤Īà¤¸":5162,"Ġà¤ľà¤²à¤ª":5163,"à¤ıà¤Īà¤²":5164,"Ġà¥§à¥¬à¥¦":5165,"Ġex":5166,"à¤²à¤®à¤£":5167,"à¥ªà¥©":5168,"à¤§à¤¸à¤®":5169,"à¤Łà¤°à¤Ńà¤¨":5170,"Ġà¤¸à¤¤à¤¹à¤¦":5171,"ontin":5172,"har":5173,"Ġà¤¯à¤¸à¤¸à¤®":5174,"Ġà¥§à¥©à¥¨":5175,"Ġà¥¤-":5176,"Ġà¤ªà¤¦à¤Ń":5177,"Ġà¤ľà¤Ĺà¤¨":5178,"Ġsp":5179,"à¤Ńà¤ıà¤Ľ":5180,"Ġà¤Ķà¤°":5181,"ĠSam":5182,"à¤¾âĢĶ":5183,"à¤ıà¤ĩ":5184,"Ġà¤īà¤ªà¤Ĺ":5185,"à¤§à¤µà¤ª":5186,"Ġ27":5187,"à¤ļà¤ķà¤¨":5188,"à¤ĩà¤¨à¤¸":5189,"à¤¨à¤¬à¤¤":5190,"à¤£à¤¯à¤ª":5191,"à¤Ĩà¤«à¤¨":5192,"Ġà¥§à¥ªà¥¦":5193,"à¤Ĭà¤°":5194,"mother":5195,"Ġà¤°à¤¡":5196,"ebsite":5197,"à¤«à¤¸à¤²à¤ķ":5198,"br":5199,"à¤¸à¤Ńà¤¨":5200,"à¤Łà¤®à¤²":5201,"are":5202,"à¤°à¤¦à¤¤":5203,"à¤¦à¤ķà¤°":5204,"à¤°à¤Ńà¤ķ":5205,"AT":5206,"à¤§à¤ķà¤°":5207,"à¥ªà¥¯":5208,"à¥į,âĢĿ":5209,"à¤ıà¤¸à¤ı":5210,"Ġà¤¸à¤¹à¤¨à¤¶":5211,"à¤µà¤¨à¤¦":5212,"Ġi":5213,"à¤¸à¤®à¤µ":5214,"à¤ħà¤¡":5215,"ical":5216,"isk":5217,"à¤·à¤§à¤ķ":5218,"à¥įà¥¤âĢĿ":5219,"und":5220,"Ġà¤Ĺà¤ıà¤®":5221,"à¥įà¤ĥ":5222,"à¤ľà¤¨à¤¹à¤°":5223,"Ġ26":5224,"à¤ľà¤¤à¤ªà¤¤":5225,"à¤¬à¤°à¤¬":5226,"à¤¶à¤¨à¤¸à¤®":5227,"Ġà¤Ľà¤²à¤«à¤²à¤²":5228,"Ġà¤ĵà¤Ńà¤°à¤ķ":5229,"Ġ21":5230,"à¤ľà¤Ĺà¤¨":5231,"Ð¾Ð¼":5232,"ank":5233,"Ġà¤¬à¤«":5234,"à¤¾à¤ģ)":5235,"à¤ľà¤®à¤°":5236,"Ġà¤ĭà¤£à¤ªà¤¤":5237,"Ġà¤¨à¤Ŀ":5238,"à¤£à¤ķà¤¦à¤ķ":5239,"à¤¯à¤µà¤§":5240,"ext":5241,"Ġà¤ĩà¤¥":5242,"âĢ¦.":5243,"à¤¾à¥ĩ,":5244,"Ġà¤ľà¤¨à¤§à¤¨à¤ķ":5245,"ĠâĨĴ":5246,"Ġà¤ıà¤ļà¤Ĩà¤Īà¤Ń":5247,"Ġen":5248,"à¤¸à¤ľà¤¸":5249,"à¤Īà¤¨à¤®":5250,"à¤Ĺà¤²à¤Ĺ":5251,"nepalmother":5252,"31":5253,"à¤¯à¤®à¤£":5254,"à¤²à¤®à¤¨":5255,"à¤Ļà¤ĸ":5256,"Ñİ":5257,"Ġà¤ľà¤¨à¤¶":5258,"à¤ķà¤°à¤£à¤¸":5259,"à¤Łà¤¨à¤Ĺà¤°à¤²":5260,"Ġà¤¨à¤Ĩà¤ıà¤ªà¤Ľ":5261,"Ð½Ñĭ":5262,"Ġà¤¸à¤®à¤Ŀ":5263,"Ġà¤¸à¤°à¤¸à¤®":5264,"Ġà¥¦à¥Ńà¥¦":5265,"Ġà¤ıà¤Ĩà¤Īà¤ľ":5266,"à¤°à¤¹à¤£à¤ķ":5267,"à¤ªà¤¬à¤¹":5268,"Ð¾Ð»":5269,"ĠIntern":5270,"Ġà¤ħà¤¥à¤ķ":5271,"Ġpric":5272,"à¤¶à¤¹":5273,"Ġà¤®à¤łà¤®":5274,"Ġà¤µà¤Ĺ":5275,"Ġà¤ĸà¤ķ":5276,"à¤°à¤®à¤£à¤ªà¤Ľ":5277,"à¥į|":5278,"à¤Īà¤¬à¤°":5279,"Ġà¤Ĩà¤µà¤¤":5280,"à¤ªà¤¨à¤¬":5281,"Ġà¤Ĩà¤ĩà¤ıà¤®":5282,"Ġà¤Ńà¤ıà¤ħà¤¨":5283,"à¤°à¤ķà¤¹à¤°":5284,"Ġà¤ħà¤¸à¤¤":5285,"Ġà¥§à¥¦à¥ª":5286,"Ġà¤ĩà¤¯":5287,"à¤°à¤£à¤®à¤§":5288,"à¥¬à¥¨":5289,"à¤ķà¤°à¤¶":5290,"ĠÐ¿ÑĢ":5291,"à¤ļà¤µà¤°":5292,"elist":5293,"à¤Ŀà¤Ĺà¤¡":5294,"revi":5295,"à¤ıà¤Łà¤°à¤®":5296,"Ġà¥§à¥¯à¥¯à¥¬":5297,"à¤ħà¤ļ":5298,"à¥į,âĢĺ":5299,"Ġà¤ªà¤Łà¤ķà¤®":5300,"à¤°à¤¡à¤ķ":5301,"à¤¹à¤²à¤¤":5302,"Ġà¤ªà¤¹à¤²à¤ķà¤¦à¤®":5303,"pd":5304,"à¥ĭ..":5305,"à¤¤à¤Ĺà¤¤à¤ķ":5306,"Ġà¤¯à¤¸à¤®à¤§":5307,"Ġà¤ħà¤¸à¤°à¤²":5308,"à¤ķà¤°à¤ª":5309,"Ġà¤ħà¤°à¤¬à¤®":5310,"à¤ĩà¤Łà¤°":5311,"Ġà¤ľà¤¨à¤Ĺ":5312,"à¤²à¤¬à¤¹à¤°":5313,"Ġà¥§à¥¨à¥«":5314,"à¥į'":5315,"à¤ķà¤ł":5316,"à¤²à¤°à¤¹":5317,"Ð¾Ð´":5318,"Ġà¤¦à¤®à¤ķà¤®":5319,"à¤¸à¤ªà¤°":5320,"Ġà¤Ńà¤ıà¤¸à¤®":5321,"Ġà¥§à¥¯à¥®à¥¦":5322,"à¤ıà¤Ń":5323,"Ġà¤¦à¤Ĺ":5324,"à¥¬à¥ª":5325,"Ġà¤¨à¤µà¤®":5326,"Ġà¤Ľà¤¥à¤°":5327,"Ġà¤Ĩà¤°à¤ľ":5328,"ult":5329,"à¤īà¤ªà¤®à¤¹":5330,"ator":5331,"?âĢĿ":5332,"Ġà¤¨à¤¯à¤¨":5333,"à¤ĸà¤ļ":5334,"Ġà¥§à¥¯à¥¯à¥¯":5335,"Ġà¤ıà¤²à¤°":5336,"Ġà¥§à¥¯à¥¯à¥ª":5337,"ĠOct":5338,"Ġà¤¹à¤ķà¤²":5339,"à¤ģ,âĢĻ":5340,"Ġà¤Īà¤ª":5341,"à¤Īà¤°à¤¹à¤¨":5342,"Ġ22":5343,"Ġà¤ĭà¤ļ":5344,"à¤°à¤ķà¤µ":5345,"à¤Ļà¤¹":5346,"duction":5347,"ï¼Į":5348,"à¤§à¤ķà¤ķ":5349,"à¤¾à¤ģà¤Ĥ":5350,"à¤Łà¤ķà¤®à¤ķ":5351,"ĠQ":5352,"à¥ĭ\"":5353,"à¥Ī/":5354,"Ġà¤¨à¤µà¤¯":5355,"ÑĨ":5356,"à¤Ĺà¤Ļ":5357,"Ġ''":5358,"50":5359,"Ġà¤¯à¤¸à¤Ńà¤¨":5360,"Ġà¤ĺà¤°à¤ª":5361,"Ġà¤Ĩà¤łà¤µà¤Ł":5362,"à¥įâĢĿ,":5363,"à¤Łà¤ªà¤Łà¤ķ":5364,"Ġà¤Ĩà¤¯à¤®":5365,"Ġà¤²à¤Ļ":5366,"Ġà¤ľà¤¨à¤ĺà¤¨à¤¤":5367,"à¤¢à¤²":5368,"revious":5369,"pt":5370,"à¤ıà¤²à¤®":5371,"Ġà¤Ĩà¤ĩà¤°":5372,"Ġà¤Ĺà¤£à¤ªà¤¤":5373,"Ġpricelist":5374,"Ð³":5375,"à¤īà¤¦à¤²":5376,"à¤¹à¤°à¤®":5377,"à¤ĩà¤µà¤Ł":5378,"à¤īà¤ªà¤¨":5379,"Ġà¥§à¥¦à¥©":5380,"Ġà¤¨à¤¸à¤®":5381,"Ġà¤¶à¤¸à¤¸":5382,"à¤¤à¤µà¤¨à¤¬":5383,"No":5384,"Ġà¤ĺà¤°à¤µ":5385,"à¤¯à¤®à¤µ":5386,"ortal":5387,"à¤½à¤½":5388,"à¤ļà¤¨à¤¸à¤®":5389,"à¤ľà¤²à¤¸":5390,"ĠTr":5391,"à¥ĩ!":5392,"Ġà¤Ĩà¤¯à¤ķà¤°":5393,"à¥«à¥Ń":5394,"à¥ĭ,...":5395,"à¤µà¤¦à¤¹":5396,"à¥Įà¤ģ,âĢĻ":5397,"à¤īà¤¨à¤¬":5398,"à¤¦à¤¨à¤ª":5399,"Ġà¤Ĩà¤ĩà¤¡à¤²à¤ķ":5400,"--------":5401,"Ġà¤ĺà¤®":5402,"à¤¸à¤¨à¤°":5403,"à¤¬à¤®à¤®":5404,"Ġà¤Ńà¤Łà¤®":5405,"ace":5406,"Ġà¤¤à¤µà¤°à¤¬":5407,"Ġà¤ħà¤°à¤µ":5408,"eli":5409,"à¤¯à¤²à¤¯à¤ķ":5410,"Ġà¤ķà¤²à¤¶":5411,"Ð¹":5412,"Ġà¤Ķà¤¸à¤¤à¤®":5413,"à¤°à¤£à¤¤à¤¯":5414,"à¥Įà¤ĤâĢĻ,":5415,"à¥§à¥¦à¥®":5416,"à¤ĵà¤ª":5417,"à¤Ĩà¤īà¤¨":5418,"Ġà¥¤âĢĻâĢĻ":5419,"à¤¯à¤Łà¤¨à¤®à¤¨":5420,"Ġà¥¦à¥Ńà¥§":5421,"à¤¾]":5422,"Ġà¤ħà¤Łà¤²":5423,"Ġà¤ħà¤¬à¤¸à¤°":5424,"à¤ªà¤²à¤Ł":5425,"anc":5426,"ontinue":5427,"à¤ĺà¤¬à¤¹":5428,"à¤°à¤µà¤¤":5429,"Ġà¤²à¤ª":5430,"à¤¨à¤¸à¤¹à¤¨":5431,"à¤Łà¤¨à¤Ĺà¤°à¤¬":5432,"à¤ľà¤¬à¤ķ":5433,"à¤¬à¤°à¤¸à¤®":5434,"ond":5435,"Ġà¤¦à¤¶à¤ķà¤ªà¤Ľ":5436,"ÑģÐº":5437,"à¤·à¤°à¤®":5438,"Ġà¤ħà¤¨à¤µà¤°à¤¤":5439,"Ġà¤ħà¤Ńà¤¦":5440,"à¤¦à¤¯à¤®":5441,"à¤ľà¤¨à¤ľ":5442,"à¤·à¤ķà¤¬":5443,"ave":5444,"à¤¸à¤¤à¤°":5445,"à¤Ļà¤°":5446,"à¤Ńà¤²à¤ķ":5447,"Ġà¤Ķà¤·à¤¤":5448,"à¥¦à¥¬à¥©":5449,"à¤ıà¤ķà¤ľà¤¨":5450,"Ġà¤¦à¤¸à¤®":5451,"Ġà¤§à¤¡":5452,"à¤®à¤²à¤Ł":5453,"Ġà¤īà¤ĺ":5454,"à¤¡à¤²à¤¹à¤°":5455,"Ġ....":5456,"Ġà¤Ĩà¤Ĭ":5457,"à¥¨à¥¦à¥Ńà¥§":5458,"à¤¯à¤¶à¤ķ":5459,"Ġà¤µà¤¹à¤¸":5460,"Ġ100":5461,"à¤īà¤ªà¤Ĺ":5462,"à¤®à¤Ńà¤¨":5463,"Ġà¤ĩà¤¡":5464,"ert":5465,"à¤°à¤µà¤¹":5466,"à¤¿à¤Ĥà¤ģ":5467,"ĠRisk":5468,"à¤Ĺà¤¨à¤²":5469,"à¤¬à¤¸à¤®":5470,"à¤ĩà¤®à¤°":5471,"à¤ĩà¤«à¤²":5472,"Ġà¤ķà¤®à¤¸à¤²":5473,"à¤²à¤¥":5474,"ĠDisaster":5475,"vel":5476,"à¤ķà¤§":5477,"Ġà¤īà¤¸à¤®":5478,"à¤Łà¤²à¤¬":5479,"à¤®à¤²à¤²":5480,"Ġà¤ħà¤¹à¤®à¤¦":5481,"Ġà¤¥à¤°à¤ķ":5482,"à¤ıà¤¸à¤Ł":5483,"à¤²à¤µà¤¨":5484,"Ġà¥¦à¥¨":5485,"à¤¤à¤Ńà¤¨":5486,"à¤¤à¤²à¤Ĺ":5487,"Ġà¤ķà¤Ľ":5488,"à¤ıà¤¸à¤¨à¤²":5489,"Ġus":5490,"à¤ģ'":5491,"Ġ(?)":5492,"Ġà¤Ĩà¤Ĺà¤®à¤¨à¤¸":5493,"à¥įà¤¿":5494,"à¥ĩ\"":5495,"Ġà¤ľà¤²à¤¶":5496,"ĠEmail":5497,"à¤ľà¤ªà¤°":5498,"à¤¦à¤¨à¤¬":5499,"Ġà¤ľà¤¯à¤¨à¤Ĺà¤°":5500,"à¤¤à¤«":5501,"à¤ĸà¤Ĺ":5502,"Ġà¤¨à¤Ĺà¤¦à¤¸à¤¹":5503,"à¤°à¤ªà¤°":5504,"à¤¶à¤¯à¤¯":5505,"Ġà¤ıà¤ħà¤°":5506,"Ð»Ð¸":5507,"à¤¬à¤ªà¤¤":5508,"à¤Ĩà¤°à¤ıà¤²":5509,"Ġà¥§à¥¯à¥¯à¥«":5510,"à¥ĪâĢ¦":5511,"Ġà¤®à¤ľà¤ª":5512,"Ġà¤°à¤£à¤¬à¤¹":5513,"Ġà¥¦à¥ªà¥¬":5514,"US":5515,"ĠEx":5516,"ĠUS":5517,".)":5518,"Ġà¤¸à¤®à¤¶":5519,"Ġsend":5520,"à¤¿âĢĿ":5521,"Ġà¤¡à¤Łà¤ķà¤®à¤ķ":5522,"Ġà¤¸à¤°à¤¹à¤ķ":5523,"ĠReduction":5524,"à¤Ŀà¤¸à¤®":5525,"Ġà¥§à¥¯à¥¯à¥©":5526,"Ġà¤ħà¤ĸà¤¡":5527,"Ġà¤ıà¤¡à¤Ń":5528,"Ġà¤ĸà¤¹à¤°":5529,"à¤¼à¥į":5530,"Ġà¤¯à¤®à¤¨":5531,"'s":5532,"à¤ķà¤ķà¤²":5533,"Ġà¤ªà¤¢à¤¨":5534,"Ġaddress":5535,"à¤ķà¤¸à¤²":5536,"Ġà¤°à¤¹à¤¨à¤¸à¤¹à¤¨":5537,"okar":5538,"à¤ıà¤²à¤²":5539,"ated":5540,"à¥«à¥ª":5541,"Ġpl":5542,"Ġà¤ªà¤¸à¤²à¤¬":5543,"Ġreading":5544,"ON":5545,"Ġ2011":5546,"Ġ;":5547,"Ġà¥§à¥¯à¥Ńà¥¦":5548,"à¤Ļà¤¤":5549,"à¥Īà¤ģ,":5550,"Ġà¤¸à¤¹à¤ľà¤°":5551,"Tags":5552,"Ġà¤ĵà¤¨à¤¸à¤°":5553,"à¤µà¤ħà¤¨":5554,"à¤ªà¤°à¤¹":5555,"Ġà¤Ľà¤°à¤Ľ":5556,"à¤®à¤°à¤®":5557,"à¤ľà¤¨à¤²à¤Ĺ":5558,"à¤ĺà¤¨à¤ķ":5559,"Ġà¤Ĩà¤ĩà¤°à¤¨":5560,"Ġà¤Īà¤Ł":5561,"ĠX":5562,"à¤®à¤¨à¤®":5563,"à¥ģ/":5564,"Ġ2013":5565,"Ġup":5566,"Ġà¤µà¤ļ":5567,"à¤ĸà¤ľ":5568,"à¤ĩà¤¨à¤¹à¤°":5569,"à¤Ĩà¤Īà¤ķ":5570,"Ġà¤ıà¤ķà¤®à¤¤":5571,"à¤®à¤¤à¤®":5572,"Ġà¥¦à¥¬à¥¨":5573,"Ġà¤®à¤¥":5574,"à¤²à¤¬à¤¬":5575,"Ġà¤¬à¤²à¤¬à¤¹":5576,"à¤¡à¤¨à¤¸":5577,"Ġ197":5578,"à§":5579,"Ġà¤®à¤²à¤ľà¤²":5580,"à¤°à¤ļà¤¨à¤ķ":5581,"ĠUn":5582,"à¤®à¤ªà¤Ľ":5583,"à¤¡à¤ªà¤¤":5584,"views":5585,"ual":5586,"à¥¤âĢĵ":5587,"à¤ĺà¤¹à¤°":5588,"ipur":5589,"à¥ĩ:":5590,"à¤°à¤£à¤¯":5591,"Ġà¥¨à¥¨à¥¦":5592,"à¤¤à¤²à¤ķ":5593,"à¤§à¤ĸ":5594,"à¤¶à¤¤à¤¬":5595,"à¤ħà¤ľ":5596,"...]":5597,"à¤¨à¤¯à¤¨à¤®":5598,"à¤ĸà¤°à¤ķ":5599,"Ġà¤ĵà¤ªà¤¨à¤°":5600,"Ġà¤Ľà¤¬":5601,"oh":5602,"à¤¯à¤®à¤§":5603,"à¤¸à¤ĺ":5604,"à¤¨à¤²à¤¹à¤°":5605,"Ġà¤¨à¤Ĺà¤°à¤ªà¤°":5606,"à¤Łà¤¬à¤²à¤°":5607,"à¤®à¤Ľ":5608,"à¤ıà¤®à¤ķ":5609,"à¤°à¤Ĺà¤°":5610,"à¤ªà¤ľ":5611,"onym":5612,"con":5613,"à¤Łà¤ľà¤°à¤²":5614,"à¤°à¤Ńà¤°à¤ķ":5615,"ĠPlan":5616,"Ġyour":5617,"à¤«à¤µ":5618,"à¤Ĳà¤¤":5619,"à¤ĩà¤ľà¤¨":5620,"à¤¯à¤®à¤¦":5621,"à¤¨à¤²à¤¬":5622,"Ġà¤ħà¤®à¤°à¤¸":5623,"à¤Īà¤ªà¤ķ":5624,"ĠÐ¼":5625,"Ð¸ÑĤ":5626,"à¤Łà¤ħà¤ª":5627,"à¤¦à¤¨à¤¸":5628,"à¤ıà¤«à¤²":5629,"Ġà¤ħà¤µà¤ľ":5630,"ube":5631,"à¤ķà¤¸à¤°":5632,"Ġà¤°à¤£à¤¬":5633,"à¥ĢÃ·":5634,"à¤ĩà¤¡à¤²":5635,"Ġà¤¶à¤¯":5636,"à¤Ĺà¤¤à¤µà¤°":5637,"à¤¯à¤¯à¤¨à¤¬":5638,"Ġà¤Ľà¤²à¤«à¤²à¤¬":5639,"oft":5640,"Ġà¤°à¤¹à¤¯":5641,"Ġà¤ĩà¤Ļà¤²":5642,"Ġà¤Ĩà¤¯à¤¤à¤°":5643,"Ġà¤Ĩà¤Īà¤Ł":5644,"Ġà¥§à¥®à¥¦":5645,"Ġà¥§à¥¯à¥¬à¥¬":5646,"onymous":5647,"à¤ĩà¤²à¤¬":5648,"Ġà¤¸à¤¬à¤¸":5649,"Ġà¤¹à¤²à¤ķ":5650,"Ġà¤ıà¤ħà¤°à¤ª":5651,"à¤ķà¤ķà¤®":5652,"à¤·à¤£à¤ªà¤Ľ":5653,"à¤¬à¤Ĺ":5654,"ĠPol":5655,"à¤¤à¤¸à¤°":5656,"Ġà¤Ĩà¤®à¤¸à¤Ń":5657,"Ġà¤²à¤«":5658,"à¤°à¤®à¤°":5659,"à¤¸à¤¨à¤µ":5660,"à¥į;":5661,"Ġà¤ķà¤°à¤²":5662,"Ġà¤°à¤ľà¤¸":5663,"à¤¨à¤µà¤¶":5664,"tember":5665,"à´":5666,"Ġà¤ıà¤²à¤ª":5667,".,":5668,"Ġà¤Ĩà¤łà¤¬":5669,"à¤¤à¤ľà¤¨à¤²":5670,"à¤Łà¤®à¤§":5671,"à¤ıà¤Ĺ":5672,"Ġà¤¹à¤¯":5673,"à¤ĩà¤¨à¤²à¤¸à¤®":5674,"à¤¯à¤·":5675,"Ġà¤®à¤łà¤®à¤¨":5676,"à¤¸à¤®à¤²":5677,"âĢĻâĢĻ":5678,"à¥«à¥¦à¥¦":5679,"Ġà¤¬à¤Ĺà¤°à¤®":5680,"The":5681,"à¤Łà¤°à¤¦":5682,"Ġà¤Ĩà¤ĩà¤®":5683,"à¤¯à¤¯à¤ķ":5684,"à¤ĩà¤Ľ":5685,"Ġà¥§à¥¦à¥¯":5686,"Ġ%":5687,"Ð¾Ð³":5688,"à¤ķà¤¨à¤²":5689,"à¤ıà¤¸à¤ıà¤²":5690,"ree":5691,"ĠÑĤ":5692,"Ġà¤ħà¤¨à¤¶à¤¨à¤®":5693,"à¤¤à¤¨à¤¬":5694,"à¥ģâĢĮ":5695,"à¤Łà¤¸à¤ķ":5696,"Ġà¤«à¤Ĺà¤¤":5697,"à¤¨à¤µà¤ľ":5698,"à¤¸à¤®à¤°":5699,"Ġà¤Īà¤°":5700,"à¤¯à¤£à¤®":5701,"Article":5702,"Ġà¤ļà¤Łà¤ķ":5703,"à¤ıà¤¨à¤¡":5704,"Ġqu":5705,"Ġà¥§à¥¦à¥¨":5706,"erv":5707,"à¤¾à¤ģà¤ģ":5708,"à¤¨à¤ªà¤Łà¤ķ":5709,"39":5710,"se":5711,"Ø§Ø":5712,"Ġà¤¦à¤¸à¤®à¤²à¤µ":5713,"à¤Ńà¤£":5714,"Ġà¤ķà¤®à¤²à¤°":5715,"ĠAnonymous":5716,"EE":5717,"à¤®à¤¬à¤²":5718,"Ġà¤ªà¤°à¤µ":5719,"Ġà¤ĩà¤¯à¤°":5720,"ĠPurb":5721,"In":5722,"ĠðŁ":5723,"à¥ĩà¤ĥ":5724,"Ġà¤¬à¤®à¤²":5725,"à¤²à¤¨à¤¸à¤®":5726,"Ġà¤¦à¤®à¤¨à¤ķ":5727,"iaf":5728,"ĠPurbeli":5729,"mà¤¯":5730,"Ġà¤ħà¤²à¤µ":5731,"Ġà¤Ĩà¤Īà¤ıà¤®à¤Ī":5732,"à¤¤à¤°à¤Ĺà¤¤à¤ķ":5733,"Ġà¥¯à¥®à¥«à¥§":5734,"Ð·":5735,"Ġà¤¨à¤ľà¤¨":5736,"à¤ĩà¤¤à¤®":5737,"comments":5738,"Ġà¥¨à¥¦à¥©à¥«":5739,"email":5740,"sp":5741,"à¥įà¤Ĥ":5742,"à¤°à¤ªà¤¨":5743,"à¤°à¤¨à¤Ĺà¤°à¤ķ":5744,"Ġà¥¨à¥¦à¥¨à¥®":5745,"Ġà¥¨à¥¦à¥©à¥¬":5746,"Ġà¤¡à¤Łà¤ķà¤®à¤²":5747,"æľ":5748,"Ġà¤ĺà¤°à¤¸à¤®":5749,"Ġà¤¨à¤Ĩà¤ı":5750,"Ġà¤¦à¤®à¤ķà¤ķ":5751,"à¤ŀà¤®":5752,"à¤Łà¤²à¤°":5753,"Ġà¤Ńà¤·":5754,"Ġà¥¤à¥¤à¥¤":5755,"ng":5756,"Ġà¤ķà¤¦à¤®à¤¹à¤°":5757,"na":5758,"Ġà¤ĸà¤Ĺà¤°":5759,"Ġà¤¹à¤²à¤¹à¤°":5760,"og":5761,"à¤¶à¤Ńà¤°à¤¬":5762,"à¥Įà¤Ĥ...":5763,"à¥®à¥«":5764,"alk":5765,"à¤¯à¤¯à¤¤à¤°":5766,"Ġà¤ıà¤«à¤¥":5767,"à¤¶à¤¶à¤°à¤£":5768,"à¤¯à¤®à¤¤":5769,"Ġà¥¯à¥¦à¥¦":5770,"Ġà¤®à¤°à¤£":5771,"Ġà¤®à¤ľà¤¸":5772,"à¥¤[":5773,"Ġà¤ıà¤ªà¤®":5774,"Ġà¤ľà¤Ĺà¤¦à¤®":5775,"ĠâĢĵâĢĺ":5776,"Ġà¤®à¤Ļà¤ª":5777,"Ġarth":5778,"Ġà¤¤à¤®à¤²":5779,"à¤Īà¤Ńà¤¨":5780,"à¤·à¤¯à¤¬":5781,"Ġà¤Ĺà¤®à¤²":5782,"Ġà¤°à¤ĸ":5783,"à¤¬à¤Ŀ":5784,"Ġ?,":5785,"Ġà¤ľà¤µà¤°à¤ľà¤¸":5786,"à¤łà¤ķà¤¸à¤®à¤ķ":5787,"Ã¡":5788,"à¥į&":5789,"à¤¯à¤°à¤¸":5790,"Ġà¤ıà¤¸à¤ıà¤¸à¤¬":5791,"à¤ķà¤Ńà¤°à¤ķ":5792,"à¤·à¤¯à¤¸":5793,"à¤¡à¤¨à¤²":5794,"à¤¦à¤¨à¤¨":5795,"asar":5796,"à¤ªà¤ķà¤¤":5797,"Ġà¤¹à¤ķà¤¦":5798,"à¤µà¤¯à¤²":5799,"Ġà¤¹à¤²à¤ļà¤²":5800,"Ġà¤ħà¤ļà¤²":5801,"ance":5802,"à¤Ĳà¤¨":5803,"NE":5804,"Ġà¤¸à¤·":5805,"Ġà¤®à¤ª":5806,"à¥«à¥¯":5807,"Ġà¥§à¥¯à¥¬à¥¦":5808,"à¤¿\"":5809,"Ġ[...]":5810,"Ġag":5811,"53":5812,"Previous":5813,"à¥§à¥¦à¥¦":5814,"Ġà¥¨à¥¦à¥©à¥ª":5815,"Ġà¤¨à¤Ĺà¤¨":5816,"Ġà¤®à¤¶":5817,"à¤Ńà¤¹à¤°":5818,"à¤¨à¤µà¤¨":5819,"cted":5820,"à¥®à¥¯":5821,"Ñį":5822,"ĠÑĢ":5823,"eld":5824,"Ġà¤ħà¤ªà¤¤":5825,",âĢ¦":5826,"Ġà¥¤.":5827,"Ġà¤ħà¤¨à¤§":5828,"Ġà¤®à¤¹à¤²à¤ķ":5829,"Ġsu":5830,"à¤ªà¤°à¤¤":5831,"à¤Ĩà¤°à¤ª":5832,"Ð½Ð¾":5833,"à¤·à¤°à¤ķ":5834,"à¤¨à¤ªà¤¨":5835,"Ġà¤ľà¤¨à¤¸à¤¹à¤Ń":5836,"03":5837,"58":5838,"à¤Łà¤Ĺ":5839,"à¤ļà¤°à¤®":5840,"à¤Ńà¤ıà¤ªà¤Ľ":5841,"Ġà¥§à¥¯à¥®à¥¬":5842,"ood":5843,"à¤¨à¤ĩ":5844,"à¤®à¤²à¤Ĺ":5845,"à¤°à¤¦à¤²":5846,"à¤§à¤¨à¤ª":5847,"à¤µà¤°à¤£à¤ħà¤¨":5848,"à¤§à¤Ń":5849,"à¥«à¥§à¥¯à¥¯":5850,"Ġ2001":5851,"à¥Ńà¥¯à¥§à¥ª":5852,"Ġà¥¯à¥®à¥«à¥§à¥¦à¥§":5853,"68":5854,"à¤ıà¤ķà¤²":5855,"Ġà¤ıà¤¥à¤²":5856,"à¤µà¤¤à¤¯":5857,"Ġà¤¸à¤¹à¤ľà¤ķà¤°":5858,"Ġà¥§à¥¯à¥¯à¥§":5859,"Ġdis":5860,"Ġà¤īà¤µ":5861,"à¤°à¤®à¤¸à¤®":5862,"Ġà¤«à¤¹à¤°":5863,"Ġà¤Ĩà¤ĩà¤¹":5864,"asarokar":5865,"à¥«à¥§à¥¯à¥¯à¥§à¥¦à¥®":5866,"Ġà¥¯à¥®à¥«à¥§à¥¦à¥§à¥Ńà¥¯à¥§à¥ª":5867,";&":5868,"Ġà¤¬à¤¹à¤®":5869,"Ġà¤ĸà¤¬à¤°à¤¹à¤°":5870,"ĠSeptember":5871,"ÙĪ":5872,"Ġà¤°à¤¤à¤¨":5873,"à¤¶à¤µà¤°":5874,"america":5875,"Ġarthasarokar":5876,"Ġarthasarokarnews":5877,"Ġà¤¤à¤¹à¤®à¤§":5878,"mun":5879,"ne":5880,"à¤ģ-":5881,"à¤°à¤¦à¤®":5882,"Ġà¤Ĺà¤łà¤¨à¤®":5883,"ÐµÐ»":5884,"à¥Ģ?":5885,"à¤¦à¤¤à¤²":5886,"Ġà¤¤à¤¦à¤¨":5887,"à¤£à¤ªà¤Ľ":5888,"à¤¹à¤¨à¤¬à¤¹":5889,"à¤¸à¤¡à¤ķà¤ķ":5890,"à¥Īà¤¾":5891,"à¤ıà¤¸à¤²":5892,"à¤łà¤¨à¤®":5893,"iafamerica":5894,"à¤ıà¤ķà¤ªà¤Łà¤ķ":5895,"à¤ĩà¤²à¤²":5896,"ram":5897,"à¤īà¤ľà¤°":5898,"à¤¹à¤Ĺà¤¤":5899,"Ġà¤ıà¤ķà¤ª":5900,"Ġà¤ķà¤ľ":5901,"DP":5902,"à¤¿âĢľ":5903,"Ġà¤µà¤¨à¤µ":5904,"à¤§à¤¶à¤¤à¤ķ":5905,"à¤ĩà¤¡à¤°":5906,"à¤µà¤¨à¤ª":5907,"ark":5908,"âĢĮà¤Ĥ.":5909,"à¤¡à¤°à¤¹à¤°":5910,"à¤µà¤®à¤¹":5911,"à¤¹à¤®à¤¦":5912,"à¥Įà¤ģâĢĿ,":5913,"à¤ıà¤¨à¤ª":5914,"Ġà¤Ĺà¤¹à¤¤à¤°":5915,"Ġ31":5916,"à¤¿!":5917,"à¥ĭ;":5918,"Ġà¤Ĺà¤ıà¤¨":5919,"à¤ıà¤ļà¤ķ":5920,"à¤£à¤¯à¤¸":5921,"Ġà¤®à¤¹à¤®":5922,"%,":5923,"à¤µà¤µà¤°":5924,"FA":5925,"Ġà¤Łà¤¡":5926,"Ġà¥¨à¥¦à¥ªà¥«":5927,"Ġà¤ħà¤¦à¤ķ":5928,"Ġà¥¦à¥©":5929,"ateg":5930,"Ġà¤¤à¤¹à¤¦":5931,"Ġà¥¦à¥¬à¥«":5932,"Ġà¤Ĺà¤§":5933,"Ġà¤Ĩà¤Ĺà¤®":5934,"Ġà¤īà¤¥à¤²":5935,"Ġà¤¶à¤°à¤£à¤®":5936,"à¤¯à¤¸à¤²à¤Ĺà¤¤":5937,"Ġà¤Ńà¤ĩà¤¨à¤¸à¤ķ":5938,"pe":5939,"à¤ĩà¤¨à¤ĸà¤¬":5940,"Ġà¤Ĩà¤īà¤¨à¤¸à¤ķ":5941,"äº":5942,"à¤·à¤ħà¤Ĺ":5943,"à¤Łà¤¨à¤¸":5944,"Ġà¤ıà¤®à¤¸":5945,"à¥¨à¥¦à¥¦":5946,"à¤§à¤ķà¤²":5947,"à¤¯à¤ªà¤Ľ":5948,"Ġà¤ľà¤¨à¤ħà¤ª":5949,"à¤Ĩà¤°à¤Ł":5950,"Ġà¤µà¤¨à¤Ń":5951,"rou":5952,"ich":5953,"à¤Īà¤ľà¤¹":5954,"pril":5955,"à¤®à¤¸à¤¹":5956,"à¤£à¤¸à¤Ń":5957,"Ġà¤¸à¤ķà¤Ńà¤°":5958,"Ġà¤¤à¤°à¤ªà¤¨":5959,"Ġà¤¨à¤µà¤ª":5960,"Ġà¤¶à¤¤à¤ķ":5961,"à¤µà¤ķà¤¤":5962,"Ġà¤Ńà¤ıà¤¯à¤¤":5963,"Ġà¤Ĭà¤¸":5964,"à¤¬à¤¤à¤®":5965,"Ġà¤ľà¤®à¤ĺ":5966,"pdf":5967,"Ġà¤ħà¤ķà¤°":5968,"à¤°à¤ķà¤°à¤£à¤²":5969,"à¥Įà¤¾":5970,"à¤ķà¤Ļ":5971,"Ġà¤Ľà¤¤à¤®":5972,"à¥ĥ.":5973,"à¤ķà¤Łà¤¹à¤°à¤²":5974,"à¤Ķà¤·à¤§à¤¸à¤¹":5975,"Ġà¤¬à¤¸à¤¹à¤°":5976,"Ġà¤¤à¤¹à¤¸à¤¨":5977,"à¤¸à¤¡à¤ķà¤®":5978,"à¥¨à¥¦à¥Ńà¥¦":5979,"Ġà¤®à¤Ľ":5980,"Ġà¤¯à¤ļ":5981,"Ġà¤Ńà¤Īà¤¨":5982,"ĠTh":5983,"à¤¾à¥Īà¤Ĥ,":5984,"Ġà¤Ĺà¤«à¤ķ":5985,"min":5986,"ÑĪ":5987,"Ġà¤¤à¤Ļ":5988,"Ġà¤§à¤¨à¤²":5989,"à¥Įà¤Ĥà¤ĥ":5990,"Ġà¥§à¥¯à¥¯à¥¨":5991,"ĠFor":5992,"Ġprote":5993,"à¥į..":5994,"à¤²à¤ļà¤¨":5995,"à¤Ĺà¤ľà¤¸":5996,"à¤£à¤ªà¤ķ":5997,"à¤Ĩà¤ļ":5998,"Ġà¤ıà¤«à¤¸":5999,"à¤ķà¤¦à¤°":6000,"Ġà¤ħà¤®à¤¨":6001,"à¤¡à¤¨à¤¬":6002,"Ġ?\"":6003,"à¤¿à¤ģà¤Ĥ":6004,"ory":6005,"ãĢĢ":6006,"à¤Ŀà¤ªà¤ĸ":6007,"à¤Ĺà¤¤à¤¤à¤°":6008,"à¤Ĩà¤¹":6009,"à¥§à¥Ńà¥©":6010,"Ġà¤¨à¤¹à¤°à¤®":6011,"à¥ĮâĢĻ":6012,"Ġnepal":6013,"ign":6014,"Ġà¤¤à¤¹à¤¸à¤¨à¤¹à¤¸":6015,"à¤¤à¤°à¤Ĩà¤§":6016,"Ġà¥§à¥©à¥¦":6017,"à¤ĩà¤Ńà¤°à¤²":6018,"à¤µà¤ªà¤ķ":6019,"à¤ľà¤¦à¤°à¤¬":6020,"ple":6021,"à¤¾à¥Ģ":6022,"à¤ļà¤¡":6023,"à¤®à¤ļà¤²":6024,"à¤Łà¤Ĩà¤īà¤Ł":6025,"à¤Īà¤®à¤¤":6026,"Ġà¤¸à¤®à¤¯à¤Ńà¤¨":6027,"Ġà¤Ĺà¤ľà¤¬à¤ķ":6028,"à¥¯à¥«":6029,"Ġ2075":6030,"IV":6031,"Ġà¤¶à¤µà¤²":6032,"à¤ĩà¤°à¤¸à¤ķ":6033,"97":6034,"à¤Ńà¤°à¤£":6035,"à¥Ńà¥®":6036,"à¤§à¤Ńà¤¤":6037,"à¤ĺà¤¡":6038,"à¤Ĩà¤ĩà¤¡":6039,"à¤°à¤Ļà¤²":6040,"à¥«à¥¨":6041,"Ġà¤Ĩà¤ıà¤¨à¤¨":6042,"Ġà¤Ĺà¤ľà¤²à¤¹à¤°":6043,"ĠJul":6044,"à¤¦à¤²à¤¹à¤°":6045,"à¤Łà¤¬à¤ľ":6046,"à¤ĩà¤®à¤¨":6047,"Ġà¤ľà¤¨à¤ªà¤ķ":6048,"Ġà¤Łà¤ķà¤°":6049,"à¤¨à¤Ľà¤¨":6050,"à¤¹à¤ķà¤®":6051,"à¤Ńà¤²à¤®":6052,"Ġà¤ĵà¤ľ":6053,"à¤«à¤¹à¤°":6054,"Ġà¤ľà¤Ĺà¤ľ":6055,"Ġ??":6056,"à¤®à¤®à¤¨":6057,"Ġà¤ħà¤µà¤¤à¤°à¤£à¤ķ":6058,"à¤°à¤¸à¤®à¤ķ":6059,"Ġà¤°à¤¨à¤µ":6060,"à¤Īà¤µà¤°":6061,"Ġà¤ľà¤Ĺà¤¤à¤²":6062,"à¤Ľà¤²à¤«":6063,"à¤¯à¤ķà¤¬":6064,"à¤®à¤¤à¤¬":6065,"à¤Ĺà¤Ĺ":6066,"Ġà¤Ĺà¤ĩ":6067,"Ġà¤¸à¤¹à¤ħà¤§":6068,"Ġà¤¬à¤¹à¤¸à¤²":6069,"ĠÂ©":6070,"à¤¯à¤Łà¤°":6071,"we":6072,"à¤£à¤¸à¤¹":6073,"âĢ¦âĢ¦âĢ¦âĢ¦":6074,"Ġà¤ıà¤²à¤ľ":6075,"Ġà¤¤à¤¡":6076,"à¤Īà¤ķà¤¨":6077,"à¤µà¤¯à¤¨à¤²":6078,"Ġà¤¯à¤¸à¤µ":6079,"Ġà¥Ńà¥«à¥¦":6080,"à¤¯à¤¶à¤¨":6081,"à¤ľà¤¬à¤°":6082,"Ġà¤Łà¤Ł":6083,"à¤²à¤¯à¤Ń":6084,"Ġà¥ĩ":6085,"Ġà¥§à¥§à¥§":6086,"à¥Ĥà¤Ĥ":6087,"Ġpic":6088,"à¥ģâĢĻ,":6089,"à¤«à¤²à¤¤":6090,"à¤¸à¤ķà¤¸":6091,"âĢĵâĢĺ":6092,"Ġà¥¨à¥¦à¥¨à¥§":6093,"IS":6094,"][":6095,"ms":6096,"à¤Łà¤Ńà¤Ł":6097,"Ġâ":6098,"Ġà¤ĩà¤¦":6099,"Ġà¤§à¤¨à¤§":6100,"Ġà¥¨à¥¦à¥¨à¥«":6101,"à¤¤à¤ħà¤¨":6102,"à¤¯à¤ªà¤ķ":6103,"Ġà¤§à¤°à¤ªà¤ķ":6104,"à¥ģ?":6105,"à¤¹à¤²à¤ķ":6106,"à¤ĩà¤µà¤°":6107,"Ġà¤«à¤·":6108,"Ġà¤°à¤¹à¤²":6109,"Ġà¤«à¤²à¤ķ":6110,"à¤¶à¤¨à¤ħà¤¨":6111,"Ġà¤Ķà¤ªà¤¨":6112,"Ð°ÑĢ":6113,"à¤ķà¤¨à¤ķà¤°":6114,"à¥¨à¥¦à¥ªà¥¬":6115,"à¤®à¤¯à¤ķ":6116,"à¤ĩà¤¬à¤¹":6117,"à¤°à¤ļà¤¨à¤²":6118,"Ġà¤ıà¤ļà¤¡":6119,"à¤±":6120,"à¤£à¤µà¤¤":6121,"Ġà¤¶à¤¹à¤°à¤²":6122,"Ġà¤ıà¤ķà¤ıà¤ķ":6123,"à¤ķà¤ħ":6124,"à¥ĩ),":6125,"à¤ļà¤ķà¤®":6126,"à¥įâĢĵâĢĺ":6127,"/-":6128,"Ġà¤ĸà¤°à¤¬":6129,"Ġà¤ĵà¤Ńà¤°à¤¸":6130,"Ġà¤Ĩà¤¹à¤µ":6131,"Ġà¤Ńà¤ĩà¤¯":6132,"Ġà¤Łà¤Ļ":6133,"à¤°à¤¹à¤¹à¤°":6134,"à¤ªà¤¦à¤¸":6135,"à¤¯à¤°à¤¬à¤ľ":6136,"à¥ĩ(":6137,"à¤¯à¤®à¤ħà¤¨":6138,"Ġà¤Ķà¤°à¤¹":6139,"à¤²à¤®à¤§":6140,"ĠAd":6141,"Ð¾Ð½":6142,"à¤łà¤¦":6143,"==":6144,"Ġim":6145,"à¤¬à¤Ł":6146,"à¤®à¤ķà¤¹":6147,"Ġà¤Ĩà¤ĩà¤Łà¤®":6148,"Ġ196":6149,"eng":6150,"ount":6151,"Ġsh":6152,"ãĢģ":6153,"88":6154,"Â´":6155,"ition":6156,"Ð¸Ñı":6157,"NA":6158,"Ġà¤ķà¤¬à¤¡":6159,"à¤ķà¤·":6160,"à¤ªà¤¦à¤®":6161,"Ġà¤ĸà¤²à¤²":6162,"à¤ķà¤²à¤²":6163,"edia":6164,"ech":6165,"à¤¶à¤µà¤ķ":6166,"à¤¯à¤¯à¤¨à¤ħà¤¨":6167,"à¤Ķà¤·à¤§à¤ķ":6168,"Ġà¥¨à¥¦à¥ªà¥¦":6169,"à¤Ĩà¤Īà¤ıà¤ļà¤ıà¤²":6170,"à¤Ĩà¤Īà¤ıà¤ļà¤Ĩà¤°à¤ıà¤²":6171,"Ġà¤°à¤Ł":6172,"Ġà¥¨à¥«à¥¬":6173,"à¤¬à¤°à¤¦":6174,"Ġà¤Ĩà¤²à¤Ł":6175,"à¤¡à¤·":6176,"à¤ķà¤°à¤£à¤¸à¤®":6177,"ãģ®":6178,"Ġprotected":6179,"OS":6180,"ĠApp":6181,"Ġà¥©à¥«à¥¦":6182,"Ġà¤¬à¤¬à¤°à¤®":6183,"Ġà¤°à¤¹à¤®":6184,"Ġà¤ĭà¤Ĺ":6185,"ĠDec":6186,"Ã¤":6187,"Ġà¤¸à¤®à¤¯à¤¯à¤¤":6188,"Ġà¤ıà¤¯à¤°à¤µ":6189,"à¤ªà¤¤à¤®":6190,"Ġà¤Ĺà¤¢à¤µ":6191,"ox":6192,"à¤¶à¤¸à¤¹":6193,"01":6194,"Ġà¤¸à¤¹à¤µ":6195,"nc":6196,"Ġà¤¶à¤¸":6197,"à¤ıà¤Ńà¤°":6198,"à¤¸à¤ķà¤¦":6199,"à¤Ŀà¤ľà¤¸":6200,"à¤ıà¤¨à¤ıà¤¸":6201,"Ġà¥¦à¥®":6202,"à¤¸à¤¨à¤¹à¤°":6203,"Ġà¥¨à¥¦à¥©à¥©":6204,"Ġà¤¸à¤¹à¤®à¤¹":6205,"Ġà¤ħà¤®à¤°à¤Ĺà¤¢":6206,"à¤īà¤¦à¤Ľ":6207,"à¥ģà¥ĥ":6208,"à¤¶à¤ľà¤ķ":6209,"à¤Ĺà¤ļà¤²à¤¨":6210,"çļ":6211,"à¤¦à¤µà¤¸":6212,"à¤Ńà¤§":6213,"Ġà¤ļà¤ŀ":6214,"à¤¬à¤Īà¤¬":6215,").":6216,"à¥ĭ,'":6217,"twitter":6218,"à¤°m":6219,"à¤°à¤¨à¤ķ":6220,"à¤¨à¤¯à¤¨à¤ķ":6221,"Ġà¤¨à¤ľà¤°à¤ħà¤¨":6222,"Ġz":6223,"Ġà¤µà¤¶":6224,"Ġà¤Ľà¤¹à¤°":6225,"à¤°à¤¤à¤¬à¤¨":6226,"ime":6227,"Ġà¤¯à¤¸à¤ħà¤¨":6228,"Ġà¤¸à¤¬à¤ķ":6229,"Ġà¤ľà¤¨à¤ķà¤²":6230,"à¥į]":6231,"à¤¬à¤¸à¤¨":6232,"Ġà¤ħà¤²à¤Ĩà¤īà¤Ł":6233,"Ġà¥¤(":6234,"à¤¯à¤¸à¤¸à¤®":6235,"Ġà¥¨à¥¦à¥Ńà¥¬":6236,"à¥ĩà¤ģ,...":6237,"Ġà¤£":6238,"Ġà¤īà¤ªà¤¬":6239,"à¤¤à¤®à¤¸":6240,"Ġà¥§à¥§à¥ª":6241,"Ġà¤«à¤°à¤ķà¤ªà¤¨":6242,"Ġà¤¸à¤®à¤ª":6243,"à¤°à¤£à¤¸à¤®":6244,"à¤Ĩà¤Ĺà¤²":6245,"Ġà¤¶à¤µà¤ķ":6246,"à¤¤à¤®à¤¨":6247,"Ġà¤Ĩà¤ĩà¤ķ":6248,"Ġ2012":6249,"ma":6250,"à¤Ĩà¤Īà¤²":6251,"Ġà¤°à¤¯":6252,"à¤ķà¤Łà¤¬":6253,"47":6254,"à¤¨à¤°à¤¸":6255,"Ġà¤ĵà¤łà¤®":6256,"à¤·à¤¯à¤¬à¤¸":6257,"Ġà¤¨à¤Łà¤Ĩà¤īà¤Ł":6258,"Ġà¤¯à¤¸à¤ªà¤²":6259,"Ġà¤®à¤¨à¤Ń":6260,"Ġà¤Ńà¤ıà¤ªà¤¶":6261,"CC":6262,"à¤¨à¤Ĺà¤¢":6263,"ese":6264,"à¤ľà¤¨à¤µ":6265,"Ġà¤Łà¤¨à¤ķ":6266,"à¤¶à¤¨à¤¸":6267,"à¤Łà¤¬à¤²à¤²":6268,"Ġà¤°à¤Ĺà¤¤à¤²":6269,"à¤ªà¤ļà¤¨":6270,"à¤¶à¤¯à¤®":6271,"Ġà¤¥à¤µ":6272,"Ġà¤ĩà¤Ĺ":6273,"à¤ªà¤Ĺ":6274,"à¤¥à¤°à¤ķ":6275,"à¤ļà¤¨à¤ľ":6276,"cal":6277,"à¤ļà¤ªà¤¦à¤¸":6278,"ons":6279,"ĠDe":6280,"ĠÃ·":6281,"Ġà¤®à¤¹à¤²à¤®":6282,"Ġà¤ľà¤¨à¤¸à¤Ń":6283,"Ġà¤²à¤ļà¤ķà¤¤":6284,"cri":6285,"à¥Īà¥ĩ":6286,"Ġà¤¨à¤ªà¤¤":6287,"Ġà¤¦à¤®à¤¦":6288,"Ġà¤Ĩà¤łà¤®":6289,"à¤¡à¤®à¤ķ":6290,"Ġà¤ħà¤¬à¤²à¤®":6291,"Ġà¤ľà¤²à¤®à¤Ĺ":6292,"Ġà¤¥à¤ªà¤ķ":6293,"à¥Įà¤Ĥà¤ģ":6294,"35":6295,"au":6296,"ann":6297,"Ġ::":6298,"à¤Ĩà¤Īà¤¡":6299,"Ġà¤¤à¤²à¤¬à¤®":6300,"à¤°à¤¨à¤²":6301,"à¥®à¥§":6302,"Ġà¤ķà¤Łà¤µ":6303,"iss":6304,"ros":6305,"02":6306,"à¤¾.....":6307,"Ġà¤¨à¤ĺà¤Ł":6308,"âĢĿâĢĵ":6309,"à¤°à¤ªà¤ŀ":6310,"Ġà¤¸à¤¦à¤¨à¤²":6311,"à¤ĵà¤¯":6312,"Ġà¤ħà¤ķà¤¬à¤°":6313,"Ġà¤¬à¤²à¤¦":6314,"à¤¯à¤¯à¤¨à¤ªà¤Ľ":6315,"Åĵ":6316,"Ġà¤¦à¤²à¤¬à¤¹":6317,"Ġà¤ıà¤®à¤¡":6318,"çļĦ":6319,"zw":6320,"ÙĨ":6321,"à¤¦à¤ķà¤ª":6322,"Ġà¤Ĩà¤Īà¤¸à¤ķ":6323,"à¥ĮâĢĵ":6324,"à¤¤à¤¸à¤ŀ":6325,"Ð¾ÑĤ":6326,"Ġà¤ľà¤¨à¤¸à¤°":6327,"à¤¿.,":6328,"int":6329,"ES":6330,"Ġà¤ıà¤Ļ":6331,"à¤Łà¤µà¤²à¤¬":6332,"à¤µà¤£à¤ķ":6333,"à¤§à¤ļ":6334,"ĠZ":6335,"à¤¨à¤µà¤¸":6336,"à¤²à¤ķà¤¤":6337,"Ġà¤Ĩà¤µà¤°à¤£":6338,"à¤¤à¤¬à¤®":6339,"à¤ĸà¤Ń":6340,"Ġà¤¦à¤¶à¤Ĺà¤ľ":6341,"ase":6342,"Ġà¤¨à¤¹à¤°à¤ķ":6343,"Ġà¦":6344,"à¤°à¤ľà¤ķ":6345,"à¤¤à¤²à¤¨":6346,"Ġà¤¨à¤°à¤ķ":6347,"à¤ıà¤ķà¤¦":6348,"Ġà¤²à¤ŀ":6349,"Ġà¤ıà¤¸à¤ĩ":6350,"ĠĠĠĠ":6351,"à¤ļà¤°à¤¹à¤°":6352,"Ġà¥§à¥¦à¥¬":6353,"à¥¦à¥Ńà¥§":6354,"à¤¯à¤Ĺà¤°":6355,"à¤¤à¤²à¤¹à¤°":6356,"à¤¤à¤°à¤£à¤²":6357,"Ġà¤ľà¤¨à¤®à¤¤à¤ķ":6358,"Ġ40":6359,"Ġà¤ķà¤²à¤Ļ":6360,"ati":6361,"yst":6362,"Ġ<":6363,"Ġà¤¨à¤®à¤°":6364,"Ġà¥§à¥§à¥«":6365,"ery":6366,"ĠAs":6367,"55":6368,"à¤Ĩà¤ĩà¤Ł":6369,"ĠPolic":6370,"uk":6371,"à¤¶à¤¨à¤¶":6372,"ĠYou":6373,"200":6374,"Ġà¤Ĺà¤£à¤ķ":6375,"à¤ļà¤¨à¤°":6376,"à¤¸à¤ļà¤¨":6377,"à¤ıà¤¨à¤ķ":6378,"à¤«à¤²à¤ķ":6379,"à¥¯à¥¨":6380,"Ġà¤¸à¤¹à¤°à¤²":6381,"à¤¹à¤ļ":6382,"à¤µà¤¬à¤¹":6383,"à¤ĩà¤ªà¤Ľ":6384,"à¤°à¤ľà¤¨à¤²":6385,"Ġà¤ľà¤¯à¤ķ":6386,"alo":6387,"Ġà¤¸à¤°à¤¸à¤²":6388,"Ġà¥§à¥¬à¥«à¥©à¥¦":6389,"à¤ĵà¤¤":6390,"Ġà¤Ĩà¤ĩà¤ıà¤¸":6391,"ĠJan":6392,"Ġà¤²à¤«à¤¡":6393,"à¤¯à¤ŀ":6394,"à¤Ĺà¤°à¤£à¤ķ":6395,"à¤·à¤°à¤²":6396,"Ġà¤Ĩà¤¶à¤®":6397,"Ġà¤«à¤²à¤¤":6398,"Ġà¤Ńà¤Ĺà¤¤":6399,"Ġà¤¹à¤²à¤¬":6400,"à¤ģà¥ĩ":6401,"Ġà¤ļà¤Łà¤ªà¤Ł":6402,"Ġà¥§à¥§à¥©à¥®":6403,"Ġà¤¹à¤°à¤£":6404,"Ġà¤Ĩà¤Ł":6405,"à¤ªà¤¨à¤¹à¤°":6406,"à¤°à¤¸à¤¬":6407,"à¥įà¥¤'":6408,"à¤¯à¤µà¤¦":6409,"\\'":6410,"à¤ĩà¤°à¤¨":6411,"à¤°à¤®à¤®à¤¨":6412,"Ġ?'":6413,"Ġ---":6414,"low":6415,"Åĵà¤¯":6416,"à¤ħà¤µà¤§":6417,"Ġà¥§à¥¯à¥Ńà¥«":6418,"à¤ıà¤µ":6419,"Ġà¤«à¤ľ":6420,"Ġà¤ĵà¤¤":6421,"à¤¾âĢĺ":6422,"à¤¯à¤µà¤¤":6423,"à¤¸à¤¬à¤°":6424,"à¤Ĺà¤Ńà¤¨":6425,"Ġà¤¬à¤°à¤¦":6426,"Ġà¤Ĩà¤°à¤¸":6427,"à¤ĩà¤ķà¤®":6428,"sha":6429,"à¤¾Â¸":6430,"à¤§à¤ªà¤¤":6431,"Ġà¤§à¤°à¤¤":6432,"ãĢĤ":6433,"à¤ľà¤¨à¤®à¤¤":6434,"à¤¯à¤¨à¤°à¤¤":6435,"Ġà¤§à¤ľ":6436,"Ġà¤¦à¤²à¤Ĺà¤¤":6437,"Ġà¤°à¤¨à¤°à¤ħà¤ª":6438,"à¤¤à¤¨à¤Ĺà¤°à¤ª":6439,"à¤ķà¤°à¤¦":6440,"Ġà¤¬à¤¸à¤¬":6441,"Ġà¤ıà¤¨à¤Ĩà¤°à¤ıà¤¨à¤ıà¤ķ":6442,"more":6443,"Ġà¤ĸà¤²à¤¬à¤²":6444,"à¤µà¤ķà¤¸":6445,"atus":6446,"à¤Łà¤¨à¤Ĺà¤°à¤¸":6447,"à¤¤à¤¹à¤Łà¤®":6448,"Ġà¤¸à¤ªà¤°":6449,"à¤¨à¤¯à¤²":6450,"à¥Ī.":6451,"à¤¨à¤¸à¤ªà¤Ł":6452,"Ġà¤Īà¤Ń":6453,"Ġ~~":6454,"Ġà¤¸à¤®à¤¬à¤¨":6455,"Ġà¤§à¤¨à¤ľà¤¨à¤ķ":6456,"Ġà¤ıà¤«à¤ıà¤®à¤®":6457,"Ġà¤Ľà¤µà¤Ł":6458,"à¤ļà¤ķà¤²":6459,"Ġà¤ħà¤¨à¤¶à¤¨à¤ķ":6460,"à¤°à¤¹à¤¤":6461,"à¤¨à¤Ĺà¤°à¤¬":6462,"rig":6463,"Ġà¤īà¤®à¤Ļ":6464,"à¤ªmà¤¤":6465,"à¤°à¤¹à¤¬":6466,"Ġà¥¨à¥¦à¥®":6467,"ata":6468,"à¤¹à¤¸à¤ļ":6469,"à¤ľà¤ľ":6470,"à¤¸à¤ķà¤°":6471,"Ġà¤¤à¤°à¤ĸà¤°à¤®":6472,"à¥¨à¥¦à¥¬à¥®":6473,"Ø¯":6474,"Ġà¤ıà¤ķà¤Ńà¤¨":6475,"à¤·à¤£à¤¸":6476,"itt":6477,"à¤ľà¤Ĺà¤¢à¤®":6478,"Ġà¤ªà¤°à¤ª":6479,"à¤ĩà¤²à¤Łà¤²":6480,"Ġà¤ıà¤¸à¤Īà¤ĵ":6481,"à¥Ĭ":6482,"Ġà¤ľà¤¯à¤µ":6483,"ĠÐ±":6484,"à¤¼à¥Ģ":6485,"à¤ªà¤§":6486,"à¤¦à¤¯à¤²":6487,"à¤µà¤¥":6488,"Ġà¤Ĺà¤ľà¤®":6489,"à¤ħà¤¸à¤²":6490,"ĠAm":6491,"Ġà¤Ĩà¤ĵà¤¸":6492,"han":6493,"jya":6494,"à¤¬à¤ª":6495,"Ġà¤ıà¤Ĩà¤ĩà¤ľ":6496,"à¤Ĺà¤łà¤¨à¤Ń":6497,"44":6498,"Ġà¤®à¤ķà¤°":6499,"Ġà¤²à¤Ĺà¤¨à¤ĸ":6500,"à¤¸à¤¸à¤¹à¤°":6501,"à¤µà¤°à¤°":6502,"à¤¶à¤¨à¤°":6503,"Ġà¤Ńà¤µà¤¨à¤²":6504,"Ġà¤¨à¤ľà¤°à¤²":6505,"ality":6506,"ĠCo":6507,"Ġà¤Ĺà¤Ĺà¤¨à¤ķ":6508,"Ġà¤¹à¤¸à¤¨":6509,"ĠMay":6510,"à¤ķà¤¯":6511,"à¤¿à¥ĭ":6512,"à¥ĩâĢĻ,":6513,"à¤Ľà¤¯":6514,"à¥ĥà¥ĥ":6515,"Ġà¤ĸà¤°à¤¨":6516,"Ġà¤ıà¤¨à¤Ĩà¤ĩà¤¸":6517,"à¤Ĳà¤¶":6518,"à¥ģ\"":6519,"à¤¦à¤¤à¤°":6520,"Ġà¤Ĩà¤ĩà¤ĵ":6521,"à¤¸à¤¨à¤®à¤¨":6522,"Ġà¤¤à¤µ":6523,"Ġà¤ĸà¤²à¤¨":6524,"Ġà¤¦à¤²à¤Ń":6525,"arg":6526,"ool":6527,"ick":6528,"45":6529,"à¤Ĺà¤¸à¤¬":6530,"à¤ĩà¤ľà¤®":6531,"à¤ľà¤¨à¤µà¤°":6532,"Ġà¤ıà¤ķà¤ªà¤ķ":6533,"âĢĻ-":6534,"IVE":6535,"à¤īà¤ľà¤¨":6536,"Ġonline":6537,"Ġla":6538,"Ġà¤®à¤Ĺà¤°à¤¹à¤°":6539,"AM":6540,"à¥¤-":6541,"à¤¸à¤²à¤Ł":6542,"à¤¯à¤¯à¤¨à¤¹à¤°":6543,"Ġ2010":6544,"hare":6545,"Ð°Ð»":6546,"à¤¡à¤¯à¤¨à¤®à¤¨":6547,"Ġà¤ļà¤¶":6548,"Ġà¤®à¤¨à¤¬à¤¹":6549,"ĠRo":6550,"Ġà¥¦à¥¬à¥¯":6551,"ĠTVS":6552,"Ġà¤īà¤¥à¤²à¤ª":6553,"Ġà¤¤à¤Łà¤®":6554,"à¤Ļà¤ķà¤¨":6555,"Ġà¤¬à¤¨à¤¸":6556,"à¤ĩà¤¡à¤¬à¤¡":6557,"à¤Ńà¤µà¤®":6558,"ek":6559,"ph":6560,"à¤Ĺà¤ľà¤²":6561,"à¤¡à¤¸à¤¹":6562,"à¤ĺà¤°à¤²":6563,"Ġà¤Ĩà¤īà¤Ľà¤¨":6564,"à¤ķà¤Łà¤¸":6565,"à¤Łà¤µà¤²à¤²":6566,"Ġà¥¦à¥¬à¥©":6567,"jyaalo":6568,"à¤¯à¤®à¤µà¤°":6569,"à¤¸à¤¨à¤²à¤ķ":6570,"acha":6571,"ople":6572,"à¤ľà¤¨à¤¸à¤¹":6573,"Ġà¨":6574,"à¤ķà¤Łà¤¨":6575,"à¤°à¤£à¤¸":6576,"Ġà¥§à¥®à¥¯":6577,"ina":6578,"Ġhave":6579,"à¤¡à¤°à¤ª":6580,"iness":6581,"Ġcont":6582,"Ġà¤ıà¤ıà¤«à¤ª":6583,"à¤ľà¤¸à¤¹":6584,"à¤°à¤ĸà¤ª":6585,"ĠInd":6586,"Ġà¥¨à¥¦à¥©à¥¨":6587,"Ġà¤ľà¤¯à¤¬à¤¹":6588,"à¤Ļà¤¸à¤¹":6589,"Ġà¤ľà¤¨à¤Ń":6590,"à¤Ĺà¤°à¤ª":6591,"Ġà¤®à¤¤à¤²à¤µ":6592,"Ġà¤¸à¤Łà¤°":6593,"Ġà¤Ĳà¤¸":6594,"à¤ªà¤¸à¤Ļ":6595,"Ġà¥¦à¥¬à¥ª":6596,"Ġà¤ļà¤¤à¤°":6597,"à¤Ļà¤«":6598,"à¤Ĺà¤®à¤§":6599,"ĠTVSagarmatha":6600,"Ġà¤ĺà¤¸":6601,"Ġà¥¨à¥¦à¥ªà¥¨":6602,"ien":6603,"à¤ļà¤²à¤°":6604,"Ġà¤Īà¤·":6605,"à¤µà¤Łà¤²":6606,"Ġà¤ħà¤µà¤¸à¤°à¤¬":6607,"Ġà¤ıà¤ķà¤Ľà¤¤":6608,"Ã¼":6609,"Ġà¤Ĩà¤¥":6610,"Ġà¤ıà¤®à¤ª":6611,"Ġà¥Ńà¥«à¥©":6612,"Ġà¤ªà¤°à¤ķà¤®":6613,"Ġà¤¯à¤®à¤²":6614,"à¤µà¤¨à¤°à¤ķ":6615,"Ġ...|":6616,"ĠSave":6617,"ĠContinue":6618,"33":6619,"ele":6620,"Ġart":6621,"Ġà¤¯à¤®à¤¦":6622,"Ġà¤ªà¤¦à¤ķà¤ķ":6623,"ĠUjyaalo":6624,"ĠSamacha":6625,"ĠSamachaar":6626,"à¥ĩÃ·":6627,"à¤ªà¤ħà¤¨":6628,"à¤īà¤ªà¤ķ":6629,"à¤·à¤°à¤¹à¤°":6630,"Ġà¤Ĩà¤²à¤¸":6631,"Ġà¤ļà¤¹à¤²":6632,"Ġà¤®à¤¹à¤¤à¤ķ":6633,"Ġà¤®à¤¨à¤Ńà¤°":6634,"à¤°à¤²à¤ķ":6635,"Ġà¤¦à¤§":6636,"âĢ¦)":6637,"Ġ2007":6638,"Ġà¤ıà¤«à¤ıà¤®à¤ķ":6639,"à¤Łà¤Ĩà¤īà¤Łà¤®":6640,"à¤µà¤ļà¤¨":6641,"à¥¨à¥¦à¥¬à¥¨":6642,"à¤¤à¤°à¤ªà¤¶":6643,"Ġà¤Ĩà¤Īà¤¡à¤²":6644,"à¥ĭ(":6645,"Ġ!\"":6646,"à¤°à¤°à¤¹":6647,"à¤·à¤Ĺ":6648,"Ġme":6649,"Ġà¤®à¤¹Ã¬à¤µ":6650,"98":6651,"Ġà¤ıà¤ķà¤µà¤°":6652,"Ð¾Ð¹":6653,"à¤¸à¤¨à¤²à¤²":6654,"Ġà¤®à¤¬":6655,"à¤łà¤¯":6656,"Ġà¤¯à¤¸à¤Ń":6657,"à¥®à¥ª":6658,"à¤ķà¤¸à¤ķ":6659,"à¤¬à¤¸à¤ķ":6660,"Ġà¤ħà¤¸à¤°à¤ķ":6661,"à¤°à¤µà¤¶":6662,"à¤ĵà¤Ńà¤°":6663,"Ġà¤¶à¤¹à¤°à¤¬":6664,"Ġà¥§à¥¯à¥®à¥ª":6665,"ists":6666,"IA":6667,"à¤¹à¤¨à¤²":6668,"Ġà¤¬à¤¥":6669,"Ġà¤¹à¤°à¤ķ":6670,"à¤ªà¤¨à¤¸à¤®":6671,"Ġà¤Ĩà¤ıà¤Ľ":6672,"ĠFOR":6673,"à¤¿à¥Ģ":6674,"Ġà¤¤à¤Ĺ":6675,"à¤ĵà¤¨":6676,"Ġà¤¸à¤¹à¤°à¤¬à¤ľ":6677,"Ġà¥©à¥©à¥¦":6678,"à¤Ļà¤Ĺà¤¤":6679,"à¤ĩà¤¨à¤Ń":6680,"à¤Ĺà¤¤à¤°à¤¤":6681,"à¤¸à¤²à¤²":6682,"à¤µà¤µà¤¤":6683,"Ġà¤¨à¤ĸà¤¸":6684,"à¤Łà¤¤à¤¨":6685,"Ġà¤ĵà¤¤à¤ª":6686,"à¥®à¥¬":6687,"Ġà¤Ńà¤°à¤ķ":6688,"à¤ķà¤²à¤¬":6689,"Ġà¤Ĩà¤Īà¤¡":6690,"Ġ........":6691,"à¤ķà¤·à¤ķ":6692,"à¤¡à¤ªà¤ķ":6693,"Ġà¤Ĺà¤ıà¤ªà¤¨":6694,"UR":6695,"à¤®à¤ľà¤¸":6696,"à¥ĢÂ¸":6697,"à¥Ī!":6698,"à¤µà¤¨à¤°":6699,"Ġà¤ħà¤²à¤°":6700,"ĠSp":6701,"à¤¥à¤¸à¤®":6702,"à¤¡à¤¬à¤²":6703,"à¤·à¤£à¤¯":6704,"Ġà¤Ĩà¤Īà¤ıà¤¸":6705,"à¤£à¤¯à¤µ":6706,"à¤£à¤¨à¤Ĺà¤°":6707,"à¤¸à¤¨à¤¸à¤®":6708,"à¤°à¤®à¤£à¤¹à¤°":6709,"à¤²à¤¯à¤¤":6710,"Ġà¤¸à¤Ī":6711,"à¤¥à¤²à¤¸à¤®":6712,"cl":6713,"ield":6714,"à¤¦à¤ªà¤Ľ":6715,"à¤ķà¤°à¤£à¤ªà¤Ľ":6716,"Ġà¤Ĩà¤Īà¤«":6717,"Ġà¤ħà¤¨à¤¸à¤¨à¤°à¤¤":6718,"Ġent":6719,"Ġnot":6720,"à¤¨à¤¸à¤ªà¤Łà¤²à¤®":6721,"Ġà¤ĵà¤¹à¤¦":6722,"à¥¦à¥Ńà¥¯":6723,"Ġà¤Ĩà¤īà¤Łà¤²":6724,"à¤ªà¤Łà¤¨":6725,"à¤¦à¤®à¤¨":6726,"à¤ħà¤¯":6727,"à¤Łà¤¨à¤¹":6728,"ÃŃ":6729,"à¤ķà¤¢":6730,"Ġà¤ĺà¤Łà¤¬à¤¢":6731,"à¤¯à¤¦à¤²à¤®":6732,"Ġ2009":6733,"à¤ľà¤¦à¤°à¤ķ":6734,"orld":6735,"Ġà¥ªà¥«à¥¦":6736,"dcnepal":6737,"Ġà¥«à¥«à¥¦":6738,"olog":6739,"à¤®à¤Ńà¤ķ":6740,"à¤µà¤°à¤¹":6741,"à¤ľà¤²à¤Ĺ":6742,"ating":6743,"Ġà¥¨à¥¦à¥©à¥¯":6744,"40":6745,"à¤°à¤µà¤¸":6746,"Ġà¤Ńà¤ıà¤¬":6747,"Ġà¤¦à¤¶à¤ķà¤¯à¤¤":6748,"antipur":6749,"word":6750,"à¥ĩâĢį.":6751,"Ġà¤¨à¤ħ":6752,"à¤¬à¤²à¤²":6753,"à¤¶à¤¯à¤ķ":6754,"Ġà¤Ĩà¤łà¤°":6755,"à¥ĩ-âĢĺ":6756,"Ä±":6757,"à¤¸à¤°à¤¹à¤°":6758,"à¤¬à¤Ļ":6759,"Ġà¤Ńà¤¨à¤¸":6760,"à¤¤à¤°à¤ľ":6761,"âĢĺâĢĺ":6762,"per":6763,"à¤¾âĢį.":6764,"Ġà¤Ĩà¤ĩà¤¦":6765,"ities":6766,"usiness":6767,"Ġ2008":6768,"Âº":6769,"à¤¹à¤¹":6770,"Ġà¤Ńà¤°à¤ĸà¤°":6771,"à¤¡à¤²à¤¸":6772,"rest":6773,"à¥Ŀ":6774,"Ġà¤¸à¤¶à¤°":6775,"hak":6776,"ID":6777,"à¤ľà¤°à¤Ń":6778,"à¤¡à¤¶":6779,"Ġà¤¡à¤Ĺ":6780,"atch":6781,"à¤§à¤¦":6782,"à¤ĩà¤Łà¤¨":6783,"à¤ĩà¤Ńà¤¨":6784,"zwj":6785,"TW":6786,"à¤ĸà¤µ":6787,"Ġwas":6788,"Ġà¥¦à¥¬à¥®":6789,"ĠInternational":6790,"à¤²à¤ļà¤ķ":6791,"TC":6792,"Ġà¤ľà¤²à¤ķ":6793,"à¤Ĺà¤®à¤ª":6794,"à¤¶à¤®à¤§":6795,"Ġà¥§à¥«à¥¦à¥¦":6796,"à¤¬à¤¦à¤¬":6797,"à¤ĩà¤ľà¤¹":6798,"Ġà¤ªà¤¥à¤®":6799,"à¤ľà¤¨à¤°":6800,"Ġà¤ħà¤«à¤µ":6801,"Ġ~":6802,"ÐµÐ¼":6803,"lick":6804,"42":6805,"Ñī":6806,"Ġà¤Ńà¤ľ":6807,"à¤ħà¤µà¤°":6808,"à¤¦à¤¬à¤²":6809,"Ġà¤²à¤Ńà¤¸":6810,"ism":6811,"à¤¦à¤°à¤¬à¤ľ":6812,"à¤ķà¤ĺ":6813,"à¤®à¤¸à¤¨":6814,"à¤¯à¤²à¤¯à¤²":6815,"à¤Łà¤ľà¤¸":6816,"ĠAr":6817,"Ġdo":6818,"à¤Īà¤¨à¤ķ":6819,"Ġà¤¤à¤°à¤¬":6820,"Ġà¤ĵà¤®à¤¨":6821,"Ġà¤ªà¤¦à¤ļ":6822,"à¤®à¤®à¤¤":6823,"à¥Ģ.....":6824,"ame":6825,"Ġà¤¹à¤¡à¤ª":6826,"à¤¯à¤ļà¤ķ":6827,"à¤łà¤¨à¤ķ":6828,"à¤Ĺà¤¤à¤¯":6829,"à¤¨à¤¨à¤°à¤¸":6830,"à¥Įà¤Ĥ,âĢĿ":6831,"ĠFeb":6832,"Ð½Ð¸":6833,"ugu":6834,"Ġà¤¦à¤¬à¤¦à¤¬":6835,"à¤Īà¤²à¤Ĺ":6836,"à¤Īà¤Łà¤¹à¤°":6837,"à¤¯à¤£à¤ĺ":6838,"à¤®à¤°à¤£à¤®":6839,"à¤ıà¤Łà¤¹à¤°":6840,"ĠâĢĮ":6841,"Ġ11520":6842,"Ġ11518":6843,"Ġ11519":6844,"à¦¾":6845,"ORK":6846,"ax":6847,"Ġà¤Ńà¤¯à¤°à¤¹":6848,"à¤®à¤Ĺà¤¢":6849,"Ġà¤¤à¤²à¤¬à¤Ńà¤¤":6850,"à¤«à¤ķà¤¨":6851,"Ġà¤²à¤Ĺà¤¨":6852,"à¤¾)Â¸":6853,"à¤ĸà¤¸à¤¹":6854,"à¤Łà¤ķà¤¹à¤°":6855,"à¥Īà¤Ĥà¤ģ":6856,"à¤²à¤µà¤¦":6857,"Ùħ":6858,"Ġà¤Ĺà¤°à¤¯":6859,"Ġà¥§à¥©à¥¦à¥Ńà¥¯":6860,"Ġ11521":6861,"ock":6862,"à¤µà¤ķà¤®":6863,"à¥ĪâĢĮ":6864,"Ġà¤«à¤Ĺ":6865,"à¤ĵà¤Ī":6866,"à¤ķà¤Łà¤¹à¤°":6867,"Ġ11517":6868,"Ġ{":6869,"Ġà¤ľà¤¨à¤®à¤¤à¤¸":6870,"Ġà¤¤à¤²à¤¬à¤ķ":6871,"à¤µà¤¯à¤¨à¤¸":6872,"à¥¨à¥¦à¥¬à¥©":6873,"http":6874,"à¤²à¤ªà¤ķ":6875,"à¤ıà¤¦":6876,"à¤ľà¤¨à¤¸à¤®":6877,"à¤Ĩà¤°à¤ıà¤¸":6878,"à¤°à¤ĸà¤¨":6879,"ĠArt":6880,"ove":6881,"Ġà¤ħà¤ľà¤®":6882,"ĠâĢĭ":6883,"à¤Ķà¤¦":6884,"ound":6885,"à¤·à¤ķà¤¤":6886,"à¤ľà¤Ĺà¤¦":6887,"Ġpass":6888,"à¤ıà¤¯à¤°":6889,"Ġà¤Ĩà¤Ĺà¤®à¤¨à¤²":6890,"à¤¡à¤ļ":6891,"à¤¤à¤°à¤Ĺ":6892,"à¤¯à¤¨à¤¬":6893,"ern":6894,"esh":6895,"ansar":6896,"Ġà¤ªà¤Ĺà¤°":6897,"Ġà¤ĵà¤Ńà¤°à¤¹":6898,"à¤µà¤Ī":6899,"à¤ĩà¤ªà¤°":6900,"att":6901,"Ġà¤ļà¤°à¤£à¤¬à¤¦":6902,"Ġà¥į":6903,"Ġà¤Łà¤ļ":6904,"à¤ļà¤¨à¤¹à¤°":6905,"à¤°à¤¬à¤ľ":6906,"Ġà¥§à¥¯à¥®à¥«":6907,"à¥¨à¥¦à¥§à¥¬":6908,"à¤Īà¤¹":6909,"ÐµÐ´":6910,"EC":6911,"à¤°à¤¦à¤¶":6912,"Ġà¤Łà¤ªà¤°":6913,"à¥Įà¤ģà¥¤âĢĻ":6914,"epcal":6915,"Øª":6916,"à¤¯à¤ĸ":6917,"Ġà¤°à¤¥à¤¯":6918,"à¤Łà¤°à¤µ":6919,"à¤«à¤°à¤²":6920,"à¤¤à¤°à¤ĺ":6921,"Ġà¤¤à¤¡à¤ķ":6922,"ĠNETW":6923,"ĠNETWORK":6924,"à¤¬à¤¶":6925,"à¤µà¤¸à¤ļ":6926,"à¤ķà¤·à¤£":6927,"Ġà¤µà¤ļà¤¤":6928,"ement":6929,"ĠJun":6930,"Ø§ÙĦ":6931,"à¥Ģ.,":6932,"Ġcan":6933,"Ġà¤§à¤°à¤ªà¤ķà¤¡":6934,"à¤ģà¤ģ":6935,"Ġà¤Īà¤Łà¤¹à¤°":6936,"à¤¾à¥ĪâĢĮ":6937,"à¤ħà¤µà¤¸à¤°à¤®":6938,"Ġà¤ıà¤¯à¤°à¤¬à¤¸":6939,"à¤§à¤ĺ":6940,"Ġà¤¯à¤²":6941,"Ġà¤łà¤£":6942,"Ġà¥§à¥¨à¥¦à¥¦":6943,"Ġà¤Ĭà¤¨":6944,"Ġmin":6945,"ode":6946,"à¤¿à¥ģ":6947,"Ġà¤ħà¤¸à¤°à¤¬":6948,"Ġ11516":6949,"à¥¨à¥¦à¥Ńà¥¬":6950,"uck":6951,"à¤¨à¤¬à¤°":6952,"à¤łà¤¸à¤®":6953,"à¤ħà¤°à¤¬":6954,"à¤¯à¤¨à¤¶":6955,"Ġà¤ķà¤²à¤¹":6956,"Ġà¥¨à¥¦à¥ªà¥©":6957,"Ġà¤¡à¤®à¤°":6958,"Ġà¤Ĺà¤£à¤°":6959,"54":6960,"PAL":6961,"à¤Łà¤¤à¤°":6962,"à¤ªà¤¨à¤¸":6963,"à¤²à¤ļà¤²à¤¨":6964,"CL":6965,"Ġà¤Ĩà¤¯à¤¤":6966,"à¤ħà¤Ĺà¤¸":6967,"Ġà¤ķà¤°à¤¨":6968,"à¤Ńà¤¨à¤°":6969,"36":6970,"erm":6971,"à¤¡à¤°à¤Ĺ":6972,"Ġà¤¸à¤°à¤²à¤¤":6973,"ions":6974,"Ġse":6975,"Ġà¤¸à¤¹à¤ħà¤¸":6976,"alkot":6977,"%)":6978,"à¤¨à¤¸à¤²":6979,"à¤¹à¤ħà¤¨":6980,"à¤¬à¤°à¤¬à¤¹":6981,"à¤¥à¤¹":6982,"à¤¤à¤¨à¤µ":6983,"Ġà¤ĵà¤ĸà¤¤":6984,"Ġà¤Īà¤£":6985,"Ġà¤§à¤¨à¤ª":6986,"Ġà¥§à¥©à¥§":6987,"à¤¨à¤¨à¤²":6988,"à¤¥à¤ķà¤ķ":6989,"Ġà¤ħà¤Ļà¤Ĺ":6990,"Ġne":6991,")-":6992,"à¤¤à¤¥à¤²":6993,"ĠGalkot":6994,"ÙĦ":6995,"à¤Łà¤Ĺà¤¤":6996,"Ġà¤¨à¤ł":6997,"à¤ĩà¤ªà¤ķ":6998,"Ġà¤ĺà¤°à¤¤":6999,"à¤ªà¤®à¤¤à¤®":7000,"ĠMin":7001,"à¤ıà¤Ńà¤¨":7002,"à¤Łà¤¨à¤¬":7003,"à¤ĵà¤²à¤®":7004,"à¤ĸà¤¨à¤²":7005,"Ġà¤ªà¤¦à¤²":7006,"Ã¶":7007,"à¤µà¤ıà¤®":7008,"à¤Īà¤Łà¤²":7009,"à¤Īà¤®à¤§":7010,"à¤¾,âĢĻ":7011,"icip":7012,"ts":7013,"Ġà¤¬à¤¹à¤ķ":7014,"à¤ªà¤Łà¤ķà¤ķ":7015,"37":7016,"day":7017,"à¤¨à¤ĺ":7018,"à¤¡à¤²à¤¬":7019,"Ġà¤ļà¤²à¤¨à¤²":7020,"ild":7021,"ordin":7022,"à¤¹à¤Ļà¤ķà¤Ļà¤®":7023,"à¤ķà¤¤à¤²":7024,"à¤ĸà¤°à¤²":7025,"Ġà¤¨à¤Ĺà¤°à¤Ń":7026,"à¤°à¤ªà¤¥à¤®":7027,"Ġà¤¨à¤µà¤Ĺà¤ł":7028,"Ġà¤ıà¤¨à¤Ĩà¤°à¤ıà¤¨à¤²":7029,"à¤®à¤ľà¤¦":7030,"à¤¤à¤²à¤¬":7031,"Ġà¤¬à¤¨à¤ķ":7032,"Ġà¤®à¤¨à¤¤":7033,"Ġà¤ķà¤°à¤µ":7034,"à¥®à¥Ń":7035,"Ġà¤Ĩà¤¶à¤¯à¤ķ":7036,"Ġà¤¤à¤¹à¤Ĺà¤¤":7037,"erson":7038,"Ð°Ð¼":7039,"ĠStr":7040,"RA":7041,"Ú©":7042,"Ġà¤ĩà¤µ":7043,"à¥¨à¥¦à¥¬à¥ª":7044,"ĠView":7045,"à¤Ĺà¤ıà¤°":7046,"Ġà¤®à¤¹à¤ķ":7047,"âĢĻâĢĵ":7048,"Ġà¤¨à¤Ĩà¤ĵà¤¸":7049,"à¥¤.":7050,"à¤µà¤°à¤£à¤®à¤¨":7051,"à¤Ĩà¤Īà¤ı":7052,"69":7053,"à¤ªà¤¸à¤¬":7054,"Ġà¤¨à¤°à¤¦":7055,"Ġà¤Ľà¤¹":7056,"Ġà¤¶à¤ª":7057,"Ġà¤ħà¤¨à¤¸à¤¨à¤®":7058,"Ġà¤ħà¤ªà¤¦à¤¸":7059,"à¤®à¤£à¤ķ":7060,"à¤ļà¤Ńà¤¨":7061,"Ġà¤¸à¤¹à¤¦":7062,"ĠID":7063,"Ġà¤ħà¤¸à¤¹à¤ľà¤¤":7064,"irl":7065,"Ġà¤¨à¤¯à¤¨à¤°":7066,"))":7067,"ĠÑĥ":7068,"à¤·à¤®à¤£":7069,"à¤¬à¤¹à¤¸":7070,"à¤Īà¤¸à¤¯":7071,"Ġà¥§à¥¯à¥Ńà¥¯":7072,"Ġà¥§à¥¯à¥ªà¥Ń":7073,"TM":7074,"à¥Ģ..":7075,"Ġ98":7076,"à¤µà¤¯à¤®à¤¸":7077,"Ġà¤ķà¤ķà¤¨":7078,"Ġà¤Ĩà¤Īà¤ķ":7079,"à¤¯à¤¯à¤Ń":7080,"ations":7081,"Ġà¤ļà¤°à¤£à¤ħà¤¨":7082,"à¤Ľà¤²à¤«à¤²à¤®":7083,"Ġà¤ıà¤¸à¤¡":7084,"à¤¾&":7085,"à¤¡à¤ªà¤Ľ":7086,"âĢķ":7087,"Ġà¥§à¥§à¥Ń":7088,"à¤Ĩà¤ľà¤Ń":7089,"?'":7090,"à¤ľà¤ķà¤°":7091,"à¤·à¤¤à¤µ":7092,"ystem":7093,"Ġà¥Ĥ":7094,"ĠâĢį":7095,"à¤ŀà¤¸":7096,"à¥Įà¤Ĥà¤Ĥ":7097,"à¤Ĩà¤Īà¤ıà¤¸":7098,"hap":7099,"à¤°à¤ł":7100,"à¤µà¤ħà¤°":7101,"Ġà¥§à¥©à¥ª":7102,"ics":7103,"à¥ŀ":7104,"à¤Īà¤°à¤²":7105,"Ġà¤¸à¤¯à¤¸à¤®":7106,"ĠLe":7107,"Ð°Ð·":7108,"Ph":7109,"à¤¤à¤£":7110,"à¤ıà¤®à¤²":7111,"à¤ĩà¤Łà¤¬":7112,"à¤°à¤®à¤Ń":7113,"Ġà¤ķà¤®à¤²à¤ķ":7114,"à¤ıà¤¸à¤ıà¤¸à¤¬":7115,"ater":7116,"à¤®à¤¡":7117,"Ġà¥¨à¥¬à¥¦":7118,"ays":7119,"ocu":7120,"à¥¯à¥ª":7121,"à¤Ĺà¤łà¤¨à¤¬":7122,"ĠSEE":7123,"à¤ªà¤¦à¤ķ":7124,"à¤¸à¤¨à¤ª":7125,"à¤ħà¤°à¤ķ":7126,"fe":7127,"à¥Ī:":7128,"à¥®à¥¨":7129,"Ġà¤¹à¤ķà¤ħà¤§":7130,"Ġà¥§à¥¯à¥¬à¥¨":7131,"Ġà¤°à¤¬à¤°":7132,"à¤§à¤§à¤°":7133,"Ġà¤ªà¤¸à¤²à¤²":7134,"à¤Ńà¤Ī":7135,"à¤¾à¤ģ-":7136,"Ġà¤¡à¤ķà¤°":7137,"à¤µà¤°à¤¸à¤®":7138,"Ġà¥¨à¥¦à¥ªà¥§":7139,"imal":7140,"Ġund":7141,"à¤¹à¤²à¤Ĺ":7142,"à¤¥à¤¸à¤ļ":7143,"à¤ĸà¤Ĺà¤ŀ":7144,"à¤ĺà¤·":7145,"Ġà¤Łà¤£":7146,"à¤ĩà¤¨à¤ĸà¤¬à¤°":7147,"Ġà¤®à¤²à¤ĸ":7148,"icros":7149,"ĠNA":7150,"Ð°Ðº":7151,"Ġà¥§à¥¯à¥®à¥¨":7152,"à¤£à¤ľ":7153,"à¤¯à¤¸à¤¨à¤ķ":7154,"à¤ļà¤¨à¤¸":7155,"à¤¯à¤£à¤¸":7156,"ara":7157,"à¤Ĩà¤Īà¤Ł":7158,"Ġà¤Ĺà¤°à¤®":7159,"à¤ĩà¤¤à¤²":7160,"Ġà¤ħà¤Ńà¤¯":7161,"Ġà¤µà¤¨à¤ľ":7162,"row":7163,"à¥ģà¥Įà¤ģ":7164,"à¤Īà¤µà¤¸":7165,"à¤ĩà¤ķà¤ķ":7166,"à¥¯à¥§":7167,"Ġà¤¬à¤²à¤ª":7168,"Ġà¤ıà¤²à¤¬":7169,"Ġà¤¡à¤Ļ":7170,"à¤¶à¤ķà¤¸":7171,"à¤®à¤¹à¤²":7172,".......":7173,"Ġà¤ħà¤«à¤¨":7174,"Ġà¤¨à¤Ĺà¤Ī":7175,"ource":7176,"Ùĩ":7177,"à¤¸à¤®à¤¯à¤ķ":7178,"Ġà¤®à¤²à¤¦":7179,"outube":7180,"à¤¬à¤ĸà¤¤à¤®":7181,"Ġour":7182,"à¤¾à¥ģ":7183,"à¤¤à¤Ľ":7184,"Ġà¤ħà¤¨à¤ķ":7185,"Ġà¤ľà¤®à¤²":7186,"à¤ļà¤¤à¤°":7187,"à¤ĸà¤¬à¤¹":7188,"Ġà¤ķà¤®à¤¬":7189,"Ġà¤¬à¤²à¤µ":7190,"Ġcl":7191,"34":7192,"à¤¬à¤¦à¤²":7193,"ĠDur":7194,"Ġacc":7195,"ĠBl":7196,"IC":7197,"à¥ĭà¥į":7198,"à¥ĢâĢĶ":7199,"à¤·à¤ĺ":7200,"Ġà¤¶à¤µà¤¯":7201,"Ġà¤ĵà¤®à¤ķ":7202,"à¤ıà¤¨à¤ıà¤¨":7203,"à¤Īà¤ĵà¤Ł":7204,"à¤Ļà¤ĸà¤²":7205,"Ġà¤ĸà¤¬à¤°à¤ªà¤¤":7206,"à¥¦à¥¬à¥¨":7207,"be":7208,"à¤ĸà¤ªà¤¢":7209,"Ġà¤ªà¤°à¤ľ":7210,"Ð¸Ðµ":7211,"à¤ªà¤¸à¤¹":7212,"à¤Ļà¤Ń":7213,"à¤µà¤¨à¤ļà¤°":7214,"à¤Ĺà¤²à¤¤":7215,"à¤ıà¤«à¤ıà¤ķ":7216,"Ġà¤ªà¤²à¤²":7217,"Ġà¤Ńà¤®":7218,"ale":7219,"Ġwill":7220,"Ġà¥§à¥§à¥¨":7221,"à¥¨à¥¦à¥¦à¥Ń":7222,"Ġwe":7223,"Ġà¥§à¥¯à¥«à¥®":7224,"à¤µà¤ľà¤¸":7225,"Ġà¤¬à¤¨à¤Ń":7226,"à¥Įà¤ĤâĢĿ":7227,"...âĢĻ":7228,"à¥¯à¥¬":7229,"à¤ĸà¤®à¤¯":7230,"icrosoft":7231,"à¤®à¤¨à¤°":7232,"Ġà¤ĵà¤ķà¤²":7233,"Ġà¤¸à¤²à¤¹":7234,"à¤Ĩà¤ľà¤ķà¤²":7235,"Ġà¤¦à¤¶à¤°à¤¥à¤ļà¤¨":7236,"99":7237,"Â©":7238,"à©":7239,"à¤²à¤¸à¤²":7240,"à¤¯à¤ªà¤¨":7241,"à¤ĩà¤ķà¤¬":7242,"ÑĦ":7243,"à¤¹à¤µà¤°à¤®":7244,"Ġà¤µà¤«":7245,"Ġà¤ļà¤°à¤¨":7246,"32":7247,"ä»":7248,"åħ":7249,"à¤®à¤¢":7250,"Ġà¤ľà¤¨à¤¬":7251,"à¤¯à¤°à¤¡":7252,"ĠAction":7253,"à¤¶à¤¨à¤²à¤²":7254,"Ġà¤·à¤·":7255,"à¤¹à¤¨à¤¤à¤ķ":7256,"ĠÐ·":7257,"formation":7258,"à¤Ĺà¤µà¤£":7259,"Ġà¤ªà¤¦à¤µ":7260,"Ġà¤ªà¤¦à¤®à¤ª":7261,"Ġà¤ħà¤«à¤¸":7262,"ï¿½\"":7263,"38":7264,"St":7265,"Ġáĥ":7266,"à¤¦à¤ľ":7267,"à¤ķà¤®à¤¨":7268,"Ġà¤ľà¤¨à¤®à¤ŀ":7269,"Ġà¤¦à¤°à¤µà¤¨":7270,"Ġà¥§à¥§à¥¦à¥¨":7271,"à¤¯à¤¸à¤¬à¤ĸà¤¤":7272,"ĠNot":7273,"à¤ļà¤²à¤¬":7274,"Ġà¤īà¤łà¤¨":7275,"mand":7276,"à¤Ļà¤¨":7277,"à¤ļà¤¸à¤¯":7278,"________________":7279,"ideo":7280,"à¤Ĺà¤ı":7281,"Ġà¤ĵà¤ĩà¤²":7282,"ĠPh":7283,"Ð¾Ñģ":7284,"à¤¿(":7285,"à¤¸à¤²à¤ķ":7286,"Ġà¤Ĩà¤µà¤°":7287,"à¤ĩà¤¶":7288,"à¤¯à¤²à¤¸":7289,"à¥Įà¤ģ,âĢĿ":7290,"Ġï¿½...":7291,"Ġà¤Ĩà¤²à¤®à¤²":7292,"Ġà¤²à¤Ľ":7293,"à¤µà¤°à¤£à¤¬":7294,"Ġà¤ıà¤ħà¤°à¤²":7295,"ĠÐ½Ð°":7296,"conom":7297,"à¤¸à¤¨à¤¦":7298,"à¤®à¤¨à¤ª":7299,"Ġà¤®à¤¤à¤®":7300,"Ġà¤ľà¤ľ":7301,"à¤Īà¤ı":7302,"à¤ĩà¤¤à¤¬":7303,"Ġà¤Ŀà¤¯":7304,"Ġà¤Ŀà¤®à¤ķ":7305,"66":7306,"Ð¶":7307,"à¤®à¤ķà¤²":7308,"Ġà¤ĺà¤¨à¤¤":7309,"à¤¯à¤¸à¤ŀ":7310,"ĠÐ³":7311,"ked":7312,"land":7313,"à¤µà¤Ļ":7314,"à¥Įà¤Ĥ/":7315,"à¤¶à¤¨à¤²à¤ķ":7316,"à¤¸à¤¦à¤µ":7317,"à¤ıà¤®à¤Ł":7318,"à¤¸à¤µà¤¹à¤°":7319,"Ġpe":7320,"ĠPolicy":7321,"à¤ıà¤¤à¤²":7322,"à¤Ĩà¤°à¤®":7323,"Ġ----":7324,"Ġà¥§à¥¯à¥®à¥®":7325,"49":7326,"à¤Ńà¤ª":7327,"Ġà¤ľà¤¨à¤ķà¤°":7328,"Top":7329,"à¤·à¤ªà¤¹":7330,"à¤ªà¤¨à¤¦":7331,"Ġà¤Ĩà¤¯à¤µ":7332,"Ġà¤¤à¤ªà¤¶":7333,"Ġ,,":7334,"à¤¸à¤¬à¤ķ":7335,"Ġà¤ıà¤¨à¤ıà¤¸":7336,"ĠPortal":7337,"Ġà¥¨à¥¦à¥¨à¥ª":7338,"ny":7339,"à¥ĩ..":7340,"à¤§à¤°à¤£à¤²":7341,"à¥ĥâĢĻ":7342,"à¤Ĩà¤°à¤²":7343,"ins":7344,"ĠNew":7345,"à¤£à¤Ńà¤ķ":7346,"Ġà¤Ĩà¤°à¤ıà¤¸":7347,"Ġà¤ħà¤²à¤Ĺà¤ħà¤²à¤Ĺ":7348,"Ġà¥¨à¥¦à¥©à¥§":7349,"à¤¸à¤¥":7350,"Ġà¥§à¥¦à¥Ń":7351,"à¤ıà¤¸à¤ıà¤²à¤¸":7352,"Ġdes":7353,"à¤¥à¤ªà¤°à¤ķ":7354,"MS":7355,"à¤£à¤²à¤Ĺ":7356,"à¤«à¤°à¤®":7357,"Ġall":7358,"Ġà¤Ĺà¤µ":7359,"Ġà¤īà¤ªà¤ķà¤°à¤£à¤®":7360,"à¤°à¤ªà¤²":7361,"à¤¦à¤¨à¤¸à¤®":7362,"à¤µà¤²à¤Ĺ":7363,"Ġà¤ķà¤²à¤¸":7364,"à¤Īà¤ıà¤«à¤ı":7365,"à¤ĵà¤ıà¤¸":7366,"à¤µà¤¤à¤¸":7367,"Ġ-\"":7368,"Ġtr":7369,"Ġà¥¨à¥¦à¥©à¥Ń":7370,"Ġà¥¨à¥¦à¥©à¥®":7371,"Ġà¤Ĺà¤łà¤¨à¤¸":7372,"Ð¸Ð½":7373,"duc":7374,"Ġà¤ĳ":7375,"à¤¸à¤ľà¤¨":7376,"Ġà¤ªà¤¯":7377,"à¤Ńà¤Ĺà¤µà¤¤":7378,"à¤¶à¤Ńà¤¨":7379,"Ġà¤Ĩà¤Ĺà¤®à¤¨à¤ķ":7380,"à¥¤&":7381,"à¤¶à¤¤à¤µ":7382,"à¤¸à¤¸à¤¸":7383,"ings":7384,"Ġà¥§à¥¯à¥®à¥§":7385,"Ġà¤Ĺà¤®à¤Ĺà¤¢":7386,"Ġà¤īà¤ªà¤ľà¤ķ":7387,"Ġà¤¸à¤¡à¤ķà¤ª":7388,"Ġà¥§à¥©à¥¬":7389,"Ġà¤Ńà¤µà¤¨à¤¬":7390,"lish":7391,"à¤¢à¤Ĺ":7392,"à¤ĺà¤¸à¤¸":7393,"à¤¨à¤²à¤Ļ":7394,"Ġà¤ķà¤µà¤°":7395,"Ġà¤ķà¤¹à¤°à¤ķ":7396,"Ġwebsite":7397,"''":7398,"à¤¨à¤ĵà¤Ł":7399,"à¤ķà¤Ĺà¤¢":7400,"à¤ıà¤¥":7401,"Ġà¤¬à¤²à¤¬":7402,"à¤°à¤®à¤¸à¤¹":7403,"à¤°à¤®à¤¬à¤¦":7404,"Ġà¤ĸà¤¦":7405,"online":7406,"Ġà¥¨à¥¦à¥ªà¥ª":7407,"à¤®à¤ļà¤°":7408,"Ġà¤®à¤¦à¤¦":7409,"Ġà¤¶à¤ªà¤¥à¤Ĺ":7410,"ĠForum":7411,"à¤²à¤¸à¤ķ":7412,"Ġà¤¤à¤µà¤°à¤®":7413,"Ġà¤Ĩà¤°à¤¬":7414,"Ġà¤ľà¤¨à¤°":7415,"à¤¯à¤¤à¤µ":7416,"à¤ľà¤¯à¤ªà¤Ľ":7417,"2030":7418,"Ġstatus":7419,"Post":7420,"à¤¹à¤¬à¤°à¤®":7421,"à¤·à¤ķà¤¸":7422,"å¹":7423,"à¥Ģ!":7424,"à¤Īà¤¨à¤¨":7425,"ats":7426,"ĠAll":7427,"ĠâĢ¦.":7428,"unicip":7429,"à¥ģ(":7430,"à¤°à¤¤à¤²à¤Ĺ":7431,"ĠAD":7432,"igh":7433,"Ġà¥§à¥¯à¥«à¥©":7434,"Ġ00":7435,"à¤¡à¤¤à¤°":7436,"à¤°à¤µà¤ª":7437,"Ġpr":7438,"Ġ60":7439,"à¤¹à¤Ļà¤ķà¤Ļà¤ķ":7440,"Ġlead":7441,"à¤¿à¤¿":7442,"Ġà¤¨à¤¡à¤°":7443,"Ġà¤ľà¤²à¤¨":7444,"à¤¨à¤ķà¤¤":7445,"Ġà¤ĺà¤°à¤ĺà¤°":7446,"Ġà¥§à¥¬à¥®":7447,"Ġà¥¦à¥¬à¥Ń":7448,"à¥®à¥®à¥§":7449,"à¤®à¤µà¤¤":7450,"Ġà¤Ńà¤¯à¤²":7451,"Ġà¤ħà¤¸à¤Ī":7452,"Ġà¤Ĩà¤¶à¤¯à¤ªà¤¤":7453,"Ġà¤ĸà¤Łà¤ªà¤Ł":7454,"Ð°Ð²":7455,"åı":7456,"à¤²à¤ľà¤¯":7457,"à¤ªà¤²à¤®":7458,"Ġà¤ıà¤ªà¤²":7459,"ĠCl":7460,"Ġdi":7461,"me":7462,"rit":7463,"à¥įà¥ĭ":7464,"à¤²à¤µà¤®":7465,"à¤Łà¤ªà¤¤":7466,"à¤¡à¤µà¤¹à¤°":7467,"à¤¹à¤¤à¤®":7468,"à¥ĮâĢĿ":7469,"Ġà¥§à¥¯à¥Ńà¥¬":7470,"ĠNo":7471,"ĠHe":7472,"ĠWebsite":7473,"Ġà¤¸à¤µà¤¸":7474,"Ġà¤¦à¤¹à¤¨":7475,"à¤°à¤¦à¤ķ":7476,"Ġà¤«à¤°à¤ķà¤®":7477,"ates":7478,"Ġà¥§à¥¯à¥®à¥Ń":7479,"à¤µà¤ĸ":7480,"à¤ıà¤¶à¤¨à¤ķ":7481,"à¤łà¤²à¤Ĺ":7482,"Ġà¤¬à¤ļà¤¤à¤ķà¤°":7483,"ÑģÑı":7484,"ategic":7485,");":7486,"NT":7487,"à¤²à¤¯à¤¸à¤¹":7488,"Ġà¤¤à¤°à¤µ":7489,"à¤§à¤¨à¤¸à¤®":7490,"Ġà¤ĺà¤°à¤¨à¤ķ":7491,"Ġà¤ħà¤¬à¤²":7492,"à¤ıà¤®à¤ľ":7493,"à¤§à¤ķà¤®":7494,"à¤°à¤®à¤¶à¤ķ":7495,"à¥Įà¤ģâĢĻ,":7496,"à¤Ĺà¤®à¤Ĺ":7497,"Ġfin":7498,"ible":7499,"à¤¾;":7500,"à¤¦à¤¤à¤®":7501,"à¤Łà¤Ľ":7502,"Ġà¤µà¤¨à¤ª":7503,"à¤µà¤°à¤¦":7504,"Ġà¤Ĩà¤īà¤¥":7505,"old":7506,"Ġpassword":7507,"à¤Ŀà¤ª":7508,"à¤ħà¤®à¤°":7509,"à¤ķà¤°à¤Ń":7510,"Ġà¤ĭà¤£à¤¬":7511,"à¤¬à¤¤à¤¸":7512,"Ġà¤Ĩà¤łà¤ľà¤¨":7513,"ÑģÑĤÐ²":7514,"å®":7515,"à¤Īà¤¤à¤°":7516,"à¤Ĩà¤¨à¤¨":7517,"ali":7518,"à¤²à¤ĸà¤¬à¤°":7519,"41":7520,"Ġ75":7521,"à¥Ĥ'":7522,"Ġà¤¨à¤Ĺà¤°à¤¸":7523,"à¤ķà¤°à¤£à¤¤à¤°":7524,"adio":7525,"essage":7526,"ĠStrategic":7527,"ix":7528,"à¤µà¤¹à¤¨":7529,"à¤ıà¤¨à¤ıà¤ķ":7530,"Ġà¥§à¥§à¥¬":7531,"à¤ªà¤Łà¤ķà¤®":7532,"urk":7533,"Ġà¤ľà¤Ĺà¤¤à¤¬à¤¹":7534,"à¤¥à¤¨à¤Ĺà¤°":7535,"à¤ĩà¤²à¤Ĺ":7536,"à¤ķà¤²à¤¸":7537,"Ġman":7538,"Ġà¤Ŀà¤¡à¤ªà¤ķ":7539,"Ġà¤®à¤°à¤®":7540,"Ġà¤īà¤¤à¤°":7541,"Ġà¤ĸà¤Ľ":7542,"à¤Łà¤¨à¤°à¤ķ":7543,"à¤ļà¤°à¤Ļ":7544,"à¤¦à¤¬à¤¦":7545,"Ġà¤Ľà¤®":7546,"à¤²à¤®à¤ķ":7547,"Ġà¤ªà¤¤à¤ŀ":7548,"Ġà¤Ĩà¤ļà¤°à¤£à¤ķ":7549,"Ġà¤Ńà¤°à¤¤à¤°":7550,"à¤²à¤ķà¤¸à¤¹":7551,"à¤²à¤Ĺà¤Ńà¤Ĺ":7552,"ake":7553,"****":7554,"à¤¯à¤²à¤¬":7555,"à¤£à¤Ń":7556,"à¤ĩà¤ıà¤«à¤ı":7557,"Ġà¤ħà¤µà¤¯à¤µ":7558,"Ġà¥§à¥ªà¥®à¥®à¥§":7559,"ĠSc":7560,"ital":7561,"Ġsms":7562,"à¥§à¥ªà¥®à¥®":7563,"à¤¦à¤¸à¤¤":7564,"Ġà¤¦à¤¸à¤ķ":7565,"Ġà¤ļà¤¯à¤¨à¤®":7566,"à¤°à¤£à¤µà¤¶":7567,"Ġà¤¹à¤°à¤«":7568,"Ġà¤ħà¤ªà¤ļ":7569,"Ġà¥¨à¥¦à¥¨à¥¬":7570,"nepalnews":7571,"à¤ķà¤°à¤¸":7572,"à¤ªà¤ķà¤®":7573,"à¤µà¤°à¤µ":7574,"à¤£à¤¯à¤¸à¤®":7575,"à¤Ķà¤ªà¤ļ":7576,"à¤¶à¤¹à¤°à¤®":7577,"Ġà¤ĵà¤Ńà¤°à¤Ł":7578,"à¤®à¤ł":7579,"à¤µà¤¥à¤¯":7580,"à¤Ĺà¤«à¤²":7581,"Ġà¤§à¤®à¤¨":7582,"à¤ħà¤¸à¤¨":7583,"Ġà¤ıà¤¸à¤¬":7584,"ãģĹ":7585,"à¤¤à¤ªà¤°":7586,"à¤¸à¤¹à¤¨":7587,"Ġà¤ĺà¤¨à¤®":7588,"à¥Įà¤Ĥ||":7589,"à¤Ĺà¤ķà¤Ļ":7590,"à¥ģà¥¤âĢĿ":7591,"ĠKoh":7592,"ordinator":7593,"à¤¬à¤¤à¤¬":7594,"Ġà¤Ľà¤ªà¤ķ":7595,"à¤·à¤£à¤ķà¤°":7596,"à¤²à¤¨à¤ļ":7597,"à¤ĥâĢĵ":7598,"à¤ªà¤£à¤®":7599,"56":7600,"Ġà¤¹à¤°à¤ªà¤²":7601,"Ġà¤¸à¤¯à¤µà¤Ł":7602,"à¤¬à¤²à¤Ł":7603,"Ġà¤Łà¤¨à¤ķà¤ª":7604,"á»":7605,"Ġà¥¦à¥¬à¥§":7606,"LS":7607,"ģĦ":7608,"à¤Łà¤¨à¤°à¤¸":7609,"çĶ":7610,"à¥¯à¥Ń":7611,"à¤ĩà¤¨à¤²à¤¬":7612,"à¤¦à¤¶à¤¨à¤®":7613,"à¤¨à¤Ńà¤°à¤ķ":7614,"ĠDuration":7615,"à¤®à¤·":7616,"Ġà¤Ľà¤ļà¤²":7617,"à¤ĸà¤µà¤°":7618,"Ġà¤ıà¤²à¤¸":7619,"à¤¤à¤°à¤µà¤¸":7620,"Ġà¥§à¥©à¥®":7621,"ïģ¶":7622,"Topnepalnews":7623,"SE":7624,"Ġà¥©à¥¬à¥«":7625,"Ġà¤ľà¤¯à¤¸":7626,"Ġà¤²à¤ļà¤ķ":7627,"âĢ¦..":7628,"etail":7629,"à¤ĺà¤Łà¤¨à¤ķ":7630,"GC":7631,"à¥ģ!":7632,"Ġà¤¬à¤²à¤Ńà¤¦":7633,"à¤ķà¤Łà¤ª":7634,"TE":7635,"ïĢ":7636,"à¤²à¤ħà¤ĺ":7637,"Ġà¥¤âĢľ":7638,"Ġà¤°à¤ķà¤®à¤®à¤§":7639,"ble":7640,"à¤°à¤ªà¤ķ":7641,"à¤¦à¤°à¤¹":7642,"Ġà¤¨à¤ķà¤®":7643,"Ġà¤ıà¤ķà¤¦à¤²":7644,"ors":7645,"ĠMicrosoft":7646,"ivers":7647,"à¤¶à¤µà¤ª":7648,"à¤¨à¤®à¤°":7649,"Ġ09":7650,"à¤ĩà¤ĸ":7651,"à¤Ŀà¤°":7652,"à¤¶à¤¨à¤¦":7653,"à¥®à¥¦à¥¦":7654,"orn":7655,"Ġasked":7656,"unicipality":7657,"LD":7658,"à¤¤à¤ĸà¤¤":7659,"à¤ªà¤²à¤Ĺ":7660,"Ġà¤§à¤¬":7661,"Ġà¤ĵà¤¨":7662,"à¥¯à¥©":7663,"Ġhel":7664,"les":7665,"à¤²à¤Ī":7666,"à¤¥à¤¡":7667,"Ġà¤Ĳà¤¨à¤¹à¤°":7668,"Ġà¤Ĩà¤ķà¤·":7669,"Ð¾Ð±":7670,"Ġà¥§à¥¯à¥«à¥¯":7671,"ĠðŁĻ":7672,"à¤·à¤§à¤°à¤¹à¤°":7673,"à¤°à¤ľà¤²":7674,"à¤®à¤²à¤®":7675,"à¤®à¤¨à¤¦":7676,"à¤°à¤ªà¤¥à¤ķ":7677,"ices":7678,"rop":7679,"à¤ıà¤ĩà¤®":7680,"Ġà¤Ńà¤°à¤¤à¤ķ":7681,"à¤Ĺà¤Ńà¤Ļ":7682,"cript":7683,",âĢĺ":7684,"à¤ļà¤Ļ":7685,"Ġà¤Ĳà¤ļ":7686,"à¤®à¤¬à¤ľ":7687,"ĠMB":7688,"Ġint":7689,"áĥĲ":7690,"Ġà¥§à¥¯à¥Ńà¥§":7691,"Ġà¤Ĩà¤¦à¤¨à¤ª":7692,"à¤īà¤§":7693,"Ġà¥¨à¥¬à¥Ń":7694,"Ġà¤Ĺà¤ľà¤²à¤²":7695,"ublic":7696,"Ġà¤¨à¤ħà¤ªà¤¨":7697,"Ġà¤¬à¤¬à¤¨":7698,"à¤·à¤£à¤ªà¤¤":7699,"à¤¸à¤¹à¤ľ":7700,"âĨĲ":7701,"à¤®à¤°à¤¸":7702,"à¤¹à¤Ļ":7703,"Ġà¤ľà¤¯à¤¶":7704,"Ġ???":7705,"ren":7706,"mer":7707,"à¤¦à¤¶à¤ķ":7708,"à¤§à¤µà¤²":7709,"à¤¹à¤¨à¤µ":7710,"76":7711,"Ġà¤°à¤¸à¤®":7712,"Ġà¤ħà¤²à¤ķ":7713,"à¥Įà¤ģà¤Ĥ":7714,"à¤®à¤®à¤§":7715,"à¤¬à¤²à¤¸à¤®":7716,"à¤¨à¤Ĺà¤°à¤¸":7717,"Ġà¤¬à¤ļà¤¤à¤®":7718,"à¤Ĭà¤®":7719,"orea":7720,"Ð¸Ð¹":7721,"ral":7722,"à¤µà¤Ńà¤¨":7723,"à¤¶à¤²à¤ķ":7724,"ĠBh":7725,"Ġà¥¦à¥¬à¥¬":7726,"SS":7727,"Ġà¤¤à¤®à¤¸":7728,"à¤²à¤Ĺà¤¹à¤°":7729,"ounc":7730,"Ġà¤ļà¤°à¤£à¤¹à¤°":7731,"à¤Łà¤ĸ":7732,"à¤ļà¤Ń":7733,"à¤²à¤ķà¤¸":7734,"Ġà¤Ĩà¤¯à¤¶":7735,"à¥ĭà¥¤\"":7736,"Ġà¤Ŀà¤ª":7737,"à¤Ĩà¤¦à¤°à¤£":7738,"à¤¨à¤¸à¤¨":7739,"à¤µà¤¬à¤ľ":7740,"à¤Łà¤°à¤Ń":7741,"à¤²à¤¡à¤®à¤¨":7742,"Ġà¤®à¤Ĺà¤ľà¤ķ":7743,"à¤ĭà¤£":7744,"Field":7745,"wan":7746,"à¤¸à¤£":7747,"Ġà¤¸à¤¥à¤ª":7748,"Ġà¤Ĩà¤ıà¤ľà¤¸":7749,"à¤ľà¤Ńà¤¤":7750,"Ġhas":7751,"Ð¾Ð³Ð¾":7752,"âĢĻâĢĶ":7753,"Ġà¤¨à¤µà¤īà¤¦":7754,"à¥Įà¤Ĥà¥¤âĢĿ":7755,"ited":7756,"Ġele":7757,"à¤Ńà¤ªà¤¤à¤¨à¤ķ":7758,"ject":7759,"à¤ķà¤°à¤¬à¤°":7760,"à¤Ĥ...":7761,"à¤ĩà¤¤à¤ķ":7762,"à¤¾à¤ģâĢĻ":7763,"LE":7764,"à¤ªà¤°à¤ľ":7765,"à¥ĭà¥¤[":7766,"Ġà¤ªà¤¦à¤®à¤¬à¤¹":7767,"à¤¯à¤¯à¤®":7768,"à¤¸à¤ıà¤ķ":7769,"Ġà¤ªà¤¥à¤ª":7770,"à¥Ĥà¥į":7771,"à¤ĩà¤®à¤²":7772,"à¤°à¤®à¤ªà¤Ľ":7773,"Ġà¤¸à¤ľà¤Ĺà¤¤":7774,"à¤°à¤¥à¤°":7775,"Ġà¤ĸà¤²à¤Ļ":7776,"ied":7777,"port":7778,"à¤§à¤Ńà¤°":7779,"à¤łà¤¤à¤®":7780,"à¤¸à¤²à¤°":7781,"Ġà¤Ńà¤µà¤¨à¤Ń":7782,"ures":7783,"Ġà¤¤à¤²à¤¤":7784,"à¤°à¤¹à¤¸à¤®":7785,"Ġà¤¸à¤¬à¤¥":7786,"Ġà¤¸à¤®à¤¯à¤¬":7787,"Ġà¥§à¥Ńà¥¬":7788,"arch":7789,"Ġà¤¸à¤¹à¤°à¤¬":7790,"à¤µà¤Łà¤®":7791,"Ġà¤²à¤¹à¤²":7792,"Ġà¤¸à¤®à¤¤à¤²":7793,"Ġà¥§à¥©à¥«":7794,"Ġà¥§à¥¬à¥¬":7795,"à¤¯à¤ľà¤¨à¤¬":7796,"right":7797,"lig":7798,"Ġà¤ħà¤¨à¤¸":7799,"à¤²à¤ķà¤¦":7800,"Ġà¤Ŀà¤Ŀà¤²":7801,"à¤®à¤¬à¤¦":7802,"Ġà¤ıà¤«à¤ıà¤®à¤¬":7803,"ĠÙħ":7804,"à¤¿Ã·":7805,"à¤¹à¤Ĺ":7806,"à¤īà¤¦à¤ķ":7807,"à¤®à¤®à¤£":7808,"Ġà¥§à¥¨à¥¯":7809,"Ġà¥§à¥Ńà¥¦":7810,"ĠCha":7811,"ĠMunicipality":7812,"à¤¾ï¿½":7813,"Ġbusiness":7814,",,,":7815,"ING":7816,"à¤ıà¤Īà¤¸":7817,"à¤¤à¤ķà¤¬":7818,"à¤Ĩà¤ĩà¤ķ":7819,"Ġà¥§à¥§à¥®":7820,"ĠTrans":7821,"à¤µà¤£à¤²":7822,"à¤ĩà¤ħà¤ķ":7823,"à¤¤à¤¨à¤§":7824,"Ġ06":7825,"å¤":7826,"à¤«à¤²à¤®":7827,"à¥Įà¤ģâĢĿ":7828,"Ġà¥¨à¥Ńà¥«":7829,"Ġà¤Ĺà¤ĩà¤°à¤¹à¤¨":7830,"Ġarticle":7831,"à¤§à¤¨à¤¸à¤¹":7832,"Ġ2006":7833,"Ġyear":7834,"à¤ıà¤Łà¤°à¤ķ":7835,"à¤Ńà¤¡":7836,"Ġà¥¨à¥¦à¥¨à¥©":7837,"Ġ45":7838,"uls":7839,"ific":7840,"à¥ĭ',":7841,"à¤£à¤ĸ":7842,"à¤¯à¤ķà¤¸":7843,"Ġà¤¬à¤¸à¤°":7844,"à¤¦à¤°à¤ª":7845,"Ġà¤ħà¤ªà¤Ĺ":7846,"à¤®à¤¬à¤°":7847,"à¥ģâĢĿ,":7848,"ĠMan":7849,"conomic":7850,"åĲ":7851,"à¤¹à¤£à¤®":7852,"âĢĻà¥¤":7853,"à¤¤à¤ķà¤¤":7854,"à¤Ĩà¤®à¤®":7855,"à¤¨à¤¨à¤¸à¤ķ":7856,"Ġà¤ľà¤¸à¤¸":7857,"Ġà¤Ĩà¤ĩà¤ıà¤¨à¤ľ":7858,"Ġ-----":7859,"Ġà¤ľà¤¨à¤¸à¤ĸ":7860,"ternational":7861,"à¥į..!!":7862,"à¤¨à¤°à¤¤":7863,"Ġà¤°à¤Ĺ":7864,"Ġà¤ļà¤ĸ":7865,"Ġà¤¢à¤ķà¤®à¤ķ":7866,"Ġà¥¦à¥ªà¥®":7867,"af":7868,"mugu":7869,"à¤®à¤§à¤¨":7870,"Ġà¤Ĩà¤¶à¤ķ":7871,"à¤Ńà¤ľà¤¨":7872,"à¤¯à¤¸à¤ªà¤¶":7873,"Ġà¤ħà¤§à¤ķ":7874,"à¤ħà¤ªà¤®":7875,"à¤²à¤¯à¤µ":7876,"à¤Īà¤ķà¤²à¤®":7877,"ĠNext":7878,"ãģŁ":7879,"Ġà¤¬à¤¸à¤¸":7880,"à¤§à¤¨à¤Ĺ":7881,"Ð°Ñı":7882,"Ġà¤ľà¤®à¤ĺà¤Łà¤®":7883,"gh":7884,"à¤¹à¤¨à¤ª":7885,"Ġà¤¬à¤²à¤ľà¤«":7886,"à¤ĩà¤²à¤Łà¤ķ":7887,"Ġà¤¥à¤ªà¤ĺà¤Ł":7888,"Ġà¤¨à¤Ĩà¤ıà¤¸à¤®":7889,"à¥¨à¥¦à¥¬à¥¯":7890,"April":7891,"CO":7892,"app":7893,"ÙĬ":7894,"à¤°à¤ıà¤ķ":7895,"à¤²à¤µà¤°":7896,"à¤Ĺà¤ªà¤ŀ":7897,"à¤§à¤¸à¤Ń":7898,"à¤¹à¤°à¤ª":7899,"à¥ĭâĢĵâĢĺ":7900,"ĠÐ¾Ð±":7901,"ium":7902,"à¥įà¥Ī":7903,"à¥Ĥ:":7904,"à¥Į?":7905,"à¤ªà¤Ń":7906,"à¤£à¤¯à¤ªà¤Ľ":7907,"à¤®à¤£à¤¹à¤°":7908,"Ġà¥§à¥¬à¥«à¥©à¥ª":7909,"Ġ`":7910,"à¤¤à¤¡à¤®":7911,"Ġà¤¸à¤¨à¤ķ":7912,"Ġà¤Ĩà¤¸à¤®":7913,"à¤¹à¤ķà¤¸":7914,"ana":7915,"Ġà¤Ĩà¤Īà¤¡à¤²à¤ķ":7916,"ION":7917,"à¤Īà¤Ī":7918,"Ġà¤ħà¤§à¤°":7919,"Ġhe":7920,"Ġà¤¶à¤°à¤¦à¤ķ":7921,"à¤¶à¤¤à¤°":7922,"à¤īà¤·":7923,"à¤°à¤¹à¤¥à¤µ":7924,"à¤ħà¤µà¤¸à¤°":7925,"à¤¸à¤¨à¤¹":7926,"ĠBo":7927,"ocal":7928,"Ġà¥§à¥¯à¥§à¥¦":7929,"Ġà¥§à¥Ńà¥«":7930,"Ġà¥¨à¥®à¥¦":7931,"Ġ01":7932,"à¤ıà¤¨à¤²":7933,"à¤«à¤¸à¤²":7934,"à¤¯à¤®à¤ªà¤ŀ":7935,"Ġà¤¤à¤²à¤¸à¤®":7936,"ĠCent":7937,"à¤¼,":7938,"pos":7939,"à¤°à¤ħà¤°":7940,"Ġà¤Ńà¤°à¤£":7941,"Ġà¤Ĺà¤°à¤¨":7942,"à¤¸à¤®à¤§":7943,"à¤ıà¤¸à¤ıà¤¸à¤ª":7944,"ĠÐ°":7945,"ura":7946,"Ġà¤¹à¤¦à¤¬à¤¨":7947,"Ġà¤ŀ":7948,"à¤ªà¤¸à¤¹à¤°":7949,"Ġà¤¨à¤¤à¤®à¤¸":7950,"Ġà¤¬à¤¶":7951,"à¤ĸà¤ªà¤¤":7952,"à¤ħà¤¨à¤®":7953,"à¤°à¤¸à¤¯":7954,"Ġà¥§à¥¨à¥¬":7955,"à¥Įà¤Ĥà¥¤'":7956,"ĠRong":7957,"CH":7958,"Ġà¤¨à¤µà¤¸":7959,"à¤ľà¤ħà¤¨":7960,"à¥Į-":7961,"à¤ŀà¤¬à¤¹":7962,"à¤ıà¤¨à¤ıà¤®":7963,"ĠâĢĵâĢľ":7964,"Ġ80":7965,"de":7966,"Ã³":7967,"à¤¤à¤ĭà¤·":7968,"à¤¤à¤²à¤¤":7969,"Ġà¤ĸà¤¸à¤ĸà¤¸":7970,"GCDP":7971,"à¤¬à¤°à¤¤":7972,"Ġà¤Ńà¤¯à¤Ń":7973,"Ġà¤ıà¤®à¤ıà¤¸":7974,"Ġà¥§à¥¯à¥Ńà¥ª":7975,"à¤¨à¤Ĺà¤°à¤Ń":7976,"Ġà¤²à¤¹à¤²à¤¹":7977,"à¤ļà¤¢":7978,"à¤ĸà¤¨à¤¬":7979,"Ġà¤«à¤°à¤®":7980,"Ġà¤®à¤¨à¤¬":7981,"Ġà¤ĺà¤°à¤ľà¤®":7982,"à¤°à¤ªà¤Łà¤ķ":7983,"Ġà¤¨à¤ļà¤¢":7984,"à¤²à¤°à¤¹à¤°":7985,"à¥Ģ&":7986,"Ġà¤ªà¤§":7987,"à¤¦à¤¯à¤¦":7988,"à¤ľà¤µà¤²":7989,"à¤ĩà¤ľà¤²":7990,"à¤ħà¤£":7991,"Ġà¤īà¤ªà¤ķà¤°à¤£à¤²":7992,"Ġà¤Ńà¤ıà¤Ŀ":7993,"Ġà¤¸à¤¡à¤ķà¤¸à¤®":7994,"ĠAugust":7995,"ddc":7996,"âģĦ":7997,"à¤®à¤ªà¤°":7998,"à¤¹à¤ľà¤¸":7999,"à¤°à¤ļà¤²à¤¨à¤²":8000,"Ġ2000":8001,"075":8002,"à¤²à¤Ĺà¤°à¤¹à¤°":8003,"à¥Ľ":8004,"Ġà¤ľà¤ķà¤¡":8005,"à¥Ĥ...":8006,"à¤ľà¤®à¤¸":8007,"à¤µà¤¯à¤®à¤²":8008,"ĠWh":8009,"à¤¿),":8010,"Ġà¤®à¤Ńà¤¨":8011,"Ġà¤µà¤·à¤°":8012,"Ġà¤¦à¤²à¤¦à¤²à¤®":8013,"à¤µà¤Ńà¤°à¤¬":8014,"Ġà¥©à¥¨à¥¦":8015,"à¤®à¤¯à¤¦à¤°":8016,"à¤ļà¤¥à¤°à¤®":8017,"à¤¦à¤īà¤¨":8018,"Ġà¤¯à¤¸à¤ħà¤°":8019,"Ġà¤ĺà¤°à¤ĸà¤°":8020,"à¥ĩà¥¤âĢĻ":8021,"77":8022,"Ġro":8023,"à¤ıà¤Ĩà¤°":8024,"Ġà¤Ĩà¤Ĺà¤®à¤¨à¤®":8025,"Ġà¤ħà¤¨à¤¸à¤¨à¤ķ":8026,"ĠPAR":8027,"à¤Łà¤°à¤¸à¤¹":8028,"Ġà¥¨à¥¦à¥¨à¥Ń":8029,"à¥¨à¥¦à¥§à¥«":8030,"à¤µà¤¸à¤¹à¤®à¤¤":8031,"ĠÂ«Â»":8032,"Ġ11486":8033,"Ġminut":8034,"à¤µà¤ħà¤ĺ":8035,"à¤ľà¤¯à¤°":8036,"à¤·à¤¬à¤¹":8037,"à¥Ĥà¤ģ,":8038,"Ġ11485":8039,"Ġà¤°à¤®à¤¨":8040,"à¤¬à¤ĺ":8041,"à¤Īà¤ĸ":8042,"à¤ĩà¤Ńà¤®":8043,"Ġà¤ıà¤²à¤Īà¤¡":8044,"Ġoff":8045,"echn":8046,"à¤¡à¤Ł":8047,"Ġà¤®à¤¹à¤°à¤²":8048,"Ġà¤ªà¤¥à¤Ń":8049,"of":8050,"à¤¦à¤°à¤¦":8051,"à¥Īà¥Īà¤Ĥ":8052,"à¤ªà¤°à¤¦":8053,"à¤ªà¤®à¤¤à¤ķ":8054,"à¤²à¤¬à¤¦":8055,"Ġà¤Ĩà¤ĩà¤ķà¤¨":8056,"Ġà¥¨à¥¦à¥¨à¥¯":8057,"Ð¸Ð¼":8058,"Ġ78":8059,"Nepali":8060,"JU":8061,"Ġà¤Ĩà¤īà¤¨à¤ķ":8062,"à¤°à¤Ļà¤¬":8063,"à¤Ĩà¤ĩà¤ıà¤¸":8064,"chool":8065,"Ġà¥§à¥¯à¥Ńà¥®":8066,"à¤ľà¤¯à¤¨à¤Ĺà¤°":8067,"ĠArtists":8068,"à¤ĩà¤®à¤®":8069,"à¤«à¤¯":8070,"à¤Ļà¤¡":8071,"à¤Ĩà¤¤à¤®":8072,"Ġà¥§à¥©à¥©":8073,"à§ĩ":8074,"à¤Ĺà¤ĸ":8075,"à¥¤âĢ¦":8076,"Ġà¤§à¤¨à¤¸à¤®":8077,"à¤¸à¤¹à¤°à¤ķ":8078,"ull":8079,"iknews":8080,"ife":8081,"Ġ11487":8082,"à¤ļà¤Ł":8083,"à¤Ńà¤²à¤²":8084,"Ġà¤ļà¤ķà¤¨":8085,"Ġà¤°à¤ķà¤®à¤¸à¤¹":8086,"à¤®à¤¸à¤Ļ":8087,"Ġà¤¯à¤®à¤¨à¤®":8088,"Ġà¥¦à¥«à¥®":8089,"Ġà¤®à¤Ń":8090,"Ġà¤ľà¤ļ":8091,"à¤¡à¤°à¤¬":8092,"à¤¨à¤®à¤£":8093,"Ġà¤ħà¤¸à¤°à¤¹à¤°":8094,"à¤°à¤ļà¤²à¤¨à¤ķ":8095,"Ġà¥§à¥¨à¥©":8096,"ĠCon":8097,"TA":8098,"à¤Łà¤Ļ":8099,"Ġà¤Ķà¤ķ":8100,"Ġà¤Īà¤ŀ":8101,"Ġ2068":8102,"à½":8103,"à¥ĩÂ¥":8104,"à¤®à¤¦à¤²":8105,"à¤¬à¤Ĺà¤°à¤®":8106,"Ġà¤īà¤¡à¤¨":8107,"ets":8108,"econd":8109,"Ġà¥§à¥¯à¥ªà¥®":8110,"à¤¨à¤Łà¤®":8111,"Ġà¤īà¤ªà¤ķà¤ª":8112,"Ġà¤ªà¤¹à¤²à¤²":8113,"Ġà¤ħà¤¹à¤µ":8114,"Ġà¤ĺà¤°à¤Ńà¤¨":8115,"à¤°à¤ľà¤¨à¤ķ":8116,"Ġres":8117,"à¤ĭà¤¤":8118,"Ġ07":8119,"à¤¯à¤°à¤¶":8120,"à¤¬à¤°à¤¹à¤°":8121,"à¤¡à¤°à¤µ":8122,"Ġà¤ªà¤²à¤¹à¤°":8123,"Ð¸Ð¸":8124,"ĠEng":8125,"ÅĴà¤µ":8126,"Ġcommun":8127,"mandu":8128,"RNA":8129,"à¤¿à¥ĥ":8130,"à¤Ľà¤ł":8131,"à¤¯à¤¤à¤¹à¤°":8132,"Ġà¤ħà¤¸à¤Ń":8133,"Ġà¤īà¤¨à¤¬":8134,"ights":8135,"86":8136,"Sh":8137,"Ġà¤Ĺà¤ıà¤¸":8138,"Ġà¤Ľà¤°à¤ªà¤¸":8139,"à¤¥à¤Ńà¤¨":8140,"à¤£à¤¶à¤®à¤¶":8141,"à¤Ĭà¤¦":8142,"mm":8143,"à¥¥":8144,"Ġà¤¦à¤ĸà¤²":8145,"à¤ĺà¤¤":8146,"Ġà¤ľà¤¨à¤ªà¤°":8147,"à¤°à¤¹à¤ª":8148,"Ġà¤¯à¤¸à¤¬à¤°":8149,"à¤²à¤Ĺà¤ĩà¤¨":8150,"Ġà¥¨à¥©à¥¦":8151,"Ġà¤¨à¤Ĺà¤¦à¤®":8152,"ĠNEPAL":8153,"à¤°à¤ħà¤ĺ":8154,"à¥ĭ),":8155,"Ġà¤ħà¤¨à¤µ":8156,"Ġà¤ĸà¤ªà¤¤à¤ķ":8157,"à¤Łà¤¦à¤¹":8158,",\"":8159,"59":8160,"ober":8161,"Ø³":8162,"Ġed":8163,"Ġà¤ªà¤·":8164,"à¤Ĺà¤ªà¤Ľ":8165,"Ġà¤¹à¤ķà¤µ":8166,"à¤¸à¤¦à¤¦":8167,"à¤°à¤¥à¤®à¤¤":8168,"Ġ36":8169,"43":8170,"yl":8171,"æĹ":8172,"à¤¸à¤ħà¤«":8173,"à¤Ńà¤ıà¤®":8174,"Ġà¤¸à¤¯à¤ľà¤¨":8175,"Ġà¥¨à¥¨à¥¦à¥¦":8176,"ĠEduc":8177,"weet":8178,"RO":8179,"ward":8180,"à¤§à¤Ĺà¤¯":8181,"à¤£à¤¯à¤¨":8182,"à¤Ńà¤°à¤²":8183,"Ġà¤¡à¤°à¤ķ":8184,"Ġà¤®à¤¨à¤¶":8185,"à¤²à¤¯à¤ª":8186,"anch":8187,"Ġà¤ħà¤ªà¤¹à¤°à¤£à¤ªà¤Ľ":8188,"ancial":8189,"Phone":8190,"åĨ":8191,"Ġà¤¹à¤°à¤¦à¤®":8192,"à¤ĩà¤¤à¤°":8193,"à¤°à¤¹à¤¯":8194,"Ġnew":8195,"à¥ģà¤ģâĢĻ":8196,"à¤ķà¤µà¤°":8197,"à¤µà¤Īà¤®":8198,"Ġà¥¥":8199,"Ġà¤Ńà¤¸":8200,"à¤¥à¤¨à¤²":8201,"Ġà¤¸à¤®à¤§":8202,"Ġà¤ıà¤ķà¤¢":8203,"à¤ĵà¤¹":8204,"Ġà¤¹à¤Ļà¤ķà¤Ļà¤¸":8205,"à¤Ĺà¤µà¤¨":8206,"à¥Ī'":8207,"à¤ľà¤¯à¤®":8208,"à¤ĩà¤ħà¤¨":8209,"à¤¸à¤®à¤¤":8210,"à¤²à¤¨à¤¦":8211,"Ġà¤ķà¤łà¤ª":8212,"ĠEn":8213,"Ġ2074":8214,"à¤Ľà¤²à¤«à¤²":8215,"MP":8216,"Ġ),":8217,"Ġà¤¹à¤Łà¤²":8218,"à¤¬à¤ĩ":8219,"Ġà¤®à¤¨à¤°":8220,"Ġà¥§à¥¨à¥¨":8221,"Ġà¤°à¤ķà¤®à¤¸à¤®":8222,"ould":8223,"Ġ57":8224,"à¥¨à¥¦à¥§à¥ª":8225,"Ð»Ñı":8226,"Ġout":8227,"à¤°à¤Ŀ":8228,"à¤µà¤¶à¤¤":8229,"à¤¨à¤¸à¤¯":8230,"Ġà¤Ĩà¤ľà¤®":8231,"Ġà¤°à¤®à¤Ŀà¤®":8232,"à¤ĩà¤¬à¤²à¤ķ":8233,"Ġ08":8234,"UTC":8235,"à¤§à¤Ĺ":8236,"à¤¡à¤ķà¤°":8237,"à¤¹à¤¨à¤¤à¤²":8238,"Ġà¤¨à¤ľà¤°à¤¬":8239,"Ġà¤µà¤¨à¤ľà¤Ļ":8240,"Ġago":8241,"à¤²à¤ªà¤®":8242,"Ġà¤Ĺà¤ľà¤¬":8243,"à¤ľà¤Ńà¤¨":8244,"à¥ĥà¥į":8245,"à¤¸à¤²à¤§":8246,"ĠAl":8247,"EX":8248,"bo":8249,"ier":8250,"Ġà¤Ĺà¤ıà¤¨à¤¨":8251,"à¤¶à¤¬à¤¨":8252,"à¤®à¤¨à¤Ĺà¤°à¤®":8253,"Ġà¤ľà¤¨à¤®à¤¤à¤²":8254,"Ġà¥©à¥¨à¥«":8255,"Ġ35":8256,"Ġà¤¸à¤¯à¤²":8257,"Ġà¤ľà¤¨à¤¤à¤¨":8258,"Ġà¤¸à¤°à¤¸à¤°":8259,"Ð¸ÑĢ":8260,"Ġ58":8261,"ocation":8262,"Ġleading":8263,"à¤¾à¤ģà¥¤":8264,"Ġà¤ıà¤ķà¤¹à¤ľ":8265,"à¤®à¤¨à¤¹à¤°":8266,"à¤µà¤®à¤§":8267,"à¤¦à¤¶à¤¨à¤ķ":8268,"ĠAarth":8269,"Ġà¤¤à¤²à¤¬à¤¬":8270,"Ġno":8271,"ãģ§":8272,"rain":8273,"Ġà¤²à¤ĸà¤¨à¤ī":8274,"gram":8275,"à¤¸à¤ł":8276,"Ġà¤¬à¤µ":8277,"à¤¶à¤£":8278,"à¤ļà¤¯à¤¨":8279,"à¤¸à¤®à¤Ŀà¤¦":8280,"Ġà¤§à¤¨à¤µ":8281,"Ġà¤¹à¤°à¤¸à¤®":8282,"Ġ2005":8283,"ike":8284,"à¤¾âĢį":8285,"Ġà¤°à¤¶à¤®":8286,"à¤¡à¤ľà¤¸":8287,"à¤¸à¤¨à¤¸à¤¤":8288,"Ġpeople":8289,"\"à¥¤":8290,"ä½":8291,"à¤ľà¤¨à¤¦":8292,"à¤ĵà¤¹à¤°":8293,"ĠFM":8294,"Ġà¤¨à¤Ńà¤ĩà¤ķà¤¨":8295,"à¤Īà¤²à¤®":8296,"Ġà¤īà¤¸à¤¬":8297,"Ġà¤§à¤¤":8298,"à¤ĩà¤¨à¤¦":8299,"Ġà¤Ĺà¤¤à¤¸":8300,"Ġà¤°à¤£à¤ľ":8301,"ĠApple":8302,"à¤®à¤ĺà¤°":8303,"à¤¦à¤«":8304,"Ġà¤¨à¤¸à¤ļ":8305,"à¥ĮâĢľ":8306,"Ġà¤ıà¤ķà¤¡":8307,"Ġà¤ıà¤®à¤Ł":8308,"Ġnepcal":8309,"ĠEducation":8310,"mit":8311,"Ġu":8312,"à¤ķà¤¥à¤°":8313,"Ġà¤ľà¤¶":8314,"Ġà¤ħà¤°à¤¬à¤²":8315,"à¤ķà¤ķà¤¥":8316,"à¤ªà¤£à¤²":8317,"Ġà¤¨à¤¬à¤¤":8318,"ãģĦ":8319,"à¤¾!!!":8320,"à¤·à¤ľà¤¸":8321,"à¤Ĥà¤Ĥ.":8322,"à¤łà¤ķà¤¸à¤®":8323,"Ġà¥§à¥©à¥Ń":8324,"à¥Įà¤ģà¤ĥ":8325,"ĠBI":8326,"à¤¼à¤¿":8327,"à¤Łà¤§":8328,"Ġà¤Ĩà¤ıà¤²à¤Ĺà¤¤":8329,"à¤°à¤¤à¤µà¤°":8330,"à¤°à¤¸à¤µ":8331,"Ġà¤Ńà¤ıà¤Ľà¤¨":8332,"Ġà¤¢à¤°":8333,"à¤ķà¤ªà¤¥":8334,"Ġà¤īà¤¡à¤¡":8335,"à¥ĭâĢĵâĢľ":8336,"ãģ«":8337,"ype":8338,"Ġà¤Ĩà¤¹à¤¤":8339,"Ġà¤ªà¤°à¤²":8340,"Ġà¥§à¥¨à¥§":8341,"Ġà¤Īà¤Ļà¤Ĺ":8342,"ÐµÐ¹":8343,"Ġà¤ĸà¤µà¤°à¤¦":8344,"merica":8345,"à¤¨à¤¨à¤ķ":8346,"Ġà¤®à¤Ĺà¤¨":8347,"Ġà¤¹à¤¦à¤®":8348,"à¤¬à¤¨à¤²":8349,"à¤īà¤ŀ":8350,"Ġà¤°à¤¹à¤¨à¤ķ":8351,"Ġà¤¨à¤ľà¤°à¤¬à¤¨":8352,"à¤ĩà¤¤à¤Ńà¤¨":8353,"Ġà¤Ŀà¤®à¤Ŀà¤®":8354,"ka":8355,"vis":8356,"à¤¨à¤°à¤µà¤²":8357,"Ġà¤Ĺà¤¹à¤ķ":8358,"à¤ıà¤®à¤®":8359,"âĢļ":8360,"Ġà¤¸à¤®à¤ļ":8361,"à¤¶à¤ķà¤¦":8362,"à¤ĩà¤Łà¤¹":8363,"Ġà¤®à¤¨à¤®à¤¸":8364,"Ġpre":8365,"Ð¾ÑģÑĤ":8366,"ĠðŁĻģ":8367,"net":8368,"à¤¤à¤ħà¤²":8369,"à¤ļà¤¨à¤ľà¤Ļ":8370,"Ġà¤¸à¤Ļà¤ĸ":8371,"ĠâĢ¢âĢ¢âĢ¢":8372,"ĠFS":8373,"Ġ48":8374,"riv":8375,"à¤ĩà¤¨à¤ĸà¤¬à¤°à¤¸":8376,"tion":8377,"Ø¨":8378,"à¤Īà¤¬à¤¸":8379,"Ġà¤¥à¤°à¤¥à¤°":8380,"etter":8381,"à¥įï¿½":8382,"à¤¸à¤°à¤Ń":8383,"Ġà¤¹à¤µà¤¨":8384,"à¤¶à¤Ĺà¤°":8385,"à¤Īà¤¤à¤²":8386,"à¤ĸà¤¬à¤°à¤ķ":8387,"Ġà¤ĺà¤¤":8388,"Ġà¤¸à¤ķà¤²":8389,"Ġà¤īà¤¦à¤¯à¤°":8390,"Ġà¥§à¥¬à¥§":8391,"ĠPage":8392,"Ġà¤¬à¤§à¤¶":8393,"aus":8394,"à¤¨à¤¬à¤¨":8395,"à¤Ĺà¤²à¤ª":8396,"à¤ļà¤²à¤¨à¤ķ":8397,"IP":8398,"à¤Ļà¤ľà¤¸":8399,"à¤°à¤Ńà¤²":8400,"à¤µà¤ķà¤ªà¤¬":8401,"áĥĺ":8402,"51":8403,"LC":8404,"Th":8405,"Ġà¤Ĥ":8406,"Ġà¤¸à¤¤à¤²":8407,"à¤¶à¤¯à¤²":8408,"à¤Ńà¤¡à¤ķ":8409,"Ġà¤¨à¤Ĺà¤°à¤ªà¤²":8410,"à¤ıà¤¨à¤Ł":8411,"à¤Ĺà¤łà¤¬à¤¨":8412,"Ġà¤¹à¤¥":8413,"âĢ²":8414,"à¤ļà¤¨à¤ħà¤ĺ":8415,"à¤¤à¤ķà¤¸à¤®":8416,"à¤Łà¤¨à¤°à¤²":8417,"Ġà¥§à¥¯à¥ªà¥«":8418,"Ġà¥¨à¥¨à¥«":8419,"ener":8420,"Ġà¤ĭà¤£à¤¦":8421,"lease":8422,"à¥Ĳ":8423,"à¤¤à¤¨à¤¦":8424,"Ġà¤®à¤¤à¤¸à¤¹":8425,"Ġà¤¸à¤®à¤¯à¤¸à¤®à¤¯à¤®":8426,"ĠWe":8427,"ĠAarthiknews":8428,"KD":8429,"Next":8430,"uf":8431,"à¤¬à¤¤à¤²":8432,"à¤ĩà¤¸à¤°":8433,"à¤¾à¤ģà¥Ī,":8434,"Ġà¤ķà¤®à¤²à¤®à¤£":8435,"Ġà¤²à¤Ĺà¤¹à¤°":8436,"Ġà¤Ĩà¤®à¤ļ":8437,"Ġà¤Ĳà¤°à¤²":8438,"Ġà¤¡à¤²à¤°à¤Ńà¤¨":8439,",,,,":8440,"oy":8441,"åĪ":8442,"Ġ\\":8443,"à¤¬à¤°à¤¸":8444,"à¤£à¤ķà¤°":8445,"Ġ32":8446,"à¤®à¤Ľà¤®":8447,"ology":8448,"hy":8449,"Ġà¤ıà¤¸à¤ķ":8450,"à¤ħà¤ļà¤²":8451,"Ġà¤¡à¤²à¤°à¤¸à¤®":8452,"led":8453,"à¥įâĢĮ,":8454,"à¤µà¤ªà¤°":8455,"Ġà¤¸à¤®à¤ªà¤¨":8456,"Ġà¤°à¤¹à¤¨à¤¸à¤¹":8457,"enc":8458,"Ð¾Ðº":8459,"à¥į-âĢĺ":8460,"Ġà¥§à¥¯à¥Ńà¥Ń":8461,"FAmerica":8462,"hC":8463,"à¤¹à¤¸à¤ķ":8464,"à¤ĩà¤ªà¤®":8465,"Ġà¤ıà¤¨à¤¬":8466,"à¤ľà¤¨à¤¨":8467,"Ġà¤Ĩà¤°à¤§à¤¨":8468,"à¤¦à¤¨à¤¸à¤¹":8469,"à¤ĵà¤ªà¤¨":8470,"à¤ľà¤¯à¤¦à¤¶à¤®":8471,"2017":8472,"ãĤĴ":8473,"lication":8474,"ĠInternet":8475,"ey":8476,"à¥ģà¥ģà¤ģ":8477,"à¤¹à¤¨à¤®":8478,"à¤§à¤¯à¤®":8479,"à¤ģ)":8480,"Ġà¤¥à¤®à¤®":8481,"Ġà¤¢à¤²à¤ķ":8482,"Ġà¥§à¥ªà¥¨à¥¦à¥«":8483,"ams":8484,"Ġà¤Ĺà¤«à¤Ĺ":8485,"IAFAmerica":8486,"nar":8487,"Ġ_":8488,"à¤Īà¤Łà¤ķ":8489,"à¥¤)":8490,"Ġà¤Ĩà¤Īà¤ıà¤¨à¤ľ":8491,"ĠMH":8492,"Ġà¤¨à¤Ĩà¤īà¤²":8493,"ages":8494,"olle":8495,"Ġeconomic":8496,"å¹´":8497,"Ġà¤®à¤ĸà¤¨":8498,"à¤ļà¤ĺà¤°à¤®":8499,"à¤ŀà¤¨":8500,"Ġà¤ĺà¤°à¤Ĩ":8501,"Ġà¤Ĩà¤ıà¤¦":8502,"rist":8503,"ower":8504,"Ġà¥§à¥¯à¥Ńà¥¨":8505,"Ġminutes":8506,"ron":8507,"ĠÑĩ":8508,"Ġà¤¸à¤¯à¤°":8509,"Ġà¤ªà¤¥à¤²":8510,"Ġà¤¹à¤¤à¤ķ":8511,"à¤ĩà¤Ńà¤ķ":8512,"à¤¶à¤ķà¤¬":8513,"à¥ĭ,âĢĺ":8514,"à¤ķà¤¨à¤¹à¤°":8515,"à¤²à¤¤à¤¸à¤®":8516,"Ġà¥§à¥¬à¥Ń":8517,"alth":8518,"Ġ500":8519,"Ġvar":8520,"AC":8521,"Ġà¤¨à¤°à¤¨":8522,"ald":8523,"ĠSu":8524,"ico":8525,"à¥ģà¥¤'":8526,"ÐµÐº":8527,"Com":8528,"gan":8529,"Ġà¤°à¤Ļà¤®":8530,"à¤ħà¤ªà¤ķ":8531,"Ġà¤ħà¤ªà¤ļà¤²à¤¨":8532,"?\"":8533,"air":8534,"oice":8535,"à¤ķà¤¸à¤¨":8536,"à¤ľà¤²à¤ķ":8537,"à¤ľà¤¯à¤¸":8538,"à¤ĸà¤°à¤¬":8539,"à¤¤à¤°à¤¹à¤°":8540,"Ġà¤łà¤¨":8541,"Ġà¥§à¥ªà¥«":8542,"onth":8543,"Ð°Ñģ":8544,"Ġte":8545,"à¥¨à¥¦à¥«à¥®":8546,"2074":8547,"à¤°à¤£à¤¦":8548,"à¤Ĺà¤°à¤¬":8549,"à¤ħà¤®à¤²":8550,"Ġà¤Ŀà¤²à¤®à¤²":8551,"Ġà¤ħà¤ªà¤ľà¤¸":8552,"à¤ķà¤¸à¤ª":8553,"à¤Ĩà¤°à¤Ĩà¤°":8554,"Ġportal":8555,"à¤Ĩà¤ĩà¤¤à¤µ":8556,"bKD":8557,"ml":8558,"à¤¤à¤²à¤²":8559,"à¤¹à¤°à¤¸":8560,"à¤°à¤®à¤¯":8561,"Ġà¤ĩà¤¨à¤ķ":8562,"à¤Ĩà¤ķà¤°":8563,"Ġà¥©à¥¦à¥¦à¥¦":8564,"à¤°à¤ĸà¤£":8565,"Ġà¤ķà¤²à¤®à¤ķ":8566,"Ġ90":8567,"Ġà¤ıà¤«à¤ıà¤®à¤²":8568,"athmandu":8569,"à¤¨à¤°à¤¹à¤°":8570,"à¤¹à¤¨à¤¸":8571,"Ġà¥§à¥«à¥§":8572,"à¤®à¤ªà¤¹":8573,"aya":8574,"roup":8575,"cent":8576,"à¥į(":8577,"à¤Īà¤²à¤ķ":8578,"Ġà¤¡à¤ļ":8579,"Ġà¤ıà¤®à¤ıà¤®":8580,"à¤²à¤µà¤¹":8581,"à¤ĩà¤«à¤¸":8582,"à¸²":8583,"Ġ}":8584,"à¤¸à¤°à¤¹à¤ķ":8585,"Ġà¤¨à¤Ĩà¤¤":8586,"ĠØ¨":8587,"vent":8588,"Ġà¤¨à¤Ĺà¤£":8589,"Ġà¤Ńà¤ıà¤Ńà¤°à¤ķ":8590,"Ġà¤ħà¤Ĺà¤®":8591,"Ġà¥§à¥ªà¥ª":8592,"à¤¯à¤Łà¤¨à¤¸":8593,"ely":8594,"Ġà¤¹à¤Ļà¤ķà¤Ļà¤¬":8595,"que":8596,"à¤ľà¤Ĺà¤¢à¤ķ":8597,"Ġà¤¬à¤ĸà¤¤à¤ķ":8598,"uc":8599,"Ġet":8600,"ĠØ§ÙĦ":8601,"à¤ķà¤ªà¤¨":8602,"à¤ªà¤Ńà¤¨":8603,"à¤ĩà¤²à¤°":8604,"Ġà¥§à¥«à¥«":8605,"Ġà¥¨à¥§à¥¦":8606,"Ġà¥ªà¥«à¥¬":8607,"ĠEth":8608,"ersion":8609,"áĥĲáĥ":8610,"à¥ĩ;":8611,"Ġà¤®à¤°à¤¹":8612,"Ġà¤Ĺà¤¤à¤¬à¤°":8613,"à¥Īà¤ĤâĢĵ":8614,"Ġmy":8615,"ĠApril":8616,"ĠIt":8617,"Ã¥":8618,"Ġà¤¬à¤ķà¤°":8619,"Ġà¤ĵà¤ļ":8620,"à¤¬à¤²à¤¤":8621,"Ġà¤¨à¤Ńà¤ĩà¤¸à¤ķ":8622,"à¤®à¤£à¤ª":8623,"Ġà¤ıà¤²à¤ĩà¤¡":8624,"Ġà¥¦à¥«à¥¬":8625,"Ġà¤ħà¤®à¤²à¤¦":8626,"à¤ķà¤ħà¤ªà¤ķ":8627,"onlinekhabar":8628,"à¤¯à¤¬à¤°":8629,"Ġà¤¹à¤¦à¤ķ":8630,"à¤ĩà¤¥":8631,"à¤«à¤°à¤ª":8632,"à¤Ĺà¤¤à¤¬":8633,"Ġ?!":8634,"Ġà¤¸à¤¤à¤ª":8635,"ĠRep":8636,"à¤¨à¤Ĺà¤ĩà¤°à¤¹":8637,"ED":8638,"oint":8639,"æĸ":8640,"ïĥ":8641,"Ġà¤°à¤£à¤¸":8642,"à¥ĩ,âĢľ":8643,"Ġà¤¸à¤°à¤ª":8644,"Ġà¤Ĩà¤µà¤¹":8645,"Ġà¥§à¥Ńà¥¨":8646,"à¤ĩà¤«à¤ķ":8647,"Ġà¤ĸà¤°à¤ķ":8648,"Ġà¤Ĩà¤Īà¤ıà¤®":8649,"Ġ37":8650,"à¥¨à¥¦à¥ªà¥®":8651,"Ġà¤¸à¤ľà¤ķ":8652,"Ġà¤ªà¤ľ":8653,"à¤ĺà¤¸à¤®":8654,"Ġà¤Ĩà¤ľà¤ªà¤¨":8655,"à¤¶à¤¬à¤£":8656,"à¤¾à¥ĭ":8657,"à¥į/":8658,"à¤°à¤¯à¤¸":8659,"à¤Īà¤¸à¤°":8660,"à¤¹à¤°à¤¹à¤°":8661,"Ġà¤¸à¤¹à¤Ĩà¤¯":8662,"Ġà¤¸à¤¨à¤¸":8663,"Ġà¤ķà¤²à¤µ":8664,"Ġà¤Ĭà¤ªà¤¸":8665,"Ġà¤¬à¤®à¤¬à¤¹":8666,"Ġche":8667,"áĥĶ":8668,";,":8669,"à¤¾....":8670,"à¤·à¤£à¤ħà¤¨":8671,"ering":8672,"à¤ĩà¤ķà¤²à¤¬":8673,"ocuments":8674,"ven":8675,"à¥°":8676,"Ġà¤ªà¤µà¤¨à¤ķ":8677,"à¤¹à¤²à¤¯":8678,"Ġà¤¸à¤®à¤¦":8679,"à¤ĩà¤®à¤ķ":8680,"à¤ŀà¤¦":8681,"à¤²à¤®à¤®":8682,"à¤®à¤¨à¤µà¤®":8683,"Ġà¤ħà¤¬à¤¶":8684,"à¤ķà¤¨à¤¬":8685,"Ġà¤Ĩà¤¦à¤¤":8686,"Ġà¤Ĩà¤łà¤ªà¤¹à¤°":8687,"Ġmessage":8688,"ites":8689,"ump":8690,"à¥¨à¥¦à¥¬à¥«":8691,"ĠOctober":8692,"Ġnepali":8693,"Ġà¤ģ":8694,"Ġà¤Ńà¤ľà¤¨à¤ķ":8695,"à¤ıà¤ķà¤¦à¤®":8696,"à¤·à¤§à¤°à¤¤":8697,"à¥¦à¥®à¥¨":8698,"taj":8699,"à¤¾à¥ĥ":8700,"à¤¹à¤¤à¤°":8701,"à¥¤âĢĺ":8702,"à¤ĩà¤«à¤®":8703,"à¤ħà¤°à¤®":8704,"à¤Łà¤ķà¤¹":8705,"Ġà¤ĵà¤ıà¤¸":8706,"à¥Īà¤ģà¤Ĥ":8707,"à¤¦à¤¶à¤°à¤¥":8708,"ĠÐŁ":8709,"etails":8710,"à¤Ļà¤Ľ":8711,"à¤·à¤ķà¤¦":8712,"Ġà¤ıà¤®à¤ĵà¤¯":8713,"à¥ĩà¤Ĥà¤ģ":8714,"Ġà¤«à¤²à¤¹à¤°":8715,"Ġà¤ļà¤ķà¤ļà¤ķ":8716,"à¥Ģ.)":8717,"acy":8718,"Ġà¤Ńà¤ĩà¤ªà¤°":8719,"à¥įà¥Ģà¥Ģ":8720,"RT":8721,"Ġà¤Ĺà¤«à¤®":8722,"à¤ľà¤¤à¤ķ":8723,"à¤¨à¤®à¤²":8724,"à¤ŀà¤¬":8725,"Ġà¥§à¥«à¥¬":8726,"ĠSet":8727,"à¤ĩà¤¨à¤ĸà¤¬à¤°à¤²":8728,"àµ":8729,"Ġà¤Ĺà¤¨à¤°":8730,"à¤Īà¤ıà¤¨":8731,"à¤Ĩà¤¸à¤¨":8732,"à¤®à¤¤à¤ª":8733,"Ġà¥§à¥§à¥¯":8734,"Ġper":8735,"Ġà¥¦à¥«à¥§":8736,"Ð°Ð±":8737,"shi":8738,"à¤µà¤ªà¤¤":8739,"Ġà¤¸à¤¦à¤¶":8740,"Ġà¥¨à¥Ńà¥¦":8741,"Ġso":8742,"ĠBe":8743,"oci":8744,"endra":8745,"Ġà¥§à¥¯à¥ªà¥¯":8746,"Ġfinancial":8747,"57":8748,"blog":8749,"Ġà¤¬à¤£":8750,"Ġà¤µà¤¦":8751,"à¤·à¤¤à¤®":8752,"Ġà¤ªà¤°à¤¬":8753,"Ġà¤ķà¤°à¤¸à¤®":8754,"à¤ħà¤¨à¤¶à¤¨":8755,"Ġà¤īà¤łà¤¬à¤¸":8756,"ĠÐĴ":8757,"ĠViews":8758,"ĠNotice":8759,"}}":8760,"à¤ªà¤ľà¤¸":8761,"Ġà¤ħà¤¥à¤°":8762,"Ġà¤¹à¤¬à¤²":8763,"à¥Į:":8764,"à¤Ĩà¤ĵ":8765,"Ġà¤®à¤¦à¤°à¤¸":8766,"Ġà¤Ĩà¤łà¤µ":8767,"ily":8768,"Ġà¤ıà¤«à¤¡":8769,"à¥¨à¥¦à¥§à¥¦":8770,"radi":8771,"li":8772,"Â¨":8773,"à¥ģà¥Ĥ":8774,"à¤¹à¤Ń":8775,"Ġà¤°à¤°":8776,"Ġà¤¨à¤Ĩà¤Ī":8777,"Ġà¤¬à¤Ĺà¤²":8778,"à¤µà¤ķà¤¬":8779,"à¤°à¤µà¤®à¤¯":8780,"à¤¶à¤ķà¤°":8781,"its":8782,"nepalik":8783,"à¤¯à¤¸à¤ªà¤Łà¤ķà¤ķ":8784,"velop":8785,"ĠUSB":8786,"ĠÎ":8787,"à¤µà¤¢":8788,"52":8789,"LI":8790,"à¤¸à¤¡à¤°":8791,"à¤ľà¤²à¤®":8792,"à¤ľà¤®à¤ķ":8793,"à¤ģà¥¤âĢĻ":8794,"à¤ĵà¤Ĩà¤°":8795,"Ġà¤Ĩà¤¸à¤¨à¤®":8796,"umi":8797,"Ġà¤¸à¤Ĺà¤°":8798,"à¤Īà¤ªà¤²":8799,"à¤īà¤ªà¤²":8800,"Ġà¤¯à¤²à¤®":8801,"à¤µà¤¨à¤µ":8802,"Ġph":8803,"Ġam":8804,"à¤®à¤°à¤£à¤¶à¤ķ":8805,"Ġà¤¥à¤²à¤Ļ":8806,"view":8807,"nepalikorea":8808,"Share":8809,"à¤ľà¤ĺ":8810,"Ġà¤Ľà¤²à¤ķ":8811,"Ġà¤¸à¤®à¤¯à¤¤":8812,"à¤°à¤²à¤¯":8813,"à¤²à¤¨à¤Ĺà¤°":8814,"Ġ2019":8815,"Ġpart":8816,"ãģ¦":8817,"Ġ2004":8818,"à¤¡à¤¹à¤²à¤®":8819,"Ġà¤ĸà¤Łà¤¨":8820,"à¤²à¤®à¤¤":8821,"à¤ĵà¤¡":8822,"ident":8823,"ãĥ¼":8824,"Ð°ÑĤÑĮ":8825,"Cl":8826,"bl":8827,"Ġà¤°à¤¸à¤²":8828,"à¤ĩà¤ŀ":8829,"Ġà¤¬à¤ļà¤¤à¤ķ":8830,"Ġà¥¦à¥¬à¥¦":8831,"Tube":8832,"uz":8833,"à¥ĩ|":8834,"à¤Īà¤¸à¤¹":8835,"à¤Ĺà¤¤à¤Ńà¤¨":8836,"Ġà¤Ĩà¤ĩà¤¡à¤²à¤®":8837,"ĠÐ»":8838,"à¤ĩà¤¬à¤²à¤®":8839,"à¤¾:-":8840,"ĠEtaj":8841,"Ġà¤ĵà¤Ńà¤°à¤¡":8842,"ĠEtajakhabar":8843,"à¤ķà¤Ĺà¤£":8844,"à¤²à¤¯à¤²à¤Ĺ":8845,"Ġà¤¨à¤¬à¤ľ":8846,"à¤Ĩà¤®à¤®à¤¹":8847,"do":8848,"à¤¸à¤Łà¤°":8849,"à¤ĤâĢĵ":8850,"Ġà¤ľà¤¯à¤¦":8851,"Ġà¤ıà¤ķà¤ĸ":8852,"à¤·à¤£à¤Ńà¤°à¤®":8853,"à¤·à¤¦à¤¹à¤°":8854,"Ð¾Ð¶":8855,"AS":8856,"à¥į\"":8857,"Ġà¤Ľà¤¯":8858,"à¤Ĩà¤°à¤¬":8859,"à¤²à¤¨à¤¤":8860,"à¥ĩ,'":8861,"Ġà¤ıà¤®à¤Ĩà¤°à¤ª":8862,"à¤²à¤¯à¤®à¤§":8863,"ada":8864,"Ġ//":8865,"Ġà¤²à¤ĸà¤¨à¤īà¤®":8866,"à¤¤à¤¹à¤ķ":8867,"à¥Ĥ(":8868,"à¥«à¥ªà¥¦":8869,"Ġà¤ķà¤¸à¤°à¤¤à¤®":8870,"à¤µà¤°à¤£à¤¸à¤¹":8871,"à¤¡à¤®à¤Ľ":8872,"à¤ĩà¤ªà¤¬":8873,"apos":8874,"International":8875,"à¤®à¤°à¤²":8876,"à¤¦à¤¯à¤°":8877,"à¤Ĺà¤µà¤¶":8878,"à¤°à¤®à¤µ":8879,"à¤Łà¤¬à¤²à¤¬":8880,"ãģª":8881,"à¤ħà¤µà¤¤":8882,"à¤°à¤µà¤£à¤ķ":8883,"Ġà¤¸à¤°à¤°":8884,"Ġà¤¬à¤°à¤«":8885,"ĠIS":8886,"uss":8887,"Ġà¤²à¤¹à¤°à¤®":8888,"Ġà¤ĺà¤ļà¤ĺà¤ļ":8889,"awaz":8890,"youtube":8891,"Â¬":8892,"Ġar":8893,"Ġà¤¨à¤µà¤µ":8894,"Ġà¤Ľà¤®à¤Ľà¤®":8895,"Ġà¤ıà¤ŀ":8896,"Ġà¤¯à¤¸à¤¦":8897,"à¤ıà¤®à¤¡":8898,"Ġà¤ķà¤ªà¤Ł":8899,"ility":8900,"à¤Ńà¤²à¤ªà¤°":8901,"à¤ªà¤¥à¤¸":8902,"Ġà¥¦à¥«à¥¨":8903,"ÂŃ":8904,"Ġà¤ķà¤ļà¤¨à¤ķ":8905,"Ġà¤¨à¤¥à¤ª":8906,"à¤ĺà¤Ń":8907,"à¥ģà¤ģ,âĢĻ":8908,"à¤µà¤ķà¤ªà¤²":8909,"à¤¨à¤¨à¤Ĺà¤°à¤®":8910,"à¤ľà¤²à¤¸à¤®":8911,"Ġà¤ıà¤¸à¤¯":8912,"ature":8913,"Ġà¤ľà¤¨à¤¸à¤¤":8914,"urn":8915,"Ġà¥§à¥¯à¥¬à¥§":8916,"Ġà¤¨à¤°à¤ª":8917,"à¤ľà¤ľà¤¸":8918,"Ġà¤¶à¤¤à¤µ":8919,"Ġà¤ľà¤¨à¤¸à¤°à¤ķ":8920,"à¤ħà¤ŀ":8921,"Ġà¥¬à¥¦à¥§":8922,"Ġprov":8923,"uch":8924,"»¿":8925,"Ġà¤¨à¤Ńà¤°":8926,"à¤¬à¤ªà¤Ľ":8927,"à¤£à¤ªà¤¶":8928,"âĢĶâĢĶ":8929,"à¤Ĩà¤ĩà¤ı":8930,"Ġà¤ĸà¤°à¤¸":8931,"à¤Ļà¤µà¤°à¤ķ":8932,"à¤ķà¤®à¤®":8933,"à¤¦à¤¨à¤Ĺà¤°":8934,"Ġà¥¦à¥«à¥¯":8935,"Ġà¤¬à¤¥à¤¨":8936,"Ġà¤Ńà¤¡à¤ķ":8937,"à¥¦à¥¦à¥¨":8938,"Ġà¤«à¤¯":8939,"Ġà¤Ĩà¤®à¤°":8940,"Ġà¤Īà¤ľà¤°":8941,"urg":8942,"Ġà¤®à¤¹ÅĴà¤µà¤ķ":8943,"Ø§ÙĨ":8944,"BS":8945,"New":8946,"à¤Ĺà¤Ĺà¤°":8947,"à¤īà¤¨à¤¤à¤°":8948,"à¤¨à¤µà¤¹":8949,"à¤¨à¤ªà¤ŀ":8950,"orp":8951,"Ġà¥©à¥¬à¥¦":8952,"Ġà¥Ńà¥ªà¥ª":8953,"à¤°à¤¨à¤Ĺà¤°à¤¬":8954,"pport":8955,"Ġ2072":8956,"Ġà¤°à¤ļà¤¯":8957,"Ġà¤®à¤ľà¤µ":8958,"à¤ľà¤¨à¤ªà¤Ľ":8959,"Ġà¤Ĩà¤ĩà¤¯":8960,"Ġà¥§à¥¯à¥ªà¥¦":8961,"Ġà¤Īà¤¬":8962,"Ġà¤Īà¤Ļ":8963,"Ġsite":8964,"ravel":8965,"à¤¾à¥Īà¤ģ,":8966,"Ġà¥¦à¥ªà¥Ń":8967,"GB":8968,"Ġà¤ķà¤ªà¤¨":8969,"à¤Ĺà¤Ńà¤°":8970,"Ġà¤¯à¤¸à¤ĸ":8971,"à¤¦à¤ķà¤ªà¤¦":8972,"Ġà¤Ĩà¤ļà¤°à¤£à¤®":8973,"Ġ49":8974,"Ġà¥§à¥¯à¥¬à¥Ń":8975,"ĠNAB":8976,"kaj":8977,"à¤ıà¤¬à¤®":8978,"à¤°à¤¤à¤ª":8979,"à¤°à¤£à¤¨":8980,"à¤¡à¤ķà¤ªà¤®":8981,"à¤µà¤²à¤ª":8982,"ence":8983,"Ġà¤ĸà¤¬à¤°à¤¬":8984,"Ġ02":8985,"ĠiPhone":8986,"à¥«à¥ªà¥¦à¥¦à¥®à¥¨":8987,"à¤¾à¥¤âĢĻ":8988,"à¤¦à¤Ńà¤®":8989,"Ġà¤¹à¤£":8990,"à¤¬à¤ľà¤¸":8991,"à¤ĺà¤Łà¤°":8992,"Ġà¤§à¤¨à¤ŀ":8993,"Ġà¤¦à¤¶à¤µà¤°":8994,"Ġà¤ıà¤ļà¤ª":8995,"ï»¿":8996,"à¤Łà¤Ńà¤°":8997,"à¤¤à¤®à¤¯":8998,"à¤Łà¤²à¤°à¤ķ":8999,"à¤Łà¤°à¤ķà¤¨":9000,"Ġaf":9001,"ÐµÐ»ÑĮ":9002,"https":9003,"Ġà¤¤à¤¡à¤ķà¤Ńà¤¡à¤ķ":9004,"ux":9005,"à¤ķà¤ªà¤Ľ":9006,"à¤ªà¤¯à¤®":9007,"Ġà¤®à¤Ī":9008,"Ġà¤Ńà¤°à¤¤à¤®":9009,"à¥Į|":9010,"à¤¨à¤®à¤ķ":9011,"à¥Įà¤Ĥ'":9012,"Ġà¥§à¥¯à¥®à¥©":9013,"Ġentry":9014,"ĠÑį":9015,"à¤·à¤²à¤Ĺ":9016,"Ġà¤ľà¤¯à¤¬":9017,"Ġà¤«à¤®":9018,"Ġà¤ĺà¤°à¤¸":9019,"Ġà¤Ĩà¤Īà¤ªà¤°":9020,"à¤ıà¤²à¤ľ":9021,"à¤ĩà¤°à¤¸à¤²":9022,"pankaj":9023,"shashi":9024,"pankajshashi":9025,"oj":9026,"à¤ıà¤°à¤®":9027,"à¤ĵà¤¨à¤²":9028,"Ġà¥§à¥«à¥Ń":9029,"ĠMb":9030,"Ġany":9031,"à¤·à¤°à¤¶":9032,"à¤¸à¤¬à¤®":9033,"à¤¸à¤µà¤Ł":9034,"à¤¹à¤°à¤£à¤²":9035,"let":9036,"Ð¸Ð»":9037,"Ġà¥¦à¥«à¥ª":9038,"æĺ":9039,"à¤¸à¤«à¤²":9040,"à¤ľà¤¨à¤Ĩà¤¨":9041,"Ġà¤ħà¤§à¤¬":9042,"Ġà¥«à¥§à¥¨":9043,"Ġà¤ĵà¤®à¤¬à¤¹":9044,"à¤ĵà¤ıà¤®":9045,"Ġà¤Ĩà¤¶à¤²":9046,"Ġà¥§à¥¨à¥Ń":9047,"Ġlist":9048,"ise":9049,"Ġwork":9050,"Ġadmin":9051,"Ġà¤ıà¤¸à¤ĩà¤Ī":9052,")âĢĻ":9053,"ced":9054,"à¤°à¤ĸà¤ķ":9055,"à¤¥à¤¦":9056,"à¤¯à¤¸à¤µà¤°":9057,"à¤¦à¤¨à¤¹":9058,"Ġà¤ªà¤¢à¤¦":9059,"à¥ģà¤Ĥà¤ģ":9060,"Ġà¥§à¥®à¥§à¥¬":9061,"ÐµÑģ":9062,"oll":9063,"!âĢĿ":9064,"à¤ĸà¤®à¤§":9065,"Ġà¤¸à¤®à¤¬":9066,"à¤ĩà¤ıà¤ªà¤¨":9067,"à¥ģà¤ģà¤Ĥ":9068,"à¤µà¤°à¤¨":9069,"Ġ51":9070,"Ġà¤ħà¤µà¤¶à¤°à¤®":9071,"NET":9072,"à¤¨à¤ľà¤°":9073,"à¤®à¤¸à¤°":9074,"à¤ªà¤¥à¤°":9075,"à¤¦à¤ļ":9076,"à¤łà¤ķà¤¸":9077,"à¤ıà¤®à¤¡à¤¬":9078,"à¤ıà¤²à¤ıà¤¨":9079,"work":9080,"Ġà¥Ģ":9081,"à¤¦à¤ħà¤¨":9082,"à¤ľà¤ªà¤Ľ":9083,"Ġà¤Ĩà¤¯à¤¤à¤¨":9084,"Ġà¤¶à¤µà¤¦":9085,"à¤īà¤¨à¤¤":9086,"à¤Ĩà¤īà¤¦":9087,"à¤¹à¤¨à¤°":9088,"Ġà¥§à¥¬à¥¨":9089,"à¤ľà¤¬à¤¸à¤®":9090,"Ġsc":9091,"à¤¾',":9092,"Ġà¥§à¥¯à¥«à¥«":9093,"ĠÐ¿Ð¾":9094,"nb":9095,"à¤°à¤¯à¤ķ":9096,"Ġà¤Ĺà¤ĩà¤¹":9097,"à¤°à¤¤à¤¸à¤®":9098,"Ġà¤ľà¤¨à¤Ĩà¤ķ":9099,"à¤¯à¤¤à¤µà¤¶":9100,"Ġà¤ªà¤¤à¤¨à¤ķ":9101,"Ġà¤¸à¤¡à¤ķà¤¸":9102,"à¤ķà¤Łà¤Ĺ":9103,"ative":9104,"à¤ıà¤²à¤ĵ":9105,"Ġone":9106,"Ġtheir":9107,"Ġà¥§à¥¯à¥¬à¥«":9108,"ĠYouTube":9109,"AW":9110,"Tweet":9111,"box":9112,"so":9113,"à¤µà¤īà¤ª":9114,"Ġà¤¢à¤²à¤®":9115,"à¥ĩà¤Ĥ,âĢĻ":9116,"ĠFire":9117,"ĠHack":9118,"Ġbest":9119,"à¤Łà¤®à¤¬":9120,"à¤¥à¤²à¤¤à¤°":9121,"à¤§à¤¨à¤²à¤Ĺ":9122,"ote":9123,"à¥¨à¥¦à¥¬à¥¬":9124,"à¤°mà¤®":9125,"à¤²à¤īà¤ªà¤°":9126,"Ġà¤ľà¤¨à¤Ĺà¤£à¤¤à¤¨":9127,"à¤¯à¤®à¤Ĺà¤°":9128,"Ġà¤®à¤¨à¤ª":9129,"atur":9130,"Ġsource":9131,"hara":9132,"CLUS":9133,"Ãŀ":9134,"à¤¤à¤ļà¤¨":9135,"à¤ıà¤²à¤¬":9136,"Ġà¤Ńà¤°à¤¤à¤²":9137,"Ġà¤µà¤¦à¤²":9138,"à¤ĩà¤ĵà¤ķ":9139,"à¤ĺà¤°à¤¤":9140,"Ġà¤ľà¤¨à¤īà¤¤":9141,"à¤¯à¤¤à¤¤":9142,"à¤¨à¤Ĺà¤°à¤µ":9143,"Ġà¥«à¥¦à¥¦à¥¦":9144,"Ġà¤¸à¤ªà¤¥à¤Ĺ":9145,"ĠtÃ©":9146,"Ġelection":9147,"ted":9148,"Ġer":9149,"à¤¨à¤Ī":9150,"à¤Īà¤Łà¤°":9151,"Ġà¤Ĺà¤łà¤¨à¤ªà¤Ľ":9152,"à¤¨à¤¦à¤¹":9153,"Ġà¤Ĩà¤ªà¤¤à¤µ":9154,"Ġ04":9155,"ĠÐ¾ÑĤ":9156,"Ġà¤ĺà¤Łà¤ķà¤¹à¤°":9157,"ĠUSA":9158,"CLUSIVE":9159,"CM":9160,"nic":9161,"Ġà¤¸à¤¸à¤®":9162,"Ġà¤Ľà¤łà¤²":9163,"Ġà¤¶à¤¶à¤ķ":9164,"à¤ĺà¤µ":9165,"ĠAct":9166,"à¤Ĺà¤¸à¤Ļ":9167,"Ġà¤¹à¤Ļà¤ķà¤Ļà¤µ":9168,"ãģĮ":9169,"Ġà¤ķà¤Łà¤ķ":9170,"à¤ļà¤°à¤£à¤ķ":9171,"à¤¤à¤°à¤¯":9172,"à¤ķà¤°à¤£à¤¹à¤°":9173,"Ġà¤®à¤¦à¤¨à¤ª":9174,"Ġreg":9175,"Ġem":9176,"Ġif":9177,"à¤¦à¤°à¤µ":9178,"à¤¬à¤¸à¤²":9179,"Ġà¤®à¤¨à¤¦":9180,"Ġà¤ķà¤¸à¤ľ":9181,"à¤·à¤®à¤§":9182,"à¤īà¤ªà¤²à¤¬":9183,"Ð¸Ð²":9184,"à¤¶à¤Ńà¤°à¤®":9185,"ĠRes":9186,"cha":9187,"now":9188,"à¤¿âĢĻ,":9189,"à¥ĩâĢľ":9190,"Ġà¤¸à¤²à¤²":9191,"à¤ľà¤¦à¤°à¤²":9192,"................":9193,"à¤¨à¤Ŀ":9194,"à¤¤à¤µà¤²":9195,"Ġà¤ķà¤°à¤£à¤²":9196,"Ġà¤¬à¤Ĺà¤¨":9197,"à¥Ĥ/":9198,"à¤ĩà¤¸à¤²":9199,"à¤¾à¤Ĥà¥Ī,":9200,"ĠSystem":9201,"ecial":9202,"earch":9203,"plore":9204,"åľ":9205,"à¥įà¥Į":9206,"Ġà¤°à¤¸à¤ķ":9207,"à¤ıà¤ıà¤«à¤¸":9208,"Ġà¤¬à¤°à¤¬":9209,"à¤Īà¤Łà¤¸":9210,"à¤Ľà¤®":9211,"à¤°à¤£à¤¸à¤¹":9212,"à¤¸à¤ķà¤®":9213,"Ġà¤¸à¤°à¤Ĺà¤°":9214,"Ġà¤ĵà¤µ":9215,"à¤µà¤¯à¤¨à¤¬":9216,"Ġà¤¯à¤®à¤¨à¤ķ":9217,"tr":9218,"à¤¹à¤¡à¤¤":9219,"Ġà¤ľà¤ľà¤ķ":9220,"Ġà¤ľà¤¨à¤ħà¤¨":9221,"à¥Įà¤Ĥ?":9222,"Ġà¤ıà¤®à¤ľ":9223,"Ġà¥§à¥¯à¥¦":9224,"à¤·à¤§à¤°à¤²":9225,"ĠGu":9226,"áĥĶáĥ":9227,"Ġà¤ĸà¤¸à¤¹à¤°":9228,"Ġà¤ļà¤²à¤¨à¤ķ":9229,"à¤¥à¤²à¤¦":9230,"Ġà¥§à¥¬à¥©":9231,"Ġà¤Ĺà¤łà¤¨à¤¸à¤®":9232,"à¥ĩ.)":9233,"imes":9234,"Ġ1990":9235,"ĠRoad":9236,"ĠIndia":9237,")âĢĵ":9238,"EM":9239,"à¤¾!!":9240,"à¤§à¤µà¤°":9241,"à¤¥à¤²à¤¸":9242,"Ġà¤ľà¤ľà¤²":9243,"à¤ĸà¤¯":9244,"Ġà¤ıà¤ķà¤¬":9245,"à¤°à¤¦à¤¹":9246,"Ġà¤¸à¤¤à¤¹à¤ķ":9247,"Ġà¥¨à¥§à¥Ń":9248,"Ð°ÑģÑĤ":9249,"Ġ52":9250,"Ġà¤ķà¤£à¤¹à¤°":9251,"à¤ľà¤Ĺà¤¤":9252,"à¤§à¤°à¤£à¤ķ":9253,"à¤łà¤¸à¤¹":9254,"Ġà¤Łà¤ªà¤ķ":9255,"à¤µà¤°à¤£à¤¸à¤®":9256,"Ġà¥§à¥«à¥©":9257,"Ġà¤°à¤®à¤ľ":9258,"à¤Ĺà¤²à¤¬à¤ľ":9259,"Ġà¤Ĩà¤¸à¤¯":9260,"Ġà¤¬à¤ķà¤ªà¤¤":9261,"à¥¦à¥©à¥©":9262,"EXCLUSIVE":9263,"YA":9264,"Ġà¤°à¤¥à¤ķ":9265,"Ġà¤¤à¤¬à¤®":9266,"Ġà¤ıà¤ķà¤¸à¤°":9267,"Ġà¤Ĩà¤°à¤ª":9268,"à¤ķà¤°à¤°":9269,"à¤ıà¤¨à¤ıà¤«":9270,"âĢ¦]":9271,"Ġà¤ħà¤ľà¤¯à¤ķ":9272,"ãģĻ":9273,"ÐºÐ¸":9274,"uw":9275,"à¤Ńà¤ħà¤µà¤¸à¤°à¤®":9276,"à¤ħà¤µà¤¶":9277,"Ġà¤Ķà¤·à¤§à¤ķ":9278,"à¤Łà¤²à¤¸à¤®":9279,"Ġà¥§à¥¯à¥Ńà¥©":9280,"Ġà¤ĭà¤£à¤²":9281,"ĠSe":9282,"Ġà¤ļà¤°à¤£à¤¸à¤®":9283,"ShareTweet":9284,"Ġà¤ĸà¤ŀ":9285,"à¤²à¤®à¤ĸ":9286,"Ġà¤¹à¤°à¤«à¤¹à¤°":9287,"à¥ģ,âĢĿ":9288,"à¤ıà¤¸à¤¡":9289,"orities":9290,"à¤ħà¤ªà¤¡":9291,"ligumi":9292,"ĠtÃ©ligumi":9293,"à¤°à¤¡à¤®":9294,"à¥ĩà¤¿":9295,"à¤µà¤ľà¤ķ":9296,"à¤¶à¤°à¤¦":9297,"à¤ĸà¤Ł":9298,"à¥ģà¥ģà¥ģ":9299,"ĠÐ¡":9300,"à¥¦à¥§à¥ª":9301,"Ġ2073":9302,"ĠJune":9303,"Ch":9304,"ËĪ":9305,"à¤¯à¤¬à¤²":9306,"à¥ģ..":9307,"à¤·à¤ªà¤¨":9308,"à¤¡à¤ķà¤ķ":9309,"à¤ļà¤¨à¤¤":9310,"Ġà¤Ĩà¤ĩà¤¤":9311,"Ġà¤Ľà¤²à¤«à¤²à¤¹à¤°":9312,"ĠPay":9313,"ĠRadio":9314,"à¥¨à¥¦à¥§à¥¯":9315,"ĠKathmandu":9316,"ooks":9317,"hapa":9318,"'à¥¤":9319,"ĠÚ©":9320,"à¤ķà¤¸à¤¤":9321,"à¤Ĺà¤¬à¤¤":9322,"ĠRights":9323,"ular":9324,"boutà¤®":9325,"achar":9326,"ĠÙĪ":9327,"à¥ĭà¥ĩ,":9328,"à¤²à¤ķà¤¥":9329,"à¤¬à¤¨à¤¡":9330,"Ġà¤ħà¤ªà¤¶à¤¬":9331,"à¤¨à¤µà¤¹à¤°":9332,"Ġà¥§à¥¯à¥©à¥¦":9333,"Ġà¥¦à¥¦à¥Ń":9334,"à¤īà¤¸à¤«":9335,"Ġ38":9336,"Ġà¤¡à¤²à¤°à¤¬à¤°":9337,"AND":9338,"à¤¾......":9339,"Ġà¤¨à¤§":9340,"Ġà¤¤à¤£":9341,"à¤ļà¤£":9342,"à¤Īà¤ªà¤Ľ":9343,"à¤Īà¤Ńà¤°":9344,"Ġà¤¸à¤®à¤¦à¤°":9345,"à¤¸à¤ķà¤¬":9346,"Ġà¤ħà¤¹à¤Ļ":9347,"Ġà¤¦à¤¶à¤°":9348,"Ġà¥§à¥ªà¥©":9349,"----------------":9350,"Ġà¤¬à¤°à¤¹à¤¥à¤µ":9351,"à¥Įà¥Īà¤Ĥ":9352,"Ġà¤ıà¤®à¤ķ":9353,"à¤ĺà¤Łà¤¸":9354,"Ġà¤ķà¤²à¤°à¤ķ":9355,"Ġà¥¨à¥¬à¥«":9356,"ĠAss":9357,"Ã§":9358,"à¤ıà¤ļà¤¸":9359,"Ġà¤¤à¤¬à¤²":9360,"Ġà¤¤à¤ķà¤¸":9361,"Ġà¤¤à¤ľà¤¬":9362,"à¤°à¤¹à¤¸à¤¨":9363,"à¤¤à¤¨à¤¸à¤®":9364,"Ġà¥§à¥ªà¥®":9365,"Ġà¤ĭà¤¦":9366,"Ġà¤¢à¤ķà¤¢à¤ķ":9367,"Ġà¥§à¥§à¥¦à¥¨à¥¨":9368,"Ñĸ":9369,"áŁ":9370,"Ġes":9371,"Ġà¤¯à¤®à¤¬à¤¹":9372,"à¥Įà¥Ī":9373,"à¤Ĺà¤²à¤¹à¤°":9374,"Ġà¤ĺà¤°à¤Ĺ":9375,"à¤¯à¤ªà¤°à¤ķ":9376,"à¤¤à¤°à¤ķà¤ķ":9377,"æľĪ":9378,"à¥ĢâĢľ":9379,"à¤¦à¤ľà¤¨":9380,"à¤Łà¤ľ":9381,"à¤·à¤ªà¤¤":9382,"à¤°à¤¤à¤¦":9383,"Ġà¤ıà¤ķà¤ł":9384,"à¥Įà¤ĤâĢĿ,":9385,"Ġà¤Ķà¤ł":9386,"Ġà¤¨à¤Ńà¤¤":9387,"Ġfun":9388,"Ġbut":9389,"ahil":9390,"ĠMinorities":9391,"à¸²à¸":9392,"March":9393,"OD":9394,"md":9395,"à¤¨à¤¥à¤²":9396,"à¤¹à¤Łà¤®":9397,"Ġà¤ķà¤ªà¤²":9398,"Ġà¤²à¤Łà¤ķ":9399,"à¤¯à¤®à¤°":9400,"à¤¸à¤¦à¤Ń":9401,"Ġà¤ıà¤¨à¤ıà¤®":9402,"à¥¦à¥¦à¥¦à¥¦":9403,"ĠServ":9404,"à¦°":9405,"à¥ģâĢĶ":9406,"à¤¸à¤ħà¤°":9407,"Ġà¤°à¤¤à¤¨à¤ª":9408,"à¤¬à¤ĩà¤®":9409,"à¤¡à¤°à¤¶":9410,"à¤£à¤ķà¤²":9411,"à¤Ĩà¤Ļ":9412,"à¤¦à¤¨à¤ªà¤¤":9413,"Ġà¤ĵà¤¯":9414,"Ġà¤Ńà¤°à¤¸à¤ķ":9415,"Ġà¤¦à¤¶à¤µà¤Ł":9416,"Ġà¤Ĺà¤£à¤¬":9417,"ĠApr":9418,"Ġ33":9419,"à¥¦à¥¯à¥¬":9420,"fox":9421,"73":9422,"à¤°à¤¢":9423,"Ġà¤¬à¤¯à¤¸":9424,"à¤§à¤°à¤¹à¤°":9425,"à¤§à¤¶à¤®à¤¶":9426,"à¤¶à¤ķà¤¶":9427,"à¤µà¤°à¤£à¤µ":9428,"à¥Įà¤Ĥ,'":9429,"Ġà¤¨à¤²à¤¡":9430,"ĠCity":9431,"à¤ĺà¤¨à¤¶":9432,"à¥¨à¥¦à¥¬à¥Ń":9433,"Ġà¤¬à¤ª":9434,"à¤§à¤¡":9435,"Ġà¤Ľà¤¸":9436,"à¤ļà¤ķà¤¤":9437,"à¤°à¤®à¤¤":9438,"à¥įà¥¤\"":9439,"à¤¬à¤°à¤ª":9440,"Ġà¥®à¥«à¥¦":9441,"à¤ªà¤¦à¤¯":9442,"Ġà¤īà¤ªà¤°à¤¥":9443,"Ġà¤¨à¤Ńà¤Īà¤ķà¤¨":9444,"ĠPr":9445,"erse":9446,"Ġà¤²à¤¹à¤¡":9447,"Ġà¤ħà¤¹à¤®à¤¦à¤²":9448,"ulsipur":9449,"Ġà¤Ĩà¤Ļà¤¦":9450,"à¤¯à¤°à¤¸à¤®":9451,"à¤ıà¤¨à¤¬":9452,"Ġà¤Ĩà¤Ĺà¤¨à¤®":9453,"à¥ĩà¤ĤâĢĻ":9454,"stru":9455,"ãģ¨":9456,"ãģ¾":9457,"Ġà¤ľà¤¨à¤¸à¤®à¤°":9458,"GO":9459,"Sp":9460,"\\\\":9461,"à¤¨à¤¤à¤ķ":9462,"à¤·à¤ľà¤¤":9463,"à¤ĩà¤²à¤¨à¤®":9464,"à¤ĩà¤²à¤Łà¤¹à¤°":9465,"à¤¡à¤®à¤§":9466,"Ġà¤Ńà¤ĩà¤°à¤¹à¤ķ":9467,"à¤£à¤ªà¤¦à¤ķ":9468,"ett":9469,"à¤ıà¤¨à¤ıà¤¨à¤²":9470,"lung":9471,"æĪ":9472,"Ġì":9473,"à¤¨à¤ħ":9474,"à¤¯à¤¦à¤°":9475,"Ġà¤ıà¤¸à¤ıà¤®":9476,"ĠThapa":9477,"à¥¨à¥¦à¥«à¥Ń":9478,"ĠProf":9479,"áĥĺáĥ":9480,"plorer":9481,"OW":9482,"à¤°à¤¸à¤¤":9483,"Ġà¤ĩà¤¨à¤²":9484,"à¥ĩà¤ģâĢĵ":9485,"Ġtime":9486,"Ġà¤Ŀà¤ķà¤Ŀà¤ķ":9487,"Ġà¤Ĩà¤ĩà¤ıà¤®à¤ĩ":9488,"60":9489,"à¥ĭÃ·":9490,"Ġà¤¨à¤¡":9491,"à¤¯à¤®à¤¹":9492,"à¤ĩà¤¨à¤¸à¤ķ":9493,"Ġà¤ĩà¤¤à¤°":9494,"à¤®à¤¤à¤¸à¤¹":9495,"Ġà¤¸à¤¡à¤ķà¤ħà¤¨":9496,"à¤ıà¤¸à¤ĩ":9497,"à¤°à¤ľà¤ª":9498,"agar":9499,"Ġà¥§à¥¯à¥¬à¥®":9500,"Ð°Ð¹":9501,"74":9502,"JA":9503,"NRNA":9504,"bal":9505,"ner":9506,"à¤ķà¤ľà¤¨":9507,"Ġà¤µà¤¶à¤®":9508,"Ġà¤łà¤¹":9509,"à¤¹à¤ķà¤µà¤°":9510,"à¤²à¤µà¤¹à¤°":9511,"ict":9512,"Ġà¤Ĺà¤¹à¤¨à¤¤":9513,"ĠHD":9514,"utari":9515,"kt":9516,"Ġà¤¸à¤ĸà¤°":9517,"Ġà¤Ĺà¤Ĺ":9518,"à¤¶à¤²à¤²":9519,"à¤ļà¤°à¤¨":9520,"Ġà¤īà¤Ł":9521,"à¤¹à¤°à¤°":9522,"à¤¯à¤ķà¤¦":9523,"à¤¨à¤ķà¤ķ":9524,"à¤ĺà¤ĸ":9525,"à¤ķà¤®à¤£":9526,"Ġà¤¸à¤¬à¤®":9527,"à¤¸à¤¨à¤ªà¤Ľ":9528,"Ġà¥§à¥«à¥®":9529,"Ġà¤¡à¤²à¤°à¤²":9530,"Ġà¤ıà¤¨à¤Ĩà¤°à¤ıà¤¨à¤ıà¤²":9531,"eek":9532,"à¤²à¤Ĺà¤²":9533,"à¤¯à¤°à¤µ":9534,"à¤ģ/":9535,"Ġà¤Ĩà¤Īà¤²":9536,"Ġà¤¥à¤¬":9537,"Ġà¤ıà¤Ĩà¤Ī":9538,"à¤ªà¤®à¤¤":9539,"Ġà¤Ńà¤ıà¤¬à¤®":9540,"à¥ĭà¥¤...":9541,"Ġà¤ħà¤®à¤°à¤ķ":9542,"ĠÐļ":9543,"ĠClick":9544,"Ġsk":9545,"isp":9546,"Ġdel":9547,"ĠLink":9548,"à¤¯à¤£à¤Ĺà¤¢à¤¬":9549,"????":9550,"à¤¿..":9551,"à¤¡à¤ĸ":9552,"à¤īà¤¨à¤¸":9553,"Ġà¤¦à¤®à¤ķà¤²à¤ķ":9554,"igital":9555,"à¤ıà¤¨à¤ıà¤¨à¤ķ":9556,"ĠOffic":9557,"ĠMarch":9558,"Mah":9559,"ding":9560,"à¤®à¤¸à¤ķ":9561,"à¥ģ),":9562,"à¥Īà¤Ĥà¤Ĥ":9563,"âĢ¦âĢĻ":9564,"à¤°à¤¨à¤ľ":9565,"Ġfe":9566,"073":9567,"à¥¨à¥¦à¥§à¥©":9568,"à¤ıà¤Īà¤¬":9569,"opy":9570,"ÐµÐ²":9571,"à¤®à¤¸à¤²":9572,"Ġà¤ķà¤Ń":9573,"à¥Ī(":9574,"à¤¸à¤²à¤µ":9575,"Ġà¤¦à¤²à¤¸à¤®":9576,"Ġ70":9577,"Ġà¥§à¥¯à¥«à¥¨":9578,"ĠExplorer":9579,"Ġ......":9580,"à¥ĩà¥Ī":9581,"à¤ĺà¤²à¤Ĺ":9582,"Ġà¥¨à¥§à¥ª":9583,"ĠAP":9584,"ience":9585,"EO":9586,"ij":9587,"td":9588,"Ġà¤°à¤¥à¤²":9589,"Ġà¤µà¤£":9590,"à¤Ŀà¤Łà¤¬":9591,"Ġà¥§à¥¯à¥©à¥¯":9592,"à¤Ĺà¤¬à¤®":9593,"ids":9594,"à¥¨à¥¬à¥§":9595,"ĠQNET":9596,"NS":9597,"ket":9598,"à¤¸à¤µà¤¸":9599,"à¤µà¤¯à¤¸":9600,"Ġà¤¹à¤ķà¤¹à¤°":9601,"à¤ĸà¤¨à¤µ":9602,"à¤ĩà¤Ńà¤²":9603,"à¥Įà¤Ĥ)":9604,"à¤¿,âĢĻ":9605,"à¤¯à¤Łà¤¨à¤¸à¤®":9606,"à¤Ĺà¤¢à¤ķ":9607,"à¤Łà¤°à¤®à¤§":9608,"Ġà¤Ĺà¤ıà¤Ľ":9609,"Ð½ÑĭÑħ":9610,"arget":9611,"Continue":9612,"Khabar":9613,"Ãł":9614,"à¤¾|":9615,"à¤°à¤Ĩ":9616,"à¤¹à¤ªà¤¥à¤¸":9617,"à¤¦à¤¸à¤¹":9618,"Ġà¤¹à¤«":9619,"Ġà¤¹à¤¬à¤ķ":9620,"à¤ķà¤°à¤¨à¤Ĺà¤°":9621,"à¤¤à¤°à¤£à¤¸à¤®":9622,"ade":9623,"à¤ĩà¤ľà¤¤":9624,"iter":9625,"Ġsub":9626,"âĢĮâĢĮ":9627,"Ġà¥¬à¥«à¥¦":9628,"ĠHimal":9629,"ĠFSX":9630,"BR":9631,"ient":9632,"à¤Łà¤Ĺà¤¢":9633,"Ġà¤¬à¤°à¤ķ":9634,"à¤¬à¤µ":9635,"Ġà¤¸à¤¡à¤ķà¤¦":9636,"ĠFr":9637,"ĠFirefox":9638,"å°":9639,"à¤¤à¤¶à¤¤":9640,"à¤¯à¤¦à¤ķ":9641,"à¥ģà¥ģÂ¥":9642,"à¤¸à¤²à¤¨":9643,"Ġà¤µà¤¨à¤¹à¤°":9644,"Ġà¤¤Ã¬":9645,"à¤¸à¤®à¤¸à¤ķ":9646,"à¤®à¤²à¤ļ":9647,"à¤§à¤¨à¤°":9648,"Ġà¥§à¥¬à¥ª":9649,"Ġà¥¦à¥¦":9650,"à¤ľà¤ªà¤¥":9651,"à¥¨à¥¦à¥¦à¥¬":9652,"ĠIs":9653,"ÑĤÐ¾":9654,"à¥¨à¥¦à¥§à¥¨":9655,"Ġque":9656,"mà¤¹à¤°":9657,"rome":9658,"ware":9659,"à¤ĺà¤ľ":9660,"Ġà¤®à¤¹à¤Ĺ":9661,"à¤ıà¤¸à¤Īà¤Ī":9662,"Ġà¥§à¥®à¥§":9663,"ĠDR":9664,"ĠMed":9665,"à¥ĭ?âĢĻ":9666,"à¤¸à¤°à¤¸à¤«":9667,"ĠJuly":9668,"ucket":9669,"Google":9670,"px":9671,"ĳī":9672,"à¤°à¤ľà¤¨à¤®":9673,"Ġà¤ıà¤ķà¤®à¤¹":9674,"Ġà¤ıà¤ķà¤¹à¤ª":9675,"à¤Łà¤²à¤°à¤²":9676,"à¤ĩà¤Łà¤¸":9677,"els":9678,"à¥¨à¥¦à¥§à¥§":9679,"ÑĩÐµ":9680,"Âºà¤¨":9681,"DA":9682,"You":9683,"à¤¤m":9684,"à¤¦à¤ľà¤¸":9685,"à¤ıà¤ĺ":9686,"à¤£à¤Ĺà¤°":9687,"Ġà¤īà¤¦à¤¯à¤®":9688,"à¥¦à¥Ńà¥¦":9689,"Ġà¤¸à¤¦à¤¨à¤¬":9690,"OST":9691,"date":9692,"è¿":9693,"à¤°à¤ĵà¤Ł":9694,"à¤¤à¤¤à¤²":9695,"à¤¦à¤²à¤Ĺ":9696,"à¤ľà¤Ł":9697,"Ġà¤ĸà¤¤à¤®":9698,"à¤ķà¤ķà¤°":9699,"à¤Łà¤°à¤ªà¤¨":9700,"à¤ıà¤¨à¤Ĩà¤ĩà¤¸":9701,"Ġà¤Ĺà¤²à¤«à¤¤":9702,"à¤Ĩà¤ľà¤¸à¤®":9703,"à¤Ĭà¤ķ":9704,"Ð¾Ð·":9705,"ÐºÐ°":9706,"ÐµÐ½Ð¸Ñı":9707,"Ġà¤¸à¤°à¤®":9708,"à¤µà¤Īà¤ķ":9709,"Ġà¤¹à¤°à¤¹":9710,"à¤§à¤ľà¤¸":9711,"à¤ıà¤ķà¤Ľ":9712,"à¤¸à¤ķà¤µà¤°":9713,"à¤µà¤°à¤«":9714,"à¤¤à¤°à¤£à¤¬":9715,"à¤°à¤·à¤Ł":9716,"Ġà¤°à¤®à¤Ŀ":9717,"als":9718,"Ġrest":9719,"Ð°Ð´":9720,"à¤²à¤ĸà¤¨":9721,"Ġà¤¸à¤°à¤¹à¤°":9722,"à¤¹à¤²à¤¸":9723,"à¤¶à¤Ĺ":9724,"à¤ªà¤¨à¤¹":9725,"à¤ħà¤«à¤®":9726,"à¤·à¤ķà¤¸à¤®":9727,"ĠMo":9728,"Ġà¤Ĩà¤ĩà¤¨à¤¸à¤ķ":9729,"à¨¾":9730,"ship":9731,"ÅŁ":9732,"áº":9733,"à¤Ĺà¤°à¤¨":9734,"à¤¤à¤°à¤Ĺà¤¯":9735,"à¤ıà¤®à¤ª":9736,"Ġà¤Ĺà¤£à¤²":9737,"itation":9738,"ĠEle":9739,"à¥¨à¥¦à¥ªà¥Ń":9740,"âĨĳ":9741,"Ġwhich":9742,"ouncil":9743,"90":9744,"pen":9745,"Ġà¤µà¤°à¤£":9746,"à¤ĩà¤¬à¤°à¤ķ":9747,"à¥Į,âĢĻ":9748,"à¤łà¤ľ":9749,"à¤Ĩà¤®à¤¸":9750,"à¤¹à¤¤à¤¸":9751,"ĠWord":9752,"Ġ0000":9753,"Mahendra":9754,"à¥ģà¥ĩ":9755,"Ġà¤¬à¤°à¤¬à¤°":9756,"à¤ļà¤¸à¤¹":9757,"à¤¹à¤°à¤£à¤®":9758,"à¤®à¤ķà¤¨":9759,"Ġà¥§à¥¯à¥«à¥ª":9760,"ission":9761,"KC":9762,"iy":9763,"pro":9764,"åĿ":9765,"à¤ıà¤¶à¤¨à¤²":9766,"Ġà¤«à¤Ļ":9767,"à¤§à¤¨à¤¦":9768,"Ġà¤¦à¤²à¤¹à¤¨":9769,"à¤¡à¤²à¤°":9770,"à¤ĸà¤¨à¤¨à¤ķ":9771,"à¤ľà¤Ĺà¤¢à¤²":9772,"plete":9773,"Ġtrans":9774,"Ġà¤ľà¤£":9775,"à¤Ńà¤ľ":9776,"Ġà¤ħà¤¸à¤Ļ":9777,"à¤¸à¤¹à¤°à¤®":9778,"à¥ĩà¤ģ,âĢĻ":9779,"à¤¤à¤°à¤ķà¤²":9780,"à¤¯à¤ľà¤¨à¤¹à¤°":9781,"977":9782,"PR":9783,"man":9784,"Ġà¤ªà¤²à¤ķ":9785,"à¤¶à¤ľà¤¸":9786,"Ġà¤ıà¤ķà¤ªà¤Łà¤ķà¤®":9787,"à¤®à¤²à¤¤":9788,"à¤Ĩà¤°à¤¡":9789,"Ġà¥¨à¥Ńà¥ª":9790,"ĠCont":9791,"ĠBas":9792,"ĠBible":9793,"Ð¾Ð¿":9794,"ows":9795,"ĠVoice":9796,"Ġest":9797,"ude":9798,"Ġ...........":9799,"Ġà¤ħà¤¨à¤ķà¤¨":9800,"Ġà¤Ńà¤°à¤£à¤ª":9801,"OO":9802,"PD":9803,"à¤¨à¤¹à¤¦":9804,"Ġà¤¤à¤Ľ":9805,"à¤ģâĢĻ,":9806,"Ġà¤²à¤Łà¤°à¤®":9807,"Ġà¤¸à¤Ļà¤Ĺ":9808,"Ġà¥¨à¥«à¥¦à¥¦":9809,"à¤Ĩà¤ľà¤Ńà¤¨":9810,"Ġà¤¡à¤²à¤°à¤¸":9811,"ĠHer":9812,"Ġà¥§à¥¯à¥«à¥Ń":9813,"à¹Ī":9814,"80":9815,"ä¼":9816,"à¤¹à¤°à¤¬":9817,"à¥įà¥¤...":9818,"Ġà¤ħà¤®à¤°à¤ª":9819,"à¤¬à¤²à¤ª":9820,"à¤ľà¤¨à¤ķà¤°":9821,"Ġlink":9822,"à¤¼à¥ĭ":9823,"Ġà¥¯à¥¯à¥¯":9824,"ute":9825,"à¥¨à¥¦à¥«à¥§":9826,"IM":9827,"à¤¿âĢį.":9828,"à¤¸à¤ıà¤ª":9829,"Ġà¤¨à¤ĺ":9830,"Ġà¤ħà¤«à¤²":9831,"à¤¶à¤²à¤Ĺ":9832,"Ġà¤®à¤¤à¤¬":9833,"Ġà¥§à¥¯à¥§à¥Ń":9834,"Ġà¤ĺà¤Łà¤¦":9835,"à¤Ĺà¤®à¤¨à¤¸à¤®":9836,"à¥¦à¥§à¥¬":9837,"Ġà¥§à¥¯à¥¬à¥¯":9838,"à¥¨à¥¦à¥«à¥¨":9839,"à¤ªmà¤¬":9840,"eren":9841,"Ð½ÑĭÐ¹":9842,"à¤ķà¤ªà¤ķ":9843,"à¤²à¤¸à¤°":9844,"à¤¬à¤ļà¤¤":9845,"Ġà¤µà¤¦à¤®":9846,"à¤ļà¤ķà¤°":9847,"à¤ļà¤¨à¤ħà¤¨":9848,"Ġà¤ĺà¤°à¤Łà¤¹à¤°":9849,"à¤·à¤¯à¤ª":9850,"ĠÂ£":9851,"à¸Ļ":9852,"à¥įà¤ģà¥ĩ":9853,"AK":9854,"eg":9855,"pur":9856,"à¥ĩâĢĿ,":9857,"à¤¦à¤ĸ":9858,"Ġà¤¡à¤Ĺà¤®à¤Ĺ":9859,"Ġà¤Ŀà¤ªà¤Ł":9860,"à¤¯à¤¯à¤¨à¤¶":9861,"à¤¯à¤Łà¤ķà¤¬":9862,"Ġà¥¨à¥¯à¥«":9863,"rab":9864,"Ġuse":9865,"Ġà¤Ĩà¤°à¤ıà¤¸à¤Ĩà¤Ī":9866,")âĢĶ":9867,"à¤¨à¤°à¤¬":9868,"à¤²à¤°à¤¸":9869,"à¤¦à¤Ńà¤¨":9870,"à¤ĸà¤²à¤Ĺ":9871,"à¤°à¤²à¤¯à¤ķ":9872,"à¤¯à¤¤à¤¹à¤ķ":9873,"Ġà¤Ĩà¤ĩà¤¬":9874,"ines":9875,"Ġà¤¨à¤Ńà¤ıà¤¤":9876,"Ġother":9877,"Ġà¤¨à¤Ĺà¤ı":9878,"Ġ2003":9879,"Ġà¤ķà¤ļà¤¨à¤ķà¤µà¤²":9880,"à¤²à¤ĸà¤°":9881,"Ġà¤¹à¤²à¤²":9882,"Ġà¤§à¤¨à¤¸":9883,"à¤ŀà¤µà¤²":9884,"à¤¤à¤°à¤īà¤¨":9885,"à¤°à¤µà¤¹à¤¨à¤ķ":9886,"à¤¨à¤¸à¤ĸà¤£":9887,"Ġà¤«à¤°à¤µà¤°":9888,"à¤²à¤°à¤¸à¤ķ":9889,"ĠSk":9890,"Ð°ÑĨ":9891,"urre":9892,"Ġind":9893,"Ġà¤ªà¤ļà¤¹à¤¤":9894,"ãģ¯":9895,"Ġà¤ħà¤Ĺà¤®à¤µà¤ķ":9896,"ĠÑģÑĤ":9897,"à¤ķà¤«à¤°":9898,"à¤¥à¤²à¤Ĺ":9899,"à¤ħà¤ļà¤®":9900,"à¥Įà¤ģ:":9901,"à¤¶à¤¨à¤µ":9902,"à¤¹à¤¨à¤Ĺà¤°":9903,"Ġà¤Ńà¤°à¤¥":9904,"iico":9905,"ÉĻ":9906,"ĠÏ":9907,"Ġà¥ł":9908,"à¤¡à¤¢":9909,"à¤°à¤ķà¤°à¤£à¤¬":9910,"à¤¨à¤®à¤Ĺà¤°":9911,"à¤°à¤¹à¤£à¤®":9912,"à¤µà¤ķà¤°à¤£":9913,"à¥©à¥¦à¥¦":9914,"Ġà¤ĵà¤Ĺ":9915,"Ġà¥§à¥®à¥«":9916,"à¤µà¤¦à¤¤":9917,"ĠDon":9918,"ama":9919,"Ġà¤ļà¤°à¤®à¤¸":9920,"iki":9921,"à¥¨à¥¦à¥¨à¥¦":9922,"Ġ!!!!":9923,"Ad":9924,"PG":9925,"Ġà¥ŀ":9926,"âĢł":9927,"à¥ĮâĢĮ":9928,"Ġà¤ĺà¤°à¤¤à¤°":9929,"à¥įà¥¤&":9930,"Ġà¥§à¥«à¥¨":9931,"à¤ıà¤®à¤ĵà¤¯":9932,"à¤Ĩà¤Īà¤¤à¤¬":9933,"Ġcap":9934,"à¤ĩà¤¬à¤²à¤²":9935,"à¤ªà¤¨à¤²à¤Ĺ":9936,"ange":9937,"à¤ľà¤¸à¤®à¤§":9938,"ĠÐ½Ðµ":9939,"ruary":9940,"Ġà¤ħà¤µà¤¯à¤µà¤¹à¤°":9941,"ja":9942,"à¤¤à¤ĺ":9943,"à¤Īà¤ıà¤®":9944,"à¥ĤâĢĿ":9945,"Ġà¤ħà¤¸à¤¦":9946,"Ġà¥§à¥Ńà¥ª":9947,"Ġà¤²à¤¡à¤¨":9948,"ilm":9949,"eder":9950,"à¤Łà¤°à¤²à¤Ĺ":9951,"ĠInformation":9952,"ïģ®":9953,"Ġà¤ķà¤µà¤¯":9954,"Ġà¤¨à¤¢":9955,"Ġà¤¬à¤¨à¤®":9956,"à¤£à¤ļ":9957,"à¤Ľà¤°à¤®":9958,"à¤ķà¤²à¤°":9959,"Ġà¤¬à¤¸à¤Ń":9960,"à¤Łà¤®à¤¸":9961,"Ġ!'":9962,"Ġder":9963,"ĠBY":9964,"ament":9965,"Ġ05":9966,"Ġà¤Ĩà¤¸à¤¨à¤¬":9967,"à¥©à¥«à¥Ń":9968,"ĠUnivers":9969,"ĠCenter":9970,"Ġà¤¨à¤µà¤ķ":9971,"à¤ĵà¤Ń":9972,"à¤¸à¤¦à¤¸à¤®":9973,"à¤²à¤¤à¤¹à¤°":9974,"Ġà¤Īà¤¦":9975,"reen":9976,"arn":9977,"à¤ıà¤²à¤ª":9978,"à¤ıà¤²à¤ı":9979,"à¤ıà¤¨à¤ıà¤ļà¤¸":9980,"ope":9981,"ãĤĭ":9982,"irect":9983,"Ġà¤¬à¤¬à¤°à¤®à¤¹à¤²à¤®":9984,"facebook":9985,"à¤ľà¤ªà¤ķ":9986,"Ġà¤Ĩà¤Īà¤¨":9987,"Ġà¤Ĩà¤Ļà¤¬":9988,"à¤¸à¤¨à¤¯":9989,"à¤Ĺà¤®à¤¨à¤ķà¤°":9990,"Ġà¤Ĩà¤Īà¤®":9991,"à¤¯à¤¶à¤°":9992,"ÑĢÑĥ":9993,"ĠLive":9994,"âĢįà¥ĭ":9995,"ä¸Ģ":9996,"\",\"":9997,"à¤¸à¤«à¤²à¤¤":9998,"Ġà¤°à¤Ļà¤²":9999,"Ġà¤ĨÂºà¤¨":10000,"à¤īà¤«":10001,"à¤Ļà¤ªà¤Ľ":10002,"à¤Ļà¤Ĺà¤°à¤²":10003,"Ġà¥©à¥¦à¥¨":10004,"Ġà¤Ńà¤¯à¤Ļ":10005,"Ġà¤Ĳà¤ľ":10006,"à¤·à¤¯à¤¸à¤®":10007,"à¤µà¤¨à¤ķà¤¥":10008,"outh":10009,"ĠCO":10010,"à¤Łà¤µà¤²à¤¸à¤®":10011,"ĠHong":10012,"à¥¨à¥¦à¥¬à¥¦":10013,"ahity":10014,"ized":10015,"CT":10016,"Ġà¤ħà¤ªà¤ķ":10017,"à¤ģ...":10018,"à¤Ĥ-":10019,"à¤Ĩà¤ı":10020,"Ġmonth":10021,"ified":10022,"Ġapplication":10023,"annel":10024,"CMDP":10025,"70":10026,"press":10027,"à¤Łà¤Ĺà¤¦":10028,"Ġà¤¸à¤ķà¤¨":10029,"âĢĵâĢĵ":10030,"Ġà¤ĩà¤¡à¤²":10031,"à¤«à¤²à¤¸":10032,"Ġà¤ħà¤®à¤°à¤¤":10033,"ley":10034,"Ġfree":10035,"Ġ300":10036,"lock":10037,"ants":10038,"Ġà¤Ĩà¤²à¤®à¤ķ":10039,"Ð¾Ð»ÑĮ":10040,"GH":10041,"İ¡":10042,"à¥ĭ]":10043,"à¤ľà¤°à¤¹à¤°":10044,"Ġà¤µà¤ļà¤¨à¤²":10045,"à¤Īà¤®à¤¨":10046,"Ġà¤ħà¤²à¤Ļ":10047,"Ġhere":10048,"ĠKong":10049,"Ġà¤¹à¤¤à¤ķà¤¡":10050,"RP":10051,"Ġà¤ħà¤ıà¤ķ":10052,"Ġà¤Ĺà¤°à¤°":10053,"à¤Īà¤¥à¤°":10054,"à¤īà¤¸à¤¬":10055,"Ġà¤«à¤²à¤²":10056,"à¤ĺà¤¢":10057,"à¤ħà¤¨à¤¨":10058,"à¤Ĩà¤ľà¤¦":10059,"Ġà¤Ŀà¤¸à¤Ļ":10060,"Ġà¤ħà¤Ŀà¤¸à¤®":10061,"omat":10062,"à¤¡à¤¬à¤¡":10063,"ause":10064,"ispak":10065,"ser":10066,"à¤¸à¤ı":10067,"Ġà¤®à¤ķà¤¹":10068,"à¤ļà¤¬à¤°":10069,"Ġà¤ĵà¤ĸà¤²":10070,"Ġà¤ħà¤¦à¤®":10071,"Ġà¤ľà¤²à¤¸à¤®":10072,"Ġbel":10073,"Ġà¤°à¤¹à¤°à¤ķ":10074,"ĠWith":10075,"Ġà¤«à¤¨à¤«à¤¨":10076,"ikon":10077,"ATION":10078,"78":10079,"à¤¸à¤¬à¤²":10080,"Ġà¤µà¤®à¤¨":10081,"Ġà¤ıà¤ķà¤¹":10082,"à¤¯à¤¸à¤¨à¤²":10083,"à¤ĸà¤°à¤ª":10084,"à¤ľà¤¸à¤ħà¤¨":10085,"à¤ıà¤¨à¤ıà¤²":10086,"rem":10087,"ala":10088,"Ġà¤ľà¤¨à¤ķà¤ķ":10089,"Ġdie":10090,"ayan":10091,"Ġ11515":10092,"Ġà¤ķà¤²à¤®à¤²":10093,"AJU":10094,"BC":10095,"MO":10096,"MT":10097,"google":10098,"à¥ĭ&":10099,"Ġà¤ħà¤Ĺà¤°":10100,"à¤ĩà¤·":10101,"Ġà¤ıà¤·":10102,"Ġà¤ľà¤¨à¤Ĩà¤¸":10103,"à¤°à¤¹à¤¸":10104,"à¤¶à¤¨à¤ª":10105,"ones":10106,"Ġà¤ıà¤²à¤¡":10107,".........":10108,"ĠOr":10109,"ĠOfficer":10110,"à¤Ĩà¤®à¤¸à¤ŀ":10111,"ND":10112,"Nispak":10113,"PS":10114,"ious":10115,"Ġx":10116,"à¤¾à¥Ī,":10117,"Ġà¤ķà¤²à¤ķà¤²":10118,"à¤ľà¤²à¤²":10119,"Ġà¤ªà¤¦à¤¬à¤¹":10120,"Ġà¤¨à¤ªà¤¸":10121,"Ġà¤ľà¤Ĺà¤¤à¤ª":10122,"Ð½ÑĭÐµ":10123,"kv":10124,"ãİ¡":10125,"Ġ>":10126,"à¥į',":10127,"à¤®à¤°à¤£à¤ķ":10128,"à¤ļà¤ĺà¤°":10129,"à¤Ńà¤²à¤ª":10130,"à¤²à¤®à¤¸":10131,"Ġà¤ªà¤ķà¤µ":10132,"Ġà¥§à¥¯à¥§à¥ª":10133,"à¤Ķà¤ªà¤¨":10134,"Ġà¤¤à¤®à¤ĺ":10135,"Ġà¤¬à¤ļà¤¤à¤ªà¤¤":10136,"Ġ42":10137,"ĠKatha":10138,"Ġà¤ķà¤¦à¤®à¤¬":10139,"ÐµÐ³":10140,"order":10141,"LO":10142,"Ġiafamerica":10143,"à¤²à¤ĺà¤¨":10144,"Ġà¤¸à¤²à¤¬à¤²":10145,"à¤µà¤īà¤ªà¤ª":10146,"Ġà¤ķà¤¹à¤°":10147,"Ġà¤Ľà¤°à¤ª":10148,"à¤ĺà¤°à¤Ń":10149,"Ġà¤Łà¤¹à¤²":10150,"à¥įà¥¤[":10151,"Ġà¤¹à¤°à¤°":10152,"à¤Ĺà¤¢à¤®":10153,"Ġlove":10154,"Ġà¤°à¤¨à¤Ń":10155,"Ġà¤°à¤ľà¤¤à¤ª":10156,"Ġ2002":10157,"====":10158,"ĠSeto":10159,"TOR":10160,"à¤¨à¤Ĺà¤¦":10161,"Ġà¤Ĺà¤Ĺà¤¨à¤²":10162,"à¥ĪâĢĿ":10163,"Ġà¤ıà¤¨à¤ķ":10164,"à¤Ļà¤ĺ":10165,"Ġà¤ľà¤¨à¤¸à¤®à¤ķ":10166,"Ġà¤ķà¤®à¤²à¤²":10167,"Ġà¤īà¤¦à¤¯à¤²":10168,"Ġà¤¦à¤²à¤µ":10169,"Ġà¤ıà¤¸à¤ıà¤¸":10170,"Ġà¥§à¥¨à¥ª":10171,"à¤Ĺà¤łà¤¨à¤¸":10172,"ĠSch":10173,"à¤¤à¤¸à¤Ļ":10174,"Ġpres":10175,"à¤µà¤°à¤²à¤Ĺ":10176,"ĠWorld":10177,"à¤īà¤¥à¤¹":10178,"Ġà¤ĵà¤ĸà¤°à¤ķ":10179,"à¤ľà¤¬à¤°à¤ľà¤¸":10180,"Ġà¤®à¤°à¤®à¤¸à¤²":10181,"à¥ģà¤¿":10182,"à¤¬à¤¯":10183,"Ġà¤īà¤ªà¤®à¤¨":10184,"à¤ĩà¤¨à¤«":10185,"Ġà¤²à¤Ĺà¤ĩà¤¨":10186,"Ġà¤Ĺà¤£à¤®":10187,"Ġà¤¤à¤²à¤¦":10188,"Ġà¤²à¤®à¤¤à¤¨":10189,"Ġweb":10190,"ĠLGCDP":10191,"Ø§Ø±":10192,"à¤£à¤®à¤¨":10193,"à¤°à¤®à¤ĸ":10194,"Ġà¤ªà¤°à¤¸à¤®":10195,"à¤ŀà¤¸à¤¹":10196,"Ġà¤Ĩà¤°à¤¨":10197,"Ġà¤ħà¤µà¤ļ":10198,"Ġà¤ľà¤®à¤°à¤ķà¤Ł":10199,"Ġà¥¨à¥§à¥®":10200,"Ġà¤¹à¤²à¤¸à¤®":10201,"ĠSUR":10202,"à¤¶à¤¹à¤°à¤ķ":10203,"Ġbr":10204,"à¤¼à¥ĩ":10205,"à¤¯à¤£à¤Ĺà¤¢à¤®":10206,"HI":10207,"à¤¨à¤ħà¤Ĺ":10208,"Ġà¤¤à¤¶":10209,"à¤¥à¤ħà¤¨":10210,"Ġà¤²à¤¦":10211,"Ġà¤ļà¤¹à¤ķ":10212,"Ġ-'":10213,"à¤ªà¤¸à¤²à¤®":10214,"ĠPahil":10215,"Ġà¤Ńà¤ĩà¤ķà¤¨":10216,"à¤Ĩà¤ĩà¤ıà¤®à¤Ī":10217,"à¤¸à¤«à¤°à¤ķ":10218,"Ġà¥¦à¥«à¥«":10219,"à¤¥à¤ķà¤®":10220,"à¤ĸà¤¶":10221,"Ġà¤ĸà¤µà¤°à¤ķ":10222,"à¤¸à¤ķà¤¤":10223,"à¤¤à¤°à¤¸à¤°à¤ķ":10224,"Ġà¤ķà¤®à¤²à¤¸":10225,"à¤²à¤¯à¤Ĺà¤¤":10226,"Ġà¤¹à¤ľà¤°":10227,"reat":10228,"Ġà¥§à¥©à¥¯":10229,"Ġà¥§à¥ªà¥§":10230,"Ġsur":10231,"à¤ıà¤«à¤¡":10232,"amb":10233,"âĢįâĢį":10234,"Ġà¤Ĩà¤ĩà¤ıà¤®à¤Īà¤²":10235,"åĨĨ":10236,"åĿª":10237,"ãİ¡(":10238,"96":10239,"Press":10240,"fin":10241,"à¤¦à¤Ļ":10242,"Ġà¤Ľà¤¤à¤¬":10243,"à¤Īà¤ľà¤¸":10244,"à¥Į.":10245,"à¤Ĺà¤°à¤¸":10246,"à¤ħà¤¸à¤®":10247,"à¤Ńà¤µà¤¨à¤®":10248,"ally":10249,"Ġà¤Ńà¤°à¤¤à¤¬à¤¹":10250,"ĠEd":10251,"Ġà¥§à¥¯à¥ªà¥¬":10252,"ARL":10253,"GF":10254,"Su":10255,"hi":10256,"à¤¸à¤¯à¤®":10257,"à¤¸à¤°à¤ª":10258,"à¤¡à¤Ńà¤°":10259,"Ġà¤īà¤§à¤®":10260,"à¤ĩà¤Ĩà¤ıà¤ķ":10261,"Ġà¤ıà¤¡à¤²":10262,"à¥ªà¥¦à¥¦":10263,"à¤¨à¤¨à¤Ĺà¤°à¤ķ":10264,"Ġà¤ħà¤µà¤Ĺ":10265,"Ġà¤ªà¤Łà¤ķà¤Ńà¤¨":10266,"ĠPOST":10267,"ÑĥÑĢ":10268,"ĠComplete":10269,"Ġà¥§à¥¯à¥«à¥¬":10270,"Ġà¥§à¥¯à¥ªà¥¨":10271,"Ð½Ð¾ÑģÑĤ":10272,"ĠSURYA":10273,"Pl":10274,"oPost":10275,"tv":10276,"à¤°à¤Ĩà¤²":10277,"à¤¬à¤ķà¤°":10278,"à¤¡à¤®à¤²":10279,"Ġà¤§à¤°à¤£":10280,"à¤µà¤¤à¤¨à¤ķ":10281,"Ġà¤ķà¤ªà¤¨à¤®":10282,"à¤Ĺà¤®à¤¨à¤¬":10283,"ety":10284,"Ġà¤ħà¤ľà¤¯à¤®":10285,"Ġaccess":10286,"ĠMHz":10287,"ĠPahiloPost":10288,"IX":10289,"à¤ªà¤²à¤¬":10290,"à¥Įà¤ģ)":10291,"à¤ıà¤®à¤µ":10292,"à¤¯à¤Łà¤ķà¤¸":10293,"Ġà¤Ńà¤Īà¤¦":10294,"Ġsecond":10295,"à¥¨à¥¦à¥¦à¥®":10296,"epalia":10297,"Ġbeen":10298,"Ġalso":10299,"Ġnepalikon":10300,"ĠPARAJU":10301,"epaliaawaz":10302,"Ġnepalikonepaliaawaz":10303,"ĠPARAJULI":10304,"Ġà¤Ĩà¤¸à¤ķ":10305,"à¤Ńà¤ıà¤°":10306,"Ġà¤ħà¤¨à¤Ļ":10307,"à¤Ĩà¤°à¤ľ":10308,"ĠNe":10309,"Ġagain":10310,"110":10311,"Ġà¤ķà¤¦à¤ķ":10312,"à¤īà¤Ļ":10313,"à¤Ļà¤®à¤¤":10314,"Ġà¤²à¤Ĺà¤¨à¤Ĺ":10315,"Ġà¥§à¥®à¥©":10316,"ani":10317,"lobal":10318,"pleted":10319,"ĠFebruary":10320,"à¤ķà¤¡à¤®":10321,"à¤µà¤§à¤¨":10322,"Ġà¤¨à¤ħà¤Ł":10323,"à¤¬à¤²à¤¬":10324,"Ġà¤¦à¤¸à¤ķà¤¦":10325,"Ġà¤ľà¤¯à¤¸à¤µ":10326,"à¤¯à¤®à¤¨à¤®":10327,"à¤¾à¤Ĥà¤Ĥ":10328,"à¤¸à¤°à¤¸à¤®":10329,"à¤¬à¤¸à¤ª":10330,"à¤ľà¤¯à¤¬à¤¹":10331,"erg":10332,"ĠâĢ¦..":10333,"à¥¦à¥¬à¥®":10334,"ĠChrome":10335,"Ġà¤¬à¤ĸà¤¤à¤®":10336,"ava":10337,"eep":10338,"à¤²à¤¸à¤¨":10339,"Ġà¤°à¤Ĺà¤¡":10340,"à¤ĤâĢĻ":10341,"à¤ļà¤ħà¤¨":10342,"à¥Ĥà¤ĥ":10343,"Ġà¤ıà¤ķà¤¤à¤²":10344,"à¤ķà¤²à¤¹à¤°":10345,"à¤¤à¤ķà¤£":10346,"Ġà¤Ĩà¤¦à¤®":10347,"à¤Īà¤²à¤¹à¤°":10348,"à¤¾):":10349,"à¤ıà¤²à¤Ł":10350,"Ġlife":10351,"asansar":10352,"à¥¦à¥¬à¥¯":10353,"Ġà¤ıà¤¡à¤®à¤ķ":10354,"ĠRock":10355,"riend":10356,"Â«à¥ĩ":10357,"Ġà¤Ĺà¤Ĺà¤¨à¤ļ":10358,"ness":10359,"vish":10360,"à¤¤à¤·":10361,"à¤¸à¤ĸà¤°":10362,"à¤ľà¤¤à¤°":10363,"à¤¡à¤¨à¤µ":10364,"à¤²à¤®à¤¹":10365,"à¥Įà¤Ĥà¤ģ,":10366,"à¤ķà¤ķà¤ķ":10367,"Ġà¤¬à¤¹à¤¸à¤ªà¤Ľ":10368,"Ġà¥§à¥§à¥©à¥¦à¥Ń":10369,"angu":10370,"wanews":10371,"ïĥĺ":10372,"vishwanews":10373,"Ram":10374,"à¥ģ;":10375,"à¤ªà¤¨à¤ªà¤Ľ":10376,"à¤ĩà¤¨à¤¸à¤®":10377,"Ġà¥¯à¥«à¥¦":10378,"à¤ľà¤®à¤¹à¤²":10379,"Ġà¤¸à¤¸à¤«":10380,"ĠDetails":10381,"ĠMy":10382,"Ġbu":10383,"Ġrel":10384,"Ġà¤ľà¤Ĺà¤¤à¤ħà¤®":10385,"à¸Ń":10386,"ĠVideo":10387,"ĠComp":10388,"ARCH":10389,"ration":10390,"à¤¿Â·":10391,"à¤¯à¤¥à¤²":10392,"à¤¹à¤Ńà¤¨":10393,"Ġà¤Ĺà¤ľà¤°":10394,"à¤ıà¤ķà¤ķ":10395,"à¤«à¤¸à¤®":10396,"Ġà¤Łà¤²à¤ķ":10397,"à¤·à¤®à¤¯":10398,"Ġà¥§à¥Ńà¥Ń":10399,"à¤ķà¤¬à¤¡":10400,"ĠVersion":10401,"Ġà¤µà¤ļà¤¨à¤¬à¤¦":10402,"sahity":10403,"à¤®à¤µà¤¹":10404,"à¤®à¤¶à¤®à¤¶":10405,"Ġà¤®à¤²à¤²":10406,"Ġà¤ļà¤ªà¤²":10407,"à¤®à¤¤à¤¸":10408,"Ġà¤¹à¤°à¤ª":10409,"Ġà¤ªà¤¦à¤§":10410,"à¤ķà¤¨à¤¸à¤®":10411,"Ġà¥§à¥¯à¥©":10412,"à¤¨à¤¯à¤¬":10413,"Ġà¤ĺà¤¨à¤ĺ":10414,"à¥¦à¥§à¥Ń":10415,"Ġà¤Ĺà¤Īà¤¸à¤ķ":10416,"Ġ11511":10417,"Ġ11505":10418,"oss":10419,"Ġà¤²à¤¹à¤¡à¤®":10420,"Ġà¤®à¤¹Ã¬à¤µà¤ķ":10421,"ä¸ĩ":10422,"à¤½à¤½à¤½à¤½":10423,"velopment":10424,"à¤ķà¤¤à¤ķ":10425,"à¤µà¤Ľ":10426,"à¤Łà¤ĩà¤¨":10427,"à¤ľà¤²à¤¬":10428,"Ġà¥§à¥¯à¥¨à¥¦":10429,"à¤ľà¤¦à¤£":10430,"ars":10431,"Ġact":10432,"à¤ªà¤Łà¤ªà¤®":10433,"à¥¨à¥¦à¥¬à¥§":10434,"ouse":10435,"anta":10436,"Ġdisc":10437,"ĠDecember":10438,"Ġ________":10439,"à¤°à¤Ĺà¤®à¤¨à¤ķ":10440,"à¤¿ï¿½":10441,"à¤¤à¤Ĺà¤¢":10442,"à¤¯à¤²à¤¯à¤¹à¤°":10443,"Ġà¤ıà¤ķà¤¤à¤¨":10444,"Ġà¤¸à¤¨à¤«":10445,"Ġà¤ıà¤¨à¤Ĩà¤°à¤ıà¤¨à¤¹à¤°":10446,"over":10447,"Ġà¤Ńà¤°à¤®à¤Ĺ":10448,"à¥¦à¥ªà¥¬":10449,"Ġ11507":10450,"Ġ11512":10451,"Ġà¥®à¥®à¥¦":10452,"ution":10453,"ãĥ³":10454,"Ġits":10455,"Ð°Ð»ÑĮ":10456,"EL":10457,"åĽ":10458,"à¤¤à¤µà¤°à¤£":10459,"Ġà¤ķà¤ļà¤ķ":10460,"à¤Īà¤¨à¤¬":10461,"Ġà¤²à¤¯à¤²":10462,"Ġà¤ıà¤ļà¤¬":10463,"à¤µà¤¨à¤¬à¤¹":10464,"à¤®à¤²à¤ª":10465,"à¤°à¤®à¤£à¤¸":10466,"à¤ªà¤Łà¤ªà¤ķ":10467,"Ġdocuments":10468,"Ġà¤ķà¤ļà¤¹à¤°":10469,"à¤Ńà¤ªà¤¤à¤¨à¤²":10470,"rict":10471,"Ġà¤°à¤£à¤Ń":10472,"à¤®à¤¨à¤Ĺà¤°à¤¸":10473,"obile":10474,"à¥§à¥ªà¥®à¥®à¥ª":10475,"à¥§à¥ªà¥®à¥®à¥Ń":10476,"æĹ¥":10477,"=\"":10478,"WS":10479,"uary":10480,"à¤®à¤ĺà¤°à¤®":10481,"à¤¯à¤Ńà¤°":10482,"à¤ıà¤Ĩà¤Īà¤ľ":10483,"Ġà¤¬à¤°à¤®":10484,"à¤§à¤ľà¤¯à¤¨":10485,"à¤ļà¤ļ":10486,"Ġà¤¥à¤¸":10487,"à¤²à¤®à¤Ł":10488,"à¤ĥ,":10489,"Ġà¥§à¥ªà¥¨":10490,"à¤ĩà¤Ńà¤°à¤ķ":10491,"Ġover":10492,"Ġà¥ªà¥©à¥«":10493,"ĠKh":10494,"Ġ03":10495,"ours":10496,"rade":10497,"yb":10498,"à¤µà¤Ĺà¤¤":10499,"à¤Ĺà¤Ľ":10500,"à¤¶à¤ªà¤¤":10501,"Ġà¤¸à¤®à¤Ń":10502,"à¥Į...":10503,"Ġà¤ľà¤¨à¤¹à¤°":10504,"Ġà¥¬à¥Ńà¥«":10505,"à¤°à¤ĸà¤¬à¤°":10506,"Ġthey":10507,"à¤¯à¤ľà¤¨à¤¸":10508,"Ġà¤µà¤¢à¤¨":10509,"Ġ11530":10510,"Ġvi":10511,"erseys":10512,"AP":10513,"IK":10514,"à¤ĸà¤Ĺà¤¨":10515,"Ġà¤ıà¤«à¤¬":10516,"à¤°à¤¹à¤ªà¤Ľ":10517,"Ġà¤ħà¤®à¤°à¤¬à¤¹":10518,"Ġà¤®à¤¤à¤ħà¤¨":10519,"Ġà¤ľà¤¹à¤¦":10520,"Ġà¤®à¤¦à¤¨à¤²":10521,"come":10522,"ĠAcc":10523,"Ġà¥«à¥«à¥«":10524,"ĠRai":10525,"Ġ55":10526,"ĠWik":10527,"Ġ11513":10528,"Ġà¥§à¥¯à¥¬à¥©":10529,"allen":10530,"cu":10531,"ful":10532,"à¤µà¤¦à¤°":10533,"à¤£à¤¶":10534,"Ġà¤ľà¤¨à¤ªà¤¦":10535,"à¤µà¤ķà¤°à¤²":10536,"Ġà¥¨à¥¦à¥¯":10537,"à¤Ĺà¤®à¤¬":10538,"à¤¸à¤¹à¤µ":10539,"Ġà¥©à¥§à¥¦":10540,"Ġserv":10541,"Ġà¥§à¥Ńà¥©à¥¦à¥®":10542,"Ġ2070":10543,"Im":10544,"RN":10545,"to":10546,"à¤¤à¤µà¤°":10547,"Ġà¤¨à¤ĩà¤²":10548,"à¤§à¤¨à¤®à¤¨":10549,"Ġà¤Ĩà¤ªà¤¨":10550,"à¤Ľà¤Ł":10551,"Ġà¤§à¤Ļ":10552,"Ġà¤īà¤ªà¤ľà¤¹à¤°":10553,"Ġà¤Ľà¤²à¤«à¤²à¤¸à¤®":10554,"Ġà¥¨à¥§à¥«":10555,"à¤µà¤ľà¤¹à¤°":10556,"à¥Įà¤ģà¥¤\"":10557,"Ġà¥§à¥¬à¥«à¥©à¥¨":10558,"Ġ1999":10559,"Ġcomment":10560,"ize":10561,"ohn":10562,"off":10563,"Ġà¤¸à¤īà¤²":10564,"à¤¹à¤²à¤²":10565,"à¤¹à¤¸à¤¹":10566,"à¤ĸà¤ķà¤¸":10567,"Ġà¤ħà¤¨à¤¶à¤¨à¤²":10568,"à¤Ļà¤¥":10569,"Ġà¤ĺà¤¤à¤²":10570,"à¤¤à¤¨à¤¤à¤°":10571,"à¤¤à¤²à¤ª":10572,"Ġà¤¬à¤¹à¤¸à¤¹à¤°":10573,"à¤¡à¤®à¤°":10574,"à¤ıà¤¸à¤ıà¤ķ":10575,"Ġà¥§à¥¬à¥¦à¥¦":10576,"ene":10577,"ĠPe":10578,"Ġà¥§à¥¯à¥¬à¥ª":10579,"Ø§ÛĮ":10580,"cess":10581,"ÐĲ":10582,"à¤¸à¤¤à¤²":10583,"Ġà¤¸à¤ľà¤¨":10584,"à¤ļà¤®à¤§":10585,"à¤ļà¤Ĺà¤µ":10586,"à¤ĩà¤ıà¤°":10587,"à¥ĥà¤¿":10588,"à¤ĸà¤°à¤Ŀ":10589,"Ġà¤¨à¤®à¤ľ":10590,"Ġà¤ħà¤«à¤°à¤¹à¤°":10591,"ents":10592,"Ġà¤ľà¤¯à¤¨à¤¨":10593,"ĠGirl":10594,"Ġà¥§à¥Ńà¥©à¥¦à¥Ń":10595,"Ġà¥§à¥Ńà¥©à¥¦à¥¬":10596,"Ġà¥§à¥Ńà¥©à¥¦à¥«":10597,"Ġà¥§à¥Ńà¥©à¥¦à¥¨":10598,"Ġà¥§à¥Ńà¥©à¥¦à¥ª":10599,"Ġà¥§à¥Ńà¥©à¥¦à¥©":10600,"Ud":10601,"mb":10602,"sk":10603,"wo":10604,"à¤²à¤·":10605,"à¤ļà¤²à¤¸":10606,"à¤°à¤²à¤²":10607,"Ġà¤ĩà¤²à¤®":10608,"à¤ķà¤°à¤¨":10609,"Ġà¤ªà¤Ľà¤¯":10610,"à¤ıà¤¨à¤Ĩà¤Īà¤¸":10611,"à¤¯à¤Łà¤¨à¤¬":10612,"Ġà¥¨à¥¯à¥¬":10613,"Ġà¥¨à¥©à¥¨":10614,"ĠBank":10615,"Wh":10616,"à¤¹à¤Łà¤ķ":10617,"Ġà¤ľà¤¯à¤ľ":10618,"Ġà¤«à¤¸à¤²":10619,"à¤ħà¤¥à¤µ":10620,"à¤ªà¤®à¤§":10621,"à¤ķà¤²à¤¨à¤²":10622,"à¤¾.,":10623,"Ġà¤¸à¤¹à¤Ńà¤Ĺ":10624,"à¤°à¤ªà¤Ļ":10625,"Ġà¤Ĳà¤¡":10626,"à¤°à¤ľà¤¤":10627,"Ð°Ñħ":10628,"Ġà¤¤à¤¬à¤°à¤²":10629,"Ġà¤ĵà¤Ńà¤°à¤²":10630,"Ġà¤ĵà¤®à¤¨à¤ķ":10631,"ĠÐ²Ñĭ":10632,"ARCHIVE":10633,"ä¸ĩåĨĨ":10634,"63":10635,"ze":10636,"Ġel":10637,"à¤¿Â¥":10638,"à¤īà¤Ĩà¤®":10639,"Ġà¤ĸà¤²à¤ķ":10640,"Ġà¤¤à¤°à¤¹à¤°":10641,"à¤·à¤£à¤¦":10642,"à¤®à¤¤à¤Ĺà¤£à¤¨":10643,"à¤µà¤°à¤£à¤¸":10644,"Ġà¤¨à¤¹à¤¸":10645,"à¤Īà¤²à¤Ł":10646,"Ġà¤¨à¤ªà¤ļ":10647,"Ġà¥§à¥ªà¥¯":10648,"ini":10649,"ato":10650,"à¤µà¤¯à¤®à¤ķ":10651,"oot":10652,"Ð½Ð¾Ð¹":10653,"2016":10654,"à¤°à¤ĺà¤£":10655,"ler":10656,"sc":10657,"à¤ªà¤ł":10658,"à¤«à¤£":10659,"à¤Ŀà¤¯":10660,"à¤®à¤ķà¤°à¤£à¤ķ":10661,"Ġà¤ĩà¤ĸ":10662,"Ġà¥ªà¥¦à¥¦à¥¦":10663,"à¥¬à¥¦à¥¦":10664,"Ġà¤ªà¤¦à¤®à¤°":10665,"Ġà¤®à¤²à¤Ļ":10666,"Ġà¤«à¤°à¤«":10667,"Ġà¤Ĩà¤Īà¤¬":10668,"Ġà¤Ĺà¤¨à¤Ĺà¤¨":10669,"à¤Łà¤¬à¤²à¤ª":10670,"à¤¾à¥Īà¤Ĥà¥¤":10671,"Ġà¤ıà¤ħà¤°à¤ķ":10672,"à¹ī":10673,"doc":10674,"à¤ķà¤ĸ":10675,"à¥ģ|":10676,"à¤¹à¤®à¤§":10677,"à¤Łà¤®à¤¨":10678,"Ġà¤¬à¤Łà¤®":10679,"Ġà¤Ĩà¤¦à¤¨":10680,"à¤īà¤ªà¤¦":10681,"à¤°à¤¦à¤¶à¤¨":10682,"Ġà¤ĸà¤¨à¤ľ":10683,"Ġà¥¨à¥¨à¥¨":10684,"à¤ħà¤Ĺà¤·":10685,"ization":10686,"Yz":10687,"éĢ":10688,"à¤¨à¤ı":10689,"à¤µà¤ļà¤°":10690,"Ġà¤«à¤²à¤®":10691,"à¤Ĩà¤¨à¤ķ":10692,"à¤Łà¤¨à¤ªà¤Ľ":10693,"à¤¬à¤°à¤Ĺ":10694,"Ġà¤ĵà¤ľà¤¸":10695,"à¤°à¤¶à¤®":10696,"à¤ķà¤¨à¤ªà¤Ľ":10697,"Ġà¤®à¤¤à¤¹à¤°":10698,"omit":10699,"ĠÐľ":10700,"ĠOLD":10701,"Ġ400":10702,"Ġà¤°à¤¹à¤°à¤¹à¤°":10703,"à¤¯à¤£à¤Ĺà¤¢à¤ķ":10704,"Ġà¤²à¤ĸà¤¤à¤°":10705,"à¥¨à¥¦à¥«à¥ª":10706,"ajura":10707,"ĠOLDER":10708,"100":10709,"la":10710,"Ġà¤½":10711,"à¤²à¤¹à¤¨":10712,"à¤¦à¤¯à¤µ":10713,"Ġà¤Ĺà¤ĩà¤¯":10714,"à¤ľà¤¥":10715,"à¤·à¤¸à¤ķ":10716,"à¤·à¤Ŀ":10717,"à¤ļà¤ªà¤Ľ":10718,"à¤¡à¤Ľ":10719,"à¤°à¤¤à¤ľà¤¸":10720,"Ġà¤ĸà¤°à¤ĸà¤ľ":10721,"Ġà¤«à¤°à¤«à¤°":10722,"à¤°à¤ľà¤Ļ":10723,"Ġà¤Ńà¤Īà¤°à¤¹à¤¨":10724,"Ġà¥¦à¥©à¥¬":10725,"has":10726,"eme":10727,"ĠReg":10728,"Ġcomp":10729,"85":10730,"OC":10731,"vail":10732,"à¤ªà¤Ļ":10733,"à¤·à¤ħà¤¨":10734,"à¤£à¤Ńà¤¨":10735,"à¤ĩà¤§":10736,"Ġà¤§à¤°à¤®à¤ª":10737,"à¥ĩ,âĢĿ":10738,"Ġà¥§à¥®à¥¨":10739,"à¤®à¤ªà¤Ł":10740,"Ġà¥¨à¥¯à¥®":10741,"Ġà¤¬à¤Ĺà¤°à¤ķ":10742,"à¤°à¤¸à¤®à¤£":10743,"à¤¤à¤¹à¤Łà¤²":10744,"Ð¸Ð·":10745,"andard":10746,"à¤¼à¥Ī":10747,"aper":10748,"974":10749,"echnology":10750,"MAND":10751,"à¥Ĩ":10752,"à¤¶à¤®à¤²":10753,"à¤£à¤ĺ":10754,"Ġà¤¶à¤®à¤¸":10755,"Ġà¤ıà¤ķà¤¥":10756,"Ġà¤Ĩà¤ľà¤²":10757,"Ġà¤¦à¤²à¤¦à¤²":10758,"à¤²à¤¤à¤¸à¤®à¤ķ":10759,"à¤°à¤ľà¤¨à¤¸":10760,"ĠLocation":10761,"Ġà¥§à¥§à¥©à¥¦à¥¨":10762,"ocial":10763,"QW":10764,"RL":10765,"vGF":10766,"Î¿":10767,"Ø´":10768,"à¤¹à¤¬à¤¹":10769,"à¤¹à¤£à¤²":10770,"à¤ıà¤°à¤ķ":10771,"Ġà¤¹à¤°à¤¤":10772,"à¤Ńà¤¶":10773,"à¤ĸà¤¤à¤ķ":10774,"à¤ªà¤°à¤¹à¤°":10775,"à¤ħà¤«à¤°":10776,"à¤ļà¤¨à¤¦":10777,"à¤²à¤¨à¤Ń":10778,"Ġ1000":10779,"à¤ĸà¤ķà¤·":10780,"alt":10781,"ĠÐĿ":10782,"à¤¯à¤Łà¤ķà¤®":10783,"Ð°ÐµÑĤ":10784,"Ð¸Ñħ":10785,"ollow":10786,"Ġ..?":10787,"vGFkv":10788,"à¤®à¤¦à¤ķ":10789,"Ġà¤°à¤¬à¤°à¤ķ":10790,"Ġà¤¦à¤¨à¤ķ":10791,"Ġà¤ĸà¤²à¤ª":10792,"Ġà¤ķà¤°à¤¹à¤°":10793,"Ġà¥§à¥¯à¥¨":10794,"Ġà¥§à¥¯à¥©à¥®":10795,"à¤¤à¤¬à¤¦":10796,"ero":10797,"Ġschool":10798,"ĠHome":10799,"Ġà¤ķà¤¦à¤®à¤®":10800,"ĠNepalese":10801,"Ġvis":10802,"ysansar":10803,"Ġ...........(":10804,"MANDU":10805,"Gz":10806,"MA":10807,"Î±":10808,"à¤¯à¤«":10809,"Ġà¤¬à¤ĺ":10810,"Ġà¤¦à¤¹à¤®":10811,"à¤¡à¤µà¤°":10812,"à¤Ńà¤Ĺà¤¤à¤²":10813,"à¤īà¤ªà¤Ľ":10814,"à¤ĺà¤°à¤¦":10815,"Ġà¤¯à¤¸à¤¤":10816,"Ġà¤Ŀà¤µ":10817,"Ġà¤Ĩà¤®à¤¹à¤¡":10818,"à¤¤à¤°à¤®à¤¹":10819,"Ġà¤¨à¤Ĺà¤¦à¤ķ":10820,"à¤¾à¥Īà¤Ĥ-":10821,"irm":10822,"Ġà¤Ĩà¤īà¤Łà¤¸":10823,"Ġhello":10824,"Ġà¤ľà¤¯à¤ľà¤¯à¤ķ":10825,"ii":10826,"åĬ":10827,"Ġà¥ĭ":10828,"Ġà¤ªà¤²à¤®":10829,"à¤Łà¤ľà¤¤":10830,"à¤ıà¤°à¤²":10831,"à¤§à¤µà¤¨":10832,"à¤¶à¤Ĺà¤¤":10833,"Ġà¤īà¤¢":10834,"à¤°à¤¤à¤Ńà¤°":10835,"à¤Ŀà¤°à¤¨":10836,"Ġà¤ħà¤ªà¤¸":10837,"Ġà¥§à¥ªà¥¬":10838,"à¤Ĺà¤®à¤¨à¤ªà¤Ľ":10839,"à¤ĩà¤¡à¤¬":10840,"completed":10841,"ĠDh":10842,"Ġsome":10843,"Ġday":10844,"à¥¦à¥¬à¥«":10845,"Ġà¤°à¤¹à¤°à¤®":10846,"à¥Ģ',":10847,"à¤ļà¤¥à¤°à¤¬":10848,"angt":10849,"Ġà¤µà¤§à¤¶":10850,"Ġatt":10851,"II":10852,"à¤¨à¤°à¤ª":10853,"à¤¦à¤²à¤¬":10854,"Ġà¤ħà¤¡à¤ķ":10855,"à¤¬à¤¬à¤Ī":10856,"Ġà¤¤ÅĴà¤µ":10857,"Ġà¤ĨÃ":10858,"à¤ķà¤°à¤£à¤¦":10859,"à¤µà¤ªà¤¦":10860,"Ġà¥§à¥¯à¥§":10861,"Ġà¤Ĺà¤łà¤ľ":10862,"Ġà¥¨à¥©à¥©":10863,"ĠChe":10864,"ĠForm":10865,"ãģĭ":10866,"ĠKang":10867,"Ġà¤ıà¤¸à¤Īà¤Īà¤ķ":10868,"Ã©s":10869,"ĠJanuary":10870,"TKC":10871,"wma":10872,"à¤Łà¤ªà¤°":10873,"Ġà¤ľà¤Ĺà¤²":10874,"à¤ľà¤¨à¤¶à¤ķ":10875,"à¤²à¤ķà¤ª":10876,"à¤Ĺà¤¤à¤¸":10877,"à¤·à¤¤à¤¯":10878,"ĠArticle":10879,"à¤¤à¤¸à¤¯":10880,"Ġà¥«à¥§à¥Ń":10881,"aily":10882,"à¤Ĳà¤¨à¤ķ":10883,"ahoo":10884,"Ġ2058":10885,"Ġà¤Ľà¤°à¤ªà¤·":10886,"YzTKC":10887,"GzYzTKC":10888,"GzYzTKCwma":10889,"!âĢĻ":10890,"jk":10891,"âĸ":10892,"æĿ":10893,"à¤²à¤ĺà¤°":10894,"à¤ªà¤¥à¤®":10895,"Ġà¤ħà¤Łà¤®":10896,"à¤§à¤²à¤Ĺ":10897,"Ġà¤¦à¤¶à¤¹à¤°":10898,"à¤¦à¤®à¤¯":10899,"Ð¾Ñĩ":10900,"Ġà¤Ľà¤łà¤²à¤Ĺ":10901,"ĠFl":10902,"Ġà¥¯à¥®à¥«":10903,"à¤¤à¤ķà¤®à¤§":10904,"eave":10905,"unday":10906,"ps":10907,"Ø©":10908,"Ġ\\'":10909,"à¤¾à¥ħ":10910,"Ġà¤ķà¤ªà¤°":10911,"à¤¯à¤ķà¤¥":10912,"à¤ľà¤¨à¤°à¤²":10913,"à¤¢à¤¯":10914,"à¤°à¤²à¤®":10915,"à¤²à¤¬à¤¡":10916,"à¤ĥ-":10917,"Ġà¤°à¤¹à¤¨à¤¸à¤ķ":10918,"à¤¾--":10919,"Ġà¤ıà¤ªà¤¹à¤°":10920,"ept":10921,"Ġ39":10922,"ĠGurk":10923,"ÑĥÐ´":10924,"Ġà¤ıà¤®à¤ıà¤¡à¤¬":10925,"Ġà¤ľà¤¨à¤Ĺà¤£à¤¤":10926,"DR":10927,"person":10928,"ÅĤ":10929,"à¤¨à¤§à¤¨":10930,"à¤ķà¤ªà¤¤":10931,"Ġà¤µà¤¡à¤²":10932,"Ġà¤¥à¤°à¤¹à¤°":10933,"à¤¸à¤®à¤¥à¤°":10934,"à¤¨à¤®à¤¹":10935,"Ġà¤ªà¤ķà¤¡à¤®":10936,"Ġà¤Ĩà¤®à¤¸":10937,"Ġà¤ıà¤¸à¤¸":10938,"Ġfl":10939,"Ġ34":10940,"ĠâĢĻâĢĻ":10941,"Ð½Ð¾Ð³Ð¾":10942,"à¤Ĩà¤ĩà¤«":10943,"Ġà¤ķà¤¦à¤°à¤ªà¤¤":10944,"ĠChair":10945,"angtang":10946,"News":10947,"SP":10948,"ning":10949,"à¤²à¤Ľ":10950,"à¤µà¤®à¤®":10951,"Ġà¤¨à¤¬à¤°":10952,"à¤ľà¤®à¤²":10953,"Ġà¤µà¤°à¤ķ":10954,"Ġà¤ľà¤«":10955,"à¤īà¤ĺà¤°à¤®":10956,"à¤īà¤¨à¤Ń":10957,"à¤°à¤¸à¤Ĺ":10958,"Ġà¤ĺà¤°à¤¨à¤ľ":10959,"Ġà¤ħà¤µà¤¦":10960,"Ġà¤¹à¤¤à¤ªà¤¤":10961,"à¤¸à¤¹à¤¸à¤ļ":10962,"Ġà¥§à¥®à¥®":10963,"Ġà¥¦à¥§à¥Ń":10964,"Ġles":10965,"Ġà¤Ĺà¤¹à¤Ńà¤°":10966,"Ġà¤Ĺà¤ıà¤Ľà¤¨":10967,"Ġà¤ıà¤«à¤Ł":10968,"à¤ıà¤ļà¤ª":10969,"à¤ªà¤°à¤®à¤ª":10970,"Ġ1998":10971,"Ġà¤ľà¤®à¤ĺà¤Łà¤ķ":10972,"à¤ıà¤¯à¤°à¤ª":10973,"Ġunder":10974,"Ġà¤Ľà¤²à¤ķà¤ªà¤Ł":10975,"CP":10976,"mà¤¦":10977,"à¤°à¤Ĺà¤®à¤¨":10978,"Ġà¤ķà¤Łà¤°":10979,"Ġà¤Ĩà¤¶à¤¨":10980,"à¤£à¤ľà¤¨":10981,"Ġà¤ªà¤°à¤¯":10982,"à¤ĩà¤¨à¤ĸà¤¬à¤°à¤ķ":10983,"Ġà¤ķà¤°à¤ª":10984,"à¤·à¤£à¤¸à¤¹":10985,"à¤ķà¤ķà¤¸":10986,"Ġà¤ĵà¤Ńà¤²":10987,"à¤ľà¤¦à¤°à¤µ":10988,"à¤īà¤ªà¤¸à¤Ń":10989,"ĠPart":10990,"à¤¨à¤Ĺà¤ıà¤ķ":10991,"à¸ĩ":10992,"ddcmugu":10993,"allenge":10994,"aur":10995,"âĪ":10996,"à¥ĩà¥ģ":10997,"Ġà¤°à¤¥à¤®":10998,"Ġà¤ľà¤²à¤²":10999,"à¤®à¤ķà¤ķ":11000,"à¤ķà¤®à¤¬":11001,"à¤ļà¤¨à¤µ":11002,"à¥¨à¥¨à¥¦":11003,"à¤²à¤¨à¤¤à¤°":11004,"à¤ıà¤®à¤Ĩà¤Ī":11005,"omen":11006,"à¥¦à¥¬à¥Ń":11007,"Ġ53":11008,"Ġwho":11009,"forms":11010,"ĠTrump":11011,"Download":11012,"He":11013,"Ã¨":11014,"à¤¯à¤¶à¤¨à¤²":11015,"Ġà¤µà¤ļà¤¨à¤ķ":11016,"à¤īà¤Łà¤ķ":11017,"à¤¯à¤ķà¤¸à¤®":11018,"à¤°à¤¤à¤ªà¤°à¤¸":11019,"à¤Ļà¤¬à¤ľ":11020,"Ġà¤ıà¤ķà¤²à¤ķ":11021,"à¤ħà¤µà¤ķ":11022,"Ġà¤ľà¤¸à¤¦":11023,"à¤°à¤Ńà¤¦":11024,"Ġà¥§à¥«à¥ª":11025,"Ġà¤§à¤¨à¤¤":11026,"Ġà¥§à¥ªà¥Ń":11027,"Ġà¥¨à¥ªà¥§":11028,"ĠTe":11029,"ional":11030,"Ġà¥©à¥©à¥ª":11031,"room":11032,"ĠKul":11033,"ird":11034,"äºĨ":11035,"ĠEnglish":11036,"nn":11037,"ua":11038,"watch":11039,"à¤µà¤¶à¤®à¤¶":11040,"Ġà¤¬à¤Łà¤°à¤«":11041,"Ġà¤Ńà¤¯à¤®":11042,"Ġà¤Ľà¤ľà¤¨":11043,"Ġà¤ªà¤°à¤«":11044,"Ġà¤ĺà¤°à¤¬à¤¹":11045,"Ġà¤Ĳà¤¯":11046,"à¤Ĩà¤ľà¤¬":11047,"....\"":11048,"ases":11049,"à¤ıà¤ļà¤ĵ":11050,"ose":11051,"Ġà¤ķà¤¨à¤ķà¤®à¤£":11052,"TS":11053,"Ġà¤Ĺà¤±":11054,"à¤Łà¤ļà¤¨":11055,"Ġà¤µà¤µ":11056,"à¤§à¤Ļ":11057,"Ġà¤¥à¤®à¤¨":11058,"à¤ªà¤°à¤¯":11059,"à¤²à¤¨à¤ľ":11060,"à¤¯à¤²à¤¹à¤°":11061,"à¤Ĺà¤²à¤Ń":11062,"à¤«à¤²à¤«":11063,"à¥ĩà¥¤âĢĿ":11064,"Ġà¥§à¥Ńà¥®":11065,"Ġmod":11066,"olor":11067,"Ġà¤Ĩà¤Ļà¤Ľ":11068,"terest":11069,"udio":11070,"Ġà¤¬à¤¬à¤°à¤®à¤¹à¤²":11071,"ĠProfile":11072,"time":11073,"yle":11074,"Ĥ¬":11075,"à¤¸à¤ıà¤¸":11076,"Ġà¤ķà¤²à¤¬":11077,"à¤¬à¤Ń":11078,"Ġà¤µà¤¨à¤®à¤¨":11079,"à¤ĩà¤ĺ":11080,"à¤°à¤£à¤¬à¤¸":11081,"à¤ĺà¤°à¤¸":11082,"Ġà¤§à¤¨à¤¨":11083,"Ġà¤¡à¤¯":11084,"à¤Ŀà¤¨à¤²":11085,"à¤ħà¤ªà¤²":11086,"à¤µà¤¨à¤ªà¤¦":11087,"Ġà¤¸à¤°à¤Ĺà¤®":11088,"à¤ĸà¤°à¤¨":11089,"à¤¹à¤ķà¤¬":11090,"à¤¾à¥ĩ)":11091,"Ġà¤Ĳà¤¨à¤¬":11092,"ino":11093,"ĠAJA":11094,"etwork":11095,"Ġ47":11096,"istry":11097,"Ġà¤Łà¤®à¤Ł":11098,"rough":11099,"ĠGurkha":11100,"ĠAJAX":11101,"link":11102,"oe":11103,"Ġà¤¦à¤ľ":11104,"à¤¥à¤°à¤®":11105,"à¤Īà¤ľà¤°":11106,"Ġà¤ķà¤®à¤²à¤µ":11107,"à¤Ĺà¤ķà¤µ":11108,"Ġà¥¨à¥©à¥ª":11109,"à¤²à¤¨à¤²à¤Ĺ":11110,"Ġ54":11111,"à¹Ģ":11112,"àµį":11113,"ĠØ§Ø":11114,"Ġà¤²à¤¹à¤¸":11115,"Ġà¤ıà¤²à¤¨":11116,"à¤ķà¤®à¤¸":11117,"à¤¤à¤ķà¤¸":11118,"Ġà¤Ĩà¤ľà¤ªà¤°":11119,"à¤ķà¤ªà¤Łà¤ķ":11120,"Ġà¤ıà¤®à¤Ĩà¤Ī":11121,"à¤¤à¤¬à¤ľ":11122,"ĠTarget":11123,"à¤Łà¤µà¤²à¤¸":11124,"à¥¨à¥¦à¥«à¥¯":11125,"ĠAnn":11126,"ollege":11127,"aim":11128,"à¤¿--":11129,"à¤¿Â«":11130,"à¤®à¤¯à¤®":11131,"à¤¯à¤°à¤¸à¤¹":11132,"à¤·à¤ļà¤¨":11133,"Ġà¥©à¥¦à¥«":11134,"Ġà¤ļà¤²à¤¨à¤®":11135,"Ġà¥¨à¥«à¥«":11136,"à¤ľà¤¯à¤¬":11137,"ane":11138,"à¤¸à¤µà¤¬":11139,"à¤¾...âĢĻ":11140,"Ġà¥¨à¥¯à¥¦":11141,"Ġpress":11142,"ĠMother":11143,"ush":11144,"Ġà¥¦à¥«à¥Ń":11145,"Ġà¥§à¥¯à¥«à¥§":11146,"ĠðŁĳī":11147,"Ġà¥§à¥§à¥¦à¥¨à¥§":11148,"NTV":11149,"Ġcheap":11150,"æĺ¯":11151,"sahityasansar":11152,"CS":11153,"à¤¦à¤¯à¤¸":11154,"à¤°à¤£à¤Ńà¤¨":11155,"Ġà¤ķà¤®à¤²à¤¬à¤¹":11156,"à¤Ĩà¤ĩà¤¨":11157,"Ġà¤ĺà¤°à¤ĸ":11158,"âĢĿà¥¤":11159,"Ġà¤¬à¤²à¤°à¤²":11160,"Ġà¤¨à¤Ĺà¤ıà¤°":11161,"Ġà¤Ĩà¤īà¤Łà¤¡":11162,"ĠJohn":11163,"à¤£à¤Ĺà¤Ļ":11164,"indows":11165,"ĠĠĠĠĠĠĠĠ":11166,"get":11167,"jn":11168,"à¤¨à¤°à¤ķà¤°":11169,"à¥ĩ&":11170,"Ġà¤¸à¤Ŀ":11171,"à¤¡à¤µà¤²":11172,"à¤īà¤¨à¤ªà¤°":11173,"à¤¾à¤ģ\"":11174,"à¤¸à¤ķà¤ķà¤¹":11175,"Ġà¤¬à¤¨à¤¬":11176,"Ġà¤®à¤¨à¤µ":11177,"Ġà¤ħà¤µà¤¶à¤°":11178,"à¤µà¤¤à¤¬":11179,"à¤ıà¤®à¤Ĩà¤°à¤²":11180,"à¥¨à¥¦à¥¯":11181,"à¤ıà¤«à¤Ł":11182,"à¥ĩ-âĢĻ":11183,"olangtang":11184,"Ġà¤ªà¤Łà¤ķà¤ªà¤Łà¤ķà¤ķ":11185,"Ġvomit":11186,"à§į":11187,"radiolangtang":11188,"64":11189,"fl":11190,"son":11191,"yt":11192,"à¤µà¤£à¤®":11193,"Ġà¤°à¤ľà¤¹à¤°":11194,"Ġà¤¨à¤«à¤¸":11195,"à¤°à¤®à¤¹":11196,"à¥Į)":11197,"à¤ħà¤¥":11198,"Ġà¤¬à¤¢à¤µ":11199,"Ġà¤ķà¤®à¤Ńà¤¨":11200,"à¤Łà¤¨à¤¦":11201,"Ġà¤¢à¤¡":11202,"Ġà¤ĩà¤¨à¤ª":11203,"à¤¨à¤µà¤¦":11204,"à¤ļà¤²à¤ª":11205,"à¤Īà¤¨à¤²à¤ķ":11206,"Ġsex":11207,"Ġsee":11208,"Ġdec":11209,"Ġdownload":11210,"à¤¨à¤Ńà¤°à¤®":11211,"aking":11212,"à¤¤à¤Ńà¤£":11213,"posh":11214,"More":11215,"TZ":11216,"mà¤ķ":11217,"xt":11218,"Ø¹":11219,"Ġright":11220,"à¤Ńà¤µà¤ª":11221,"à¤¯à¤ķà¤Ĺ":11222,"à¤¢à¤¨":11223,"Ġà¤ĺà¤®à¤¨":11224,"à¤Łà¤°à¤ľà¤¸":11225,"Ġ-&":11226,"Ġà¤ľà¤Ĺà¤ľà¤Ĺ":11227,"Ġà¤¹à¤¸à¤¨à¤²":11228,"Ġà¤ľà¤²à¤ļà¤°":11229,"Ġà¤¨à¤Ĺà¤ª":11230,"ophy":11231,"Ġ1997":11232,"Ġclass":11233,"Ġà¤ķà¤ļà¤ķà¤ļ":11234,"Ġà¤¸à¤ī":11235,"à¤¥à¤ľ":11236,"à¤Īà¤ªà¤¨":11237,"à¤Ńà¤¹":11238,"à¤ĩà¤¬à¤ķ":11239,"à¥Įà¥¤âĢĻ":11240,"Ġà¤¶à¤¤à¤¬":11241,"à¤µà¤¨à¤Ĺà¤°":11242,"à¤ıà¤¸à¤ĵ":11243,"à¤ıà¤¸à¤ıà¤¸":11244,"Ġà¥¨à¥¨à¥Ń":11245,"ĠTong":11246,"Ð¸Ñģ":11247,"ĠØ¯":11248,"à¤ķà¤ħà¤ªà¤®":11249,"kantipur":11250,"à¤²à¤¤à¤ª":11251,"Ġà¤¬à¤ķà¤¸":11252,"à¤ļà¤¯à¤²":11253,"à¤Īà¤§":11254,"à¤¶à¤ķà¤¸à¤®":11255,"à¤Ĺà¤²à¤ªà¤¨":11256,"Ġà¤ĵà¤®à¤°":11257,"à¤Ĺà¤®à¤¯":11258,"Ġà¤¸à¤¤à¤¬":11259,"à¤¿.)":11260,"ĠAg":11261,"Ġà¤¦à¤®à¤¨à¤¨":11262,"èĢ":11263,"éĩ":11264,"ĠÑħ":11265,"à¤ķà¤¨à¤¸":11266,"à¤Ĺà¤Ĺà¤¨":11267,"Ġà¤¹à¤ķà¤¬":11268,"Ġà¤Ĩà¤ĩà¤Ń":11269,"à¤¸à¤¨à¤²à¤Ĺ":11270,"ĠNCC":11271,"1954":11272,"Ġgo":11273,"Ġmeet":11274,"Ġprovid":11275,"65":11276,"HR":11277,"mon":11278,"à¤°à¤°à¤£":11279,"à¤°à¤¶à¤ķ":11280,"à¥ĭà¤¾":11281,"à¤§à¤ľ":11282,"Ġà¤ľà¤Ĺà¤ķ":11283,"Ġà¤ıà¤®à¤¨":11284,"à¤¸à¤®à¤ħà¤¨":11285,"à¤²à¤ķà¤¸à¤®":11286,"âĢĻ(":11287,"Ġà¤¬à¤²à¤¶":11288,"Ġà¤ľà¤®à¤¦à¤Ĺ":11289,"Ġà¤¸à¤µà¤Ńà¤¨":11290,"Ġà¤ĩà¤®à¤°à¤ľ":11291,"elf":11292,"Ð¸Ðº":11293,"ott":11294,"à¥¤à¥¤à¥¤":11295,"ba":11296,"åº":11297,"à¥ĩâĢĺ":11298,"à¤§à¤Ńà¤¨":11299,"à¤ħà¤ł":11300,"à¤µà¤°à¤Ń":11301,"à¤¸à¤¬à¤Ńà¤¨":11302,"Ġà¤ıà¤¨à¤Ĩà¤ĩà¤¬":11303,"Ġà¥§à¥®à¥¦à¥¦":11304,"à¤·à¤§à¤°à¤ķ":11305,"ategory":11306,"ces":11307,"à¤ªà¤Łà¤®":11308,"à¤ıà¤ı":11309,"à¤¡à¤µà¤ķ":11310,"à¤īà¤¡à¤²":11311,"à¤ķà¤²à¤Ļ":11312,"Ġà¤¨à¤Ĺà¤°à¤¹à¤°":11313,"à¤ľà¤ķà¤¸à¤®":11314,"à¤ıà¤¨à¤Ĩà¤Ī":11315,"à¤ķà¤ªà¤Ł":11316,"à¤ĩà¤²à¤¸":11317,"Ġà¤ıà¤®à¤µ":11318,"à¤¯à¤£à¤Ĺà¤£":11319,"Ġà¤ªà¤²à¤Ļ":11320,"ĠÐł":11321,"à¤ĩà¤ķà¤²à¤¯":11322,"à¤Ĺà¤ľà¤²à¤ķ":11323,"à¥¨à¥¦à¥¦à¥ª":11324,"à¥į-âĢľ":11325,"ÑĥÑİ":11326,"Ġhelp":11327,":âĢĿ":11328,"Ġra":11329,"à¤Ĺà¤¨à¤ª":11330,"Ġà¤®à¤łà¤ķ":11331,"Ġà¤Ńà¤Łà¤°":11332,"à¤¡à¤£":11333,"à¤Ńà¤µà¤¸":11334,"Ġà¤ıà¤²à¤¬à¤®":11335,"Ġà¤ĵà¤łà¤ķ":11336,"Ġà¤ıà¤®à¤Ĩà¤°à¤Ĩà¤Ī":11337,"Ġà¤®à¤¤à¤µ":11338,"âĢľ,":11339,"à¤Ĭà¤²":11340,"Ġtwitter":11341,"Ġà¤ıà¤¡à¤µ":11342,"___":11343,"istrict":11344,"ĠÐ¸Ð½":11345,"ency":11346,"aturday":11347,"79":11348,"der":11349,"po":11350,"tain":11351,"å·":11352,"à¤¤à¤µà¤ķ":11353,"à¤¶à¤°à¤®":11354,"à¤¡à¤¹à¤²":11355,"à¤ĩà¤¬à¤°à¤®":11356,"Ġà¤ħà¤¨à¤ªà¤¢":11357,"Ġà¤¸à¤¹à¤ħà¤Ń":11358,"Ġà¤łà¤Ĺà¤¹à¤°":11359,"à¤²à¤¯à¤¤à¤°":11360,"Ġà¤ıà¤®à¤ıà¤²":11361,"Ġà¤ıà¤¨à¤Ĩà¤°à¤Ł":11362,"Ġà¤ļà¤¢à¤¨":11363,"ening":11364,"Ġà¤ħà¤ĸà¤µ":11365,"ĠBr":11366,"ĠBar":11367,"à¥¦à¥¬à¥§":11368,"Ġà¥Ńà¥©à¥Ń":11369,"à¤Ĳà¤¨à¤®":11370,"Ġà¤ıà¤¸à¤ĩà¤ĩ":11371,"vailable":11372,"à¹Ģà¸":11373,"Script":11374,"back":11375,"Ðŀ":11376,"à¥Ģà¤¾":11377,"Ġà¤¸à¤¸à¤ķ":11378,"Ġà¤¸à¤ĺà¤°":11379,"à¤µà¤§à¤°":11380,"Ġà¤ĸà¤°à¤¦":11381,"Ġà¤ıà¤¨à¤²":11382,"Ġà¤ĩà¤¦à¤ķ":11383,"ako":11384,"Ġvideo":11385,"à¥¨à¥¦à¥ªà¥¯":11386,"ĠChina":11387,"åŃ":11388,"Ġà¤Ľà¤¤à¤ķ":11389,"à¤Īà¤®à¤¹":11390,"à¤Ńà¤Ń":11391,"Ġà¤ħà¤°à¤°":11392,"à¤°à¤¹à¤°à¤£":11393,"Ġà¤ªà¤¦à¤°":11394,"Ġà¤¦à¤²à¤ľ":11395,"ĠMedia":11396,"Ġà¤ħà¤¸à¤®à¤ķ":11397,"à¥ĭà¤Ĥ,":11398,"Ġà¥§à¥§à¥©à¥¦à¥©":11399,"arma":11400,"Ġjust":11401,"rady":11402,"docs":11403,"De":11404,"ract":11405,"way":11406,"Ûģ":11407,"à¤¨à¤Ĺà¤łà¤¨":11408,"à¤·à¤¯à¤µ":11409,"Ġà¤īà¤¸à¤¸":11410,"à¤°à¤¤à¤¨":11411,"Ġ(âĢĺ":11412,"Ġà¥§à¥Ńà¥§":11413,"Ġà¤¨à¤µà¤Ĺ":11414,"à¥¨à¥¦à¥¦à¥¯":11415,"Ġà¤ħà¤ľà¤¯à¤²":11416,"Ġà¤ıà¤¡à¤µà¤°":11417,"Ġinformation":11418,"Ġ44":11419,"Ġgr":11420,"iving":11421,"ĠState":11422,"Ġass":11423,"Ġ{{":11424,"Posted":11425,"ĠWordPress":11426,"ĠDonald":11427,"JW":11428,"cred":11429,"ues":11430,"Ð¡":11431,"åĮ":11432,"Ġà¥ĥ":11433,"Ġà¤®à¤°à¤£à¤ķ":11434,"Ġà¤¹à¤ķà¤¸":11435,"Ġà¤µà¤ĸà¤¤":11436,"à¤§à¤¸à¤¹":11437,"à¥¤(":11438,"à¥Į/":11439,"Ġà¤ıà¤ıà¤¨à¤ı":11440,"à¤µà¤¸à¤§":11441,"à¤ħà¤ĸà¤¬":11442,"à¤ķà¤²à¤Ł":11443,"Ġà¤ĵà¤¦":11444,"Ġà¤ıà¤¨à¤¡":11445,"era":11446,"Ġpol":11447,"à¤ıà¤«à¤ıà¤²":11448,"Ġà¤¨à¤Ĩà¤ıà¤°":11449,"Ġinter":11450,"Ð°Ð³":11451,"Ġ1994":11452,"à¤¬à¤ĸà¤¤à¤²":11453,"Ġyears":11454,"Ġedit":11455,"à¤¨à¤ħà¤Łà¤°":11456,"AZ":11457,"Travel":11458,"wy":11459,"Ú¯":11460,"à¤°à¤°à¤ķ":11461,"à¤¹à¤¶":11462,"à¤µà¤Ńà¤ķ":11463,"à¤ıà¤ªà¤¶":11464,"à¤Łà¤ķà¤ĺà¤°à¤®":11465,"Ġà¥©à¥¦à¥¯":11466,"à¤¦à¤¨à¤ªà¤Ľ":11467,"Ġà¤¸à¤®à¤¯à¤ħà¤Ĺ":11468,"Ġà¤ķà¤µà¤¹":11469,"Ġà¥§à¥®à¥§à¥ª":11470,"Ġà¤«à¤²à¤ª":11471,"à¤ªà¤Łà¤¨à¤®":11472,"Ġddc":11473,"Ġthem":11474,"ĠâĢ¦âĢ¦âĢ¦":11475,"aglung":11476,"Ġà¤²à¤¨à¤Ł":11477,"Ġ11514":11478,"Ġà¥§à¥§à¥©à¥¦à¥«":11479,"Ġà¥§à¥§à¥©à¥¦à¥ª":11480,"ãĤĬ":11481,"Ġ144":11482,"ÐµÐ½Ð¸Ðµ":11483,"ĠEthnic":11484,"ĠTongue":11485,"(\"":11486,"Pin":11487,"Pro":11488,"men":11489,"Ġà¤®à¤µ":11490,"à¤¥à¤ªà¤¨":11491,"à¤ļà¤°à¤¸":11492,"à¤£à¤ľà¤¸":11493,"à¤ľà¤¨à¤®à¤¤à¤²":11494,"à¤¤à¤®à¤°":11495,"Ġà¤¬à¤ľà¤°":11496,"Ġà¤ĵà¤ªà¤¨à¤ķ":11497,"à¤¯à¤£à¤¦à¤²":11498,"ination":11499,"Ġà¥¨à¥§à¥©":11500,"Ġà¥¨à¥¬à¥¯":11501,"ĠSub":11502,"ĠALS":11503,"ĠIce":11504,"Ġà¤¸à¤¤à¤¹à¤Ńà¤¨":11505,"ĠProced":11506,"raining":11507,"nepcal":11508,"à¤¿âĢĶ":11509,"à¥ĩ.....":11510,"à¤Ĺà¤¥":11511,"à¤ļà¤°à¤£à¤®":11512,"à¤łà¤µ":11513,"Ġà¤ľà¤®à¤²à¤®":11514,"Ġlike":11515,"001":11516,"ira":11517,"à¸¡":11518,"à¸±":11519,"Ġà¥§à¥§à¥©à¥¦à¥¬":11520,"Ġà¥§à¥¯à¥ªà¥§":11521,"ĠAdd":11522,"qc":11523,"ä¹":11524,"ĠÄ":11525,"à¤¨à¤ıà¤ľ":11526,"à¤®à¤¯à¤²":11527,"Ġà¤Ńà¤¬à¤¨":11528,"Ġà¤ľà¤¯à¤®":11529,"à¤īà¤Łà¤°":11530,"Ġà¤ıà¤¸à¤°":11531,"Ġà¤ĩà¤°à¤«":11532,"à¤²à¤²à¤²":11533,"à¤¦à¤²à¤¸":11534,"à¤Īà¤ķà¤²à¤ķ":11535,"Ġà¤Īà¤Ļà¤²":11536,"Ġmed":11537,"ĠÂ¨":11538,"Ġcre":11539,"ĠRen":11540,"à¥ĭ?!":11541,"Ġà¤¦à¤¹à¤ļ":11542,"Ġever":11543,"brb":11544,"Ġplay":11545,"Girl":11546,"rs":11547,"uter":11548,"à¤¾#":11549,"à¤ļà¤²à¤Ĺ":11550,"à¤«à¤²à¤²":11551,"Ġà¤ĸà¤¯à¤°":11552,"à¤¯à¤¤à¤¹à¤®":11553,"à¤ĩà¤¨à¤ª":11554,"à¥ĭà¥¤&":11555,"à¤®à¤¤à¤µ":11556,"Ġà¤īà¤¦à¤¯à¤ķ":11557,"à¤¹à¤ķà¤ª":11558,"Ġà¥¨à¥¦à¥Ńà¥Ń":11559,"Ġà¤¤à¤²à¤¤à¤²":11560,"ĠSan":11561,"Ġà¤°à¤Ĺà¤¤à¤¬":11562,"Ġhow":11563,"ãĥ»":11564,"pany":11565,"ĠThis":11566,"à¤Ľà¤²à¤«à¤²à¤ķ":11567,"Ġà¤ĳà¤Ł":11568,"ropin":11569,"BA":11570,"Council":11571,"Tb":11572,"qv":11573,"ÙĤ":11574,"à®":11575,"à¼":11576,"å¸":11577,"æī":11578,"à¤¨à¤ıà¤¥":11579,"à¤ķà¤ªà¤®":11580,"à¥ĪÂ´":11581,"à¤·à¤°à¤¸":11582,"à¤§à¤°à¤¤":11583,"Ġà¤ıà¤Ĩà¤°à¤Ł":11584,"Ġà¤¸à¤¹à¤ĩà¤¨":11585,"à¤°à¤§à¤°":11586,"Ġà¤¢à¤ķà¤¨":11587,"à¤ľà¤Ĺà¤ľ":11588,"Ġà¥¨à¥®à¥©":11589,"à¤µà¤Łà¤¯":11590,"ĠSw":11591,"Ġbl":11592,"à¥ĭ?âĢĿ":11593,"à¦¨":11594,"à¥Ģ..âĢĿ":11595,"ÑĩÐµÑģÐº":11596,"ĠChairperson":11597,"Aut":11598,"On":11599,"wn":11600,"å¿":11601,"à¤ķà¤Ļà¤®":11602,"à¤¿;":11603,"à¥Ģà¤¼,":11604,"Ġà¤Ĺà¤ŀ":11605,"Ġà¤Ĺà¤ĩà¤°":11606,"à¥ĪâĢĶ":11607,"Ġà¤¬à¤°à¤£":11608,"Ġà¤®à¤°à¤ķ":11609,"à¤Ĺà¤°à¤¹à¤°":11610,"Ġà¤¤à¤°à¤ĸà¤°":11611,"à¤µà¤¨à¤¨":11612,"à¤·à¤£à¤ª":11613,"à¤¤à¤²à¤¹à¤°à¤ķ":11614,"Ġà¤ĺà¤°à¤Ľ":11615,"à¤²à¤¤à¤¦":11616,"Ġà¤ıà¤¨à¤ĵà¤¸":11617,"Ġà¤ıà¤¨à¤Ĩà¤Īà¤¬":11618,"Ġà¤Ĩà¤Īà¤²à¤¬":11619,"Ġà¤¹à¤²à¤Ń":11620,"à¤Ĩà¤Īà¤ıà¤²":11621,"Ġà¤¦à¤¶à¤ķà¤¤":11622,"Ġà¤ľà¤¡à¤¤":11623,"iles":11624,"Ġà¤°à¤Ļà¤¹à¤°":11625,"emb":11626,"Ġà¤ĵà¤Ńà¤²à¤®":11627,"à¤°à¤¨à¤Ĺà¤°à¤¸":11628,"à¤ĩà¤ıà¤ħà¤¨":11629,"undar":11630,"spot":11631,"äºº":11632,"ĠUniversity":11633,"ĠKulung":11634,"94":11635,"AD":11636,"An":11637,"Year":11638,"ger":11639,"à¤¦à¤µà¤¸à¤¹":11640,"à¤Łà¤ļà¤¨à¤²":11641,"Ġà¤¨à¤°à¤ķà¤ķ":11642,"Ġà¤µà¤²à¤®":11643,"à¤·à¤°à¤ķà¤°":11644,"à¤£à¤ħà¤¨":11645,"à¤¸à¤¨à¤¸à¤¹":11646,"Ġà¥¨à¥¨à¥§":11647,"Ġmay":11648,"à¤Ĭà¤¦à¤ķ":11649,"ĠÐµ":11650,"Ġsystem":11651,"Ġà¤ħà¤¨à¤¶à¤¨à¤¹à¤°":11652,"ĠInv":11653,"Ġ85":11654,"aste":11655,"udur":11656,"ĠÃĹ":11657,"Ġexp":11658,"Ġdise":11659,"Ġà¤¬à¤¬à¤°à¤®à¤¹à¤²à¤¸":11660,"à¤¹à¤¹à¤¹à¤¹":11661,"NewYear":11662,"LJ":11663,"àª":11664,"à¥ĭà¥ĩà¥¤":11665,"à¤¸à¤¯à¤¤":11666,"à¤¦à¤¹à¤ķ":11667,"Ġà¤Ĺà¤Ł":11668,"à¤ıà¤¬à¤²":11669,"à¤£à¤Łà¤®":11670,"à¤ĩà¤¸à¤¨":11671,"Ġà¤®à¤¹à¤®à¤¦":11672,"à¤°à¤¬à¤®":11673,"à¤ķà¤ªà¤²":11674,"à¤ªà¤²à¤Ĺà¤¤":11675,"à¤ıà¤®à¤ıà¤²":11676,"à¤¯à¤¯à¤°à¤¤":11677,"ĠDr":11678,"asi":11679,"à¥Įà¤ģà¥¤'":11680,"Ġback":11681,"Ġwere":11682,"che":11683,"ĠVis":11684,"à¥¨à¥¦à¥«à¥¬":11685,"Ġ2063":11686,"âĢ¢âĢ¢âĢ¢âĢ¢":11687,"ĠÐ´Ð»Ñı":11688,"aid":11689,"à¤®à¤°à¤¨":11690,"à¥ģÃ·":11691,"à¥Ģ;":11692,"Ġà¤ªà¤¡à¤ķ":11693,"Ġà¤ªà¤Ĺà¤²à¤²":11694,"Ġà¤°à¤²":11695,"Ġà¤Ľà¤łà¤®":11696,"Ġà¤¦à¤°à¤¹à¤°":11697,"Ġà¤²à¤¤à¤®":11698,"à¤¯à¤ķà¤®à¤¨":11699,"Ġà¤ħà¤¨à¤ľ":11700,"Ġà¤ħà¤°à¤µà¤ķ":11701,"Ġ?...":11702,"Ġà¤Ķà¤·à¤¤à¤®":11703,"à¤¾à¥ĩ!":11704,"à¤¤à¤°à¤£à¤¸":11705,"Ġà¤Ĳà¤ľà¤¨":11706,"Ġ:)":11707,"à¤¦à¤µà¤¬":11708,"à¤ıà¤®à¤Ĩà¤°":11709,"à¤¯à¤£à¤¬à¤¹":11710,"à¥Ģ)âĢĵ":11711,"à¤¥à¤²à¤®à¤§":11712,"à¤²à¤Ńà¤²":11713,"ĠMal":11714,"Ġà¥ªà¥«à¥Ń":11715,"ĠIm":11716,"ĠBucket":11717,"Ġht":11718,"here":11719,"à¥ĩ?âĢĻ":11720,"ÐµÐ·":11721,"ustral":11722,"ĠActs":11723,"EV":11724,"SA":11725,"bx":11726,"iY":11727,"à¤¯à¤°à¤¦":11728,"Ġà¤ħà¤²à¤¨":11729,"à¤¶à¤°à¤¬à¤¹":11730,"à¤ļà¤¤à¤²":11731,"à¥¤,":11732,"Ġà¤ļà¤ļ":11733,"à¤¯à¤¸à¤Ļ":11734,"Ġà¤ķà¤®à¤¨à¤µ":11735,"à¥«à¥¦à¥Ńà¥¬":11736,"Ġà¤ĺà¤°à¤ĺà¤¡":11737,"atra":11738,"Ġà¤Ĺà¤łà¤¨à¤²":11739,"Ġà¥¨à¥ªà¥«":11740,"ĠShare":11741,"à¤Ĺà¤¸à¤Ĺ":11742,"ĠRCC":11743,"Ġthere":11744,"ĠHot":11745,"Ġà¤ıà¤ķà¤ªà¤Łà¤ķà¤ķ":11746,"raph":11747,"ĠShort":11748,"à¤īà¤ªà¤ķà¤°à¤£":11749,"DTZ":11750,"Fo":11751,"Juw":11752,"Kyb":11753,"cG":11754,"dTb":11755,"iEC":11756,"jhC":11757,"rN":11758,"uth":11759,"à¤¤à¤ĵà¤Ł":11760,"à¤¹à¤§":11761,"Ġà¤ķà¤°à¤¤":11762,"Ġà¤ķà¤¡à¤°":11763,"Ġà¤Ĩà¤¸à¤¨à¤ķ":11764,"Ġà¤ľà¤ķà¤°":11765,"à¤ĩà¤®à¤¤":11766,"à¤°à¤£à¤¤":11767,"à¤¯à¤®à¤ª":11768,"à¥Įà¤Ĥ.":11769,"à¤¾,...":11770,"à¥ĭà¥¤+":11771,"Ġà¤ħà¤²à¤ª":11772,"à¤Ĺà¤¢à¤¨":11773,"Ġà¥¨à¥ªà¥ª":11774,"ĠÂ´":11775,"ĠÐŀ":11776,"Ġà¥ªà¥ªà¥§":11777,"vest":11778,"umna":11779,"Ġform":11780,"à¤¾??":11781,"apan":11782,"à¤®à¤¤à¤²à¤µà¤ķ":11783,"à¥įâĢĿ?":11784,"This":11785,"GBiY":11786,"mdlo":11787,"AKjn":11788,"JWX":11789,"qvmdlo":11790,"LJKyb":11791,"bxdTb":11792,"DTZqc":11793,"iECbKD":11794,"AKjnqvmdlo":11795,"LJKybG":11796,"EN":11797,"HAT":11798,"åį":11799,"à¤¨à¤°à¤¹":11800,"à¥ĭ....":11801,"à¤¯à¤µà¤²":11802,"à¤¹à¤ļà¤°à¤£":11803,"à¤Łà¤¬à¤¹":11804,"à¤ĩà¤²à¤¨":11805,"Ġà¤¶à¤¦":11806,"à¤¤à¤°à¤ªà¤Ł":11807,"à¤łà¤®à¤¡":11808,"à¤Łà¤°à¤¨à¤²":11809,"à¤ªà¤ķà¤¸":11810,"à¤łà¤ķà¤µà¤°":11811,"Ġà¤ħà¤Ļà¤¸":11812,"à¥¦à¥¬à¥ª":11813,"à¤ľà¤Ĺà¤¢à¤¸à¤®":11814,"Ġà¥¯à¥©à¥Ń":11815,"html":11816,"play":11817,"shares":11818,"95":11819,"Prady":11820,"pFo":11821,"Â®":11822,"Ðł":11823,"Ġà¤ªà¤¯à¤°":11824,"à¤Ĺà¤§":11825,"à¤ľà¤°à¤¨":11826,"à¤£à¤ıà¤¶":11827,"Ġà¤ıà¤¨à¤°":11828,"à¤²à¤ķà¤¨":11829,"à¤¤à¤°à¤ĸ":11830,"Ġà¤¸à¤¹à¤²":11831,"à¤¤à¤ķà¤¹":11832,"à¤µà¤¨à¤¤":11833,"à¤µà¤¨à¤ľà¤²":11834,"Ġà¤īà¤¨à¤¸":11835,"Ġà¥©à¥¦à¥®":11836,"Ġà¤Ĩà¤ĩà¤ķà¤¨à¤®":11837,"Ġà¤Ĺà¤£à¤ª":11838,"à¤Ĥ.âĢĵ":11839,"Ġà¤®à¤¦à¤¨à¤®à¤£":11840,"Ġà¤Ĩà¤łà¤¦":11841,"Ġmain":11842,"à¤īà¤ªà¤¸à¤®":11843,"ĠÐ¶":11844,"ĠDal":11845,"ason":11846,"ĠEp":11847,"à¤Ĩà¤¤à¤Ļ":11848,"NepalNewYear":11849,"ubajura":11850,"à¥©à¥«à¥¬":11851,"Ġ1989":11852,"Ġà¥¨à¥«à¥¬à¥«à¥¦":11853,"ĠâĢĭâĢĭ":11854,"Shmm":11855,"narubajura":11856,"MahendraShmm":11857,"wyMT":11858,"ĠProcedures":11859,"rNwyMT":11860,"Pradyumna":11861,"MahendraShmmg":11862,"wc":11863,"à¤²à¤Ŀà¤£":11864,"Ġà¤ķà¤ļà¤²":11865,"à¤«à¤¡":11866,"à¤¯à¤ķà¤°à¤£à¤ķ":11867,"Ġà¤ľà¤¨à¤²":11868,"Ġà¤ľà¤¨à¤²à¤¹à¤°":11869,"Ġà¤¬à¤¢à¤¯":11870,"à¤²à¤¨à¤¶":11871,"Ġà¤¢à¤ķà¤²à¤Ł":11872,"Ġà¥¨à¥«à¥§":11873,"anb":11874,"Ġà¤ľà¤¨à¤ªà¤¥":11875,"Ġpar":11876,"ĠCy":11877,"Ġnep":11878,"ĠLa":11879,"ĠOb":11880,"ĠOf":11881,"Ġà¤ļà¤°à¤®à¤ªà¤¨":11882,"rib":11883,"à¤°à¤¨à¤Ĺà¤°à¤²":11884,"à¤¨à¤µà¤²à¤ª":11885,"Ġwhen":11886,"Ð¸ÑĤÑĮ":11887,"....\"??":11888,"sudur":11889,"à¤¯à¤µà¤¨":11890,"à¤¦à¤¤à¤ķ":11891,"à¤µà¤Ĺà¤£":11892,"à¤Ĺà¤£à¤ķ":11893,"à¥Ī..":11894,"à¤Ľà¤²à¤Ĺ":11895,"à¤ľà¤¨à¤ľà¤¤":11896,"à¤Ŀà¤īà¤¨":11897,"à¤®à¤®à¤¯":11898,"à¤µà¤°à¤£à¤ªà¤¤":11899,"Ġà¤¸à¤¡à¤ķà¤Ľ":11900,"à¤µà¤Ńà¤°à¤®":11901,"à¤¹à¤¦à¤¸à¤®":11902,"à¤ļà¤¨à¤ªà¤¶":11903,"Ġser":11904,"Ġ65":11905,"Ġà¤²à¤¹à¤°à¤²":11906,"Ġà¥§à¥§à¥©à¥Ń":11907,"orts":11908,"ĠNESE":11909,"ĠQu":11910,"restha":11911,"ocument":11912,"blogspot":11913,"sudurkhabar":11914,"à¤¨à¤·":11915,"à¤¨à¤Ĺà¤¨":11916,"à¤ªà¤«":11917,"Ġà¤ıà¤Łà¤®":11918,"à¥ĥà¥ģ":11919,"à¤¸à¤®à¤¯à¤²":11920,"Ġà¤ĩà¤¸à¤¹":11921,"Ġà¤ªà¤¦à¤ķà¤µ":11922,"à¤¨à¤¬à¤ľ":11923,"à¤ļà¤²à¤¨à¤²":11924,"à¤Ĩà¤Īà¤ıà¤ķ":11925,"icham":11926,"Ġà¥©à¥«à¥ª":11927,"ĠCan":11928,"Ġsundar":11929,"à¥§à¥«à¥¦":11930,"ÑĥÑĤ":11931,"ika":11932,"Ġ1991":11933,"ÐµÐ½ÑĤ":11934,"ĠViewsà¤¨":11935,"haraicham":11936,"âĢ¢âĢ¢âĢ¢âĢ¢âĢ¢":11937,"Ġsundarharaicham":11938,"Ġsundarharaichamun":11939,"91":11940,"by":11941,"ror":11942,"Ġeb":11943,"à¤°à¤¯à¤®":11944,"Ġà¤°à¤Ľ":11945,"à¤¥à¤¸à¤¹":11946,"à¤ĺà¤ħà¤¨":11947,"Ġà¤¸à¤ķà¤¸à¤ª":11948,"Ġà¤ħà¤Ĺà¤®à¤¸":11949,"à¤ĵà¤¶":11950,"Ġà¤ªà¤¦à¤¤":11951,"à¤°à¤¨à¤¹à¤°":11952,"Ġ,âĢĻ":11953,"anu":11954,"Ġpri":11955,"ÐµÑģÑĤ":11956,"à¤¯à¤¯à¤¨à¤ķà¤°":11957,"ctor":11958,"Â«Â«":11959,"eaut":11960,"Ġcons":11961,"ĠPolicies":11962,"eneral":11963,"xx":11964,"Ò¯":11965,"à¤¿à¥¤âĢĻ":11966,"à¥Ģà¥į":11967,"Ġà¤¸à¤Łà¤°à¤ķ":11968,"à¤Łà¤Ĺà¤°":11969,"Ġà¤¬à¤¯à¤°":11970,"à¤¶à¤®à¤ķ":11971,"Ġà¤ľà¤µà¤ķ":11972,"à¤¡à¤¨à¤¦":11973,"Ġà¤¡à¤«":11974,"à¤Ĩà¤ªà¤¸":11975,"à¤·à¤£à¤²à¤Ĺ":11976,"Ġà¤Ŀà¤¨à¤ķ":11977,"Ġà¤Ĩà¤°à¤Ĩà¤°":11978,"à¤¬à¤°à¤Ńà¤¨":11979,"Ġà¤Ĩà¤¤à¤¤":11980,"Ġà¤Ľà¤²à¤Ľ":11981,"Ġà¤ķà¤µà¤ļ":11982,"Ġà¥§à¥®à¥ª":11983,"à¤Ĺà¤łà¤¨à¤¦":11984,"Ġà¥¨à¥®à¥¨":11985,"ovation":11986,"à¤²à¤Ĺà¤°à¤²":11987,"Ġdeep":11988,"à¤¡à¤°à¤¸à¤Ł":11989,"Ġcommunity":11990,"ociation":11991,"anguage":11992,"62":11993,"Ip":11994,"Sc":11995,"va":11996,"à¤ªà¤Łà¤²":11997,"à¤¦à¤¹à¤®":11998,"Ġà¤°à¤¡à¤²":11999,"à¤Ľà¤¹à¤°":12000,"à¤ĸà¤²à¤¨à¤ķ":12001,"à¤²à¤ķà¤µ":12002,"à¤µà¤¨à¤¹à¤°":12003,"à¤Ĩà¤Ĺà¤¨":12004,"à¤Ĩà¤µà¤§":12005,"à¤²à¤¨à¤µ":12006,"Ġà¤ħà¤®à¤°à¤°":12007,"Ġà¤¨à¤¬à¤¦à¤²":12008,"Ġmost":12009,"à¤Ĭà¤¦à¤²":12010,"Ġà¤¸à¤¡à¤ķà¤®à¤§":12011,"Ġà¤ħà¤µà¤°à¤¸à¤®":12012,"urnt":12013,"Ġà¥¯à¥®à¥ª":12014,"Ġknow":12015,"ãĥĪ":12016,"Ġà¤Ĩà¤ĩà¤ıà¤®à¤µ":12017,"Ġà¤ľà¤¯à¤¨à¤Ĺà¤°à¤¦":12018,"Ġà¤ľà¤¨à¤®à¤¤à¤¸à¤Ļ":12019,"åĲį":12020,")(":12021,"Ùģ":12022,"à¤¤à¤§":12023,"à¤¸à¤Ńà¤°":12024,"à¤¦à¤¯à¤¬":12025,"Ġà¤°à¤ľà¤µ":12026,"à¤¬à¤®à¤²":12027,"à¤ļà¤²à¤¤":12028,"à¤Īà¤°à¤¸":12029,"à¤Ńà¤¸à¤®":12030,"à¤īà¤§à¤¨à¤ķ":12031,"à¤ĩà¤ıà¤Ľ":12032,"à¤²à¤ķà¤¬à¤¸":12033,"Ġà¤Ĩà¤°à¤Ł":12034,"Ġà¤¹à¤ľà¤°à¤¤":12035,"Ġà¤ĵà¤°à¤²":12036,"Ġà¤°à¤ķà¤®à¤¹à¤°":12037,"Ġà¥§à¥®à¥Ń":12038,"à¤µà¤¦à¤¹à¤ķ":12039,"à¤¡à¤°à¤°":12040,"Ġac":12041,"Ġclick":12042,"Ġden":12043,"Ġà¤°à¤Ļà¤°":12044,"Ġwould":12045,"Ġà¤ļà¤°à¤£à¤µà¤¦":12046,"à¥§à¥©à¥¨":12047,"Ġà¤¶à¤°à¤¦à¤²":12048,"ĠChannel":12049,"Ġà¤Ĺà¤£à¤ªà¤¤à¤¯":12050,"Ġà¤ľà¤®à¤²à¤¸":12051,"Ġà¤®à¤°à¤¹à¤ł":12052,"\")":12053,":âĢĻ":12054,"ke":12055,"mà¤¸":12056,"è¡":12057,"à¤®à¤¹à¤ķ":12058,"à¤¦à¤ķà¤®":12059,"à¤Łà¤ªà¤¨":12060,"à¤·à¤¸à¤¹à¤°":12061,"Ġà¤ľà¤ľà¤®":12062,"âĢ³":12063,"Ġà¤īà¤Ńà¤¯":12064,"Ġà¤ĸà¤Łà¤®":12065,"à¤īà¤¨à¤¯à¤¤":12066,"Ġà¤¡à¤¨à¤¹à¤°":12067,"à¤ªà¤¤à¤¨":12068,"à¤¾./":12069,"ret":12070,"Ġà¥§à¥®à¥¬":12071,"Ġà¤ıà¤²à¤ıà¤²à¤¬":12072,"ĠTimes":12073,"Ġco":12074,"Ġ1950":12075,"à¤¡à¤µà¤ĸ":12076,"usic":12077,"oto":12078,"ãĤĤ":12079,"ĠProgram":12080,"ountry":12081,"SEE":12082,"ZMANDU":12083,"Ġà¤ķà¤¬à¤°":12084,"à¤ľà¤°à¤¬":12085,"à¤¬à¤Īà¤¸":12086,"Ġà¤¦à¤¹à¤ķ":12087,"Ġà¤Ĩà¤Ļà¤ķ":12088,"Ġà¤ľà¤ľà¤¸à¤²":12089,"à¤īà¤ªà¤¸":12090,"Ġà¤¯à¤£":12091,"à¤¨à¤ķà¤®":12092,"à¤ĺà¤°à¤¹à¤°":12093,"Ġà¤ħà¤§à¤µ":12094,"à¤Łà¤ķà¤¬":12095,"à¤Ĩà¤ķà¤¸":12096,"à¤²à¤¯à¤Ńà¤¨":12097,"à¤®à¤¨à¤¨":12098,"à¤°à¤¯à¤¶à¤ķ":12099,"Ġà¤Ĩà¤®à¤¹à¤¡à¤¤":12100,"à¤ľà¤¯à¤¶":12101,"à¤²à¤¨à¤ķà¤°":12102,"Ġpage":12103,"ÑĢÐ°Ð½":12104,"Ġhis":12105,"Ġ46":12106,"2014":12107,"à¸¢":12108,"Ð°Ð¶":12109,"Ġà¤ıà¤¸à¤Īà¤Īà¤®":12110,"Ġà¤²à¤ĸà¤¨à¤Ĭ":12111,"ense":12112,"ĠBIZMANDU":12113,"credi":12114,"Kantipur":12115,"VQ":12116,"da":12117,"jay":12118,"à¤¸à¤¤à¤¬":12119,"à¤ľà¤¬à¤²":12120,"à¤·à¤¸à¤²":12121,"à¤¡à¤ªà¤¸":12122,"à¤Ļà¤ķà¤°":12123,"à¤Ŀà¤¤":12124,"à¤¯à¤¨à¤ª":12125,"à¤Ĩà¤¤à¤ķ":12126,"Ġ|--":12127,"à¤ĵà¤ľ":12128,"à¤¸à¤¹à¤°à¤²":12129,"Ġà¥¦à¥Ńà¥¬":12130,"ante":12131,"comà¤®":12132,"Ġincl":12133,"Ġà¤Ŀà¤²à¤Ŀà¤²":12134,"ips":12135,"ĠAnuz":12136,"Ġsuite":12137,"Ġcontent":12138,"à¤°à¤Ĩà¤µà¤¸":12139,"iber":12140,"ling":12141,"à¤®à¤µà¤²":12142,"Ġà¤¸à¤¥":12143,"Ġà¤®à¤°à¤¨":12144,"Ġà¤ľà¤ŀ":12145,"à¤Īà¤Ľ":12146,"Ġà¤²à¤ķà¤°":12147,"Ġà¤¶à¤ĸ":12148,"à¤¯à¤ķà¤¶":12149,"Ġà¤§à¤°à¤®":12150,"à¤Ĩà¤¨à¤²":12151,"à¤Ĩà¤¯à¤²":12152,"Ġ?âĢĻ,":12153,"à¤ĵà¤ıà¤¨à¤ıà¤¸":12154,"à¤¤à¤°à¤£à¤ªà¤Ľ":12155,"Ġà¥§à¥¯à¥¨à¥©":12156,"Ġà¥§à¥¯à¥©à¥«":12157,"str":12158,"ĠSer":12159,"ĠDar":12160,"à¤¯à¤Łà¤ķà¤®à¤§":12161,"à¥Ģ...âĢĻ":12162,"Ġworld":12163,"ĠHel":12164,"Ġà¤Ĩà¤ĩà¤¡à¤²à¤¬":12165,"ïĢł":12166,"72":12167,"DS":12168,"LL":12169,"QLS":12170,"rd":12171,"ych":12172,"ÄĻ":12173,"å½":12174,"ìĿ":12175,"ģà¸":12176,"à¤²à¤°à¤¬":12177,"à¤¯à¤Ļà¤Ĺ":12178,"à¤¹à¤ľà¤¨":12179,"à¤¹à¤¤à¤²":12180,"Ġà¤Ńà¤ĩà¤¸":12181,"à¤ľà¤®à¤¨":12182,"à¤īà¤ĺ":12183,"à¤°à¤¤à¤Ń":12184,"à¤ħà¤°à¤²":12185,"à¤¯à¤¤à¤ľà¤¸":12186,"Ġà¤®à¤¨à¤Ĺà¤¢à¤¨":12187,"à¤®à¤¨à¤Ĺà¤°à¤ķ":12188,"à¤¸à¤¦à¤®à¤§":12189,"à¤ıà¤¨à¤Ĩà¤°à¤ı":12190,"Ġà¥§à¥«à¥¯":12191,"Ġà¤Ĩà¤Īà¤ĵà¤¸":12192,"à¤Ĩà¤Īà¤ıà¤®":12193,"ili":12194,"ĠPM":12195,"urs":12196,"Ġword":12197,"agement":12198,"ĠRed":12199,"Ġà¤¸à¤¯à¤ķà¤¡":12200,"à¥ĩ!\"":12201,"FAIp":12202,"à¥Ľà¤°":12203,"FAIpQLS":12204,"800":12205,"bu":12206,"ton":12207,"éģ":12208,"à¤®à¤ªà¤Łà¤ķ":12209,"Ġà¤¸à¤¤à¤ķ":12210,"à¤ıà¤ĩà¤²":12211,"Ġà¤µà¤¸à¤²":12212,"à¤¶à¤ĸ":12213,"à¤Łà¤®à¤£":12214,"Ġà¤Ĩà¤®à¤¦":12215,"Ġà¤Ĩà¤¶à¤¯à¤²":12216,"à¥Īà¤ģâĢĵ":12217,"Ġà¥§à¥®à¥¬à¥Ń":12218,"Ġà¤Ńà¤µà¤¨à¤¸":12219,"Ġà¤¦à¤¸à¤Ĺà¤ľ":12220,"ĠDes":12221,"asy":12222,"à¤ĭà¤Ĺ":12223,"ãĤ¹":12224,"ãĤī":12225,"à¥¨à¥¦à¥«à¥©":12226,"Ġ150":12227,"TML":12228,"omatropin":12229,":à¥¤":12230,"ET":12231,"FLD":12232,"Hjk":12233,"Owc":12234,"XbKD":12235,"jVQ":12236,"Ãª":12237,"Ġà¤¸à¤ĩ":12238,"à¤īà¤¸à¤¹à¤°":12239,"Ġà¤ĸà¤µà¤°à¤²":12240,"à¤¯à¤°à¤«":12241,"Ġà¥¯à¥¨à¥¦":12242,"à¤°à¤®à¤£à¤ª":12243,"Ġà¤ĩà¤¤à¤°à¤ķ":12244,"arly":12245,"Ġà¥¨à¥§à¥¯":12246,"Ġà¥¨à¥ªà¥¯":12247,"Ġà¤ħà¤µà¤¸à¤°à¤¸à¤®":12248,"à¤®à¤£à¤µ":12249,"Ġà¤·à¤£":12250,"ĠWindows":12251,"Ġà¤²à¤¸à¤ıà¤¨":12252,"ĠCommun":12253,"ä¸Ń":12254,"***":12255,"Ġ2071":12256,"ClXbKD":12257,"avaScript":12258,"FAIpQLScG":12259,"FLDs":12260,"HjkFLDs":12261,"OwcClXbKD":12262,"jVQd":12263,"OwcClXbKDo":12264,"ls":12265,"à¤°à¤°à¤²":12266,"à¤¹à¤¸à¤²":12267,"à¤ªà¤¤à¤°":12268,"Ġà¤°à¤ª":12269,"Ġà¤¨à¤īà¤¡":12270,"à¤·à¤¡":12271,"à¤§à¤§":12272,"à¤¥à¤°à¤²":12273,"à¤ļà¤¤à¤¤":12274,"Ġà¤¬à¤¨à¤²":12275,"à¤°à¤¬à¤¸":12276,"à¤¡à¤ķà¤¨":12277,"Ġà¤Ĩà¤ĩà¤ĵà¤¸":12278,"à¤Łà¤¬à¤²à¤ħà¤¨":12279,"orth":12280,"Ġlong":12281,"Ġaward":12282,"Ð°Ð»Ð¸":12283,"à¥§à¥§à¥§":12284,"Ġà¤Ĩà¤®à¤¨à¤°à¤¸":12285,"Ġ1996":12286,"Ġà¥¤)\"":12287,"ĠShow":12288,"********":12289,"Ġà¤°à¤¹à¤¨à¤¸à¤¹à¤¨à¤®":12290,"FI":12291,"MIS":12292,"div":12293,"fer":12294,"à¤°Tags":12295,"à¤²à¤ľà¤¨":12296,"à¤²à¤ĺà¤°à¤ķ":12297,"à¤ªà¤¦à¤¨":12298,"à¤Ĺà¤¨à¤¬":12299,"Ġà¤µà¤¤à¤¨":12300,"Ġà¤Ĩà¤Ĺà¤°":12301,"à¤ļà¤¯à¤®":12302,"à¤¸à¤ķà¤¸à¤¹":12303,"à¤ªà¤¨à¤°à¤¤":12304,"à¤µà¤¨à¤ļà¤ķ":12305,"à¥ĭ,âĢľ":12306,"à¤ľà¤ķà¤¸":12307,"Ġà¤ķà¤²à¤¶à¤ķ":12308,"à¤¨à¤ªà¤¶":12309,"Ġà¤Īà¤µ":12310,"Ġà¥§à¥®à¥Ńà¥§":12311,"Ġà¤®à¤¦à¤¤à¤®":12312,"icon":12313,"ĠIP":12314,"ĠÐ¸Ð·":12315,"ITCO":12316,"Ġ1980":12317,"Ð¾ÑĢÐ¼":12318,"ĠÑĢÐ°Ð·":12319,"Ġdiff":12320,"Sunday":12321,"à¤µà¤¯à¤ķà¤°":12322,"Ġà¤Ĺà¤Īà¤¨":12323,"à¤Łà¤°à¤¤":12324,"Ġà¤²à¤µà¤ľ":12325,"à¤ĩà¤ľà¤¸":12326,"Ġà¤ħà¤¨à¤¦":12327,"à¤Ļà¤Ńà¤¨":12328,"à¤¸à¤®à¤°à¤¶à¤®à¤¶":12329,"Ġà¤¡à¤°à¤®":12330,"Ġà¤¡à¤¨à¤ķ":12331,"Ġà¤¬à¤°à¤¨":12332,"Ġà¤Ķà¤¸":12333,"à¤ļà¤ķà¤¸à¤®":12334,"à¤¸à¤¹à¤°à¤¬":12335,"à¤ĩà¤®à¤¸à¤²":12336,"Ġline":12337,"iti":12338,"ĠAiico":12339,"ĠCard":12340,"Ġà¤Ĺà¤ıà¤ľà¤¸":12341,"Ð°Ñİ":12342,"à¥§à¥§à¥Ń":12343,"Ġbo":12344,"ĠKH":12345,"à¥į)à¥¤":12346,"ãĤĮ":12347,"ÐĴ":12348,"å¥":12349,"à¤¯à¤°à¤¹":12350,"Ġà¤ķà¤Łà¤¨":12351,"à¤ľà¤¬à¤ľ":12352,"Ġà¤²à¤ľà¤®":12353,"à¤ĸà¤²à¤¤":12354,"à¥§à¥¦à¥¦à¥¦":12355,"à¤¸à¤¨à¤Ń":12356,"Ġà¤ľà¤¸à¤ª":12357,"Ġà¤ħà¤®à¤°à¤²":12358,"à¤ľà¤¸à¤ľ":12359,"Ġà¥§à¥¯à¥¦à¥®":12360,"à¥ĩà¥¤'":12361,"Ġà¥¨à¥§à¥¬":12362,"Ġà¤¹à¤²à¤ļ":12363,"Ġà¤ĸà¤¸à¤Ĩà¤°":12364,"ĠAc":12365,"Ġà¥©à¥ªà¥¦":12366,"à¥¨à¥«à¥®":12367,"rie":12368,"à¤¬à¤¢à¤ķ":12369,"ĠRel":12370,"ÐµÐ¿":12371,"ĠØ³":12372,"âĢ¦âĢ¦âĢ¦âĢ¦âĢ¦âĢ¦âĢ¦âĢ¦":12373,"mà¤®":12374,"yahoo":12375,"à¤ªà¤ħà¤ĺ":12376,"à¤µà¤ľà¤²":12377,"Ġà¤ķà¤ķà¤ª":12378,"Ġà¤¬à¤·":12379,"à¤ļà¤ªà¤Łà¤ķ":12380,"à¤¡à¤¸à¤ķ":12381,"à¤īà¤ķà¤²":12382,"à¤¯à¤®à¤Ń":12383,"Ġà¤ļà¤²à¤ħà¤ļà¤²":12384,"à¤ķà¤°à¤£à¤ħà¤¨":12385,"Ġà¤ļà¤°à¤Ļ":12386,"Ġ2048":12387,"à¤µà¤¶à¤°":12388,"ica":12389,"à¤¤à¤µà¤¨à¤¸":12390,"ĠDPR":12391,"ĠTO":12392,"Ġà¤Ĩà¤¸à¤«":12393,"Ġnk":12394,"Ġhigh":12395,"ĠGAM":12396,"à¤¨à¤¯à¤¨à¤ªà¤¤":12397,"artment":12398,"people":12399,"ESS":12400,"ification":12401,"App":12402,"Î¹":12403,"çľ":12404,"ĠĠĊ":12405,"ĠÑĦ":12406,"à¤¾âĢĿ,":12407,"à¤ıà¤¯à¤¤":12408,"Ġà¤¦à¤²à¤¬à¤²":12409,"Ġà¤ıà¤ķà¤¤à¤®":12410,"à¤·à¤ķà¤¸à¤¹":12411,"Ġà¤ıà¤®à¤«":12412,"à¤łà¤ķà¤¦":12413,"à¤¯à¤¯à¤¨à¤¸à¤®":12414,"à¤ĺà¤°à¤ľà¤Ĺ":12415,"Ġà¤ľà¤¬à¤ľ":12416,"Ġà¤Ĩà¤ļà¤°à¤£à¤²":12417,"Ġà¥¨à¥¬à¥ª":12418,"ĠSem":12419,"Ġà¤®à¤Ļà¤¸":12420,"ille":12421,"à¤ıà¤«à¤Ĩà¤°":12422,"ĠâĢ¦âĢ¦":12423,"overn":12424,"Ġ41":12425,"à¥¦à¥ªà¥ª":12426,",âĢĿâĢĵ":12427,"ĠDevelopment":12428,"ITCOIN":12429,"LGCDP":12430,"World":12431,"yd":12432,"à¤¾_":12433,"à¤°à¤«à¤¤":12434,"à¤°à¤ĺà¤°":12435,"Ġà¤Ĩà¤Ŀ":12436,"Ġà¤ľà¤¤à¤¨":12437,"à¤Īà¤Ĺà¤°":12438,"à¤łà¤¸à¤²":12439,"à¤°à¤¹à¤£à¤²":12440,"Ġà¤īà¤ªà¤ľà¤²":12441,"à¤·à¤£à¤¤":12442,"à¤¯à¤°à¤«à¤ķ":12443,"à¤µà¤®à¤£":12444,"Ġà¤Ĳà¤¨à¤¬à¤®":12445,"Ġ---------":12446,"à¤īà¤¦à¤Ľà¤¨":12447,"Ġà¥¨à¥¨à¥®":12448,"ita":12449,"ĠDep":12450,"ĠMet":12451,"ĠRob":12452,"!!!!":12453,"ĠUpd":12454,"Ġgroup":12455,"duct":12456,"ĠQual":12457,"à¤¦à¤¶à¤°à¤¥à¤ļà¤¨":12458,"-âĢĺ":12459,"ME":12460,"hus":12461,"å¼":12462,"çĽ":12463,"Ġum":12464,"Ġà¤¸à¤µà¤°":12465,"à¤µà¤Ĺà¤°":12466,"à¤Łà¤ħà¤ĺ":12467,"à¥Ī?":12468,"à¤ıà¤¹à¤°":12469,"à¤ľà¤®à¤¤":12470,"à¤¬à¤Īà¤²":12471,"à¤¬à¤®à¤¬":12472,"à¤§à¤Ĺà¤®":12473,"à¤Ńà¤°à¤¸":12474,"Ġà¤ĸà¤ªà¤Ł":12475,"Ġà¤ıà¤ļà¤²":12476,"à¤¾à¤ģà¥Īà¤Ĥ":12477,"Ġà¤ľà¤¨à¤¦à¤¬":12478,"Ġ:âĢĵ":12479,"Ġà¥§à¥ªà¥¦à¥¦":12480,"Ġà¤¶à¤¹à¤°à¤¸":12481,"à¤ĩà¤ľà¤°à¤ķ":12482,"stit":12483,"à¤¤à¤°à¤®à¤¨":12484,"ĠÐĶ":12485,"ĠTulsipur":12486,"ĠTrade":12487,"ames":12488,"à¥¨à¥«à¥¦":12489,"Ġ56":12490,"Ġ43":12491,"Ġà¤Ķà¤¸à¤¤à¤Ńà¤¨":12492,"opati":12493,"FB":12494,"Lire":12495,"go":12496,"vo":12497,"yn":12498,"è¯":12499,"à¤ľà¤Ĺà¤°":12500,"à¤īà¤Ńà¤°":12501,"Ġà¤¯à¤¸à¤ħà¤Ĺ":12502,"Ġà¤¸à¤¹à¤®":12503,"à¤¾,à¥ĩ":12504,"à¤¡à¤ķà¤¹à¤°":12505,"à¤Ĺà¤²à¤Ł":12506,"à¤ªà¤£à¤µ":12507,"à¤¯à¤Łà¤¨à¤¨":12508,"Ġà¥¨à¥¯à¥©":12509,"à¤ĩà¤¡à¤¹à¤°":12510,"ĠSm":12511,"ĠCE":12512,"Ġab":12513,"Ġà¤¦à¤®à¤¨à¤®":12514,"Ġà¤®à¤¦à¤¨à¤¸":12515,"à¥¦à¥¯à¥Ń":12516,"ĠExc":12517,"urgery":12518,"500":12519,"ais":12520,
[...]
